'
+
-
--
-</w>
-अमेर
-अल
-आ
-इ
-उ
-उज
-उजाला</w>
-उप
-ए
-एकादशी</w>
-क
-कक्ष/M</w>
-कपाली</w>
-काल/M</w>
-केंद्र</w>
-को
-कोष</w>
-क्र
-क्रम</w>
-क्रीम</w>
-क्रीड़ा</w>
-क्षेत्र/M</w>
-ख
-खाता</w>
-ग
-गृह</w>
-ग्रस्त</w>
-ग्रहण</w>
-च
-चतुर्दशी</w>
-ज्ञान</w>
-ज्वर</w>
-झ
-ट
-त
-तंत्र</w>
-द
-दायक</w>
-दीर्घ
-दु
-देश
-ध
-धर्म</w>
-न
-नार
-नीति</w>
-न्याय
-न्यायालय</w>
-प
-पंजर</w>
-पका</w>
-पट
-पट्ट</w>
-पत्र/M</w>
-पदार्थ</w>
-पर
-परस</w>
-पानी</w>
-पार
-पारदर्शी</w>
-पि
-पिछ
-पी
-पीछ
-पु
-पुरा
-पुष्प</w>
-पुस्त
-पुस्तिका/K</w>
-प्र
-प्रति
-प्रतिरोपण</w>
-प्रद
-प्रदेश</w>
-प्राच
-प्राचीन</w>
-प्राप्त</w>
-पड़
-ब
-बग
-बह
-बहिर
-बहिरंग</w>
-बार</w>
-बाहर</w>
-बि
-भ
-भंग</w>
-भवन</w>
-भार
-भारत
-भारतीय/M</w>
-म
-मुद्रा</w>
-या
-यात्री</w>
-रा
-लघु</w>
-लाइनर</w>
-व
-वचन</w>
-वस्तु</w>
-वासी/O</w>
-वि
-विक
-विकार</w>
-विजय</w>
-विज्ञान/M</w>
-विद्य
-विद्या</w>
-विरा
-विरोधी</w>
-विवाह</w>
-विश्
-विश्वास
-विश्वासी/O</w>
-विष
-वै
-व्य
-व्यव
-व्यवहार/M</w>
-व्यापार</w>
-व्यास</w>
-श
-शक्ति/PQ</w>
-शा
-शि
-शै
-स
-सं
-संबंधी</w>
-सम्
-सम्मान</w>
-सम्मोहिता</w>
-सह
-सि
-सिद्ध
-सिद्धांत</w>
-सु
-स्थल</w>
.
..
.</w>
/
/0
/3
/34
/348
/348sTv
/348sTvED</w>
/348sTvFED</w>
/8
/834sTv
/834sTvED</w>
/834sTvLMFED</w>
/8ED
/8ED34sTv</w>
/8ED34sTvLM</w>
/8EDsTv</w>
/8FED
/8FED34sTv</w>
/8sTv
/8sTvED</w>
/8sTvFED</w>
/8sTvLMED</w>
/8sTvLMFED</w>
/D</w>
/E
/E</w>
/ED</w>
/EM</w>
/EsT</w>
/EsTM</w>
/F
/F8
/F8ED
/F</w>
/FD
/FD</w>
/FDLM</w>
/FDM</w>
/FDsTM</w>
/FE
/FE</w>
/FED
/FED</w>
/FEDM</w>
/FEDsT</w>
/FEDsTM</w>
/FEM</w>
/FEsT</w>
/FEsTM</w>
/FM</w>
/FsT</w>
/FsTM</w>
/H</w>
/L
/LM</w>
/LME</w>
/LMF
/M
/M</w>
/MD</w>
/ME
/ME</w>
/MED</w>
/MEV</w>
/MF
/MF</w>
/MFD</w>
/MFE</w>
/MFED</w>
/MV</w>
/O</w>
/P
/PQ
/PQ</w>
/Q
/QM</w>
/QsTM</w>
/R
/R</w>
/U
/Uq
/V
/V</w>
/VM</w>
/VME</w>
/f
/f</w>
/q
/qM</w>
/rsT</w>
/s8Tv
/sT
/sT</w>
/sTE</w>
/sTF
/sTF</w>
/sTFE</w>
/sTFED</w>
/sTLM</w>
/sTM
/sTM</w>
/sTME</w>
/sTMF
/sTMF</w>
/sTMFD</w>
/sTMFE</w>
/v
/x
/xy
/yx
/yxM</w>
0
3
34sTv
34sTv</w>
34sTvLM</w>
4
4sTv
4sTv</w>
5
7
8
</w>
A
A</w>
AGCB34sTv</w>
AGCB</w>
AI
AIGC</w>
B
B</w>
C
C</w>
CB</w>
CI
CI34sTv</w>
CI</w>
D
D</w>
E
E</w>
ED
ED</w>
EM</w>
F
FED
FED</w>
G
G34sTv</w>
G</w>
GC
GC</w>
GCB
GCB34sTv
GCB34sTv</w>
GCB34sTvA</w>
GCB</w>
H
H</w>
I
IC</w>
IGC</w>
IGCB</w>
J
JK
JK</w>
K
K</w>
KS
L
LM
LM</w>
LMED
LMED</w>
LMF
LMFED</w>
M
M</w>
ME</w>
MF
N
O
O4sTv</w>
O</w>
P
Q
QM</w>
R
S
T
U
U</w>
Uq
V
V</w>
Y
_
_वाला</w>
f
g
j
q
q</w>
r
rsT</w>
s
s8
s8T
s8Tv
sT
sT</w>
sTM</w>
sTv
sTv</w>
v
v</w>
x
y
y</w>
yx
ँ
ँ</w>
ँका/G</w>
ँग
ँग</w>
ँद
ँध
ं
ं</w>
ंक
ंक/sTE</w>
ंक</w>
ंकन</w>
ंकित</w>
ंकु
ंकुश</w>
ंकृत
ंग
ंग/M</w>
ंग/sT</w>
ंग</w>
ंगत/F</w>
ंगम</w>
ंगा</w>
ंगिक</w>
ंगी</w>
ंगे
ंगड़</w>
ंघ
ंघन</w>
ंच
ंच</w>
ंचक</w>
ंचन
ंचन/M</w>
ंचन</w>
ंचनीय</w>
ंचित</w>
ंछित</w>
ंज
ंज</w>
ंजक</w>
ंजन
ंजन/M</w>
ंजन</w>
ंजनीय</w>
ंजर/M</w>
ंजर</w>
ंजस
ंजा</w>
ंजित</w>
ंजी</w>
ंट
ंट/M</w>
ंट</w>
ंटक</w>
ंटि
ंटिटी</w>
ंटिफ़िकेशन</w>
ंटी
ंठ
ंठ</w>
ंठन/M</w>
ंठित</w>
ंड
ंड/M</w>
ंड</w>
ंडक्
ंडक्टर</w>
ंडर</w>
ंडा</w>
ंडि
ंडिक</w>
ंडित</w>
ंड्रिया</w>
ंत
ंत/M</w>
ंत</w>
ंतक</w>
ंतर</w>
ंतव्य</w>
ंता</w>
ंति
ंती</w>
ंतीन</w>
ंतु
ंतु</w>
ंत्र
ंत्र/M</w>
ंत्र</w>
ंत्रण</w>
ंथ
ंथ</w>
ंथन/M</w>
ंथन</w>
ंथित/sT</w>
ंद
ंद/E</w>
ंद</w>
ंदन</w>
ंदित</w>
ंदिर</w>
ंदी</w>
ंदु</w>
ंदेश</w>
ंद्र
ंद्र</w>
ंद्रिय</w>
ंद्रीय</w>
ंध
ंध</w>
ंध्य</w>
ंध्र</w>
ंप
ंप</w>
ंपर
ंपित</w>
ंब
ंब</w>
ंबर</w>
ंबला</w>
ंबा
ंबी</w>
ंभ
ंभ</w>
ंयित</w>
ंर
ंश
ंश/M</w>
ंश</w>
ंशित</w>
ंष्ट्र
ंस
ंस/M</w>
ंस</w>
ंसी</w>
ंस्त</w>
ंह</w>
ंड़</w>
ः
ः</w>
अ
अ-
अ-देश
अ-देशभ
अ-देशभक्त</w>
अ-न
अ-नख</w>
अ-नति</w>
अ-नि
अ-निख</w>
अ-परस</w>
अ-भू
अ-भूस्थिर</w>
अ-लो
अ-लोभी</w>
अ-सु
अ-सुप्र
अ-सुप्रभाव्य</w>
अ/U
अ/UH
अ/UHsT
अ/UHsTV</w>
अँ
अँ/U
अँ/U</w>
अँक
अँक/8sTvFED</w>
अँकर
अँकरा/G</w>
अँकराया</w>
अँकरास</w>
अँकरोर
अँकरोर/FE</w>
अँकरौरी</w>
अँकव
अँकवा
अँकवा/734sTv</w>
अँकवाइयो</w>
अँकवाई/O</w>
अँकवाया</w>
अँकवार
अँकवार/s8Tv
अँकवार/s8TvED</w>
अँकवारियो</w>
अँकवैया</w>
अँका
अँका/7AGCB34sTv</w>
अँकाइयो</w>
अँकाई/O</w>
अँकाव
अँकाव/D</w>
अँकु
अँकुर
अँकुर/8sTvFED</w>
अँकुरा/734sTv
अँकुरा/734sTvAGCB</w>
अँकुराइयो</w>
अँकुरियो</w>
अँकुशी
अँकुशीदार</w>
अँकुसी</w>
अँकुसो
अँकुसों</w>
अँकुड़
अँकुड़/MFED</w>
अँकुड़ियाँ</w>
अँकुड़ेदार</w>
अँको
अँकोर
अँकोर/8sTvLMED</w>
अँकोरियो</w>
अँकोड़ा/C</w>
अँकौर</w>
अँकड़
अँकड़/8FED34sTv</w>
अँकड़ाहट</w>
अँकड़ियो</w>
अँख
अँख</w>
अँखफोड़
अँखफोड़वा</w>
अँखमू
अँखमूँद
अँखमूँदनी</w>
अँखिय
अँखियन</w>
अँखिया/JK
अँखिया/JKS
अँखिया/JKS</w>
अँखु
अँखुआ
अँखुआ</w>
अँखुआँ</w>
अँखुआना</w>
अँखुआया</w>
अँखुयाई</w>
अँखोड़ा</w>
अँखौ
अँखौड़ा</w>
अँखड़ी</w>
अँग
अँगऊँ</w>
अँगडाई</w>
अँगन
अँगनई</w>
अँगना
अँगनाई</w>
अँगनैया</w>
अँगर
अँगरख
अँगरखा/IC</w>
अँगरते</w>
अँगरना</w>
अँगराइयो</w>
अँगरे
अँगरेखा</w>
अँगरेज
अँगरेजिन</w>
अँगरेजियत</w>
अँगरेजीकृत</w>
अँगरेज़ी</w>
अँगलेट</w>
अँगवार
अँगवारा</w>
अँगाकरि</w>
अँगार
अँगारखा</w>
अँगिका</w>
अँगिया/JK</w>
अँगिरा</w>
अँगीठ
अँगीठ/MFED</w>
अँगीठा/
अँगीठा/AIGC</w>
अँगु
अँगुठी</w>
अँगुरिया</w>
अँगुल
अँगुल/E</w>
अँगुलित
अँगुलित्राण</w>
अँगुलियाँ</w>
अँगुलियों</w>
अँगुली-
अँगुली-छाप
अँगुली-छाप</w>
अँगुली-छापइस</w>
अँगुस
अँगुसाना</w>
अँगुसी</w>
अँगू
अँगूठ
अँगूठा/M
अँगूठा/MAIGC</w>
अँगूठाछाप</w>
अँगूठियाँ</w>
अँगूरी</w>
अँगूरों</w>
अँगे
अँगेजना</w>
अँगेट</w>
अँगेठा/G</w>
अँगेथ
अँगेथू</w>
अँगो
अँगोछ
अँगोछ/834sTvLMFED</w>
अँगोछियो</w>
अँगोज
अँगोजना</w>
अँगोर
अँगोरियो</w>
अँगोला</w>
अँगौ
अँगौंग
अँगौंगा/C</w>
अँगौर
अँगौरिया/JK</w>
अँग्र
अँग्रे
अँग्रेज
अँग्रेजवाद</w>
अँग्रेजियत</w>
अँग्रेजी</w>
अँग्रेजों</w>
अँग्रेज़
अँग्रेज़वाद</w>
अँग्रेज़ियत/LM</w>
अँग्रेज़ीदा
अँग्रेज़ीदाँ</w>
अँग्रेज़ीदाओं</w>
अँग्विला</w>
अँगड़
अँगड़ा/734sTv</w>
अँगड़ाइयो</w>
अँगड़ाई/O</w>
अँघ
अँघड़ा</w>
अँच
अँचर
अँचरा</w>
अँचल
अँचल/F</w>
अँचव
अँचव/8FED34sTv</w>
अँचवा/7
अँचवा/7GCB34sTvA</w>
अँचवाइयो</w>
अँचवियो</w>
अँचार</w>
अँज
अँजली</w>
अँजवाइयो</w>
अँजा/734sTv</w>
अँजाइयो</w>
अँजुरी</w>
अँजुली</w>
अँजोर
अँजोर/8sTvLMFED</w>
अँजोरिया/B</w>
अँट
अँटवाइयो</w>
अँटा/7AGCB34sTv</w>
अँटाइयो</w>
अँटिय
अँटिया/7JK
अँटिया/7JK34sTv
अँटिया/7JK34sTvB</w>
अँटियाइयो</w>
अँटौ
अँटौत
अँटौतल</w>
अँठ
अँठई</w>
अँठल
अँठला/7G34sTv</w>
अँठी</w>
अँठुल
अँठुली
अँठुली</w>
अँठुलीदार</w>
अँड
अँडर
अँडर/8EDsTv</w>
अँडराई</w>
अँडरान
अँडराना/C</w>
अँडराया</w>
अँडरियो</w>
अँडु
अँडुआ
अँडुआ</w>
अँडुआते</w>
अँडुआना</w>
अँडुआरी</w>
अँडुए</w>
अँत
अँतर
अँतरा/G</w>
अँतराना</w>
अँतरिया</w>
अँतरौटा</w>
अँतर्ग
अँतर्गडु</w>
अँतड़
अँतड़ियाँ</w>
अँतड़ियों</w>
अँतड़ी/54sTv</w>
अँथऊ</w>
अँद
अँदरस
अँदरसा/IC</w>
अँदा
अँदा/734sTv</w>
अँदाइयो</w>
अँदाज
अँदाज/834sTvED</w>
अँदाजियो</w>
अँदाज़</w>
अँध
अँधरा/G</w>
अँधरिया</w>
अँधला</w>
अँधा</w>
अँधिय
अँधिया
अँधियार
अँधियार/FEDM</w>
अँधियारा/GCI
अँधियारा/GCIA</w>
अँधियाला</w>
अँधियाव</w>
अँधेर
अँधेर-खाता</w>
अँधेर/8sTvLMFED</w>
अँधेरा
अँधेरा-उजाला</w>
अँधेराफ़
अँधेराफ़ाख़
अँधेराफ़ाख़्
अँधेराफ़ाख़्ता</w>
अँधेरिया/B</w>
अँधोटी</w>
अँधौरी</w>
अँब
अँबती</w>
अँबराई</w>
अँबारी</w>
अँबास
अँबास/834sTvED</w>
अँबासियो</w>
अँबिया/JK</w>
अँबु
अँबुआ</w>
अँबो
अँबोती</w>
अँभौरी</w>
अँला</w>
अँसु
अँसुआ</w>
अँसुवन</w>
अँग़
अँग़ेज़</w>
अँड़
अँड़सना</w>
अँड़िय
अँड़िया/734sTv</w>
अँड़ियाइयो</w>
अँड़ैल</w>
अं
अं</w>
अंक
अंक-
अंक-ज्योतिष</w>
अंक-त
अंक-तालिका</w>
अंक-पट्ट</w>
अंक-पत्र/M</w>
अंक-फलक</w>
अंक-विद्या</w>
अंक-वृद्धि</w>
अंक-शा
अंक-शास्त्र/M</w>
अंक-सूची/NO</w>
अंक/M</w>
अंक/ME</w>
अंकक/M</w>
अंककार</w>
अंकगण
अंकगणित
अंकगणित/M</w>
अंकगणितज्ञ</w>
अंकगणितीय</w>
अंकगत</w>
अंकज्योतिष</w>
अंकट
अंकटा
अंकटाड</w>
अंकटी</w>
अंकतंत्र</w>
अंकताल
अंकतालिका</w>
अंकति</w>
अंकधार
अंकधारण/M</w>
अंकन
अंकनपद्धति</w>
अंकनिर्
अंकनिर्धारण</w>
अंकनीय</w>
अंकप</w>
अंकपट्ट
अंकपट्ट/E</w>
अंकपत्र/M</w>
अंकपत्रक</w>
अंकपल
अंकपलई</w>
अंकपा
अंकपालि</w>
अंकपालिका</w>
अंकपाश/M</w>
अंकपूरण</w>
अंकप्र
अंकप्रदान</w>
अंकफलक</w>
अंकबद्धन</w>
अंकभाक</w>
अंकम</w>
अंकमा
अंकमाल</w>
अंकमुख/M</w>
अंकयोग/M</w>
अंकरा/G</w>
अंकल
अंकलंक</w>
अंकलोप</w>
अंकवार
अंकवारना</w>
अंकविद्या/JK</w>
अंकवृद्धि</w>
अंकशायिनी</w>
अंकशायी</w>
अंकशास्त्र
अंकशास्त्र/EM</w>
अंकस/E</w>
अंकसूची/NO</w>
अंका
अंकां
अंकांक</w>
अंकाई</w>
अंकाक्षर</w>
अंकातर/M</w>
अंकाति</w>
अंकानुसार</w>
अंकारा</w>
अंकालिंग
अंकालिंगन</w>
अंकाव</w>
अंकावत
अंकावतार/M</w>
अंकास</w>
अंकि
अंकिक/FE</w>
अंकिचन
अंकिचनता</w>
अंकित/sTMF</w>
अंकितक/M</w>
अंकिता
अंकिताणु</w>
अंकित्र</w>
अंकिनी</w>
अंकिल</w>
अंकिश्त</w>
अंकीकरण/M</w>
अंकीय</w>
अंकु
अंकुआ</w>
अंकुर
अंकुर/M</w>
अंकुरक</w>
अंकुरण/M</w>
अंकुरणशील</w>
अंकुरना</w>
अंकुरा
अंकुरात
अंकुराता/G</w>
अंकुराया</w>
अंकुरार्बुद</w>
अंकुरावली</w>
अंकुरित
अंकुरित/M</w>
अंकुरितयौवना</w>
अंकुरीय</w>
अंकुरोस</w>
अंकुल
अंकुलास्थि</w>
अंकुश
अंकुश-
अंकुश-कृमि</w>
अंकुश-निर
अंकुश-निरंकुश</w>
अंकुश/MFE</w>
अंकुशकृमि</w>
अंकुशग्रह</w>
अंकुशधारी</w>
अंकुशहीन/sT</w>
अंकुशा
अंकुशाकार</w>
अंकुशित</w>
अंकुस/E</w>
अंकुसर
अंकुसरट</w>
अंकुज़</w>
अंकुड़
अंकुड़ा</w>
अंकुड़ियों</w>
अंकुड़ेदार</w>
अंकूष</w>
अंकेक्ष
अंकेक्षक/M</w>
अंकेक्षा</w>
अंकेक्षित/M</w>
अंको</w>
अंकोट</w>
अंकोर/E</w>
अंकोरना</w>
अंकोल
अंकोल</w>
अंकोलिका</w>
अंकोड़ा</w>
अंक्य/M</w>
अंकड़/F</w>
अंख
अंखड
अंखडनीय</w>
अंखिया</w>
अंखुआ
अंखुआ</w>
अंखुआं</w>
अंखुआया</w>
अंग
अंग-
अंग-घात</w>
अंग-तरंग</w>
अंग-प्र
अंग-प्रतिरोपण</w>
अंग-प्रत्यंग</w>
अंग-भंग</w>
अंग-रक्षा</w>
अंग-व
अंग-वि
अंग-विकार</w>
अंग-विक्ष
अंग-विक्षीप</w>
अंग-विक्षेप</w>
अंग-विच्छ
अंग-विच्छेद</w>
अंग-स
अंग-सं
अंग-संचालन</w>
अंग-संबंधी</w>
अंग-सम्बन्धी</w>
अंग/sT
अंग/sTv
अंग/sTvMF
अंग/sTvMFED</w>
अंग</w>
अंगक</w>
अंगकर्म</w>
अंगक्रिया</w>
अंगगति</w>
अंगग्रह</w>
अंगघ
अंगघात
अंगघात/M</w>
अंगघात</w>
अंगघातित</w>
अंगचारी</w>
अंगचाल
अंगचालन/M</w>
अंगचित्र</w>
अंगचेष्टा/JK</w>
अंगच्छेद
अंगच्छेद/M</w>
अंगच्छेदक/M</w>
अंगच्छेदन</w>
अंगछ
अंगछेद
अंगछेद</w>
अंगछेदक</w>
अंगछेदन</w>
अंगछेदित</w>
अंगज
अंगज/FDM</w>
अंगजा
अंगजाई</w>
अंगजात/F</w>
अंगजाया</w>
अंगज्वर</w>
अंगडाई</w>
अंगत
अंगतारा</w>
अंगति</w>
अंगतुक</w>
अंगत्र
अंगत्रा
अंगत्राण/M</w>
अंगद
अंगद/FM</w>
अंगददेव</w>
अंगदर्शक</w>
अंगदर्शन</w>
अंगदर्शी</w>
अंगदान
अंगदान/M</w>
अंगदानिकी</w>
अंगदीप्ति</w>
अंगदेश/M</w>
अंगद्वार/M</w>
अंगद्वी
अंगद्वीप/M</w>
अंगध</w>
अंगधारी</w>
अंगन
अंगन/FDM</w>
अंगना
अंगनाई/O</w>
अंगनाजन</w>
अंगनाप्र
अंगनाप्रिय</w>
अंगनाश</w>
अंगनिर्
अंगनिर्माण
अंगनिर्माण</w>
अंगनिर्माणिकी</w>
अंगनैया</w>
अंगपा
अंगपालि</w>
अंगपालिका</w>
अंगपाली</w>
अंगपीड़ा</w>
अंगप्र
अंगप्रत्यंग</w>
अंगबद्ध</w>
अंगबद्धन</w>
अंगभ
अंगभंग
अंगभंग/ME</w>
अंगभंगिमा/JK</w>
अंगभीर
अंगभीर/sT</w>
अंगभू
अंगभू/sT</w>
अंगभूत/F</w>
अंगम
अंगमर्द
अंगमर्द/E</w>
अंगमर्दक
अंगमर्दक/FM</w>
अंगमर्दन/M</w>
अंगमर्ष/M</w>
अंगमार/E</w>
अंगमुद्रा</w>
अंगय
अंगयष्टि</w>
अंगयुक्तता</w>
अंगयोजक/M</w>
अंगर
अंगरंगी</w>
अंगरंजित</w>
अंगरक्ष
अंगरक्षा/G</w>
अंगरक्षिका</w>
अंगरक्षिणी</w>
अंगरखा</w>
अंगराग
अंगरागव्य</w>
अंगरी</w>
अंगरुह</w>
अंगरे
अंगरेज
अंगरेज/ME</w>
अंगरेजिन</w>
अंगरेज़
अंगरेज़/M</w>
अंगल
अंगलिपि</w>
अंगलेट</w>
अंगलेप</w>
अंगल्यू
अंगल्यून</w>
अंगव
अंगवर्
अंगवर्णन</w>
अंगवस्त्र
अंगवस्त्र</w>
अंगवस्त्रं</w>
अंगवाचक</w>
अंगवाची</w>
अंगवि
अंगविक
अंगविकल</w>
अंगविकार</w>
अंगविकास</w>
अंगविकृति</w>
अंगविक्षे
अंगविक्षेप/M</w>
अंगविच्छ
अंगविच्छेद</w>
अंगविच्छेदन</w>
अंगविज्ञान</w>
अंगविद</w>
अंगविद्य
अंगविद्य/F</w>
अंगविद्या/JK</w>
अंगविभ्र
अंगविभ्रम/M</w>
अंगवृद्धि</w>
अंगश
अंगशास्त्र</w>
अंगशुद्धि</w>
अंगशोष</w>
अंगस
अंगसं
अंगसंको
अंगसंकोच</w>
अंगसंग
अंगसंग/ME</w>
अंगसंगिनी</w>
अंगसंचालन</w>
अंगसंधि</w>
अंगसंबंधी</w>
अंगसंरक्षी</w>
अंगसखा</w>
अंगसख्य</w>
अंगसम्बन्धी</w>
अंगसि
अंगसिहरी</w>
अंगसेव
अंगसेवक/M</w>
अंगस्ट
अंगस्ट्रा
अंगस्ट्राम</w>
अंगहार
अंगहार</w>
अंगहारि</w>
अंगहीन/sT</w>
अंगा/IGCB</w>
अंगांक</w>
अंगांग
अंगांगि
अंगांगिभाव/M</w>
अंगांगी</w>
अंगाक
अंगाकरि</w>
अंगाकड़ी</w>
अंगाध
अंगाधिप
अंगाधिप/M</w>
अंगाधी
अंगाधीश/M</w>
अंगानु
अंगानुपात</w>
अंगानुभूति</w>
अंगाभ
अंगाभिन
अंगाभिनय</w>
अंगामी</w>
अंगार
अंगार/MFED</w>
अंगारक
अंगारक/M</w>
अंगारकरण</w>
अंगारकवार</w>
अंगारका
अंगारकाडी</w>
अंगारकाड़ी</w>
अंगारकीय</w>
अंगारण</w>
अंगारधानी</w>
अंगारपर्ण</w>
अंगारपा
अंगारपाचित</w>
अंगारपातन</w>
अंगारपुष्प/M</w>
अंगारपे
अंगारपेटी</w>
अंगारमंजरी</w>
अंगारमणि</w>
अंगारमती</w>
अंगारह</w>
अंगारा
अंगाराश्
अंगाराश्म/M</w>
अंगारिका/JK</w>
अंगारिणी</w>
अंगारित
अंगारित/FM</w>
अंगारीकरण</w>
अंगारीकृत</w>
अंगारोपण</w>
अंगारोस</w>
अंगाल
अंगालेपन</w>
अंगाह
अंगाहार</w>
अंगाड़
अंगाड़िया</w>
अंगि
अंगिका/JK</w>
अंगिया/JK</w>
अंगिर
अंगिर/MFD</w>
अंगिरस/M</w>
अंगिरस</w>
अंगिरा
अंगिरा</w>
अंगिरावृत</w>
अंगिरावृत्त</w>
अंगी
अंगीकरण/M</w>
अंगीकार
अंगीकार/M</w>
अंगीकार</w>
अंगीकारक</w>
अंगीकारना</w>
अंगीकार्य/sT</w>
अंगीकृत</w>
अंगीठा/G</w>
अंगीण</w>
अंगीभूत</w>
अंगीय</w>
अंगीवाचक</w>
अंगीवाची</w>
अंगु
अंगुठी</w>
अंगुर
अंगुरि</w>
अंगुरीय</w>
अंगुरीयक</w>
अंगुल
अंगुल/ME</w>
अंगुलप्रमाण</w>
अंगुला
अंगुलांक/M</w>
अंगुलाग्र</w>
अंगुलास्थि</w>
अंगुलि
अंगुलि-
अंगुलि-छाप</w>
अंगुलि/PQ</w>
अंगुलिका/JK</w>
अंगुलिचालन</w>
अंगुलिछाप
अंगुलिछाप/LM</w>
अंगुलित
अंगुलितोर
अंगुलितोरण/M</w>
अंगुलित्र/M</w>
अंगुलिनिर्देश</w>
अंगुलिमा
अंगुलिमाल/M</w>
अंगुलिमुद्रा/JK</w>
अंगुलियों</w>
अंगुलिवेष्ट
अंगुलिवेष्टन</w>
अंगुलीध
अंगुलीधानी</w>
अंगुलीय
अंगुलीय</w>
अंगुलीयंत्र</w>
अंगुलीयक</w>
अंगुलीयुक्त</w>
अंगुल्या
अंगुल्याकार</w>
अंगुल्यादेश</w>
अंगुश्
अंगुश्त
अंगुश्तन
अंगुश्तनर</w>
अंगुश्तनु
अंगुश्तनुमा</w>
अंगुश्तनुमाई</w>
अंगुश्तरी</w>
अंगुश्तान
अंगुश्तान/MFD</w>
अंगुष्ठ
अंगुष्ठ/M</w>
अंगुष्ठमात्र
अंगुष्ठमात्रक</w>
अंगुष्ठांक</w>
अंगुसा/G</w>
अंगू
अंगूठ
अंगूठा/IGC</w>
अंगूठाछाप</w>
अंगूठी/NO</w>
अंगूर
अंगूर/ME</w>
अंगूरर
अंगूररव्य</w>
अंगूरश
अंगूरशफा</w>
अंगूरशे
अंगूरशेफा</w>
अंगूराकार</w>
अंगूरिया</w>
अंगूरी</w>
अंगूरोस</w>
अंगूष</w>
अंगेज</w>
अंगेट</w>
अंगेज़
अंगेज़/M</w>
अंगो
अंगो-उ
अंगो-उपा
अंगो-उपांग
अंगो-उपांगों</w>
अंगों
अंगोंवाला/IGC</w>
अंगोच्छेद
अंगोच्छेदन/M</w>
अंगोछ
अंगोछ/FED</w>
अंगोछना</w>
अंगोट/M</w>
अंगोपा
अंगोपांग</w>
अंगोरा</w>
अंगोलन</w>
अंगोला
अंगोला-वासी/O</w>
अंगोला</w>
अंगोलाई</w>
अंगोलावास/0E</w>
अंगौ
अंगौंगा</w>
अंगौछ
अंगौछा</w>
अंगौरिया</w>
अंग्य</w>
अंग्र
अंग्रमै
अंग्रमैन्य
अंग्रमैन्यू</w>
अंग्रे
अंग्रेंजी</w>
अंग्रेज
अंग्रेज-रा
अंग्रेज-राजन
अंग्रेज-राजनी
अंग्रेज-राजनीति
अंग्रेज-राजनीतिज्ञ/M</w>
अंग्रेज/EM</w>
अंग्रेजवाद</w>
अंग्रेजिन</w>
अंग्रेजियत</w>
अंग्रेज़
अंग्रेज़/EM</w>
अंग्रेज़वाद</w>
अंग्रेज़िन</w>
अंग्रेज़ियत
अंग्रेज़ियत-विरोधी</w>
अंग्रेज़ियत/LM</w>
अंग्रेज़ी-ग
अंग्रेज़ी-गथिक</w>
अंग्रेज़ीदा
अंग्रेज़ीदाँ</w>
अंग्विला</w>
अंगड़
अंगड़-ख
अंगड़-खंगड़</w>
अंगड़</w>
अंगड़ख
अंगड़खंगड़</w>
अंगड़ाई</w>
अंगड़ाना</w>
अंघ
अंघस</w>
अंघानु
अंघानुयायी</w>
अंघिया</w>
अंघ्रि</w>
अंघ्रिप</w>
अंघड़ा</w>
अंच
अंच/M</w>
अंचकै
अंचकैं</w>
अंचति</w>
अंचती</w>
अंचल
अंचल/F</w>
अंचल/M</w>
अंचलहीन</w>
अंचला
अंचलाध
अंचलाधीश</w>
अंचलिक</w>
अंचलीय/sT</w>
अंचलेश्वर/ME</w>
अंचव
अंचवन/F</w>
अंचवाना</w>
अंचित
अंचित/sT</w>
अंचितनीय</w>
अंचितभ्र
अंचितभ्रू</w>
अंछ
अंछ/ME</w>
अंछर/M</w>
अंज
अंज/v
अंज/vE</w>
अंजन
अंजन/FE</w>
अंजन/FEDM</w>
अंजनक/M</w>
अंजनगिरि</w>
अंजनम</w>
अंजनरहित</w>
अंजनसार</w>
अंजनहारी</w>
अंजना
अंजनागिरि</w>
अंजनाद्रि</w>
अंजनाध
अंजनाधिका</w>
अंजनावती</w>
अंजनासुत</w>
अंजनि</w>
अंजनिका</w>
अंजनियार
अंजनियारी</w>
अंजनी
अंजनीन
अंजनीनंदन</w>
अंजनीपु
अंजनीपुत्र/M</w>
अंजब</w>
अंजबार</w>
अंजर
अंजर-पंजर</w>
अंजर/F</w>
अंजर</w>
अंजरप
अंजरपंजर</w>
अंजल/E</w>
अंजलि
अंजलि/PQ</w>
अंजलिका</w>
अंजलिप
अंजलिपुट</w>
अंजलिब
अंजलिबद्घत/F</w>
अंजलिबद्ध</w>
अंजलिबद्धन</w>
अंजव
अंजवाना</w>
अंजस/F</w>
अंजहा/G</w>
अंजही</w>
अंजान/FD</w>
अंजाम/M</w>
अंजि
अंजि</w>
अंजित</w>
अंजिष्ठ</w>
अंजिष्णु</w>
अंजी
अंजीर</w>
अंजीराकार</w>
अंजील</w>
अंजु
अंजुम/M</w>
अंजुमन
अंजुमन/M</w>
अंजुमनआ
अंजुमनआरा</w>
अंजुमने
अंजुमनेइ
अंजुमनेइस्
अंजुमनेइस्ला
अंजुमनेइस्लाम</w>
अंजुरी</w>
अंजुल
अंजुल/E</w>
अंजुलीय</w>
अंजू</w>
अंजॉ</w>
अंजोर/F</w>
अंजोरना</w>
अंझ
अंझा
अंझा</w>
अंझाझारा</w>
अंट
अंट-श
अंट-शंट</w>
अंटक
अंटकमय</w>
अंटना</w>
अंटबर</w>
अंटश
अंटशंट</w>
अंटसं
अंटसंट</w>
अंटा
अंटागु
अंटागुड़
अंटागुड़गुड़</w>
अंटाघ
अंटाघर</w>
अंटाना</w>
अंटार्कटिक/F</w>
अंटिया</w>
अंटियाना</w>
अंटी
अंटी-
अंटी-गु
अंटी-गुंट
अंटी-गुंटी</w>
अंटीगर/E</w>
अंटीतल</w>
अंटीबाज</w>
अंटीबाज़/E</w>
अंटीम
अंटीमार</w>
अंटै
अंटैइ</w>
अंट्रा</w>
अंठ
अंठल
अंठलाना</w>
अंठली</w>
अंठानबे</w>
अंठानबेवाँ</w>
अंठानवे</w>
अंठानवेवाँ</w>
अंड
अंड-कोष</w>
अंड-ब
अंड-बंड</w>
अंड/MFED</w>
अंडक
अंडकट
अंडकटाह</w>
अंडकव
अंडकवच</w>
अंडको
अंडकोश
अंडकोशयुक्त</w>
अंडकोशीय</w>
अंडकोष/M</w>
अंडकोषक</w>
अंडख
अंडखरब
अंडखरबूजा</w>
अंडखोल</w>
अंडग्रंथि</w>
अंडचक्र</w>
अंडज
अंडज/FDM</w>
अंडजनन</w>
अंडदल</w>
अंडप
अंडप</w>
अंडपीत</w>
अंडपु
अंडपुटी</w>
अंडप्र
अंडप्रसव</w>
अंडब
अंडबंड/M</w>
अंडमान
अंडमान/E</w>
अंडमानीज़</w>
अंडयुक्त</w>
अंडर
अंडर</w>
अंडरकोट</w>
अंडरग्र
अंडरग्राउंड</w>
अंडरग्रै
अंडरग्रैजु
अंडरग्रैजुए
अंडरग्रैजुएट</w>
अंडरटे
अंडरटेकर</w>
अंडरण</w>
अंडरना</w>
अंडरपे
अंडरपेड</w>
अंडरब
अंडरबॉ
अंडरबॉडी</w>
अंडरराइ
अंडरराइटिंग</w>
अंडरलाइ
अंडरलाइंड</w>
अंडरलाइन</w>
अंडरव
अंडरवर्
अंडरवर्ल्
अंडरवर्ल्ड
अंडरवर्ल्ड/M</w>
अंडरवा
अंडरवाटर</w>
अंडरवी
अंडरवीअर</w>
अंडरवीय
अंडरवीयर</w>
अंडरश
अंडरशूट</w>
अंडरस्ट
अंडरस्टडी</w>
अंडरस्टै
अंडरस्टैंडि
अंडरस्टैंडिंग</w>
अंडरहित</w>
अंडवृत्त</w>
अंडवृद्धि</w>
अंडश
अंडशल्क</w>
अंडश्वेत</w>
अंडस</w>
अंडसे
अंडसेवन</w>
अंडा
अंडा-
अंडा-मै
अंडा-मैदा</w>
अंडा/IGCB</w>
अंडां
अंडांट
अंडांटे</w>
अंडाकर्षण</w>
अंडाकार/sT</w>
अंडाण
अंडाणु
अंडाणु/R</w>
अंडालु</w>
अंडाश
अंडाशय/M</w>
अंडाशी</w>
अंडाह
अंडाहार
अंडाहारवाद</w>
अंडिद</w>
अंडीय</w>
अंडीर</w>
अंडुल</w>
अंडैल</w>
अंडोच्छेदन</w>
अंडोत्
अंडोत्प
अंडोत्पत्त
अंडोत्पत्तिकी</w>
अंडोत्पादक</w>
अंडोर
अंडोरन</w>
अंडोरा</w>
अंडोरियाई</w>
अंडौ
अंडौघ</w>
अंड्
अंड्गी
अंड्गीकार</w>
अंत
अंत-
अंत-क्र
अंत-क्रिया</w>
अंत-पूर्व</w>
अंत-प्र
अंत-प्रारंभ</w>
अंत-लघु</w>
अंत/f</w>
अंत</w>
अंतः
अंतः/M</w>
अंतःकक्ष</w>
अंतःकथा/JK</w>
अंतःकरण/M</w>
अंतःकरणीय</w>
अंतःकु
अंतःकुटि
अंतःकुटिल</w>
अंतःको
अंतःकोण/M</w>
अंतःकोप</w>
अंतःकोष</w>
अंतःक्रिया/JK</w>
अंतःक्ष
अंतःक्षिप्त</w>
अंतःक्षेत्र
अंतःक्षेत्र/M</w>
अंतःक्षेत्रक</w>
अंतःक्षेप/M</w>
अंतःक्षेपण/M</w>
अंतःक्षो
अंतःक्षोभ</w>
अंतःगमन</w>
अंतःगर्भा
अंतःगर्भाश
अंतःगर्भाशय/M</w>
अंतःग्रहण</w>
अंतःग्रहीत</w>
अंतःच
अंतःचक्ष
अंतःचक्षु</w>
अंतःज</w>
अंतःज्ञानी</w>
अंतःदर्शन</w>
अंतःनि
अंतःनिरीक्षण</w>
अंतःप
अंतःपट/E</w>
अंतःपत्रित</w>
अंतःपरायण</w>
अंतःपरि
अंतःपरिधान/M</w>
अंतःपवित्रा</w>
अंतःपाल</w>
अंतःपुर
अंतःपुर/M</w>
अंतःपुरप्रचार</w>
अंतःपुरवास
अंतःपुरवासिनी</w>
अंतःपुरिक/F</w>
अंतःपुरुष</w>
अंतःपूजा</w>
अंतःप्र
अंतःप्रकृति</w>
अंतःप्रजन
अंतःप्रजनन/M</w>
अंतःप्रजनित</w>
अंतःप्रज्ञ
अंतःप्रज्ञ/FM</w>
अंतःप्रज्ञा/JK</w>
अंतःप्रति
अंतःप्रतिरोध
अंतःप्रतिरोध/M</w>
अंतःप्रवाह/M</w>
अंतःप्रविष्ट</w>
अंतःप्रवेश</w>
अंतःप्रा
अंतःप्रांतीय</w>
अंतःप्राकृत
अंतःप्राकृतिक</w>
अंतःप्रादेशिक</w>
अंतःप्रेरणा/JK</w>
अंतःप्ल
अंतःप्लाव
अंतःप्लाव्मा</w>
अंतःप्लै
अंतःप्लैज़्म</w>
अंतःभू
अंतःभूत/sT</w>
अंतःभूमि</w>
अंतःभौम</w>
अंतःवस्त्र</w>
अंतःवृत्ति</w>
अंतःश
अंतःशक्ति/PQ</w>
अंतःशरीर</w>
अंतःशल्य</w>
अंतःशिर
अंतःशिर/FDM</w>
अंतःशुद्धि</w>
अंतःश्व
अंतःश्वस
अंतःश्वसन/M</w>
अंतःस
अंतःसं
अंतःसंज्ञ/F</w>
अंतःसंबंध/M</w>
अंतःसत्
अंतःसत्त्
अंतःसत्त्वा
अंतःसत्त्वा</w>
अंतःसत्त्वास्था</w>
अंतःसत्व
अंतःसत्व/MFD</w>
अंतःसरण</w>
अंतःसर्
अंतःसर्जि
अंतःसर्जिद</w>
अंतःसलिल/F</w>
अंतःसलिला/JK</w>
अंतःसाक्ष्य/M</w>
अंतःसार/M</w>
अंतःसारवान</w>
अंतःसुख</w>
अंतःसूत्रण</w>
अंतःसूत्री</w>
अंतःस्त्र
अंतःस्त्रावी</w>
अंतःस्थ/sT</w>
अंतःस्थापित</w>
अंतःस्थिति</w>
अंतःस्फ
अंतःस्फुर
अंतःस्फुरण/M</w>
अंतःस्फूर्त्त</w>
अंतःस्फोट</w>
अंतःस्यंदन</w>
अंतःस्र
अंतःस्रवण</w>
अंतःस्रा
अंतःस्राव
अंतःस्राव/E</w>
अंतःस्राविकी</w>
अंतःस्राविद</w>
अंतःस्रावी-
अंतःस्रावी-तंत्र</w>
अंतःस्व
अंतःस्वत्व</w>
अंतःस्वेद</w>
अंतक/sTM</w>
अंतकर</w>
अंतकर्
अंतकर्म/F</w>
अंतकारी</w>
अंतकाल/M</w>
अंतक्रम</w>
अंतक्रिया/JK</w>
अंतक्षि
अंतक्षिर्प
अंतक्षिर्प्त</w>
अंतग</w>
अंतगत</w>
अंतगति</w>
अंतगामी</w>
अंतगृ
अंतगृर्
अंतगृर्ही</w>
अंतग्र
अंतग्रर्
अंतग्रर्ह
अंतग्रर्हण</w>
अंतग्रर्हीत</w>
अंतग्रार्
अंतग्रार्ही</w>
अंतग्रे
अंतग्रेर्
अंतग्रेर्ह</w>
अंतघ
अंतघाई</w>
अंतघात
अंतघात/E</w>
अंतचिर्
अंतचिर्त्र</w>
अंतच्छद</w>
अंतच्छेदन</w>
अंतज</w>
अंतज्
अंतज्र्
अंतज्र्वाला</w>
अंतड
अंतडियां</w>
अंतडी</w>
अंतत</w>
अंततः
अंततः/M</w>
अंततोग
अंततोगत्
अंततोगत्वा/CI</w>
अंतद्व
अंतद्वरि</w>
अंतध्
अंतध्र्व
अंतध्र्वस/E</w>
अंतन</w>
अंतनिर्
अंतनिर्रीक्षण</w>
अंतनिर्विष्ट</w>
अंतनिर्हित</w>
अंतपरिधान</w>
अंतपाल</w>
अंतप्र
अंतप्रर्
अंतप्रर्स्थपन</w>
अंतबा
अंतबाक
अंतबाकंक</w>
अंतब्र
अंतब्रर्
अंतब्रर्ह्म</w>
अंतभास</w>
अंतभूत</w>
अंतभूमि</w>
अंतभौम</w>
अंतम</w>
अंतयुक्त</w>
अंतयो
अंतयोर्ग</w>
अंतयोष्टि</w>
अंतर
अंतर-
अंतर-अय
अंतर-अयन</w>
अंतर-छ
अंतर-छड़</w>
अंतर-रहित</w>
अंतर-सरकारी</w>
अंतर/q
अंतर/qFED
अंतर/qFEDsTM</w>
अंतरंग
अंतरंग-प्र
अंतरंग-प्रशिक्ष
अंतरंग-प्रशिक्षण
अंतरंग-प्रशिक्षणकाल/M</w>
अंतरंग/sTME</w>
अंतरंगत/F</w>
अंतरंगतम</w>
अंतरंगतापूर्वक</w>
अंतरक/M</w>
अंतरकलन</w>
अंतरकलह</w>
अंतरकार्य
अंतरकार्यालयी</w>
अंतरकालीन</w>
अंतरक्षेत्र
अंतरक्षेत्रीय/M</w>
अंतरगोत्र</w>
अंतरग्नि</w>
अंतरग्रहण/M</w>
अंतरग्रहीय</w>
अंतरचक्र</w>
अंतरछिद्र
अंतरछिद्रक</w>
अंतरछिद्रित</w>
अंतरछेद
अंतरछेदक</w>
अंतरछेदित</w>
अंतरज</w>
अंतरजात
अंतरजाति</w>
अंतरजातीय/sT</w>
अंतरजामी</w>
अंतरजाल</w>
अंतरजै
अंतरजैव</w>
अंतरज्ञ</w>
अंतरण
अंतरण/VM</w>
अंतरणपत्र/M</w>
अंतरणीय/sT</w>
अंतरत
अंतरतम/M</w>
अंतरदर्शी</w>
अंतरदेश
अंतरदेशीय/sT</w>
अंतरदेशीयत/F</w>
अंतरधर्म
अंतरधर्म</w>
अंतरधर्मीय</w>
अंतरनगरीय</w>
अंतरपंथ
अंतरपंथी</w>
अंतरपट
अंतरपट/M</w>
अंतरपरि
अंतरपरिष
अंतरपरिषदीय</w>
अंतरपुर
अंतरपुरुष/M</w>
अंतरपुरूष</w>
अंतरपू
अंतरपूरुष</w>
अंतरप्र
अंतरप्रजनन</w>
अंतरप्रजनित</w>
अंतरप्रदेशीय</w>
अंतरप्रभव</w>
अंतरप्रभागीय</w>
अंतरप्रांतीय</w>
अंतरप्रादेशिक</w>
अंतरभिमुख
अंतरभिमुखत/F</w>
अंतरभिमुखी</w>
अंतरम
अंतरमतीय</w>
अंतरमहल</w>
अंतरमहा
अंतरमहाद्वी
अंतरमहाद्वीप
अंतरमहाद्वीपीय</w>
अंतरमाप</w>
अंतरमार्ग
अंतरमार्गीय</w>
अंतरमीब
अंतरमीबा</w>
अंतरयण</w>
अंतरयन</w>
अंतरयुक्त</w>
अंतरयो
अंतरयोनीय</w>
अंतररहित</w>
अंतररा
अंतरराज्य
अंतरराज्यीय</w>
अंतरराष्ट्र
अंतरराष्ट्र</w>
अंतरराष्ट्रिय</w>
अंतरराष्ट्रीय
अंतरराष्ट्रीय/sT</w>
अंतरराष्ट्रीयकरण</w>
अंतरराष्ट्रीयकृत</w>
अंतरराष्ट्रीयत/F</w>
अंतरर्थ</w>
अंतरवयव/M</w>
अंतरवर्ती</w>
अंतरवस्त्र</w>
अंतरवाणिज्य</w>
अंतरवि
अंतरविभागीय</w>
अंतरवे
अंतरवेधी</w>
अंतरवै
अंतरवैयक्तिक</w>
अंतरशायी</w>
अंतरशिक्षालयी</w>
अंतरस
अंतरसं
अंतरसंचारी</w>
अंतरसंप्रद
अंतरसंप्रदाय
अंतरसंप्रदायीय</w>
अंतरसंभागीय</w>
अंतरसंस्कृत
अंतरसंस्कृतीय</w>
अंतरसंस्कृतीयत</w>
अंतरसमुद्रीय</w>
अंतरसांस्कृतिक</w>
अंतरस्थ</w>
अंतरस्थापन</w>
अंतरस्थायी</w>
अंतरस्थित/sT</w>
अंतरहि
अंतरहिमाल
अंतरहिमालय</w>
अंतरहीन/sT</w>
अंतरहीनतः</w>
अंतरा
अंतराकाश</w>
अंतराकू
अंतराकूत</w>
अंतरागत</w>
अंतरागम</w>
अंतरागमन</w>
अंतरागामी</w>
अंतरागार</w>
अंतरात
अंतरातलांत
अंतरातलांतिक</w>
अंतरात्म
अंतरात्मक</w>
अंतरात्मा/IC</w>
अंतरात्मीय</w>
अंतरादिक</w>
अंतराधान</w>
अंतराधि
अंतराधिदेश</w>
अंतरानु
अंतरानुभागीय</w>
अंतरानुभूति</w>
अंतराबंध</w>
अंतराभिमुखता</w>
अंतराभिमुखी</w>
अंतराय
अंतराय/M</w>
अंतरायक</w>
अंतरायण/M</w>
अंतरायन</w>
अंतरायित्र</w>
अंतराराष्ट्रीय</w>
अंतराल
अंतराल/M</w>
अंतरालक</w>
अंतरालन</w>
अंतरालयुक्त</w>
अंतरालवर्ती</w>
अंतरालहीन/sT</w>
अंतरालिका</w>
अंतरालित</w>
अंतरालीन</w>
अंतरालीयत</w>
अंतरालेखन</w>
अंतराव
अंतरावध
अंतरावधि</w>
अंतरावधीय</w>
अंतरावयव/M</w>
अंतरावरण</w>
अंतरावरोध</w>
अंतरावरोधित</w>
अंतरावर्त</w>
अंतरावस्था</w>
अंतरावहन</w>
अंतरावास/E</w>
अंतरावि
अंतराविष्ट</w>
अंतराविष्टत</w>
अंतरावेदी</w>
अंतरावेश</w>
अंतरावेशन</w>
अंतराव्मा</w>
अंतराष्ट्रीय</w>
अंतरासंगत</w>
अंतरि
अंतरिंद्रिय</w>
अंतरिंद्रीय</w>
अंतरिक/F</w>
अंतरिक्ष
अंतरिक्ष-क
अंतरिक्ष-किर
अंतरिक्ष-किरण/M</w>
अंतरिक्ष-ख
अंतरिक्ष-खोज/M</w>
अंतरिक्ष-यात्री</w>
अंतरिक्ष-विज्ञान/M</w>
अंतरिक्ष/M</w>
अंतरिक्षग</w>
अंतरिक्षगाम
अंतरिक्षगामी/54sTv</w>
अंतरिक्षचार
अंतरिक्षचारी/54sTv</w>
अंतरिक्षयात्र
अंतरिक्षयात्री/54sTv</w>
अंतरिक्षयान</w>
अंतरिक्षविज्ञान
अंतरिक्षविज्ञान/E</w>
अंतरिक्षविज्ञानियों</w>
अंतरिक्षविज्ञानी/54sTv</w>
अंतरिक्षसत</w>
अंतरिक्षाय
अंतरिक्षायतन</w>
अंतरिक्षिकी</w>
अंतरितक/M</w>
अंतरिम
अंतरिम/sTM</w>
अंतरी
अंतरीक</w>
अंतरीक्ष/F</w>
अंतरीक्षण</w>
अंतरीन</w>
अंतरीप
अंतरीप/ME</w>
अंतरीपा
अंतरीपाग्र</w>
अंतरीपीय</w>
अंतरीय/M</w>
अंतरीयम</w>
अंतरो
अंतरोघ</w>
अंतरौटा</w>
अंतर्
अंतर्-</w>
अंतर्</w>
अंतर्कक्ष</w>
अंतर्कथा/JK</w>
अंतर्कल
अंतर्कलह
अंतर्कलह/LM</w>
अंतर्कला</w>
अंतर्कलाप</w>
अंतर्काट</w>
अंतर्क्षे
अंतर्क्षेत्र
अंतर्क्षेत्र</w>
अंतर्क्षेत्रण</w>
अंतर्क्षेत्रीय</w>
अंतर्क्षेपण</w>
अंतर्क्षेषण</w>
अंतर्ग
अंतर्गत
अंतर्गत/M</w>
अंतर्गतक</w>
अंतर्गति</w>
अंतर्गम</w>
अंतर्गमन</w>
अंतर्गर्
अंतर्गर्भा</w>
अंतर्गामी</w>
अंतर्गु
अंतर्गुट/M</w>
अंतर्गुण</w>
अंतर्गेह
अंतर्गेह</w>
अंतर्गेहीय</w>
अंतर्ग्र
अंतर्ग्रथित</w>
अंतर्ग्रस्त</w>
अंतर्ग्रह</w>
अंतर्ग्रहण</w>
अंतर्ग्रहीत</w>
अंतर्ग्राहिता</w>
अंतर्ग्राही</w>
अंतर्घट</w>
अंतर्चक्र</w>
अंतर्चिंतन</w>
अंतर्चितवन</w>
अंतर्चित्र</w>
अंतर्चेतन/F</w>
अंतर्छिद्रण</w>
अंतर्छेदन</w>
अंतर्ज
अंतर्जंघ
अंतर्जंघास्थि</w>
अंतर्जंतु</w>
अंतर्जगत/M</w>
अंतर्जठर</w>
अंतर्जन
अंतर्जनन</w>
अंतर्जनस्तर</w>
अंतर्जनित</w>
अंतर्जन्म</w>
अंतर्जरा
अंतर्जरायु</w>
अंतर्जलन</w>
अंतर्जात/sT</w>
अंतर्जातीय</w>
अंतर्जानु</w>
अंतर्जामी</w>
अंतर्जाल</w>
अंतर्जालिका</w>
अंतर्ज्ञान
अंतर्ज्ञान/EM</w>
अंतर्ज्ञानपूर्ण</w>
अंतर्ज्ञानीय</w>
अंतर्ज्योति</w>
अंतर्ज्वाल
अंतर्ज्वाला/CI</w>
अंतर्ढ
अंतर्ढहन</w>
अंतर्तम</w>
अंतर्तरंग</w>
अंतर्त्वक</w>
अंतर्द
अंतर्दधन</w>
अंतर्दर्शन/M</w>
अंतर्दर्शी</w>
अंतर्दलीय</w>
अंतर्दश
अंतर्दशा/CI</w>
अंतर्दशाह/M</w>
अंतर्दष्टि</w>
अंतर्दहन</w>
अंतर्दाह/M</w>
अंतर्दिशा</w>
अंतर्दीप्ति</w>
अंतर्दु
अंतर्दुग</w>
अंतर्दुर्ग</w>
अंतर्दृ
अंतर्दृष्टा</w>
अंतर्दृष्टि</w>
अंतर्देश
अंतर्देश/E</w>
अंतर्देशिक/sT</w>
अंतर्द्धान</w>
अंतर्द्र
अंतर्द्रष्टा</w>
अंतर्द्व
अंतर्द्वं
अंतर्द्वंद्
अंतर्द्वंद्व/M</w>
अंतर्द्वद्व</w>
अंतर्द्वार/M</w>
अंतर्ध
अंतर्धरण</w>
अंतर्धान
अंतर्धान/M</w>
अंतर्धानन</w>
अंतर्धानभूत</w>
अंतर्धानभूति</w>
अंतर्धार
अंतर्धारा/IC</w>
अंतर्धार्
अंतर्धार्मिक</w>
अंतर्ध्यान</w>
अंतर्ध्व
अंतर्ध्वंस
अंतर्ध्वंस/E</w>
अंतर्ध्वस्त/M</w>
अंतर्नगर</w>
अंतर्नगरीय</w>
अंतर्नाद/M</w>
अंतर्नि
अंतर्निमेय
अंतर्निमेयता</w>
अंतर्नियम</w>
अंतर्निरीक्षण</w>
अंतर्निविष्ट</w>
अंतर्निवेश</w>
अंतर्निवेशक</w>
अंतर्निवेशन</w>
अंतर्निष्ठ</w>
अंतर्निहित</w>
अंतर्प
अंतर्पक्ष
अंतर्पक्षीय</w>
अंतर्पट/E</w>
अंतर्पत्र</w>
अंतर्पत्रित</w>
अंतर्परि
अंतर्परिच्छद</w>
अंतर्परिधान</w>
अंतर्परिधि</w>
अंतर्परी
अंतर्परीक्षण</w>
अंतर्परीक्षा</w>
अंतर्पुरुष</w>
अंतर्पूरण</w>
अंतर्प्र
अंतर्प्रजनन</w>
अंतर्प्रदेश</w>
अंतर्प्रवाह
अंतर्प्रवाह</w>
अंतर्प्रवाहशील</w>
अंतर्प्रवाहित</w>
अंतर्प्रवेशन</w>
अंतर्प्रस्थपन</w>
अंतर्प्रांतीय</w>
अंतर्प्रादेशिक</w>
अंतर्प्ल
अंतर्प्लाव</w>
अंतर्बा
अंतर्बाधक</w>
अंतर्बाह्य</w>
अंतर्बोध/M</w>
अंतर्ब्रह्म</w>
अंतर्भ
अंतर्भरण</w>
अंतर्भव</w>
अंतर्भवन</w>
अंतर्भाग</w>
अंतर्भाव
अंतर्भाव/M</w>
अंतर्भावना/JK</w>
अंतर्भावु
अंतर्भावुकता</w>
अंतर्भुक्त</w>
अंतर्भुक्तत</w>
अंतर्भुक्ति</w>
अंतर्भूत</w>
अंतर्भूमि</w>
अंतर्भेद
अंतर्भेद/ME</w>
अंतर्भो
अंतर्भोम/M</w>
अंतर्भौ
अंतर्भौम</w>
अंतर्भौमिक</w>
अंतर्भौमीय</w>
अंतर्मंडल</w>
अंतर्मन
अंतर्मन/FM</w>
अंतर्मनस्क/sT</w>
अंतर्मानस</w>
अंतर्मार्ग</w>
अंतर्मुख
अंतर्मुख/sTE</w>
अंतर्मृत</w>
अंतर्य
अंतर्याम
अंतर्याम/ME</w>
अंतर्यामिता</w>
अंतर्योग/M</w>
अंतर्र
अंतर्रति</w>
अंतर्राज्य
अंतर्राज्यिक</w>
अंतर्राज्यीय</w>
अंतर्राष्ट्र
अंतर्राष्ट्रवाद/E</w>
अंतर्राष्ट्री</w>
अंतर्राष्ट्रीय
अंतर्राष्ट्रीयतावाद/E</w>
अंतर्रोधन</w>
अंतर्रोधित</w>
अंतर्ल
अंतर्लंब
अंतर्लंब/M</w>
अंतर्लब</w>
अंतर्लाप
अंतर्लापिका/JK</w>
अंतर्लीन/sT</w>
अंतर्लीनत/F</w>
अंतर्व
अंतर्वंश</w>
अंतर्वक्र
अंतर्वक्र/sT</w>
अंतर्वक्रण</w>
अंतर्वक्राकार</w>
अंतर्वक्रित</w>
अंतर्वती</w>
अंतर्वत्नी</w>
अंतर्वर्ग</w>
अंतर्वर्तन
अंतर्वर्तन</w>
अंतर्वर्तनीय/sT</w>
अंतर्वर्तित/F</w>
अंतर्वर्ती</w>
अंतर्वश</w>
अंतर्वस्तु
अंतर्वस्तु/R</w>
अंतर्वस्त्र/M</w>
अंतर्वहन</w>
अंतर्वाणि
अंतर्वाणिज्य/M</w>
अंतर्वाणी</w>
अंतर्वादी</w>
अंतर्वाष्प</w>
अंतर्वास
अंतर्वास/E</w>
अंतर्वासक</w>
अंतर्वासन</w>
अंतर्वाह</w>
अंतर्वाहिनी</w>
अंतर्वि
अंतर्विकार/M</w>
अंतर्विद्धता</w>
अंतर्विद्र
अंतर्विद्रोह</w>
अंतर्विभागीय/M</w>
अंतर्विरोध
अंतर्विरोध/EM</w>
अंतर्विरोधपूर्ण</w>
अंतर्विल
अंतर्विलयन</w>
अंतर्विलीयन</w>
अंतर्विवाह/M</w>
अंतर्विवे
अंतर्विवेक
अंतर्विवेकशीलता</w>
अंतर्विवेकी</w>
अंतर्विस्फोट</w>
अंतर्वृत्त/M</w>
अंतर्वृत्ति</w>
अंतर्वे
अंतर्वेग/M</w>
अंतर्वेद
अंतर्वेद/ME</w>
अंतर्वेदना/JK</w>
अंतर्वेध
अंतर्वेध/E</w>
अंतर्वेधक/sT</w>
अंतर्वेधन</w>
अंतर्वेधित/sT</w>
अंतर्वेध्यता</w>
अंतर्वेश
अंतर्वेश</w>
अंतर्वेशित</w>
अंतर्वेश्म</w>
अंतर्वेश्मिक</w>
अंतर्वै
अंतर्वैयक्तिक</w>
अंतर्व्य
अंतर्व्यथा</w>
अंतर्व्या
अंतर्व्याप्त</w>
अंतर्व्याप्ति</w>
अंतर्व्यास</w>
अंतर्व्यासीय</w>
अंतर्व्यूह</w>
अंतर्श
अंतर्शक्ति/PQ</w>
अंतर्शिक्षालयी</w>
अंतर्शो
अंतर्शोथ</w>
अंतर्स
अंतर्सं
अंतर्संबंध
अंतर्संबंध-विष
अंतर्संबंध-विषय
अंतर्संबंध-विषयक</w>
अंतर्संबंध-विषयक्
अंतर्संबंध-विषयक्</w>
अंतर्संबंध</w>
अंतर्संस्कृत
अंतर्संस्कृतीय</w>
अंतर्समुद्रीय</w>
अंतर्सर्
अंतर्सर्ज</w>
अंतर्सांस्कृतिक</w>
अंतर्सेव
अंतर्सेवी</w>
अंतर्स्थ/sT</w>
अंतर्स्थान</w>
अंतर्स्थापन/F</w>
अंतर्स्थापित</w>
अंतर्स्थित</w>
अंतर्स्फोट</w>
अंतर्स्र
अंतर्स्रवण</w>
अंतर्स्राव
अंतर्स्राव</w>
अंतर्स्रावक</w>
अंतर्स्रावण</w>
अंतर्स्रुति</w>
अंतर्ह
अंतर्हास</w>
अंतर्हित
अंतर्हित</w>
अंतर्हितात्मा</w>
अंतर्हृत</w>
अंतर्हृदय</w>
अंतलघु</w>
अंतलीन</w>
अंतव
अंतवंत</w>
अंतवत्ता</w>
अंतवर्ण</w>
अंतवर्ती</w>
अंतवह्
अंतवह्नि</w>
अंतवाक्य/M</w>
अंतवास/E0</w>
अंतवि
अंतविदारण</w>
अंतविरोध</w>
अंतविह्न</w>
अंतवृत्ति</w>
अंतवे
अंतवेला/IC</w>
अंतव्
अंतव्र्य
अंतव्र्याप्त</w>
अंतव्र्याप्ति</w>
अंतव्र्यास</w>
अंतश
अंतश</w>
अंतशय्या</w>
अंतशैया</w>
अंतश्
अंतश्</w>
अंतश्च
अंतश्चंद्र
अंतश्चंद्रता</w>
अंतश्चर्म</w>
अंतश्चिंतन</w>
अंतश्चेत
अंतश्चेतना/JK</w>
अंतश्छद</w>
अंतश्छिद्रण</w>
अंतश्छेदन</w>
अंतस</w>
अंतसं
अंतसंचार</w>
अंतसद</w>
अंतसमय</w>
अंतसर्ग</w>
अंतस्
अंतस्</w>
अंतस्त
अंतस्तत्त्व</w>
अंतस्तप्त</w>
अंतस्तम</w>
अंतस्तल/M</w>
अंतस्ताप/M</w>
अंतस्थ
अंतस्थ/M</w>
अंतस्थर्
अंतस्थर्ता</w>
अंतस्थर्ति</w>
अंतस्थल/M</w>
अंतस्थितता</w>
अंतस्थिति</w>
अंतस्नान/M</w>
अंतस्सं
अंतस्संज्ञा</w>
अंतस्संबंध</w>
अंतस्सलिल/F</w>
अंतस्सलिला/JK</w>
अंतस्सार/M</w>
अंतस्स्थ
अंतस्स्थता</w>
अंतह
अंतहार्
अंतहार्दिक</w>
अंतहीन/sT</w>
अंतहीनतः</w>
अंतह्
अंतह्करण
अंतह्करण</w>
अंतह्करणवाला</w>
अंताक्ष
अंताक्षर/E</w>
अंताराष्ट्रीय</w>
अंताव
अंतावरी</w>
अंतावशायिनी</w>
अंतावशायी</w>
अंतावस
अंतावसाय
अंतावसायिनी</w>
अंतावसायी</w>
अंति
अंति</w>
अंतिक
अंतिक/sTMF</w>
अंतिम
अंतिम-प्र
अंतिम-प्रारंभ
अंतिम-प्रारंभिक</w>
अंतिमकाल</w>
अंतिमकालीन</w>
अंतिमत/F</w>
अंतिमतम</w>
अंतिमयात्रा</w>
अंतिमसफर</w>
अंतिमा
अंतिमांक</w>
अंतिमाक्षर</w>
अंतिमेत्थम</w>
अंतिमो
अंतिमोत्तर</w>
अंतीय</w>
अंते
अंतेउ
अंतेउर</w>
अंतेनि
अंतेनिवास</w>
अंतेवर</w>
अंतेवास
अंतेवास/E</w>
अंतेवासियों</w>
अंतोन्
अंतोन्मुखी</w>
अंतोप
अंतोपचार</w>
अंतोपयोगी</w>
अंत्य
अंत्य/MF</w>
अंत्यक</w>
अंत्यकर्म/M</w>
अंत्यज/F</w>
अंत्यनु
अंत्यनुप्र
अंत्यनुप्रास</w>
अंत्यपद</w>
अंत्यबल</w>
अंत्यभ</w>
अंत्यमूल</w>
अंत्ययुग</w>
अंत्ययोनि</w>
अंत्यवर्ण</w>
अंत्यविदारण</w>
अंत्यविपुला</w>
अंत्यश
अंत्यशेष/M</w>
अंत्या
अंत्यांश</w>
अंत्याकार</w>
अंत्याक्ष
अंत्याक्षर/ME</w>
अंत्यानुप्र
अंत्यानुप्रास/M</w>
अंत्यावसाय
अंत्यावसायिनी</w>
अंत्यावसायी</w>
अंत्यावस्था</w>
अंत्येष्टि
अंत्येष्टि-प्र
अंत्येष्टि-प्रबंध
अंत्येष्टि-प्रबंधक/M</w>
अंत्येष्टि</w>
अंत्येष्टिगृह/M</w>
अंत्यो
अंत्योदय/M</w>
अंत्योदात्त
अंत्योदात्तश
अंत्योदात्तशब्द</w>
अंत्र
अंत्र-
अंत्र-र
अंत्र-रज्जु</w>
अंत्र/ME</w>
अंत्रंध
अंत्रंधमि</w>
अंत्रजीवकाणु</w>
अंत्रद
अंत्रदंड
अंत्रदंडाणु</w>
अंत्रदाह/M</w>
अंत्रप्रद
अंत्रप्रदाह/M</w>
अंत्रवृद्धि</w>
अंत्रा
अंत्रांड
अंत्रांडवृद्धि</w>
अंत्राणु</w>
अंत्रालजी</w>
अंतड़
अंतड़ियां</w>
अंतड़ी/5
अंतड़ी/5N
अंतड़ी/5NO4sTv</w>
अंथऊ</w>
अंद
अंदमान</w>
अंदर
अंदर-
अंदर-बाहर</w>
अंदर-ह
अंदर-ही-
अंदर-ही-अंद
अंदर-ही-अंदर</w>
अंदर/EM</w>
अंदरकोट</w>
अंदरखान
अंदरखाने</w>
अंदरब
अंदरबाहर</w>
अंदरला/G</w>
अंदरसा</w>
अंदरी
अंदरीपन</w>
अंदरु
अंदरुनी</w>
अंदरुनीपन</w>
अंदरू
अंदरून/E</w>
अंदरूनीपन</w>
अंदरख़ान
अंदरख़ाने</w>
अंदल
अंदल</w>
अंदलीब
अंदलीब/LM</w>
अंदलु
अंदलुस</w>
अंदा
अंदाज
अंदाज/f</w>
अंदाजन/F</w>
अंदाजपट्टी</w>
अंदाजपीटी</w>
अंदाज़
अंदाज़/MFED</w>
अंदाज़न/F</w>
अंदाज़प
अंदाज़पट्टी</w>
अंदाज़पी
अंदाज़पीट
अंदाज़पीटियों</w>
अंदाज़पीटी</w>
अंदाज़पीर/E</w>
अंदाज़ा/M
अंदाज़ा/MIGC</w>
अंदाज़े
अंदाज़ेब
अंदाज़ेबया
अंदाज़ेबयाँ</w>
अंदाज़ेबयाओं</w>
अंदिका</w>
अंदु</w>
अंदुआ</w>
अंदुक/M</w>
अंदू</w>
अंदेश
अंदेशान
अंदेशानाक</w>
अंदो
अंदोर/F</w>
अंदोलन</w>
अंदोह
अंदोह</w>
अंदोहगी
अंदोहगीं</w>
अंदोहना
अंदोहनाक</w>
अंदोहनाक़</w>
अंदोख़
अंदोख़्त</w>
अंध
अंध-</w>
अंध-देश
अंध-देशभ
अंध-देशभक्ति</w>
अंध-पर
अंध-परंपर
अंध-परंपरा/K</w>
अंध-विश्वास
अंध-विश्वास/EM</w>
अंध-विश्वासी/O</w>
अंध/sTMF
अंध/sTMFED</w>
अंधक
अंधक/M</w>
अंधकघाती</w>
अंधकमुनि</w>
अंधकरिपु</w>
अंधकशत्रु</w>
अंधकहंता</w>
अंधका
अंधकार
अंधकार/ME</w>
अंधकारण</w>
अंधकारपूर्ण/sT</w>
अंधकारमय</w>
अंधकारवन</w>
अंधकारहर</w>
अंधकारा
अंधकाराच्छन्न</w>
अंधकारात
अंधकारातंक</w>
अंधकारावृत्त</w>
अंधकारि</w>
अंधकासुर
अंधकासुर</w>
अंधकासुरमर्
अंधकासुरमर्दी</w>
अंधकू
अंधकूप
अंधकूप/M</w>
अंधकूपकार
अंधकूपकाराग
अंधकूपकारागार</w>
अंधकृत</w>
अंधकृमि</w>
अंधखोप
अंधखोपडी</w>
अंधखोपड़ी</w>
अंधगति</w>
अंधघाती</w>
अंधड</w>
अंधत/F</w>
अंधतमस</w>
अंधताम
अंधतामिस
अंधतामिस्र</w>
अंधत्व/M</w>
अंधधी</w>
अंधधुंध</w>
अंधनंग
अंधनंगापन</w>
अंधनाल</w>
अंधपर
अंधपरंपर
अंधपरंपरा/IC</w>
अंधपूतनाग्रह</w>
अंधबक</w>
अंधबाई</w>
अंधबिंदु</w>
अंधभ
अंधभक्त/M</w>
अंधभक्ति</w>
अंधम
अंधमीन</w>
अंधरा/G</w>
अंधरो
अंधरोष</w>
अंधवायु</w>
अंधविश्वास
अंधविश्वास/ME</w>
अंधविश्वासपूर्वक</w>
अंधविश्वासहीनता</w>
अंधविश्वासियों</w>
अंधश्र
अंधश्रद्ध
अंधश्रद्धा/IC</w>
अंधश्रद्धालु</w>
अंधस</w>
अंधसम
अंधसमर्थक</w>
अंधसेना</w>
अंधा
अंधा-
अंधा-धुंध</w>
अंधा/IGCB</w>
अंधां
अंधांत्र</w>
अंधाकु
अंधाकुप्
अंधाकुप्प/M</w>
अंधाधु
अंधाधुंध
अंधाधुंध/M</w>
अंधाधुन्ध</w>
अंधान
अंधानु
अंधानुकरण/M</w>
अंधानुकर्ता</w>
अंधानुकृत</w>
अंधानुकृति</w>
अंधानुगमन/M</w>
अंधानुगामी</w>
अंधानुपालन</w>
अंधानुयायिता</w>
अंधानुयायी</w>
अंधानुरक्त</w>
अंधानुरक्ति</w>
अंधानुसरण/M</w>
अंधापन/M</w>
अंधार/E</w>
अंधाह
अंधाहि</w>
अंधाहिक</w>
अंधाहुली</w>
अंधिका</w>
अंधियार
अंधियार-को
अंधियार-कोठ
अंधियार-कोठरी</w>
अंधियार/FEDM</w>
अंधिर
अंधिर</w>
अंधिरप</w>
अंधिरस्क
अंधिरस्कंध</w>
अंधीकृत</w>
अंधु</w>
अंधुल</w>
अंधेपन</w>
अंधेर
अंधेर-खाता</w>
अंधेर/MFED</w>
अंधेरखाता</w>
अंधेरना</w>
अंधेरा
अंधेरा-उजाला</w>
अंधेराबन</w>
अंधेरिया</w>
अंधोटी</w>
अंधोरी</w>
अंधौरी</w>
अंध्र
अंध्र-भ
अंध्र-भृत्य</w>
अंध्र/M</w>
अंध्रभ
अंध्रभृत्य</w>
अंध्रवंश</w>
अंधड़
अंधड़/EM</w>
अंधड़वाले</w>
अंनत</w>
अंनि
अंनिआ</w>
अंप
अंपजीकृत</w>
अंपाय
अंपायर/ME</w>
अंपायरिंग</w>
अंफ
अंफेट
अंफेटा
अंफेटामा
अंफेटामाइ
अंफेटामाइन</w>
अंफेटामाईन</w>
अंब
अंब/MFED</w>
अंबक</w>
अंबज</w>
अंबर
अंबर/M</w>
अंबरचर/M</w>
अंबरचारी</w>
अंबरड
अंबरडंबर</w>
अंबरद</w>
अंबरपुष्प/M</w>
अंबरबेल</w>
अंबरमणि</w>
अंबरयुग</w>
अंबरलेख
अंबरलेखी</w>
अंबरश
अंबरशैल</w>
अंबरस्थ
अंबरस्थली</w>
अंबरा
अंबरांत
अंबरांत/M</w>
अंबरांतीय</w>
अंबराई</w>
अंबरारंभ</w>
अंबराव</w>
अंबरासन</w>
अंबरी
अंबरीं</w>
अंबरीय</w>
अंबरीष/M</w>
अंबरीसक</w>
अंबरौ
अंबरौक/F</w>
अंबल</w>
अंबष्ठ
अंबष्ठ/MFD</w>
अंबष्ठिका</w>
अंबा
अंबाझ
अंबाझोर</w>
अंबान
अंबान/ED</w>
अंबाप
अंबापाली</w>
अंबापोल
अंबापोली</w>
अंबाबाई</w>
अंबायु</w>
अंबार
अंबारीय</w>
अंबारख़ाना</w>
अंबाल
अंबाला/JK</w>
अंबालिका/JK</w>
अंबासा</w>
अंबाह
अंबाहलदी</w>
अंबाहल्दी</w>
अंबाग़</w>
अंबाज़</w>
अंबाड़
अंबाड़ा/G</w>
अंबिक
अंबिका/JK</w>
अंबिकाप
अंबिकापति</w>
अंबिकापु
अंबिकापुत्र
अंबिकापुत्र/EM</w>
अंबिकापुर</w>
अंबिकावन</w>
अंबिकासुत</w>
अंबिकेय/M</w>
अंबिया</w>
अंबिर
अंबिरथा</w>
अंबु
अंबु/M</w>
अंबुक
अंबुकंटक</w>
अंबुकण</w>
अंबुकिरात</w>
अंबुकीश</w>
अंबुकुक्
अंबुकुक्कुटी</w>
अंबुकूर्
अंबुकूर्म</w>
अंबुकेशर</w>
अंबुकेशी</w>
अंबुक्रिया</w>
अंबुग</w>
अंबुघन</w>
अंबुच
अंबुचत्वर</w>
अंबुचर</w>
अंबुचामर</w>
अंबुचारी</w>
अंबुज
अंबुज/MFD</w>
अंबुजन्म</w>
अंबुजा
अंबुजाक्ष/F</w>
अंबुजात</w>
अंबुजास
अंबुजासन/F</w>
अंबुजेक्ष
अंबुजेक्षण</w>
अंबुजेक्षिणी</w>
अंबुत
अंबुतस्कर</w>
अंबुताल</w>
अंबुद/M</w>
अंबुधन</w>
अंबुधर/M</w>
अंबुधि</w>
अंबुनाथ/M</w>
अंबुनिधि/PQ</w>
अंबुप/M</w>
अंबुपति</w>
अंबुपत्र
अंबुपत्रा</w>
अंबुपद्धति</w>
अंबुपात</w>
अंबुप्रवाह</w>
अंबुबा</w>
अंबुभव</w>
अंबुभृत</w>
अंबुमती</w>
अंबुमात्र
अंबुमात्रज</w>
अंबुर</w>
अंबुराज</w>
अंबुराशि</w>
अंबुरु
अंबुरुह</w>
अंबुरू
अंबुरूह/M</w>
अंबुरो
अंबुरोहिणी</w>
अंबुवहन</w>
अंबुवाची</w>
अंबुवास/E0</w>
अंबुवाह
अंबुवाह/EM</w>
अंबुवाहक</w>
अंबुवाहिका</w>
अंबुवाहिनी</w>
अंबुवे
अंबुवेतस</w>
अंबुशयन</w>
अंबुशायी</w>
अंबुस
अंबुसरण</w>
अंबुसर्पिणी</w>
अंबुसे
अंबुसेचनी</w>
अंबे
अंबेडकर</w>
अंबेडकरनगर</w>
अंबोज/M</w>
अंबोध
अंबोधि</w>
अंबोह</w>
अंब्र
अंब्रा</w>
अंब्रै
अंब्रैला</w>
अंभ
अंभज</w>
अंभजन्म/F</w>
अंभद</w>
अंभनिधि/PQ</w>
अंभस</w>
अंभसार/M</w>
अंभसू</w>
अंभारि</w>
अंभि</w>
अंभी
अंभीत्
अंभीत्र
अंभीत्राइ
अंभीत्राइती</w>
अंभीत्र्
अंभीत्र्योन</w>
अंभीयोन</w>
अंभो
अंभो-</w>
अंभोज
अंभोज/M</w>
अंभोजनि</w>
अंभोजन्मा</w>
अंभोजयोनि</w>
अंभोद</w>
अंभोधर</w>
अंभोधि</w>
अंभोनिधि/PQ</w>
अंभोराशि</w>
अंभोरुह</w>
अंभोरू
अंभोरूह/M</w>
अंभौरी</w>
अंमंग
अंमंगल/M</w>
अंर्त
अंर्तगत/M</w>
अंर्तर्
अंर्तर्द्वंद्व</w>
अंश
अंश-आ
अंश-आव
अंश-आवंट
अंश-आवंटन</w>
अंश-ग्रहण</w>
अंश-वि
अंश-विभाजन</w>
अंश-विष
अंश-विषयक</w>
अंश-संबंधी</w>
अंश/sTM
अंश/sTME
अंश/sTMEU</w>
अंशक/M</w>
अंशकरण</w>
अंशकालिक</w>
अंशकालीन</w>
अंशग्रहण</w>
अंशत/F</w>
अंशतः
अंशतः-
अंशतः-पूर्ण
अंशतः-पूर्णतः</w>
अंशतः/M</w>
अंशद
अंशदत्त</w>
अंशदाता/K</w>
अंशदान/M</w>
अंशदाय
अंशदाय/E</w>
अंशदेय/M</w>
अंशधर/M</w>
अंशधार
अंशधारक/M</w>
अंशधारण</w>
अंशधारी</w>
अंशन/M</w>
अंशनात्मक</w>
अंशपत्र/M</w>
अंशपूर्ण</w>
अंशप्र
अंशप्राप्
अंशप्राप्ता</w>
अंशफलक</w>
अंशबंध
अंशबंध्यता</w>
अंशबोध</w>
अंशभाक</w>
अंशभाग
अंशभाग/E</w>
अंशभूत</w>
अंशम
अंशमात्र</w>
अंशमापन/M</w>
अंशमे
अंशमेख
अंशमेखला</w>
अंशयुक्त/sT</w>
अंशल</w>
अंशशोध
अंशशोधन/M</w>
अंशसुता</w>
अंशहारी</w>
अंशहीन/sT</w>
अंशा
अंशां
अंशांक
अंशांक/M</w>
अंशांकन/M</w>
अंशांकित</w>
अंशांश</w>
अंशाक</w>
अंशाति</w>
अंशात्मक</w>
अंशाधिकार/E</w>
अंशापन/M</w>
अंशार्थी</w>
अंशाव
अंशावत
अंशावतार/M</w>
अंशावस्था</w>
अंशिका/JK</w>
अंशित</w>
अंशीय/sT</w>
अंशु
अंशु/M</w>
अंशुक/M</w>
अंशुधर/M</w>
अंशुनाभि</w>
अंशुपट्
अंशुपट्ट</w>
अंशुपति</w>
अंशुम
अंशुमंत</w>
अंशुमती</w>
अंशुमन</w>
अंशुमन्त</w>
अंशुमान/M</w>
अंशुमाल
अंशुमाला/IGC</w>
अंशुमाली/OM</w>
अंशुल</w>
अंशो</w>
अंशों
अंशों/M</w>
अंशोच्छेदन</w>
अंशोद्ध
अंशोद्धरण</w>
अंष
अंषि</w>
अंस
अंस</w>
अंसकूट/M</w>
अंसख
अंसख्यता</w>
अंसतु
अंसतुष्ट/M</w>
अंसतो
अंसतोष</w>
अंसत्र</w>
अंसत्राण</w>
अंसन्न</w>
अंसपूर्ति</w>
अंसफलक</w>
अंसब</w>
अंसभ
अंसभारिक</w>
अंसल</w>
अंसवेद
अंसवेदनशील</w>
अंसाब</w>
अंसार
अंसार/ME</w>
अंसु
अंसु</w>
अंसुवन</w>
अंसे
अंसेई</w>
अंस्य</w>
अंह
अंहकार/M</w>
अंहति</w>
अंहस्पति</w>
अंह्रि</w>
अंह्रिप</w>
अंज़</w>
अंड़
अंड़ग
अंड़गेबाज़
अंड़गेबाज़ी</w>
अंड़ो</w>
अइस</w>
अई
अईमु
अईमुई</w>
अउ
अउन्नत</w>
अऊ
अऊठ
अऊठा</w>
अऊत</w>
अऋ
अऋण/E</w>
अक
अक/sT</w>
अकं</w>
अकंठ</w>
अकंडक्टर</w>
अकंप
अकंपन/M</w>
अकंपित/sT</w>
अकंप्य</w>
अककल</w>
अकच
अकचक
अकचकाना</w>
अकच्छ</w>
अकच्छक</w>
अकज</w>
अकट
अकटुक</w>
अकट्ट
अकट्टर</w>
अकठ
अकठिक
अकठिकठ
अकठिकठिन</w>
अकठिन
अकठिन/sT</w>
अकठिनकरण</w>
अकठोर
अकठोर/sT</w>
अकड
अकडकर</w>
अकडना</w>
अकडाना</w>
अकडू</w>
अकण
अकणिकीय</w>
अकण्
अकण्र्य</w>
अकत
अकतौर</w>
अकथ
अकथ</w>
अकथित</w>
अकथितत</w>
अकद
अकदाम
अकदामिक</w>
अकध
अकधक/LM</w>
अकनना</w>
अकनिष्ठ</w>
अकपट</w>
अकब
अकबक
अकबक/F
अकबक/FLM</w>
अकबका
अकबका/734sTv</w>
अकबकाइयो</w>
अकबकाया</w>
अकबत</w>
अकबर
अकबर/EM</w>
अकबरु
अकबरुद्दीन</w>
अकबरज़
अकबरज़ो
अकबरज़ोला</w>
अकमल</w>
अकम्
अकम्पन</w>
अकम्पाय
अकम्पायमान</w>
अकर
अकर/FE</w>
अकरकर
अकरकरा</w>
अकरण
अकरण</w>
अकरणित</w>
अकरब</w>
अकरम</w>
अकरा
अकराल</w>
अकरास</w>
अकरासू</w>
अकर्
अकर्क
अकर्कश</w>
अकर्डियन</w>
अकर्ण
अकर्ण/M</w>
अकर्ण्यत/F</w>
अकर्त
अकर्तव्य</w>
अकर्तार</w>
अकर्तृ
अकर्तृक/sT</w>
अकर्तृत्व</w>
अकर्तृभाव</w>
अकर्म
अकर्मक/sTM</w>
अकर्मठ
अकर्मठ</w>
अकर्मठत</w>
अकर्मभोग</w>
अकर्मान
अकर्मान्व
अकर्मान्वित</w>
अकल
अकल-स
अकल-सुरा</w>
अकल/sTF</w>
अकलंक/sTE</w>
अकलंकित</w>
अकलख
अकलखु</w>
अकलखुरा</w>
अकलदा
अकलदाढ़
अकलदाढ़/LM</w>
अकलबी
अकलबीर/M</w>
अकलमंद</w>
अकलमन्द</w>
अकलस
अकलसुरा</w>
अकलुष
अकलुष-
अकलुष-कलुष</w>
अकलेपन</w>
अकल्
अकल्क
अकल्क/sT</w>
अकल्कक</w>
अकल्कल</w>
अकल्प
अकल्प</w>
अकल्प्य</w>
अकल्म
अकल्मष
अकल्मष/sT</w>
अकल्य</w>
अकल्याण
अकल्याणकर</w>
अकल्याणकामना</w>
अकल्याणकारक/sT</w>
अकल्याणाकारी</w>
अकवन</w>
अकशेर
अकशेरूक</w>
अकस
अकस/ME</w>
अकसर</w>
अकसरियत</w>
अकसरीयत</w>
अकसी
अकसीर
अकसीर/LM</w>
अकसीरगर</w>
अकस्
अकस्मा
अकस्मात/ME</w>
अकह</w>
अकहानी</w>
अका
अकां
अकांउ
अकांउंट
अकांउंटेट</w>
अकांड
अकांड</w>
अकांडजात/sT</w>
अकांडत</w>
अकाई</w>
अकाउ
अकाउंट
अकाउंट/M</w>
अकाउंटंट</w>
अकाउंटेंट/M</w>
अकाउंटै
अकाउंटैन्
अकाउंटैन्टी</w>
अकाउन
अकाउनटै
अकाउनटैंट</w>
अकाउनटैन्ट</w>
अकाउन्
अकाउन्ट
अकाउन्ट</w>
अकाउन्टेन्ट</w>
अकाट
अकाट</w>
अकाटय</w>
अकाट्यत/F</w>
अकाट्‌य</w>
अकाद
अकादम
अकादमिक</w>
अकादमी/NO</w>
अकान्त
अकान्तर
अकान्तरंजन</w>
अकाम
अकाम/EsTM</w>
अकामत/F</w>
अकामदिक</w>
अकाम्य/sT</w>
अकाय
अकायत/F</w>
अकार
अकार/M</w>
अकारज/M</w>
अकारत</w>
अकाराणु</w>
अकारात्मक/M</w>
अकाराद
अकारादि</w>
अकारादिका</w>
अकारादिक्रम</w>
अकारान्त</w>
अकार्
अकार्डियन</w>
अकार्प
अकार्पण्य</w>
अकार्बन</w>
अकार्य
अकार्यचिंता</w>
अकार्यर
अकार्यरत/sT</w>
अकार्यात्मक/sT</w>
अकार्यान्वित</w>
अकार्यालय
अकार्यालयीय</w>
अकाल
अकाल-ग्रस्त</w>
अकाल-प
अकाल-पीड़
अकाल-पीड़ित</w>
अकाल-सु
अकाल-सुकाल/M</w>
अकाल/EM</w>
अकालकुसुम/M</w>
अकालग्रस्त</w>
अकालत</w>
अकालत्व</w>
अकालप
अकालपक्य</w>
अकालपीड़
अकालपीड़ित</w>
अकालप्र
अकालप्रौ
अकालप्रौढ़</w>
अकालम
अकालमूर्ति</w>
अकालमृत्यु</w>
अकालवृद्ध</w>
अकालात
अकालातीत</w>
अकालानुसार
अकालानुसारता</w>
अकाली-
अकाली-भा
अकाली-भाज
अकाली-भाजपा</w>
अकाले
अकालेर</w>
अकालो
अकालोत्
अकालोत्पत्ति</w>
अकालोत्पन्न</w>
अकाल्य</w>
अकास
अकासन
अकासनीम</w>
अकास्ट
अकास्टिक
अकास्टिकम</w>
अकि
अकिं
अकिंचन
अकिंचनकरण</w>
अकिंचनत/F</w>
अकिंचनत्व</w>
अकिंचनवाद/M</w>
अकिंचि
अकिंचित</w>
अकिंचित्
अकिंचित्कर</w>
अकित
अकितव</w>
अकिल्
अकिल्विष</w>
अकी
अकीक/M</w>
अकीद
अकीदत/LM</w>
अकीदतमंद</w>
अकीदतमन्द</w>
अकीदा/CI</w>
अकीयन</w>
अकीर्
अकीर्ति</w>
अकीर्तिमान</w>
अकील</w>
अकु
अकुंचित</w>
अकुट
अकुटु
अकुटुंब</w>
अकुण्ठ</w>
अकुता/734sTv</w>
अकुताइयो</w>
अकुतो
अकुतोभ
अकुतोभय</w>
अकुत्सा</w>
अकुत्सित</w>
अकुप
अकुपंच
अकुपंचर</w>
अकुप्
अकुप्प</w>
अकुप्य/M</w>
अकुल
अकुल/FE</w>
अकुला/7G34sTv</w>
अकुलाइयो</w>
अकुलागत</w>
अकुलाहट</w>
अकुश</w>
अकुशा
अकुशाग्र</w>
अकुह</w>
अकुहक</w>
अकू
अकूट
अकूट</w>
अकूटकृत</w>
अकूटत</w>
अकूत
अकूत/sT</w>
अकूतत/F</w>
अकूर्
अकूर्च</w>
अकूल</w>
अकूफ़</w>
अकृ
अकृच्छ
अकृच्छ/M</w>
अकृच्छ्र
अकृच्छ्र/E</w>
अकृत
अकृत-</w>
अकृतबुद्धि</w>
अकृतरूप</w>
अकृति
अकृति</w>
अकृतित्व</w>
अकृत्य/M</w>
अकृत्यकारी</w>
अकृपा
अकृपाल
अकृपालु</w>
अकृश</w>
अकृष
अकृषिक</w>
अकृष्ण</w>
अके
अकेंद्र
अकेंद्रत</w>
अकेत
अकेतता</w>
अकेतन</w>
अकेल
अकेलापन/M</w>
अकेलेपन</w>
अकेश</w>
अकै
अकैड
अकैडमि
अकैडमिक</w>
अकैडमिशन</w>
अकैडमी</w>
अकैत
अकैतव</w>
अकैप्
अकैप्निया
अकैप्निया-संबंधी</w>
अकैप्निया</w>
अकैय
अकैया/CI</w>
अकॉर्
अकॉर्ड
अकॉर्डिय
अकॉर्डियन
अकॉर्डियनवादक</w>
अको
अकोट/M</w>
अकोड
अकोडबद्ध</w>
अकोतर</w>
अकोना
अकोनाइ</w>
अकोम
अकोमल/sT</w>
अकोर/E</w>
अकोल
अकोलाह
अकोलाहल</w>
अकोश
अकोशिय</w>
अकोसना</w>
अकौ
अकौआ</w>
अकौटा</w>
अकौटि
अकौटिल्य</w>
अकौतु
अकौतुक/sT</w>
अकौमा
अकौमार्य</w>
अकौवन</w>
अकौवा</w>
अकौशल</w>
अक्
अक्/sT</w>
अक्क
अक्कल
अक्कल-बार</w>
अक्कल</w>
अक्कलकोट</w>
अक्कलबार</w>
अक्का
अक्काद
अक्कादियन</w>
अक्कादियाई</w>
अक्कादी</w>
अक्कास/EM</w>
अक्कड़
अक्कड़-ब
अक्कड़-बक्
अक्कड़-बक्कड़</w>
अक्कड़</w>
अक्ख
अक्ख/FE</w>
अक्खड</w>
अक्खर</w>
अक्खाह</w>
अक्खड़/sTM</w>
अक्खड़पन/MF</w>
अक्ट
अक्टू
अक्टूब
अक्टूबर
अक्टूबर-न
अक्टूबर-नव
अक्टूबर-नवम्ब
अक्टूबर-नवम्बर</w>
अक्टूबर/M</w>
अक्टो
अक्टोबर</w>
अक्त
अक्ता
अक्ताउ</w>
अक्ति</w>
अक्तुंग</w>
अक्तू
अक्तूबर</w>
अक्तो
अक्तोब</w>
अक्त्र</w>
अक्मोला</w>
अक्र
अक्र/F</w>
अक्रब</w>
अक्रम
अक्रम/sTM</w>
अक्रमतः</w>
अक्रमा
अक्रमाति
अक्रमातिशयोक्ति</w>
अक्रर</w>
अक्रर्</w>
अक्रर्ग
अक्रर्गीर</w>
अक्रान्त</w>
अक्राप
अक्रापट</w>
अक्रिय
अक्रियकरण</w>
अक्रिया/JK</w>
अक्रियात्म
अक्रियात्मक/sT</w>
अक्रीदत</w>
अक्रीदतमंद</w>
अक्रु
अक्रुद्ध</w>
अक्रुर
अक्रुर-क्र
अक्रुर-क्रुर</w>
अक्रुर/M</w>
अक्ऱ
अक्ऱब</w>
अक्ल
अक्ल/f
अक्ल/fE</w>
अक्लम/M</w>
अक्लमंद/E</w>
अक्लमन्द</w>
अक्लांत
अक्लांत/sT</w>
अक्लि
अक्लिष्ट</w>
अक्लिष्टत</w>
अक्वणित</w>
अक्ष
अक्ष-
अक्ष-रेख
अक्ष-रेखा/K</w>
अक्ष/sTM</w>
अक्षंत
अक्षंत</w>
अक्षंतव्य/sT</w>
अक्षक
अक्षक</w>
अक्षकर्
अक्षकर्ण/M</w>
अक्षका
अक्षकाम</w>
अक्षकास्थि</w>
अक्षकीलक</w>
अक्षकुमार</w>
अक्षकुशल</w>
अक्षकू
अक्षकूट/M</w>
अक्षकूटक</w>
अक्षकृत</w>
अक्षक्रीड़ा/IC</w>
अक्षजन</w>
अक्षजनीय</w>
अक्षत
अक्षत/sTMF</w>
अक्षतंतु</w>
अक्षतत्व</w>
अक्षतयोनित्व</w>
अक्षतयौवना</w>
अक्षतवी
अक्षतवीर्य/M</w>
अक्षद
अक्षदंड/M</w>
अक्षदण्ड</w>
अक्षदर्श
अक्षदर्शक/M</w>
अक्षदेव
अक्षदेवी</w>
अक्षध
अक्षधर/M</w>
अक्षधुर/M</w>
अक्षन
अक्षनति</w>
अक्षनि
अक्षनिरीक्षक</w>
अक्षपट
अक्षपटल/M</w>
अक्षपा
अक्षपाटक</w>
अक्षबंध/M</w>
अक्षबिंदु</w>
अक्षभाग</w>
अक्षम
अक्षम/sTMF</w>
अक्षमकरण</w>
अक्षमकृत</w>
अक्षमता
अक्षमता/K</w>
अक्षमताग्रस्त</w>
अक्षमा
अक्षमापक/M</w>
अक्षमाल
अक्षमाल/MFED</w>
अक्षमालिक
अक्षमालिक</w>
अक्षमालिकोपनिषद</w>
अक्षमावान</w>
अक्षमाशील</w>
अक्षमित</w>
अक्षमीकरण</w>
अक्षमीकृत</w>
अक्षय
अक्षय-
अक्षय-त
अक्षय-तीज</w>
अक्षय-तृत
अक्षय-तृतीया</w>
अक्षय/sTMFE</w>
अक्षयकुमार</w>
अक्षयगुण</w>
अक्षयत
अक्षयत/F</w>
अक्षयतीज</w>
अक्षयतृत
अक्षयतृतीय
अक्षयतृतीया/CI</w>
अक्षयध
अक्षयधाम/M</w>
अक्षयन
अक्षयनव
अक्षयनवमी</w>
अक्षयनिधि/PQ</w>
अक्षयपद/M</w>
अक्षयपात्र/M</w>
अक्षयपुर
अक्षयपुरू
अक्षयपुरूह
अक्षयपुरूहूत</w>
अक्षयलोक/M</w>
अक्षयवट/M</w>
अक्षयाध
अक्षयाधाम</w>
अक्षयाल
अक्षयालोक</w>
अक्षयुक्त</w>
अक्षय्य/sT</w>
अक्षर
अक्षर-
अक्षर-क्रम</w>
अक्षर-पट
अक्षर-पटल</w>
अक्षर-माल
अक्षर-माला/K</w>
अक्षर-यो
अक्षर-योजक</w>
अक्षर-वि
अक्षर-विन्यास</w>
अक्षर-शै
अक्षर-शैली</w>
अक्षर-सं
अक्षर-संयोजक/M</w>
अक्षर-संयोजन/M</w>
अक्षर/sTMFE</w>
अक्षरं</w>
अक्षरअंतराल/M</w>
अक्षरक्रम
अक्षरक्रम/M</w>
अक्षरक्रमिक</w>
अक्षरगणित</w>
अक्षरचारी</w>
अक्षरजननी</w>
अक्षरजी
अक्षरजीव
अक्षरजीवक</w>
अक्षरजीविक</w>
अक्षरजीवी</w>
अक्षरजीवीय</w>
अक्षरज्ञ</w>
अक्षरज्ञाता</w>
अक्षरज्ञान/M</w>
अक्षरत
अक्षरत/F</w>
अक्षरतूल
अक्षरतूलिक/F</w>
अक्षरदर्शक</w>
अक्षरन्या
अक्षरन्यास</w>
अक्षरन्यासीय</w>
अक्षरपंक्ति</w>
अक्षरपठ
अक्षरपठन</w>
अक्षरपाठ
अक्षरपाठक</w>
अक्षरपाठित्र</w>
अक्षरपूजा</w>
अक्षरमय</w>
अक्षरमाल
अक्षरमाला/CI</w>
अक्षरमु
अक्षरमुख</w>
अक्षरमुष्ट
अक्षरमुष्टिका</w>
अक्षरमै
अक्षरमैत्री</w>
अक्षरयोजक/M</w>
अक्षरयोजन/M</w>
अक्षरलोप</w>
अक्षरवाला</w>
अक्षरवि
अक्षरविन्या
अक्षरविन्यास/F</w>
अक्षरश</w>
अक्षरशः</w>
अक्षरशत्रु</w>
अक्षरशीर्ष</w>
अक्षरा
अक्षरांक
अक्षरांक</w>
अक्षरांकन</w>
अक्षरांकित</w>
अक्षरांकीय</w>
अक्षरांग</w>
अक्षरांत
अक्षरांत</w>
अक्षरांतरण/M</w>
अक्षरांभ</w>
अक्षराकृति</w>
अक्षरात्मक</w>
अक्षरानु
अक्षरानुसरण</w>
अक्षरानुसार</w>
अक्षरारंभ
अक्षरारंभ/ME</w>
अक्षरार्थ
अक्षरार्थ/M</w>
अक्षराली</w>
अक्षरीय</w>
अक्षरेख
अक्षरेखा/JK</w>
अक्षरौटी</w>
अक्षर्य</w>
अक्षला
अक्षलाग्र</w>
अक्षलिक</w>
अक्षवा
अक्षवाट</w>
अक्षवार</w>
अक्षवृत्त</w>
अक्षसू
अक्षसूत्र</w>
अक्षस्थ</w>
अक्षहीन</w>
अक्षहीनतः</w>
अक्षा
अक्षांत
अक्षांत</w>
अक्षांतर/M</w>
अक्षांतरीय</w>
अक्षांश
अक्षांश-देश
अक्षांश-देशांश</w>
अक्षांश/M</w>
अक्षांशवृत्त/M</w>
अक्षांशीय</w>
अक्षाग्र</w>
अक्षाति</w>
अक्षान्तर</w>
अक्षार</w>
अक्षारीय</w>
अक्षि
अक्षिक
अक्षिकंप</w>
अक्षिकूट</w>
अक्षिकोट
अक्षिकोटर</w>
अक्षिगत/sT</w>
अक्षिगु
अक्षिगुहिका</w>
अक्षिगोल</w>
अक्षिचेता</w>
अक्षित
अक्षित/M</w>
अक्षितर</w>
अक्षितारा</w>
अक्षिताल</w>
अक्षिति
अक्षितिज</w>
अक्षिद</w>
अक्षिदोलन</w>
अक्षिनि
अक्षिनिमे
अक्षिनिमेष</w>
अक्षिप
अक्षिपक्ष्म</w>
अक्षिपट
अक्षिपटल</w>
अक्षिभू</w>
अक्षिसा
अक्षिसाक्षी</w>
अक्षिहीन</w>
अक्षी
अक्षीण</w>
अक्षीय
अक्षीयम</w>
अक्षीयमीय</w>
अक्षीव/M</w>
अक्षु
अक्षुण्
अक्षुण्ण
अक्षुण्णत/F</w>
अक्षुण्य</w>
अक्षुद्र
अक्षुद्र/M</w>
अक्षुधा</w>
अक्षुब्ध</w>
अक्षुर</w>
अक्षे
अक्षेम
अक्षेमकर</w>
अक्षै
अक्षैहिणी</w>
अक्षो
अक्षोट</w>
अक्षोड
अक्षोडक</w>
अक्षोनि</w>
अक्षोन्मुख</w>
अक्षोभ</w>
अक्षोभ्य</w>
अक्षोह
अक्षोहिणी</w>
अक्षौ
अक्षौनि</w>
अक्षौह
अक्षौहिणी</w>
अक्षौहिनी</w>
अक्ष्
अक्ष्ण</w>
अक्सर/M</w>
अक्सरियत</w>
अक्सरीयत</w>
अक्सी
अक्सीर/M</w>
अक्सै
अक्सैलो
अक्सैलोमीटर</w>
अकड़
अकड़-
अकड़-फ़ों</w>
अकड़/348sTv
अकड़/348sTvLMFED</w>
अकड़त
अकड़तकड़</w>
अकड़न
अकड़न/FDLM</w>
अकड़पन</w>
अकड़फ
अकड़फों</w>
अकड़बाज/E</w>
अकड़बाज़/E</w>
अकड़ाना</w>
अकड़ाव
अकड़ाव/M</w>
अकड़ाहट</w>
अकड़ियो</w>
अकड़ै
अकड़ैत</w>
अकड़फ़ों</w>
अख
अख</w>
अखं
अखंड
अखंड/sT</w>
अखंडन</w>
अखंडनीयत/F</w>
अखंडपाठ
अखंडपाठ/M</w>
अखंडयोनि</w>
अखंडयोनित्व</w>
अखंडवीर्य</w>
अखंडित</w>
अखंड़
अखंड़न</w>
अखचित</w>
अखज</w>
अखण्ड
अखण्ड/sT</w>
अखण्डित</w>
अखण्डित्व</w>
अखण्ड्य</w>
अखती</w>
अखतीज</w>
अखब
अखबारन
अखबारनवी
अखबारनवीस/E</w>
अखय
अखय-
अखय-तीज</w>
अखय</w>
अखयतीज</w>
अखर/s8TvFED</w>
अखरियो</w>
अखरोट/M</w>
अखरौटी</w>
अखर्व</w>
अखल</w>
अखलाक</w>
अखसत</w>
अखा
अखाड
अखाडा/CI</w>
अखादा/GC</w>
अखाड़
अखाड़िया</w>
अखाड़े
अखाड़ेबाजी</w>
अखाड़ेबाज़
अखाड़ेबाज़/EM</w>
अखि
अखित</w>
अखिल
अखिल-भारतीय/M</w>
अखिलत/F</w>
अखिलदेश
अखिलदेशस्तरीय</w>
अखिला
अखिलात्मा</w>
अखिलेश/M</w>
अखिलेश्व
अखिलेश्वर/M</w>
अखीन</w>
अखीर</w>
अखु
अखुँ
अखुँआ</w>
अखुट
अखुट/8ED34sTv</w>
अखुटियो</w>
अखूट</w>
अखेट
अखेट</w>
अखेटक</w>
अखेटिक</w>
अखेद
अखेद/E</w>
अखै
अखैबर</w>
अखोर/M</w>
अखोल</w>
अखोह</w>
अखौ
अखौट
अखौट/FDM</w>
अख्
अख्त
अख्तर</w>
अख्त़
अख्त़र</w>
अख्य
अख्यति</w>
अख्ज़</w>
अखड़
अखड़ा/734sTv</w>
अखड़ाइयो</w>
अखड़िया</w>
अखड़ै
अखड़ैत/M</w>
अग
अग-</w>
अगंड/M</w>
अगऊँ</w>
अगग</w>
अगज
अगज/M</w>
अगजग</w>
अगट
अगट/348sTvED</w>
अगटियो</w>
अगठ
अगठित
अगठित-</w>
अगठित</w>
अगड</w>
अगढ</w>
अगण
अगण/M</w>
अगणन/F</w>
अगणनीयत/F</w>
अगणित
अगणितल
अगणितलज्ज</w>
अगण्ड</w>
अगण्यत/F</w>
अगत
अगत/FE</w>
अगति</w>
अगतिमान</w>
अगती
अगतीक</w>
अगतीपन</w>
अगत्तर</w>
अगत्ति</w>
अगत्या</w>
अगद
अगद/M</w>
अगदं
अगदंकर/sT</w>
अगदंकरण</w>
अगदंकार</w>
अगदकर</w>
अगदकरण</w>
अगदतंत्र</w>
अगदराज</w>
अगनत</w>
अगनि</w>
अगनित</w>
अगन्त
अगन्तुक</w>
अगम
अगम-सु
अगम-सुगम</w>
अगम</w>
अगमन
अगमन</w>
अगमनीय/F</w>
अगमार्
अगमार्क</w>
अगम्य
अगम्य/sTF</w>
अगम्यगा</w>
अगम्यरूप</w>
अगम्या
अगम्यागमन/M</w>
अगम्यागामी</w>
अगर
अगर-ब
अगर-बत्ती</w>
अगर/MFE</w>
अगरकर</w>
अगरत
अगरतला</w>
अगरब
अगरबत्
अगरबत्त
अगरबत्तियों</w>
अगरबत्ती/NO</w>
अगरम
अगरमगर</w>
अगरसार</w>
अगरा/GB</w>
अगराई</w>
अगराना</w>
अगरू
अगरू</w>
अगरूब
अगरूबत्ती</w>
अगर्
अगर्व</w>
अगर्हा</w>
अगल
अगल-बग
अगल-बगल</w>
अगलन
अगलन</w>
अगलनशील/sT</w>
अगलब
अगलबग़ल</w>
अगल़
अगल़ात</w>
अगला
अगला-पिछ
अगला-पिछला</w>
अगली-
अगली-बार</w>
अगल्म
अगल्मा/IC</w>
अगव
अगवा
अगवा</w>
अगवाँ
अगवाँसी</w>
अगवाडा</w>
अगवान/ME</w>
अगवासी</w>
अगवाड़
अगवाड़/MFED</w>
अगस्त
अगस्त/M</w>
अगस्ति</w>
अगस्त्य
अगस्त्य/M</w>
अगस्त्यकूट</w>
अगस्त्यगी
अगस्त्यगीता</w>
अगह
अगह</w>
अगहन
अगहनश
अगहनशुक्ल</w>
अगहनिया</w>
अगा
अगाऊपन</w>
अगात्र</w>
अगाध
अगाध/FsTM</w>
अगाधत/F</w>
अगार/E</w>
अगाल</w>
अगाश
अगाशे</w>
अगाह</w>
अगाड़
अगाड़/FE</w>
अगाड़ी
अगाड़ी-पिछ
अगाड़ी-पिछा
अगाड़ी-पिछाड़ी</w>
अगाड़ीपन</w>
अगाड़ू</w>
अगि
अगिआ</w>
अगिआना</w>
अगिन
अगिन-झ
अगिन-झाल</w>
अगिन</w>
अगिनगो
अगिनगोला</w>
अगिनत</w>
अगिनब
अगिनबान</w>
अगिनबोट</w>
अगिनित/sT</w>
अगिय
अगिया
अगिया-वै
अगिया-वैताल</w>
अगिया/7JK34sTv</w>
अगियाइयो</w>
अगियाब
अगियाबे
अगियाबेताल</w>
अगियाबैताल</w>
अगियार/EM</w>
अगियाव
अगियावे
अगियावेताल</w>
अगियावैताल</w>
अगियासन</w>
अगिर
अगिर/E</w>
अगिरौ
अगिरौका</w>
अगिह
अगिहाना</w>
अगि्र
अगि्रम/M</w>
अगी
अगीठ
अगीठा</w>
अगीत</w>
अगीष</w>
अगु
अगु/sT</w>
अगुंठित</w>
अगुआई
अगुआई/O</w>
अगुण
अगुणगान</w>
अगुणवादी</w>
अगुणशील</w>
अगुता/734sTv</w>
अगुताइयो</w>
अगुप्त/sT</w>
अगुफ
अगुफितता</w>
अगुर
अगुरु</w>
अगुरू</w>
अगुल
अगुलियां</w>
अगुवा
अगुवा/7
अगुवा/7CI34sTv</w>
अगुवाइयो</w>
अगुवाई/O</w>
अगुह्य</w>
अगू
अगूटी</w>
अगूढ</w>
अगूढ़
अगूढ़भाव</w>
अगूढ़व्यंग
अगूढ़व्यंग्य
अगूढ़व्यंग्य/FDM</w>
अगेंद्र</w>
अगेत
अगेती</w>
अगेतीपन</w>
अगेन्
अगेन्स
अगेन्सट</w>
अगेय</w>
अगेर
अगेरिया</w>
अगेह
अगेह/FsT</w>
अगेहिनी</w>
अगै
अगैती</w>
अगो
अगोट
अगोट/8ED34sTv</w>
अगोटियो</w>
अगोतिया</w>
अगोत्री</w>
अगोप
अगोप्य</w>
अगोर
अगोर/F8ED
अगोर/F8EDsTv
अगोर/F8EDsTvLM</w>
अगोरदार/M</w>
अगोरिया/B</w>
अगोह
अगोह्य</w>
अगौ
अगौका</w>
अगौण</w>
अगौनी</w>
अगौर
अगौरव/sT</w>
अगौल
अगौला/GCI</w>
अगौढ़</w>
अग्
अग्न
अग्नन</w>
अग्नय
अग्नयस्त्र</w>
अग्नयाध
अग्नयाधान</w>
अग्नयु
अग्नयुत्
अग्नयुत्पात</w>
अग्ना
अग्नायी</w>
अग्नाशय
अग्नाशय/E</w>
अग्नाश्य</w>
अग्नि
अग्नि-
अग्नि-</w>
अग्नि-उ
अग्नि-उल्
अग्नि-उल्का</w>
अग्नि-कर्म/M</w>
अग्नि-कुंड</w>
अग्नि-जिह्वा</w>
अग्नि-द
अग्नि-दाह</w>
अग्नि-प
अग्नि-परीक्ष
अग्नि-परीक्षा/K</w>
अग्नि-वर्षा</w>
अग्नि-वृष्टि</w>
अग्नि-स
अग्नि-सं
अग्नि-संक
अग्नि-संकेतक</w>
अग्नि-संबंधी</w>
अग्नि-सोपा
अग्नि-सोपान</w>
अग्नि/U
अग्नि/UQM</w>
अग्निक
अग्निकण</w>
अग्निकर्म/M</w>
अग्निका
अग्निकांड/M</w>
अग्निकाण्ड</w>
अग्निकाष्ठ</w>
अग्निकी
अग्निकीट</w>
अग्निकु
अग्निकुंड/M</w>
अग्निकुमार</w>
अग्निकेतु</w>
अग्निको
अग्निकोण
अग्निकोण/M</w>
अग्निकोणाध
अग्निकोणाधिप</w>
अग्निकोणीय</w>
अग्निक्र
अग्निक्री
अग्निक्रीडा</w>
अग्निक्रीड़ा</w>
अग्निखंड</w>
अग्निगर्भ
अग्निगर्भ/MFD</w>
अग्निगार</w>
अग्निगोध
अग्निगोधा</w>
अग्निचक्र/M</w>
अग्निचित
अग्निचित</w>
अग्निचित्या</w>
अग्निज</w>
अग्निजन्मा</w>
अग्निजात</w>
अग्निजित</w>
अग्निजिह्व
अग्निजिह्व/F</w>
अग्निजीवी</w>
अग्निज्वाल
अग्निज्वाल/F</w>
अग्नित
अग्नितापीय</w>
अग्नित्र
अग्नित्र</w>
अग्नित्रय</w>
अग्निद
अग्निद</w>
अग्निदग्ध</w>
अग्निदमन
अग्निदमनक</w>
अग्निदमनी</w>
अग्निदहन</w>
अग्निदान/M</w>
अग्निदाह/M</w>
अग्निदी
अग्निदीपक</w>
अग्निदीपन/M</w>
अग्निदीय</w>
अग्निदूत</w>
अग्निदेव</w>
अग्निद्वार
अग्निद्वारा</w>
अग्निधार
अग्निधारक</w>
अग्निधारित्र</w>
अग्निन</w>
अग्निना
अग्निनाड़ी</w>
अग्निनि
अग्निनिरोधी</w>
अग्निनेत्र</w>
अग्निप
अग्निपर
अग्निपरिक्र
अग्निपरिक्रमा</w>
अग्निपरीक्ष
अग्निपरीक्षा/IC</w>
अग्निपा
अग्निपात्र</w>
अग्निपावक</w>
अग्निपू
अग्निपूजक/M</w>
अग्निपूजा</w>
अग्निप्र
अग्निप्रणयन</w>
अग्निप्रति
अग्निप्रतिष्ठा</w>
अग्निबा
अग्निबाण/M</w>
अग्निबाव</w>
अग्निबाहु</w>
अग्निभ
अग्निभीति</w>
अग्निभू</w>
अग्निम
अग्निमंथ
अग्निमंथ/F</w>
अग्निमंथन</w>
अग्निमंदिर</w>
अग्निमणि</w>
अग्निमथ</w>
अग्निमन्
अग्निमन्थ/F</w>
अग्निमन्थन</w>
अग्निमय</w>
अग्निमा
अग्निमांद
अग्निमांद्य/M</w>
अग्निमुख
अग्निमुख</w>
अग्निमुखासुर</w>
अग्निमृत
अग्निमृत्य
अग्निमृत्यदंड</w>
अग्निमृत्यु</w>
अग्निय
अग्नियह</w>
अग्नियुक्त</w>
अग्नियों</w>
अग्निर
अग्निरक्ष
अग्निरक्षक/M</w>
अग्निरजा</w>
अग्निरस</w>
अग्निरु
अग्निरुहा</w>
अग्निरोधक</w>
अग्निरोधन</w>
अग्निरोधी</w>
अग्निवध
अग्निवधू</w>
अग्निवर्ण</w>
अग्निवर्धक</w>
अग्निवर्धन</w>
अग्निवर्ष
अग्निवर्षा/IC</w>
अग्निवारक</w>
अग्निवारण</w>
अग्निवारित</w>
अग्निवाह</w>
अग्निवाहक</w>
अग्निविकार</w>
अग्निविद</w>
अग्निविद्या</w>
अग्निवृष्टि</w>
अग्निव्य</w>
अग्निश
अग्निशमन/M</w>
अग्निशर्
अग्निशर्मा</w>
अग्निशस्त्र
अग्निशस्त्र-वि
अग्निशस्त्र-विश
अग्निशस्त्र-विशेष
अग्निशस्त्र-विशेषज्ञ/M</w>
अग्निशस्त्र</w>
अग्निशाम
अग्निशामक-
अग्निशामक-यंत्र</w>
अग्निशामक/M</w>
अग्निशामित्र</w>
अग्निशाम्य/sT</w>
अग्निशाल
अग्निशाला/JK</w>
अग्निशिख
अग्निशिख/FDM</w>
अग्निशिखर</w>
अग्निशु
अग्निशुद्धि</w>
अग्निशेखर</w>
अग्निशैल</w>
अग्निष्
अग्निष्ट
अग्निष्टु
अग्निष्टुत</w>
अग्निष्टुभ</w>
अग्निष्टोम</w>
अग्निष्ठ
अग्निष्ठ</w>
अग्निष्ठिका</w>
अग्निष्वा
अग्निष्वात्त</w>
अग्निस
अग्निसं
अग्निसंकेत</w>
अग्निसंभव</w>
अग्निसंस्
अग्निसंस्कार/M</w>
अग्निसखा</w>
अग्निसह
अग्निसह</w>
अग्निसहाय</w>
अग्निसा
अग्निसात</w>
अग्निसात्</w>
अग्निसेव
अग्निसेवन/M</w>
अग्निस्त
अग्निस्तंभ
अग्निस्तंभन</w>
अग्निस्तोम</w>
अग्निस्थान</w>
अग्निस्थाप
अग्निस्थापना</w>
अग्निस्फ
अग्निस्फुल
अग्निस्फुलि
अग्निस्फुलिंग/M</w>
अग्निह
अग्निहीन</w>
अग्निहो
अग्निहोत्र
अग्निहोत्र/ME</w>
अग्नी/O</w>
अग्नीधर</w>
अग्नीध्र</w>
अग्नीय</w>
अग्नेय
अग्नेयी</w>
अग्न्य
अग्न्यगार</w>
अग्न्यद</w>
अग्न्यदीय</w>
अग्न्यस्त्र/M</w>
अग्न्या
अग्न्यागार</w>
अग्न्याधान/M</w>
अग्न्याधानित</w>
अग्न्यायु
अग्न्यायुध/M</w>
अग्न्यालय</w>
अग्न्याशय
अग्न्याशय/EM</w>
अग्न्याशयीय</w>
अग्न्यास्त्र/M</w>
अग्या
अग्यात</w>
अग्यार</w>
अग्र
अग्र-</w>
अग्र/FD
अग्र/FDsT</w>
अग्रंथ</w>
अग्रंथित/sT</w>
अग्रक
अग्रकपाल</w>
अग्रकर</w>
अग्रकरण</w>
अग्रकर्म</w>
अग्रकाल</w>
अग्रकियता</w>
अग्रकूप</w>
अग्रकृत</w>
अग्रकेश</w>
अग्रक्र
अग्रक्रमण</w>
अग्रक्रय</w>
अग्रक्रिय</w>
अग्रक्षेत्र</w>
अग्रग
अग्रगं
अग्रगंत/F</w>
अग्रगण
अग्रगण्य/sT</w>
अग्रगण्यत/F</w>
अग्रगत</w>
अग्रगति</w>
अग्रगन</w>
अग्रगमन
अग्रगमन/M</w>
अग्रगमनवाद</w>
अग्रगाम
अग्रगामिता</w>
अग्रगामी</w>
अग्रगायक</w>
अग्रचरण</w>
अग्रचर्म</w>
अग्रचारी</w>
अग्रचि
अग्रचिं
अग्रचिंता</w>
अग्रचिंतित</w>
अग्रचेता</w>
अग्रज
अग्रज/sTMFD</w>
अग्रजन्
अग्रजन्म
अग्रजन्म/FEsT</w>
अग्रजात
अग्रजात/sTF</w>
अग्रजातक</w>
अग्रजाति</w>
अग्रणी</w>
अग्रणीत</w>
अग्रत
अग्रत/F</w>
अग्रतः</w>
अग्रतट</w>
अग्रतम</w>
अग्रता
अग्रता-क्रम</w>
अग्रताक्रम</w>
अग्रत्व</w>
अग्रथित</w>
अग्रद
अग्रदत्त</w>
अग्रदर्शी</w>
अग्रदल</w>
अग्रदान/M</w>
अग्रदाय/M</w>
अग्रदिशा</w>
अग्रदीप/M</w>
अग्रदीर्घ
अग्रदीर्घा</w>
अग्रदू
अग्रदूत/M</w>
अग्रदृ
अग्रदृश्य</w>
अग्रदृष्टि</w>
अग्रदेय</w>
अग्रध
अग्रधावक</w>
अग्रन
अग्रनयन/M</w>
अग्रनिर्माण</w>
अग्रपंक्ति</w>
अग्रपाद</w>
अग्रपू
अग्रपूजा/IC</w>
अग्रपूज्य</w>
अग्रप्र
अग्रप्रेष
अग्रप्रेषक</w>
अग्रप्रेषण</w>
अग्रप्रेषित</w>
अग्रबाहु</w>
अग्रभाग/M</w>
अग्रभागीय</w>
अग्रभू
अग्रभू</w>
अग्रभूम</w>
अग्रभूमीय</w>
अग्रम
अग्रमंच</w>
अग्रमस्ति
अग्रमस्तिष्क</w>
अग्रमहि
अग्रमहिषी</w>
अग्रयान</w>
अग्रयो
अग्रयोद्घ
अग्रयोद्घा</w>
अग्रयोद्धा</w>
अग्रयोधी</w>
अग्ररूप</w>
अग्रलेख
अग्रलेख/M</w>
अग्रलेखक</w>
अग्रवक्त्र</w>
अग्रवन</w>
अग्रवर्ति
अग्रवर्तिता</w>
अग्रवर्ती</w>
अग्रवा
अग्रवानी</w>
अग्रवाल/M</w>
अग्रश</w>
अग्रशः</w>
अग्रशाला</w>
अग्रस
अग्रसं
अग्रसंकेत</w>
अग्रसंक्षेपण</w>
अग्रसंग
अग्रसंगत/sT</w>
अग्रसंधान</w>
अग्रसक्र
अग्रसक्रिय/sT</w>
अग्रसर
अग्रसर/sTM</w>
अग्रसरण/M</w>
अग्रसरित</w>
अग्रसार
अग्रसारक</w>
अग्रसारण/M</w>
अग्रसारित</w>
अग्रसारी</w>
अग्रसू
अग्रसूचना</w>
अग्रसृत</w>
अग्रसोची</w>
अग्रस्थ/sT</w>
अग्रस्थान</w>
अग्रस्थापित</w>
अग्रस्थित</w>
अग्रस्थिति</w>
अग्रह
अग्रह</w>
अग्रहणीय</w>
अग्रहरण</w>
अग्रहाय
अग्रहायण/M</w>
अग्रहार
अग्रहार/sTE</w>
अग्रांचल</w>
अग्रांतर</w>
अग्रांश
अग्रांश</w>
अग्रांशु</w>
अग्राण
अग्राणीक</w>
अग्राधिकार/E</w>
अग्रान
अग्रानीक</w>
अग्रानीत/M</w>
अग्राम
अग्रामीण</w>
अग्राम्य</w>
अग्राय
अग्रायुध</w>
अग्राशन/M</w>
अग्रासन/M</w>
अग्राह
अग्राहक</w>
अग्राहार</w>
अग्राहिता</w>
अग्राह्य
अग्राह्य-
अग्राह्य-ग्राह्य</w>
अग्राह्य/sTM</w>
अग्रिका</w>
अग्रिणी</w>
अग्रिम
अग्रिम-
अग्रिम-अन्ति
अग्रिम-अन्तिम</w>
अग्रिम/sTM</w>
अग्रिमतम</w>
अग्रिय</w>
अग्री
अग्रीम
अग्रीमंट</w>
अग्रीमन्ट</w>
अग्रीमेंट</w>
अग्रीमेन्ट</w>
अग्रु</w>
अग्रे
अग्रेंजी</w>
अग्रेज
अग्रेजों</w>
अग्रेतर</w>
अग्रेन
अग्रेनीत</w>
अग्रेष
अग्रेषक</w>
अग्रेषण/M</w>
अग्रेसर
अग्रेसरिक</w>
अग्र्य</w>
अग्ल</w>
अग्हे
अग्हेम</w>
अगड़
अगड़-बग
अगड़-बगड़</w>
अगड़ध
अगड़धत</w>
अगड़धत्त
अगड़धत्त/FE</w>
अगड़बग
अगड़बगड़</w>
अगड़म
अगड़म-बग
अगड़म-बगड़म</w>
अगड़म</w>
अगड़मबग
अगड़मबगड़म</w>
अगड़ीपन</w>
अगढ़
अगढ़</w>
अगढ़न</w>
अगढ़नीय</w>
अग॰</w>
अघ
अघघ्न</w>
अघट
अघट</w>
अघटनीयत/F</w>
अघट्‌य</w>
अघन/F</w>
अघनाश</w>
अघनाशक</w>
अघनाशन</w>
अघन्य</w>
अघभोजन</w>
अघम
अघम</w>
अघमय</w>
अघमर्षण/M</w>
अघर्म/sT</w>
अघल</w>
अघवा/734sTv</w>
अघवाइयो</w>
अघविष</w>
अघशंस</w>
अघा/734sTvG</w>
अघाया</w>
अघायापन</w>
अघायु</w>
अघारि</w>
अघास
अघासुर/M</w>
अघिक</w>
अघिकारी</w>
अघिक्षिप्त</w>
अघिया/734sTv</w>
अघिष्ठ
अघिष्ठापन</w>
अघीर</w>
अघुल
अघुलनशील</w>
अघुलित</w>
अघृ
अघृण</w>
अघेर
अघेरन</w>
अघो
अघोर
अघोरघ
अघोरघोर
अघोरघोररूप</w>
अघोरनाथ</w>
अघोरपंथ
अघोरपंथ/ME</w>
अघोरपन/F</w>
अघोरसिंग</w>
अघोरी
अघोरीपन/F</w>
अघौड़ी</w>
अघ्य
अघ्यक्ष</w>
अघ्यापक/M</w>
अघ्रा
अघ्राण/sT</w>
अघ्रिप</w>
अघ्र्य</w>
अच
अच/F</w>
अचं
अचंच
अचंचल/sT</w>
अचंड
अचंड/sT</w>
अचंद्र
अचंद्रा</w>
अचंभ
अचंभव</w>
अचंभा/CI
अचंभा/CIB</w>
अचंभित</w>
अचंभौ</w>
अचक
अचकच
अचकचा/734sTv</w>
अचकचाइयो</w>
अचकचाया</w>
अचकचाहट</w>
अचकन
अचकन/LM</w>
अचक्ष
अचक्षु
अचक्षुष्क</w>
अचग
अचगर/FE</w>
अचचि
अचचिर्त</w>
अचण्ड</w>
अचत
अचतुर
अचतुर</w>
अचतुरत</w>
अचपं
अचपंली</w>
अचपल
अचपल/FEsT</w>
अचपलापन</w>
अचपलाहट</w>
अचभौ
अचभौन</w>
अचमन</w>
अचम्
अचम्भ
अचम्भव</w>
अचम्भा/CB</w>
अचम्भित</w>
अचम्भौ</w>
अचयन</w>
अचर
अचर/MF</w>
अचरज
अचरज/EM</w>
अचरजकारी</w>
अचरजपूर्वक</w>
अचरम</w>
अचर्च
अचर्चा</w>
अचर्चितत</w>
अचल
अचलकारी</w>
अचलकीला</w>
अचलजा</w>
अचलत/F</w>
अचलत्
अचलत्विट</w>
अचलद्विट</w>
अचलद्वेष
अचलद्वेषी</w>
अचलध
अचलधृ
अचलधृष</w>
अचलन</w>
अचलपति</w>
अचलराज</w>
अचलराशि</w>
अचलसुता</w>
अचला
अचलाधिप</w>
अचलेश्वर/ME</w>
अचव
अचव/348sTvFED</w>
अचवन/FD</w>
अचवा/7
अचवा/7AGCB34sTv</w>
अचवाइयो</w>
अचवियो</w>
अचा
अचा/734sTv</w>
अचां
अचांचक</w>
अचाइयो</w>
अचाक/F</w>
अचान
अचानक
अचानक/M</w>
अचानकचक</w>
अचानचक</w>
अचार
अचार/x
अचार/xE
अचार/xEy
अचार/xEyM</w>
अचारज</w>
अचारड
अचारडलाई</w>
अचारीकरण</w>
अचारीकृत</w>
अचारु</w>
अचारू</w>
अचार्जित</w>
अचाल
अचालक</w>
अचाहा/GC</w>
अचि
अचिंत
अचिंतनीय/sT</w>
अचिंत्य
अचिंत्य</w>
अचिंत्यभ
अचिंत्यभे
अचिंत्यभेदा
अचिंत्यभेदाभेद
अचिंत्यभेदाभेदवाद/M</w>
अचिंत्या
अचिंत्यात्मा</w>
अचिज्ज</w>
अचित
अचित</w>
अचितवन</w>
अचित्</w>
अचित्त
अचित्तत</w>
अचित्र</w>
अचिद्युति</w>
अचिर
अचिरप्रभा</w>
अचिरभा</w>
अचिररो
अचिररोचि
अचिररोचिस</w>
अचिरा
अचिरांश
अचिरांशु</w>
अचिराभा</w>
अचिर्
अचिर्ष्मान</w>
अचीता/G</w>
अचीर</w>
अचु
अचुंब
अचुंबकन</w>
अचुंबकीय</w>
अचुतर</w>
अचुरा</w>
अचेत
अचेतत/F</w>
अचेतन
अचेतनक/M</w>
अचेतनीकरण/M</w>
अचेतनीकृत</w>
अचेतपना</w>
अचेतावस्था</w>
अचेल
अचेलक</w>
अचेष्ट
अचेष्ट/FsT</w>
अचेष्टत/F</w>
अचेष्टितत</w>
अचै
अचैतन
अचैतन्य/M</w>
अचैन/F</w>
अचैल</w>
अचो
अचोट</w>
अचोना</w>
अचौन</w>
अच्
अच्ङ
अच्ङा</w>
अच्छ
अच्छ-</w>
अच्छत</w>
अच्छभ
अच्छभल्
अच्छभल्ल</w>
अच्छर/FE</w>
अच्छा
अच्छा-
अच्छा-ब
अच्छा-बुरा</w>
अच्छा-मह
अच्छा-महंगा</w>
अच्छा-ख़
अच्छा-ख़ासा</w>
अच्छा/GCIJK</w>
अच्छाइ
अच्छाइयो
अच्छाइयों
अच्छाइयों</w>
अच्छाइयोंवाला</w>
अच्छाई
अच्छाई-
अच्छाई-बु
अच्छाई-बुराई</w>
अच्छाख
अच्छाखासा</w>
अच्छादन</w>
अच्छादित</w>
अच्छापन/M</w>
अच्छि
अच्छिद्र
अच्छिद्र/sTM</w>
अच्छिद्रकर
अच्छिद्रकरोट
अच्छिद्रकरोटि</w>
अच्छिद्रचंद्र
अच्छिद्रचंद्रक/F</w>
अच्छिद्रिल
अच्छिद्रिल/sT</w>
अच्छिन्न
अच्छिन्न</w>
अच्छिन्नन</w>
अच्छिन्नपर्ण</w>
अच्छी-
अच्छी-अच्छ
अच्छी-अच्छी</w>
अच्छु
अच्छुप्त/F</w>
अच्छे
अच्छे-
अच्छे-अच्छ
अच्छे-अच्छे</w>
अच्छे-अच्छों</w>
अच्छे-ब
अच्छे-बुर
अच्छे-बुरे</w>
अच्छेद
अच्छेद्य/sT</w>
अच्छोटन</w>
अच्छोत</w>
अच्छोद
अच्छोद/F</w>
अच्छोह
अच्छोहिनी</w>
अच्यु
अच्युत
अच्युतपुत्र/ME</w>
अच्युतवास/M</w>
अच्युता
अच्युतांग
अच्युतांगज/M</w>
अच्युतागं
अच्युतागंज</w>
अच्युतात्मज</w>
अच्युतावास</w>
अच्र्य</w>
अछ
अछ</w>
अछंद
अछंदबद्घ</w>
अछक</w>
अछत
अछत</w>
अछतान
अछताना-प
अछताना-पछ
अछताना-पछत
अछताना-पछताना</w>
अछताना</w>
अछद्म</w>
अछद्‌म</w>
अछन</w>
अछनि</w>
अछरा/G</w>
अछरौटी</w>
अछल</w>
अछवा
अछवाई</w>
अछवान
अछवाना/G</w>
अछि
अछिद्र
अछिद्र</w>
अछिद्रण</w>
अछिद्रित</w>
अछिन्न</w>
अछिपा
अछिपाव</w>
अछिय
अछियार</w>
अछूत
अछूत/FEDsTM</w>
अछूतापन</w>
अछूतोद्धार/M</w>
अछेद</w>
अछेय</w>
अछेव</w>
अछोर</w>
अछोह
अछोह/EM</w>
अज
अजंगम</w>
अजंघ
अजंघ</w>
अजंता</w>
अजंभ</w>
अजक
अजक/F</w>
अजकब</w>
अजकर्ण
अजकर्ण</w>
अजकर्णक</w>
अजकव</w>
अजकाव</w>
अजग
अजग</w>
अजगंध
अजगंधा</w>
अजगंधिनी</w>
अजगन्ध
अजगन्धा</w>
अजगन्धिनी</w>
अजगर/EM</w>
अजगल्ल
अजगल्लिका</w>
अजगव/M</w>
अजगवय</w>
अजगाव</w>
अजगु
अजगुत</w>
अजगैबी</w>
अजटा</w>
अजतन</w>
अजथ्या</w>
अजद
अजदन्त
अजदन्ती</w>
अजदहा</w>
अजदै
अजदैवत</w>
अजन
अजन/M</w>
अजनन/E</w>
अजननिका</w>
अजनब
अजनबियों</w>
अजनबी
अजनबी/54sTv</w>
अजनबीपन/M</w>
अजनबीयत</w>
अजने
अजनेष्ट</w>
अजन्
अजन्ट</w>
अजन्त/F</w>
अजन्म
अजन्म/sTFED</w>
अजन्य</w>
अजप
अजप/MFD</w>
अजपति</w>
अजपथ</w>
अजपाद</w>
अजपाल</w>
अजब
अजब</w>
अजबंधु</w>
अजबीयत</w>
अजभक्ष</w>
अजम
अजम/FE</w>
अजमाइश</w>
अजमाद</w>
अजमानतीय</w>
अजमीढ़</w>
अजमुख/M</w>
अजमू
अजमूद</w>
अजमेर
अजमेरशरी
अजमेरशरीफ</w>
अजमेरशरीफ़</w>
अजमोद
अजमोद/F</w>
अजमोदिका</w>
अजमोला</w>
अजर-
अजर-अम
अजर-अमर</w>
अजरबैजान
अजरबैजान-वासी/O</w>
अजरबैजान/E</w>
अजरबैजानी-भाषा/K</w>
अजरा
अजराय
अजरायल</w>
अजरायु
अजरायुज</w>
अजराल</w>
अजर्
अजर्जर</w>
अजर्य
अजर्य/sT</w>
अजर्यत/F</w>
अजल-
अजल-निर्
अजल-निर्जल</w>
अजल/M</w>
अजलित</w>
अजवा
अजवाइ
अजवाइन/M</w>
अजवाईन</w>
अजवायन
अजवायन/LM</w>
अजवायनदार</w>
अजवीथी</w>
अजश्र
अजश्री</w>
अजश्रृ
अजश्रृंगी</w>
अजसि
अजसिं
अजसिंहिका</w>
अजस्त्र</w>
अजस्य</w>
अजस्र</w>
अजस्वर</w>
अजह
अजहा</w>
अजहु
अजहुँ</w>
अजहू
अजहूँ</w>
अजा
अजा-
अजा-ए
अजा-एकादशी</w>
अजा/
अजा/v
अजा/vIGCB</w>
अजाँ
अजाँच
अजाँचा/G</w>
अजांब
अजांबिका</w>
अजाक्ष</w>
अजाग
अजागरण</w>
अजागरु
अजागरुक</w>
अजागरू
अजागरूक</w>
अजाग्र
अजाग्रत</w>
अजाचर्म</w>
अजाजी
अजाजीव</w>
अजाड
अजाड्य</w>
अजात
अजात/EM</w>
अजातरि
अजातरिपु</w>
अजातशत्रु</w>
अजातश्
अजातश्म
अजातश्मश्र
अजातश्मश्रू</w>
अजातारि</w>
अजादि</w>
अजान
अजान/FEDsTM</w>
अजानपन</w>
अजानु
अजानुबाहु</w>
अजाप
अजाप्रिया</w>
अजाब
अजाबलि</w>
अजाभक्ष</w>
अजाम
अजामिल</w>
अजामु
अजामुख
अजामुखासुर</w>
अजामृ
अजामृग</w>
अजामेध</w>
अजाम्
अजाम्ब
अजाम्बिका</w>
अजायब
अजायब-
अजायब-ख़ाना/IC</w>
अजायब/M</w>
अजायबखाना</w>
अजायबघ
अजायबघर/M</w>
अजायबख़ाना</w>
अजार</w>
अजाश्व</w>
अजासुर</w>
अजि
अजिऔ
अजिऔरा</w>
अजिज्ञ
अजिज्ञासु</w>
अजिज्ञासुत</w>
अजित
अजित/sTM</w>
अजितनाथ</w>
अजितप्रिय</w>
अजितबला</w>
अजितसिंह</w>
अजिन
अजिनपत्र
अजिनपत्रिका</w>
अजिनपत्री</w>
अजिनयोनि</w>
अजिपाद</w>
अजिया</w>
अजिर
अजिर/FM</w>
अजिरवती</w>
अजिर्त</w>
अजिल्
अजिल्द</w>
अजिह
अजिह्म
अजिह्म</w>
अजिह्मग्र</w>
अजिह्व</w>
अजी
अजीगर्
अजीगर्त</w>
अजीज</w>
अजीटन</w>
अजीत
अजीत</w>
अजीतगढ़</w>
अजीतनाथ</w>
अजीब
अजीब</w>
अजीबतर
अजीबतर</w>
अजीबतरीन</w>
अजीबोगरीब</w>
अजीबोग़रीब</w>
अजीम</w>
अजीमत</w>
अजीर
अजीरन</w>
अजीरा</w>
अजीर्
अजीर्ण
अजीर्ण/EM</w>
अजीर्णग्रस्त</w>
अजीर्णहर</w>
अजीर्णित</w>
अजीव
अजीव/sTM</w>
अजीवद्रव्य</w>
अजीज़</w>
अजु
अजुर्
अजुर्न</w>
अजुष्टि</w>
अजुड़ा</w>
अजू
अजू</w>
अजूजा</w>
अजूठा</w>
अजूब
अजूबा/CI</w>
अजूरा</w>
अजूह</w>
अजेंड
अजेंडा/IC</w>
अजेन्
अजेन्डा</w>
अजेय/sTM</w>
अजेश</w>
अजै
अजै</w>
अजैंट</w>
अजैक
अजैकपाद</w>
अजैब</w>
अजैव
अजैव्मा</w>
अजो
अजोत-
अजोत-भूमि</w>
अजोत/F</w>
अजोड़</w>
अजौरी</w>
अज्
अज्ज
अज्जका</w>
अज्जु
अज्जुका</w>
अज्जू
अज्जूका</w>
अज्झ
अज्झटा</w>
अज्झल</w>
अज्ञ
अज्ञ-वि
अज्ञ-विज्ञ</w>
अज्ञ/sTM</w>
अज्ञत/F</w>
अज्ञात
अज्ञात/FsTM</w>
अज्ञातक</w>
अज्ञातचर्य
अज्ञातचर्या/IC</w>
अज्ञातचारी</w>
अज्ञातजन
अज्ञातजन-भ
अज्ञातजन-भीर
अज्ञातजन-भीरु</w>
अज्ञातजन</w>
अज्ञातना
अज्ञातनाम/F</w>
अज्ञातनामत</w>
अज्ञातपूर्
अज्ञातपूर्व/sT</w>
अज्ञातपूर्वर</w>
अज्ञातपूर्वर्
अज्ञातपूर्वर्</w>
अज्ञातराशि</w>
अज्ञातलोक</w>
अज्ञातवंश
अज्ञातवंश/E</w>
अज्ञातवास
अज्ञातवास/ME</w>
अज्ञातशत्रु</w>
अज्ञान
अज्ञान-ज्ञान</w>
अज्ञान/EsTM</w>
अज्ञानत/F</w>
अज्ञानतावश</w>
अज्ञानपन</w>
अज्ञानवश</w>
अज्ञानहर</w>
अज्ञानहीन</w>
अज्ञानांध
अज्ञानांधकार</w>
अज्ञानावस्था</w>
अज्ञानी/OM</w>
अज्ञानोप
अज्ञानोपहत</w>
अज्ञाप
अज्ञापक</w>
अज्ञापित/sT</w>
अज्ञेय
अज्ञेयवाद/EM</w>
अज्म</w>
अज्र</w>
अज्वल
अज्वलनशील</w>
अज्ज़ा</w>
अजग़
अजग़ैबी</w>
अजज़ा</w>
अजड़
अजड़/sTF</w>
अजड़ित</w>
अझ
अझून
अझूना/B</w>
अट
अट-स
अट-सट</w>
अट/834sTvLMFED</w>
अटंबर</w>
अटक
अटक/34
अटक/34s8Tv
अटक/34s8TvLMFED</w>
अटकन
अटकन-च
अटकन-चटकन</w>
अटकन-ब
अटकन-बटकन</w>
अटकल
अटकल-प
अटकल-पच्चू</w>
अटकल/8ED34sTvLM</w>
अटकलप
अटकलपच्चू</w>
अटकलबाज
अटकलबाज/E</w>
अटकलबाजियाँ</w>
अटकलबाज़/E</w>
अटकलियो</w>
अटका
अटका/7AIGCB34sTv</w>
अटकाऊ</w>
अटकापन</w>
अटकाया/C</w>
अटकाव/MD</w>
अटकियो</w>
अटकृमि</w>
अटख
अटखट</w>
अटट
अटटोल</w>
अटन/MFED</w>
अटपट
अटपट/FE</w>
अटपटा/G
अटपटा/G7
अटपटा/G734sTv</w>
अटपटाँग</w>
अटपटाइयो</w>
अटपटापन</w>
अटम
अटम-पट
अटम-पटम</w>
अटर
अटरंड
अटरंडम</w>
अटरम</w>
अटरिया</w>
अटल
अटलत/F</w>
अटलनीयत/F</w>
अटलस</w>
अटला
अटलां
अटलांटिक
अटलांटिक-प
अटलांटिक-पार</w>
अटलांटिक</w>
अटलाण्
अटलाण्टिक</w>
अटलै
अटलैंट
अटलैंटिक</w>
अटवा
अटवा/7
अटवा/7G34sTv</w>
अटवाइयो</w>
अटवाट
अटवाटी-
अटवाटी-ख
अटवाटी-खट
अटवाटी-खटवा
अटवाटी-खटवाटी</w>
अटवाटी</w>
अटवारी</w>
अटवाल</w>
अटवि</w>
अटविक</w>
अटहर</w>
अटा
अटा/734sTvAIGCB</w>
अटाइयो</w>
अटाट
अटाट</w>
अटाटूट</w>
अटाट्या</w>
अटाट्‌
अटाट्‌या</w>
अटाने_वाला</w>
अटार
अटारियों</w>
अटारी/54sTv</w>
अटार्
अटार्नी</w>
अटाल
अटाल/FEDM</w>
अटाली/54sTv</w>
अटावे
अटावेउ</w>
अटिक
अटिका
अटिकाऊ</w>
अटिकाऊपन</w>
अटिको
अटिकोकान</w>
अटित</w>
अटिया/B</w>
अटुकन</w>
अटूट
अटूट/sTM</w>
अटूटपन</w>
अटॅ
अटॅहास
अटॅहासी</w>
अटे
अटेंड
अटेंड/M</w>
अटेंडंट</w>
अटेंडेंस</w>
अटेक</w>
अटेन्ड
अटेन्डन्ट</w>
अटेर
अटेरन/MFD</w>
अटेस्ट
अटेस्टेड</w>
अटै
अटैक/M</w>
अटैक्
अटैक्सिया</w>
अटैच
अटैच/E</w>
अटैचमेंट</w>
अटैचमैंट</w>
अटैच्
अटैच्ड</w>
अटैन
अटैनड
अटैनडैंट</w>
अटैस्ट
अटैस्टिड</w>
अटैस्टेशन</w>
अटॉर्
अटॉर्नी</w>
अटोक</w>
अट्
अट्ट
अट्ट-स
अट्ट-सट्ट</w>
अट्ट/FEM</w>
अट्टक/M</w>
अट्टन</w>
अट्टपुष्प
अट्टपुष्पक</w>
अट्टम</w>
अट्टस
अट्टसट्ट/M</w>
अट्टहास
अट्टहास/EM</w>
अट्टहासपूर्ण</w>
अट्टहासपूर्वक</w>
अट्टहास्य</w>
अट्टाल
अट्टाल/E</w>
अट्टालक</w>
अट्टालकीय</w>
अट्टालिका
अट्टालिका/JK</w>
अट्टालिकाकार</w>
अट्ठ
अट्ठय
अट्ठयास
अट्ठयासी
अट्ठयासी</w>
अट्ठयासीवाँ</w>
अट्ठा/GCI</w>
अट्ठाइ
अट्ठाइस/H</w>
अट्ठाई
अट्ठाईस
अट्ठाईस</w>
अट्ठाईसवाँ</w>
अट्ठाईसवीं</w>
अट्ठानबे
अट्ठानबे/H</w>
अट्ठानवे</w>
अट्ठानवेवाँ</w>
अट्ठारह
अट्ठारह/H</w>
अट्ठाव
अट्ठावन
अट्ठावन/H</w>
अट्ठास
अट्ठासी/H</w>
अट्या</w>
अठ
अठ-</w>
अठ/F</w>
अठंग</w>
अठई
अठई</w>
अठईं</w>
अठक
अठको
अठकोना</w>
अठकौ
अठकौसल</w>
अठख
अठखंड
अठखंडा/G</w>
अठखेल
अठखेल/E</w>
अठखेलपन/F</w>
अठखेलिया</w>
अठखेलियाँ</w>
अठखेली
अठखेलीपूर्ण</w>
अठगु
अठगुना/G</w>
अठताल</w>
अठना</w>
अठन्न
अठन्नियों</w>
अठन्नी</w>
अठप
अठपह
अठपहल
अठपहला/GC</w>
अठपहलू</w>
अठपा
अठपाई</w>
अठपाया</w>
अठपेजी</w>
अठभु
अठभुज/F</w>
अठमास
अठमासा/IGC</w>
अठरीय</w>
अठल
अठल/F</w>
अठला/734sTv</w>
अठलाहट</w>
अठवा
अठवाँ
अठवाँसा/G</w>
अठवाडे</w>
अठवार
अठवारा/IGC</w>
अठवाली</w>
अठवाड़ा/C</w>
अठह
अठहतर
अठहतरवीं</w>
अठहत्त
अठहत्तर
अठहत्तर/H</w>
अठा/734sTv</w>
अठाइ
अठाइयो</w>
अठाइस</w>
अठाइसवाँ</w>
अठाई
अठाईस/H</w>
अठान
अठानबे
अठानबे</w>
अठानबेवाँ</w>
अठानवे
अठानवेवाँ</w>
अठारह
अठारह/H</w>
अठारहपेजी</w>
अठारहवां</w>
अठाव
अठावन</w>
अठावीस</w>
अठासी
अठासी</w>
अठासीवाँ</w>
अठेल</w>
अठो
अठोतर/E</w>
अठोरा</w>
अठोस</w>
अठौड़ी</w>
अड
अड</w>
अडंगा</w>
अडंगे
अडंगेबा
अडंगेबाजी</w>
अडंगेबाज़</w>
अडंड</w>
अडक</w>
अडग</w>
अडचन</w>
अडना</w>
अडब
अडबंगा</w>
अडर
अडर-उ
अडर-उडर</w>
अडर</w>
अडल</w>
अडल्
अडल्ट
अडल्ट</w>
अडल्टर
अडल्टरेशन</w>
अडवान्
अडवान्स</w>
अडवे
अडवेंच
अडवेंचर</w>
अडस
अडसट्टा</w>
अडाना</w>
अडाब</w>
अडि
अडिग
अडिग/sT</w>
अडिगत/F</w>
अडिगपन</w>
अडियल</w>
अडिया</w>
अडिशन
अडिशनल</w>
अडिश्
अडिश्नल</w>
अडीठ</w>
अडूस
अडूसा/C</w>
अडे
अडेजि
अडेजिओ</w>
अडॉ
अडॉपट
अडॉपटर</w>
अडॉप्
अडॉप्टेड</w>
अडॉबी</w>
अडॉल्
अडॉल्फ</w>
अडो
अडोबी</w>
अडोल</w>
अडोस</w>
अड्
अड्ड
अड्डन</w>
अड्डा/GCI
अड्डा/GCIB</w>
अड्डे
अड्डेपर</w>
अड्डेबाज/E</w>
अड्डेबाज़
अड्डेबाज़/EM</w>
अड्रे
अड्रेस</w>
अढ
अढल
अढलनीय</w>
अढहन</w>
अढाना</w>
अढै</w>
अढैया</w>
अण
अणक</w>
अणि</w>
अणिमा/JK</w>
अणी</w>
अणीय</w>
अणु
अणु-
अणु-</w>
अणु-अस्
अणु-अस्त्र/M</w>
अणु-विद्य
अणु-विद्युत</w>
अणु/R
अणु/RsT</w>
अणुक
अणुक/F</w>
अणुकणिका</w>
अणुकथा</w>
अणुक्रमा
अणुक्रमांक</w>
अणुजीव
अणुजीव-विज्ञान/M</w>
अणुजीव/M</w>
अणुजै
अणुजैविक
अणुजैविकी
अणुजैविकीय</w>
अणुजैविकीविद</w>
अणुत्व</w>
अणुद्र
अणुद्रुत</w>
अणुनाभ
अणुनाभिक</w>
अणुब
अणुबम/M</w>
अणुभा</w>
अणुमात्र</w>
अणुमात्रिक</w>
अणुयुग</w>
अणुल</w>
अणुव
अणुवत्त</w>
अणुवाद/ME</w>
अणुवी
अणुवीक्षण/M</w>
अणुव्र
अणुव्रत</w>
अणुव्री
अणुव्रीह
अणुव्रीहि</w>
अणुशक्ति/PQ</w>
अणो
अणोरण
अणोरणीयान</w>
अणोर्द</w>
अण्
अण्ड
अण्ड-
अण्ड-कोश</w>
अण्ड-कोष</w>
अण्ड-ब
अण्ड-बण्ड</w>
अण्ड/FEDM</w>
अण्डक
अण्डक</w>
अण्डकगोल</w>
अण्डकाश
अण्डकाश्म</w>
अण्डको
अण्डकोश
अण्डकोश</w>
अण्डकोशयुक्त</w>
अण्डकोष</w>
अण्डग
अण्डगन्
अण्डगन्त्रि</w>
अण्डजनन</w>
अण्डधानी</w>
अण्डन
अण्डनिक्षे
अण्डनिक्षेपक</w>
अण्डनिक्षेपण</w>
अण्डपु
अण्डपुटिका</w>
अण्डप्र
अण्डप्रजनक</w>
अण्डब
अण्डबण्ड</w>
अण्डमान/E</w>
अण्डरूप</w>
अण्डव
अण्डवक्र</w>
अण्डवृद्धि</w>
अण्डा
अण्डाकार</w>
अण्डाणु</w>
अण्डाभ</w>
अण्डाश
अण्डाशय/E</w>
अण्डाशयश
अण्डाशयशोध</w>
अण्डोत्सर्ग</w>
अण्णा</w>
अत
अत/F</w>
अतं
अतं</w>
अतंद्र
अतंद्र/FEsT</w>
अतंर
अतंरह
अतंरही
अतंरहीन/M</w>
अतंरा
अतंरालीय</w>
अतंरिक्ष</w>
अतंरीप</w>
अतंर्
अतंर्ग्रहण</w>
अतंर्मुखी</w>
अतंर्वि
अतंर्विरोध</w>
अतंश्चेतना</w>
अतंस्</w>
अतः
अतःपर
अतःपरं</w>
अतःपरम</w>
अतःपरम्
अतःपरम्</w>
अतए
अतएव</w>
अतकन
अतकनीक
अतकनीकता</w>
अतक्
अतक्ता</w>
अतक्र्य</w>
अतट</w>
अतत्
अतत्त
अतत्ताही</w>
अतत्पर
अतत्परतापूर्वक</w>
अतथ
अतथर्क
अतथर्किक</w>
अतथ्य
अतथ्य/M</w>
अतथ्यत</w>
अतथ्यित</w>
अतद्
अतद्गुण</w>
अतद्स
अतद्सदृश</w>
अतनु</w>
अतप/M</w>
अतमस</w>
अतमा</w>
अतमि
अतमि</w>
अतमिस्र</w>
अतर
अतरंग
अतरंगित</w>
अतरदान</w>
अतरौटा</w>
अतर्क
अतर्कपूर्ण</w>
अतर्कबुद्ध
अतर्कबुद्धि
अतर्कबुद्धिवाद</w>
अतर्कसंगत</w>
अतर्पण</w>
अतल
अतल-व
अतल-वितल</w>
अतलस/E</w>
अतलांत
अतलांत</w>
अतलांतक</w>
अतलांतिक
अतलांतिक</w>
अतलांतिकपार
अतलांतिकपारीय</w>
अतश</w>
अता
अता-प
अता-पता</w>
अताइयों</w>
अतात्विक</w>
अताना</w>
अताप
अताप/EsT</w>
अतापरूपण</w>
अताब
अताब</w>
अताबख़
अताबख़्
अताबख़्श</w>
अतार्
अतार्किक</w>
अताल
अतालिया</w>
अताली
अतालीक़</w>
अति
अति-
अति-अल्प
अति-अल्प</w>
अति-आधुन
अति-आधुनिक</w>
अति-उ
अति-उत्स
अति-उत्साह
अति-उत्साहयुक्त</w>
अति-उत्साही</w>
अति-का
अति-कामुक</w>
अति-दु
अति-दुष्ट</w>
अति-ध
अति-धो
अति-धोखा
अति-धोखा-दायक</w>
अति-व्ययी</w>
अति-श
अति-शोषण</w>
अति/Q
अति/QM
अति/QMU</w>
अतिउ
अतिउत्ते
अतिउत्तेजनशील</w>
अतिक
अतिकथ
अतिकथ/MF</w>
अतिकाय</w>
अतिकाल</w>
अतिक्र
अतिक्रण</w>
अतिक्रमण
अतिक्रमण/M</w>
अतिक्रमणकारी</w>
अतिक्रमणपूर्ण</w>
अतिक्रमणशील</w>
अतिक्रमणीय</w>
अतिक्रांत
अतिक्रांत/sTF</w>
अतिक्राम
अतिक्रामक/M</w>
अतिक्रामी</w>
अतिक्राम्य</w>
अतिग
अतिगतिशील</w>
अतिगव</w>
अतिग्रह/EM</w>
अतिग्राह्य</w>
अतिघ</w>
अतिच
अतिचंडा</w>
अतिचु
अतिचुंब
अतिचुंबक
अतिचुंबकीयम</w>
अतिच्छ
अतिच्छत्र</w>
अतिज
अतिजव</w>
अतिजीव
अतिजीवित/F</w>
अतिजीवियों</w>
अतित
अतितरा
अतितराभावी</w>
अतितर्क
अतितर्कानुसार</w>
अतिथ
अतिथ</w>
अतिथि
अतिथि-कक्ष/M</w>
अतिथि-गृह</w>
अतिथि-प
अतिथि-पूजा</w>
अतिथि-भवन</w>
अतिथि-श
अतिथि-शाला</w>
अतिथि-स
अतिथि-सत्कार</w>
अतिथि-सेवा</w>
अतिथि/QM</w>
अतिथिगृह/M</w>
अतिथित्व/M</w>
अतिथिदेव</w>
अतिथिधर्म
अतिथिधर्म/ME</w>
अतिथिप
अतिथिपूजा</w>
अतिथिभवन</w>
अतिथिशाला/JK</w>
अतिथिस
अतिथिसत्कार</w>
अतिथिसेव
अतिथिसेवा</w>
अतिदान</w>
अतिदु
अतिदुर्गत</w>
अतिदुष्ट</w>
अतिदेश
अतिदेशन/M</w>
अतिध
अतिधन्वा</w>
अतिधर्म
अतिधर्मनिष्ठ</w>
अतिधारण</w>
अतिधो
अतिधोखाद
अतिधोखादायक</w>
अतिन
अतिना
अतिनाटक</w>
अतिनाभ</w>
अतिनिद्र</w>
अतिनूतनीय</w>
अतिपतित</w>
अतिपा
अतिपांड
अतिपांडुक
अतिपांडुकंबला</w>
अतिपातक</w>
अतिपीड़ा</w>
अतिप्र
अतिप्रतिकर्म</w>
अतिप्रसिद्ध
अतिप्रसिद्धोपदेश</w>
अतिप्रिय</w>
अतिबृ
अतिबृहत</w>
अतिबेल</w>
अतिभार
अतिभार/sTM</w>
अतिभोग
अतिभोगिता</w>
अतिम
अतिमंज
अतिमंजुला</w>
अतिमर्श
अतिमर्श/M</w>
अतिमा/JK</w>
अतिमात्र</w>
अतिमान
अतिमानव
अतिमानव/EM</w>
अतिर
अतिरंज
अतिरंजना
अतिरंजनाकार</w>
अतिरंजनावाद</w>
अतिरंजित</w>
अतिरक्त
अतिरक्तिक
अतिरक्तिकंबला</w>
अतिरन्
अतिरन्जित</w>
अतिरसा</w>
अतिरिक्
अतिरिक्त/sTM</w>
अतिरिक्ताय
अतिरिक्तायामी</w>
अतिरित/M</w>
अतिरे
अतिरेक
अतिरेक/ME</w>
अतिरेकना</w>
अतिरेकपूर्ण</w>
अतिरोग/M</w>
अतिल
अतिलंध
अतिलंधान</w>
अतिलाभ</w>
अतिलो
अतिलोभी</w>
अतिलोलु
अतिलोलुप</w>
अतिव</w>
अतिवक्ता</w>
अतिवानी</w>
अतिवाह/M</w>
अतिविक
अतिविकट</w>
अतिविश्वास</w>
अतिवेद
अतिवेदना</w>
अतिव्यय
अतिव्यय/E</w>
अतिशय
अतिशय/sTME</w>
अतिशयीकरण/M</w>
अतिशयो
अतिशयोक्त</w>
अतिशयोक्ति
अतिशयोक्ति</w>
अतिशयोक्तिपूर्ण/sT</w>
अतिशयोक्तियाँ</w>
अतिशयोप
अतिशयोपमा</w>
अतिशाय
अतिशायन/M</w>
अतिशी
अतिशीघ
अतिशीघ्र/sT</w>
अतिशीत</w>
अतिशीतन/M</w>
अतिश्र
अतिश्रान्त</w>
अतिस
अतिसर्पण/M</w>
अतिसह
अतिसहजित</w>
अतिसार
अतिसार/E</w>
अतिसारकी</w>
अतिसारग्रस्त</w>
अतिसाह
अतिसाहसिक</w>
अतिस्वनगामी</w>
अतिह
अतिहस
अतिहसित/M</w>
अती
अतींद्र
अतींद्र</w>
अतींद्रिय/M</w>
अतींद्रियवाद</w>
अतीक</w>
अतीक्ष
अतीक्ष्
अतीक्ष्ण/sT</w>
अतीत
अतीत-
अतीत-अवलोक
अतीत-अवलोकन</w>
अतीत/sTM</w>
अतीतकालीन</w>
अतीतगत</w>
अतीतप्र
अतीतप्रे
अतीतप्रेम</w>
अतीतवाद
अतीतवाद/E</w>
अतीतवादवि
अतीतवादविरोधी</w>
अतीताव
अतीतावलोकन</w>
अतीतावस्था</w>
अतीति</w>
अतीतोन्
अतीतोन्मुख/E</w>
अतीद्र
अतीद्रि
अतीद्रिं
अतीद्रिंय</w>
अतीन्द्र
अतीन्द्रिय</w>
अतीन्द्रियवाद</w>
अतीब</w>
अतीव
अतीव/M</w>
अतीव्र/sT</w>
अतीस
अतीस/LM</w>
अतु
अतुंग/sT</w>
अतुंद
अतुंद/sT</w>
अतुंदिनी</w>
अतुक
अतुकांत
अतुकांत</w>
अतुकांतत</w>
अतुकान्त
अतुकान्त-त
अतुकान्त-तुक
अतुकान्त-तुकान्त</w>
अतुद
अतुदिनी</w>
अतुर
अतुरा/734sTv</w>
अतुराइयो</w>
अतुरिया</w>
अतुल
अतुल/sTM</w>
अतुलत/F</w>
अतुलितत/F</w>
अतुष्ट
अतुष्ट/E</w>
अतुष्ट्य/sT</w>
अतृ
अतृंप
अतृंप्त
अतृंप्तत</w>
अतृप्त</w>
अतृप्तत</w>
अतृप्य</w>
अतृष
अतृष/F</w>
अतृषित</w>
अतृष्ण
अतृष्ण/F</w>
अतेज</w>
अतेव</w>
अतोल</w>
अतौ
अतौल</w>
अत्
अत्क</w>
अत्त
अत्तक</w>
अत्तर</w>
अत्तवार</w>
अत्ता</w>
अत्ताब
अत्ताबिया</w>
अत्ताबी</w>
अत्ति</w>
अत्तिका/G</w>
अत्तु
अत्तुत्तम</w>
अत्त्
अत्त्फ़
अत्त्फ़ाल</w>
अत्न</w>
अत्नु</w>
अत्म
अत्मनि</w>
अत्मोप
अत्मोपजीवी</w>
अत्य
अत्यंकुश</w>
अत्यंत
अत्यंत/sTM</w>
अत्यंतत/F</w>
अत्यंता
अत्यंताति
अत्यंतातिशयोक्ति</w>
अत्यंताभाव/M</w>
अत्यंतिक/sT</w>
अत्यंतीन</w>
अत्यंत्र</w>
अत्यध
अत्यधिक/sTM</w>
अत्यधित</w>
अत्यध्
अत्यध्कि</w>
अत्यनु
अत्यनुभाविक</w>
अत्यन्त
अत्यन्त/sTM</w>
अत्यभि
अत्यभिदत्त</w>
अत्यभिदान</w>
अत्यभिन
अत्यभिनय</w>
अत्यम
अत्यम्
अत्यम्ल
अत्यम्ल</w>
अत्यम्लपर्णी</w>
अत्यय/M</w>
अत्यर्थ</w>
अत्यल
अत्यलंकृत
अत्यलंकृत/sT</w>
अत्यल्प
अत्यल्प/sT</w>
अत्यल्पत/F</w>
अत्या
अत्याकर्ष
अत्याकर्षक</w>
अत्याकलन</w>
अत्याकलित</w>
अत्याकार
अत्याकारता</w>
अत्याग/E</w>
अत्याग्रह</w>
अत्याचार
अत्याचारपूर्ण</w>
अत्याचारप्रिय/sT</w>
अत्याचारित/F</w>
अत्यात
अत्यातंक</w>
अत्याध
अत्याधिक/sT</w>
अत्याधुन
अत्याधुनिक</w>
अत्यान
अत्यानंद</w>
अत्यानन्द</w>
अत्याभूषित</w>
अत्याय/M</w>
अत्यायु</w>
अत्यार्त
अत्यार्तव</w>
अत्याल
अत्यालं
अत्यालंकृत</w>
अत्यालो
अत्यालोची</w>
अत्याव
अत्यावश्
अत्यावश्कता</w>
अत्यावश्य
अत्यावश्यक/sT</w>
अत्यासक्ति</w>
अत्याहार
अत्याहार/ME</w>
अत्याहारिता</w>
अत्यु
अत्युक्त</w>
अत्युक्ति</w>
अत्युग्र
अत्युग्र/M</w>
अत्युच्च
अत्युच्च/sT</w>
अत्युच्चपद</w>
अत्युत्
अत्युत्त
अत्युत्तमत</w>
अत्युत्पाद
अत्युत्पादन/M</w>
अत्युत्साह
अत्युत्साह/EM</w>
अत्युत्सुक</w>
अत्युप
अत्युपयोग</w>
अत्युपलब्धि</w>
अत्युल्ल
अत्युल्लास</w>
अत्युष्ण/sT</w>
अत्यू
अत्यूह/M</w>
अत्योक्ति</w>
अत्र
अत्र/E</w>
अत्रदान</w>
अत्रभव
अत्रभवान/M</w>
अत्रस्त</w>
अत्रस्थान</w>
अत्रस्य</w>
अत्रास/LM</w>
अत्रि
अत्रिगुण</w>
अत्रिज</w>
अत्रिजात</w>
अत्रिन
अत्रिनेत्र
अत्रिनेत्रज</w>
अत्रिप्रिया</w>
अत्रेय</w>
अत्व
अत्वर
अत्वरित/sT</w>
अत्सम</w>
अत्फ़</w>
अथ
अथ-इ
अथ-इति</w>
अथ/M</w>
अथऊ</w>
अथक/sT</w>
अथकन</w>
अथकान</w>
अथच</w>
अथमना</w>
अथरा/G</w>
अथर्थ
अथर्थवेद</w>
अथर्व
अथर्व-श
अथर्व-शि
अथर्व-शिख
अथर्व-शिख/F</w>
अथर्व-शिखोपनिषद</w>
अथर्व-शिखोपनिषद्</w>
अथर्व-शिर</w>
अथर्व-शिरोप
अथर्व-शिरोपनिष
अथर्व-शिरोपनिषद</w>
अथर्व-शिरोपनिषद्</w>
अथर्व/MF</w>
अथर्वण/M</w>
अथर्ववेद
अथर्ववेद</w>
अथर्ववेदीय</w>
अथर्वशिखा</w>
अथव
अथव/MFD</w>
अथविच्छंभु</w>
अथशेष</w>
अथाई/O</w>
अथान/F</w>
अथाप
अथापा
अथापास्
अथापास्काव</w>
अथार
अथारि
अथारिटी</w>
अथारिज़
अथारिज़ेशन</w>
अथाह
अथाहत/F</w>
अथिर</w>
अथीक्ष
अथीक्षक/M</w>
अथेंस</w>
अथॉ
अथॉर
अथॉरटी</w>
अथॉराइज़्ड</w>
अद
अदं
अदंत
अदंत/M</w>
अदंत्य/sT</w>
अदंभि
अदंभित्व</w>
अदक्षिण</w>
अदग</w>
अदग्ध</w>
अदज
अदजरिया</w>
अदण्ड
अदण्ड</w>
अदण्डनीय</w>
अदत्त
अदत्त/MF</w>
अदत्तचित्त</w>
अदत्ताव
अदत्तावधान</w>
अदद/M</w>
अदनवा
अदनवाटिका</w>
अदनान</w>
अदन्त</w>
अदब
अदब/
अदब/g
अदब/gf
अदब/gf</w>
अदबकार</w>
अदबद
अदबदा/734sTv</w>
अदबदाइयो</w>
अदबनवा
अदबनवाज़</w>
अदभु
अदभुत/M</w>
अदम
अदम-</w>
अदमताम
अदमतामील/LM</w>
अदमप
अदमपैर
अदमपैरवी</w>
अदमम
अदममौ
अदममौज़
अदममौज़ूद
अदममौज़ूदगी</w>
अदय
अदय/F</w>
अदयालु</w>
अदर
अदरक
अदरक/EM</w>
अदरा
अदरा/734sTv</w>
अदराइयो</w>
अदरावन</w>
अदर्
अदर्श</w>
अदर्शित</w>
अदल
अदलनीय</w>
अदलब
अदलबदल</w>
अदला
अदला-ब
अदला-बदला/G</w>
अदली-
अदली-ब
अदली-बद
अदली-बदली</w>
अदलीय</w>
अदलीयत</w>
अदवा
अदवाइ
अदवाइन</w>
अदवात</w>
अदवान</w>
अदवायन</w>
अदस</w>
अदह
अदह</w>
अदहनशील</w>
अदा
अदा/JK
अदा/JKsT
अदा/JKsTIC</w>
अदाँ
अदाँत</w>
अदांत</w>
अदाकर</w>
अदाकर्त्ता</w>
अदाकार
अदाकार/MFE</w>
अदाग
अदाग/E</w>
अदातव्य</w>
अदान/E</w>
अदान्
अदान्ग
अदान्गमे
अदान्गमे</w>
अदाब
अदाबंदी</w>
अदाय
अदाय</w>
अदायग
अदायगियां</w>
अदायगियों</w>
अदायगी</w>
अदायाद</w>
अदायानु
अदायानुगति</w>
अदायिक</w>
अदायित्व</w>
अदार</w>
अदाल
अदालत
अदालत/MED</w>
अदालय</w>
अदाव
अदावत
अदावत/LME</w>
अदावतन</w>
अदावतप
अदावतपेश
अदावतपेशा</w>
अदास</w>
अदाह
अदाह्य</w>
अदाग़
अदाग़/E</w>
अदि
अदिति
अदितिनंदन</w>
अदिन/M</w>
अदिला
अदिलाबाद</w>
अदिव्य
अदिव्य/F</w>
अदिस</w>
अदिस्ट
अदिस्टि</w>
अदी
अदीक्षित</w>
अदीखा</w>
अदीठ</w>
अदीन</w>
अदीना
अदीनात्मा</w>
अदीब
अदीब/EM</w>
अदीम</w>
अदीमु
अदीमुन्न
अदीमुन्नज़
अदीमुन्नज़ीर</w>
अदीमुल</w>
अदीयम</w>
अदीर्घ</w>
अदीस</w>
अदुरा
अदुराव</w>
अदू
अदूर
अदूरदर्श
अदूरदर्शक</w>
अदूरदर्शितापूर्ण</w>
अदूले</w>
अदूष
अदूषण
अदूषण</w>
अदूषणीकरण</w>
अदृ
अदृश्य
अदृश्य/sTMF</w>
अदृश्यंती</w>
अदृश्यकरण</w>
अदृश्यदर्शन/M</w>
अदृश्यफ
अदृश्यफल/M</w>
अदृश्यमान</w>
अदृश्यीकरण</w>
अदृष्ट
अदृष्ट/M</w>
अदृष्टपूर्व/sT</w>
अदृष्टलिपि</w>
अदृष्टवाद/M</w>
अदृष्टार्थ</w>
अदृष्टि</w>
अदृष्य</w>
अदेख
अदेखा/G</w>
अदेय
अदेय-द
अदेय-देय</w>
अदेव
अदेव/sT</w>
अदेववाद</w>
अदेस</w>
अदेह
अदेह/sTM</w>
अदेहत/F</w>
अदै
अदैव</w>
अदैह
अदैहिक/sT</w>
अदो
अदोलन</w>
अदोष
अदोष-स
अदोष-सदोष</w>
अदोष/M</w>
अदोड़ी</w>
अद्
अद्घ
अद्घम</w>
अद्घा</w>
अद्द
अद्द</w>
अद्दक</w>
अद्ध
अद्ध/FEDM</w>
अद्धम</w>
अद्धरज</w>
अद्धाख
अद्धाखल
अद्धाखलासी</w>
अद्न</w>
अद्भु
अद्भुत
अद्भुत-
अद्भुत-रस</w>
अद्भुत/sTM</w>
अद्भुतत्व</w>
अद्भुतस्वन</w>
अद्भुता
अद्भुताकार</w>
अद्भुताल
अद्भुतालय</w>
अद्भुतोप
अद्भुतोपम
अद्भुतोपमा/CI</w>
अद्म
अद्मनि</w>
अद्य
अद्य/M</w>
अद्यकाल</w>
अद्यतन
अद्यतन/sTM</w>
अद्यतनीकरण</w>
अद्यतनीय</w>
अद्यनि</w>
अद्यप
अद्यपि</w>
अद्यपूर्व</w>
अद्यश्व
अद्यश्वीन</w>
अद्यस्क</w>
अद्या
अद्यापि</w>
अद्याव
अद्यावत</w>
अद्यावधि</w>
अद्यावधिक</w>
अद्यीय</w>
अद्यै
अद्यैव</w>
अद्र
अद्रव</w>
अद्रवण
अद्रवणीयत</w>
अद्रवत</w>
अद्रव्य
अद्रव्य</w>
अद्रव्यत</w>
अद्राव
अद्राव्यत</w>
अद्रि
अद्रि-
अद्रि-क
अद्रि-कन्या</w>
अद्रि-तन
अद्रि-तनया</w>
अद्रि</w>
अद्रिक
अद्रिकन्या</w>
अद्रिका</w>
अद्रिकी
अद्रिकीला</w>
अद्रिकु
अद्रिकुक्ष
अद्रिकुक्षि</w>
अद्रिछि
अद्रिछिद्ध</w>
अद्रिज/F</w>
अद्रित
अद्रितन
अद्रितनया</w>
अद्रिद्र
अद्रिद्रो
अद्रिद्रोणी</w>
अद्रिद्विट</w>
अद्रिपति</w>
अद्रिभि
अद्रिभिद</w>
अद्रिभू</w>
अद्रिराज</w>
अद्रिव
अद्रिवह
अद्रिवह्रि</w>
अद्रिशय
अद्रिशय्य</w>
अद्रिसान
अद्रिसानु</w>
अद्रिसार</w>
अद्रिसुता</w>
अद्रींद्र</w>
अद्रीश</w>
अद्रुत</w>
अद्रो
अद्रोघ
अद्रोघ</w>
अद्रोघत</w>
अद्रोह/E</w>
अद्र्ध
अद्र्ध</w>
अद्र्धयायावर</w>
अद्र्य
अद्र्यलय</w>
अद्र्यालय</w>
अद्ल
अद्ल</w>
अद्लपर
अद्लपरवर</w>
अद्व
अद्वय
अद्वय/M</w>
अद्वयत
अद्वयतार
अद्वयतारक</w>
अद्वयतारकोप
अद्वयतारकोपनिष
अद्वयतारकोपनिषद</w>
अद्वष
अद्वषपूर्ण</w>
अद्वार</w>
अद्वि
अद्विग्न</w>
अद्विज</w>
अद्वित
अद्वितीय/sTM</w>
अद्वित्व</w>
अद्विपे
अद्विपेण</w>
अद्वेष
अद्वेष/E</w>
अद्वेषपूर्ण</w>
अद्वै
अद्वैत
अद्वैतब्रह्म</w>
अद्वैतिक</w>
अद्वैध</w>
अद्‌
अद्‌भ
अद्‌भुत</w>
अध
अध-</w>
अध-उ
अध-उबला</w>
अध-पका</w>
अध/F</w>
अधः
अधः</w>
अधःक्रिया</w>
अधःचेत
अधःचेतक</w>
अधःपात</w>
अधःपुष्पी</w>
अधःवाचक</w>
अधःवाची</w>
अधःशयन</w>
अधःशिरा</w>
अधःस्वस्त
अधःस्वस्तिक/M</w>
अधक
अधकचर
अधकचरा/G</w>
अधकच्च
अधकच्चा/G</w>
अधकच्छा</w>
अधकट</w>
अधकपार
अधकपारी</w>
अधकर/E</w>
अधकहा</w>
अधकिया</w>
अधकु
अधकुटा</w>
अधख
अधखि
अधखिलन</w>
अधखिला/G</w>
अधग
अधगला/G</w>
अधगी
अधगीला</w>
अधगोर
अधगोरा/G</w>
अधचना</w>
अधज
अधजगा</w>
अधजम
अधजमा/G</w>
अधढ
अधढँ
अधढँकी</w>
अधन</w>
अधनंग
अधनंगा/GC</w>
अधना
अधनाढ्य</w>
अधन्न
अधन्ना/IGC</w>
अधन्य</w>
अधप
अधपक
अधपका/GCI</w>
अधपग
अधपगला</w>
अधपन्ना</w>
अधपि
अधपिघ
अधपिघले</w>
अधपिसा</w>
अधपे
अधपेट</w>
अधपढ़
अधपढ़ा/G</w>
अधफर</w>
अधब
अधबँ
अधबँटाई</w>
अधबटाई</w>
अधबना/G</w>
अधबय
अधबयसू</w>
अधबर</w>
अधबांच</w>
अधबी
अधबीच/M</w>
अधबु
अधबुझ
अधबुझा/G</w>
अधबुध</w>
अधबूढ़
अधबूढ़ा</w>
अधबै
अधबैसू</w>
अधभ
अधभरा/G</w>
अधभी
अधभीगा</w>
अधम
अधम-उ
अधम-उत्तम</w>
अधम/sTMFE</w>
अधमजन</w>
अधमत/F</w>
अधमतम</w>
अधमतापूर्वक</w>
अधमरा/G</w>
अधमर्
अधमर्ण</w>
अधमा
अधमा-
अधमा-नाय
अधमा-नायिका</w>
अधमांग</w>
अधमाई</w>
अधमाध
अधमाधम</w>
अधमु
अधमुँ
अधमुँदन</w>
अधमुँदा/G</w>
अधमुआ</w>
अधमै
अधमैला</w>
अधर
अधर-बि
अधर-बिंब</w>
अधर-बिम्ब</w>
अधर/sTMFE</w>
अधरक
अधरकमल</w>
अधरज</w>
अधरप
अधरपल्ल
अधरपल्लव</w>
अधरबि
अधरबिंब</w>
अधरबिम्ब</w>
अधरम
अधरमध
अधरमधु</w>
अधरयुक्त</w>
अधररस</w>
अधरसु
अधरसुधा</w>
अधरस्थित/sT</w>
अधरा
अधरांग
अधरांग</w>
अधरांगघात</w>
अधराकार</w>
अधरात</w>
अधरामृत</w>
अधरासव</w>
अधरास्त
अधरास्ता/C</w>
अधराह</w>
अधरिका</w>
अधरीय</w>
अधरु
अधरुव/sT</w>
अधरो
अधरोत्तर</w>
अधरोत्थ
अधरोत्थक</w>
अधरोत्था</w>
अधरोत्थान</w>
अधरोष्ठ
अधरोष्ठ/M</w>
अधरौ
अधरौष्ठ</w>
अधर्
अधर्</w>
अधर्म
अधर्म-स
अधर्म-सध्
अधर्म-सध्द
अधर्म-सध्दर्म</w>
अधर्म/sTME</w>
अधर्मज
अधर्मज/sTM</w>
अधर्मपना</w>
अधर्मशत्रु</w>
अधर्मा
अधर्मात्मा</w>
अधर्मि
अधर्मिष्ट</w>
अधऱ
अधऱ</w>
अधलि
अधलिखा</w>
अधले
अधलेट
अधलेटा/C</w>
अधवल</w>
अधवारी</w>
अधशिरा</w>
अधश्च
अधश्चर</w>
अधश्चर्म
अधश्चर्म</w>
अधश्चर्मीय</w>
अधश्चेतक</w>
अधश्चौर</w>
अधश्व
अधश्वर/ME</w>
अधश्वेतक</w>
अधस
अधसाल
अधसाला</w>
अधसालाना</w>
अधसू
अधसूखा</w>
अधसेरा</w>
अधस्
अधस्</w>
अधस्त
अधस्तन</w>
अधस्तल</w>
अधस्तवक</w>
अधस्स्वस्तिक</w>
अधह्
अधह्पतन</w>
अधा
अधा/sT
अधा/sTB</w>
अधातु</w>
अधात्विक</w>
अधान
अधाना</w>
अधान्य/sT</w>
अधामार्ग</w>
अधार
अधार/E</w>
अधारण</w>
अधारिका</w>
अधारिया/JK</w>
अधालय</w>
अधावट</w>
अधि
अधि-
अधि-</w>
अधि-दिन</w>
अधि-दिवस</w>
अधि-मास</w>
अधि/V</w>
अधिक
अधिक-
अधिक-अंग</w>
अधिक-तिथि</w>
अधिक-दिन</w>
अधिक-मास/M</w>
अधिक/F
अधिक/FrsT</w>
अधिकंडक्टर</w>
अधिककोण</w>
अधिकतः</w>
अधिकतम
अधिकतम/sTM</w>
अधिकतमकरण</w>
अधिकतमत/F</w>
अधिकतर
अधिकतर/sTM</w>
अधिकतरत/F</w>
अधिकताई</w>
अधिकतापूर्ण</w>
अधिकतिथि</w>
अधिकत्तर</w>
अधिकदिन</w>
अधिकमान</w>
अधिकमास/M</w>
अधिकर/M</w>
अधिकरण
अधिकरण-
अधिकरण-म
अधिकरण-मंडप</w>
अधिकरण-मण्ड
अधिकरण-मण्डप</w>
अधिकरण-श
अधिकरण-शुल्क</w>
अधिकरण-सिद्धांत</w>
अधिकरण/ME</w>
अधिकरणमंडप</w>
अधिकरणमण्ड
अधिकरणमण्डप</w>
अधिकरणश
अधिकरणशुल्क</w>
अधिकरणसिद्ध
अधिकरणसिद्धांत</w>
अधिकरणिक</w>
अधिकरण्य</w>
अधिकर्
अधिकर्णिक</w>
अधिकर्म
अधिकर्म/FE</w>
अधिकर्मकर</w>
अधिकर्मचारित/F</w>
अधिकश्र
अधिकश्रम</w>
अधिकष्ट</w>
अधिका/734sTv</w>
अधिकाँ
अधिकाँश/M</w>
अधिकांक्ष
अधिकांक्षणा</w>
अधिकांग</w>
अधिकांश
अधिकांश/M</w>
अधिकांशत</w>
अधिकांशतः</w>
अधिकांशतया</w>
अधिकांशीय</w>
अधिकाइयो</w>
अधिकाध
अधिकाधिक</w>
अधिकाम</w>
अधिकाय</w>
अधिकार
अधिकार-
अधिकार-अभिलेख
अधिकार-अभिलेख/M</w>
अधिकार-क्षेत्र/M</w>
अधिकार-पत्र/M</w>
अधिकार-प्र
अधिकार-प्रदत्त</w>
अधिकार-रहित/sT</w>
अधिकार-लिप्सा</w>
अधिकार-वि
अधिकार-विरुद्ध</w>
अधिकार/M
अधिकार/MV
अधिकार/MVE
अधिकार/MVEq</w>
अधिकारक</w>
अधिकारक्षेत्र</w>
अधिकारगत</w>
अधिकारच्युत</w>
अधिकारण</w>
अधिकारत</w>
अधिकारतः</w>
अधिकारत्व</w>
अधिकारदत्त</w>
अधिकारदान</w>
अधिकारना</w>
अधिकारपत्र/M</w>
अधिकारपूर्ण/sT</w>
अधिकारपूर्वक/M</w>
अधिकारप्राप्त</w>
अधिकारभागी</w>
अधिकारयुक्त</w>
अधिकारयोग्य</w>
अधिकारर</w>
अधिकाररहित/sT</w>
अधिकारवाद/E</w>
अधिकारशाली</w>
अधिकारशून्य</w>
अधिकारसं
अधिकारसंगत</w>
अधिकारसंपन्न</w>
अधिकारस्
अधिकारस्क्षेत्र</w>
अधिकारस्थ</w>
अधिकारहरण</w>
अधिकारहीन/sT</w>
अधिकारहीनतः</w>
अधिकारांत
अधिकारांतर्गत</w>
अधिकारातीत
अधिकारातीत/M</w>
अधिकारात्मक</w>
अधिकाराधीन</w>
अधिकाराभि
अधिकाराभिष
अधिकाराभिषेक</w>
अधिकारिक/EM</w>
अधिकारिणी</w>
अधिकारिय/M</w>
अधिकारी
अधिकारी-
अधिकारी-तंत्र</w>
अधिकारी-तन्त्र</w>
अधिकारी-वर्ग/M</w>
अधिकारी/5
अधिकारी/5O4sTv</w>
अधिकारी</w>
अधिकारीअनुज्ञ
अधिकारीअनुज्ञप्ति</w>
अधिकारीगण</w>
अधिकारीज
अधिकारीजक़
अधिकारीजक़ात
अधिकारीजक़ातखाना</w>
अधिकारीत
अधिकारीतंत्र/M</w>
अधिकारीन
अधिकारीनर्
अधिकारीनर्सर
अधिकारीनर्सरी</w>
अधिकारीप
अधिकारीपार्
अधिकारीपार्टी</w>
अधिकारीपेट
अधिकारीपेटेंट</w>
अधिकारीप्र
अधिकारीप्रादेशिक</w>
अधिकारीफ
अधिकारीफोट
अधिकारीफोटो</w>
अधिकारीब
अधिकारीबंद
अधिकारीबंदर
अधिकारीबंदरगाह</w>
अधिकारीभविष्य</w>
अधिकारीमान
अधिकारीमानचित्र</w>
अधिकारीय</w>
अधिकारीर
अधिकारीरजि
अधिकारीरजिस्ट
अधिकारीरजिस्ट्र
अधिकारीरजिस्ट्री</w>
अधिकारीरे
अधिकारीरेल</w>
अधिकारीवर्ग</w>
अधिकारीसर्वेक्षण</w>
अधिकारेत
अधिकारेतर</w>
अधिकारेतरत</w>
अधिकार्थ/E</w>
अधिकाल
अधिकाल</w>
अधिकालीन</w>
अधिकाश
अधिकाशंत</w>
अधिकि
अधिकिरीट</w>
अधिकील
अधिकीलन</w>
अधिकु
अधिकुंचन</w>
अधिकुल</w>
अधिकृ
अधिकृच्छ
अधिकृच्छ्र</w>
अधिकृत
अधिकृत/sTM</w>
अधिकृतत/F</w>
अधिकृति</w>
अधिकेन्द्र
अधिकेन्द्र</w>
अधिको
अधिकोणीय</w>
अधिकोश</w>
अधिकोष</w>
अधिकोषण</w>
अधिक्य</w>
अधिक्र
अधिक्रम/E</w>
अधिक्रमण/M</w>
अधिक्रमित</w>
अधिक्रय/M</w>
अधिक्रांत/F</w>
अधिक्रान्त</w>
अधिक्रामक</w>
अधिक्रियता</w>
अधिक्रिया
अधिक्रियाशील</w>
अधिक्रीत</w>
अधिक्ष
अधिक्षमता</w>
अधिक्षिप्त</w>
अधिग
अधिगंतव्य</w>
अधिगण</w>
अधिगणन</w>
अधिगण्य</w>
अधिगत</w>
अधिगति</w>
अधिगम
अधिगमन/M</w>
अधिगमनीय</w>
अधिगम्य</w>
अधिगर्भ</w>
अधिगल</w>
अधिगामी</w>
अधिगुण</w>
अधिगृहीत</w>
अधिगोपन</w>
अधिग्रह
अधिग्रह</w>
अधिग्रहण
अधिग्रहणमुक्त</w>
अधिग्रहणशील/sT</w>
अधिग्रहणीय</w>
अधिग्रहीत</w>
अधिग्राह
अधिग्राहक/M</w>
अधिग्राही</w>
अधिग्राह्य</w>
अधिचक्र</w>
अधिचाल
अधिचालित</w>
अधिचालित्र</w>
अधिचित
अधिचित्र
अधिचित्र</w>
अधिचित्रित</w>
अधिचिह्न</w>
अधिचेतन</w>
अधिज
अधिज</w>
अधिजठर</w>
अधिजनन</w>
अधिजि
अधिजिह्व</w>
अधिज्ञात</w>
अधिज्ञान</w>
अधिज्य</w>
अधिट
अधिटंक
अधिटंकण</w>
अधित
अधितंत
अधितंतुरु
अधितंतुरुजा</w>
अधितंत्र
अधितंत्रण</w>
अधितंत्रवादी</w>
अधितंत्रात्मक</w>
अधितट</w>
अधितिथि</w>
अधित्य
अधित्यका/CI</w>
अधित्या
अधित्याग
अधित्याग-पत्र/M</w>
अधित्याग/M</w>
अधित्वचा</w>
अधिद
अधिदंड</w>
अधिदत्त</w>
अधिदर्शक</w>
अधिदर्शन</w>
अधिदश्र
अधिदश्रन</w>
अधिदान</w>
अधिदार्
अधिदार्व</w>
अधिदिन</w>
अधिदिवस</w>
अधिदिष्ट</w>
अधिदेय/M</w>
अधिदेश
अधिदेश/E</w>
अधिदेशाधीन</w>
अधिदै
अधिदैव</w>
अधिदैविक</w>
अधिधायक</w>
अधिधार
अधिधारण</w>
अधिधारित</w>
अधिध्व
अधिध्वन
अधिध्वनिक/E</w>
अधिन
अधिनव</w>
अधिनस्थ</w>
अधिना
अधिनाथ</w>
अधिनाप</w>
अधिनाम/M</w>
अधिनाय
अधिनायक
अधिनायक-त
अधिनायक-तंत्र/M</w>
अधिनायक/EsTM</w>
अधिनायकतंत्र/M</w>
अधिनायकतन्त्र</w>
अधिनायकत्व</w>
अधिनायिका/G</w>
अधिनि
अधिनिय
अधिनियतन</w>
अधिनियम
अधिनियम/M</w>
अधिनियमय/M</w>
अधिनियमित/M</w>
अधिनियो
अधिनियोजन</w>
अधिनिर्
अधिनिर्गमन</w>
अधिनिर्ण
अधिनिर्णय/M</w>
अधिनिर्णायक</w>
अधिनिर्धारण</w>
अधिनिवेश</w>
अधिनिष
अधिनिषेक</w>
अधिनिषेचन</w>
अधिनूतन</w>
अधिनूतनीय</w>
अधिनैतिक</w>
अधिन्या
अधिन्यासक</w>
अधिप
अधिप/M</w>
अधिपट्
अधिपट्त्र</w>
अधिपति
अधिपति/Q
अधिपति/Q</w>
अधिपतीय</w>
अधिपत्नी</w>
अधिपत्य</w>
अधिपत्र/M</w>
अधिपरिमाण</w>
अधिपार
अधिपारखी</w>
अधिपुरुष</w>
अधिपू
अधिपूंज
अधिपूंजीयन</w>
अधिपूरूष</w>
अधिपूर्ति</w>
अधिप्र
अधिप्रचार</w>
अधिप्रचारक</w>
अधिप्रति
अधिप्रतिनिधि
अधिप्रतिनिधित्व</w>
अधिप्रभार/M</w>
अधिप्रमाण
अधिप्रमाणन</w>
अधिप्रमाणिकता</w>
अधिप्रमाणित/M</w>
अधिप्रवाह</w>
अधिप्रा
अधिप्राणी</w>
अधिप्राप्ति</w>
अधिप्रेय</w>
अधिबच
अधिबचत</w>
अधिबि
अधिबिंता</w>
अधिभार
अधिभार/M</w>
अधिभारित</w>
अधिभावी</w>
अधिभाषा</w>
अधिभू
अधिभू</w>
अधिभूत/M</w>
अधिभूमि</w>
अधिभो
अधिभोक्ता</w>
अधिभोग
अधिभोग/ME</w>
अधिभोगपत्र</w>
अधिभोगिता</w>
अधिभोगेतर</w>
अधिभोजन</w>
अधिभौतिक/sT</w>
अधिम
अधिमंथ</w>
अधिमत/M</w>
अधिमन
अधिमनो
अधिमनोविज्ञान</w>
अधिमा
अधिमांग</w>
अधिमांस
अधिमांस</w>
अधिमांसक</w>
अधिमात्र</w>
अधिमान
अधिमान/ME</w>
अधिमानत</w>
अधिमानतः</w>
अधिमानव
अधिमानव</w>
अधिमानवीय</w>
अधिमानित</w>
अधिमानुष
अधिमानुष</w>
अधिमानुषिक</w>
अधिमानुषीय</w>
अधिमान्य/sT</w>
अधिमास/M</w>
अधिमि
अधिमित्र</w>
अधिमिलन/M</w>
अधिमिश्रण</w>
अधिमु
अधिमुक्
अधिमुक्त</w>
अधिमुक्ति</w>
अधिमुक्तिका</w>
अधिमुद्र
अधिमुद्रण/M</w>
अधिमुह्य</w>
अधिमूर्
अधिमूर्धा</w>
अधिमूल
अधिमूल्य/M</w>
अधिमूल्यांकन</w>
अधिय
अधियज्ञ</w>
अधिया
अधिया/7JK34sTv</w>
अधियाइयो</w>
अधियाच
अधियाचन/F</w>
अधियान/FD</w>
अधियार
अधियार/ME</w>
अधियारिन</w>
अधियुक्
अधियुक्त/E</w>
अधियुक्ति</w>
अधियो
अधियोक्ता</w>
अधियोजक/M</w>
अधियोजन</w>
अधियोध/M</w>
अधियोनि</w>
अधिर
अधिरंत
अधिरंतन</w>
अधिरक्षी</w>
अधिरचना</w>
अधिरथ
अधिरथ-रा
अधिरथ-राधा</w>
अधिरथ/ME</w>
अधिरा
अधिराज/M</w>
अधिराज्य</w>
अधिरु
अधिरुढ़</w>
अधिरू
अधिरूढ़</w>
अधिरो
अधिरोप/M</w>
अधिरोपित</w>
अधिरोह
अधिरोह/M</w>
अधिरोहण/M</w>
अधिरोहणीय</w>
अधिरोहिणी</w>
अधिरोहीय</w>
अधिल
अधिलंघ
अधिलंघक</w>
अधिलंघन</w>
अधिलंघनपूर्ण</w>
अधिलंघित</w>
अधिलाभ
अधिलाभ/M</w>
अधिलाभांश
अधिलाभांश/M</w>
अधिलेखन</w>
अधिव
अधिवंश</w>
अधिवक्ता</w>
अधिवचन</w>
अधिवता</w>
अधिवय
अधिवयस्क/sT</w>
अधिवर
अधिवरीय/sT</w>
अधिवर्ग/M</w>
अधिवर्ण</w>
अधिवर्ष
अधिवर्ष/M</w>
अधिवर्षिता</w>
अधिवष
अधिवषि
अधिवषिर्ता</w>
अधिवसित</w>
अधिवाचक</w>
अधिवाचन</w>
अधिवाची</w>
अधिवानर</w>
अधिवास
अधिवास/ME</w>
अधिवासन/M</w>
अधिवासित/sTF</w>
अधिवासित्व</w>
अधिवासियों</w>
अधिवासी
अधिवासी-
अधिवासी-कृ
अधिवासी-कृष
अधिवासी-कृषक/M</w>
अधिवासीकृ
अधिवासीकृषक</w>
अधिविक
अधिविकर्ष</w>
अधिविक्र
अधिविक्रीत</w>
अधिविज्ञान</w>
अधिवी
अधिवीक्षक</w>
अधिवीक्षण</w>
अधिवृक्
अधिवृक्क
अधिवृक्क-उ
अधिवृक्क-उच्छेदन</w>
अधिवृक्कीय</w>
अधिवृत्ति</w>
अधिवृद्धि</w>
अधिवृष्टि</w>
अधिवेतन</w>
अधिवेद</w>
अधिवेदन</w>
अधिवेश
अधिवेशन
अधिवेशन/M</w>
अधिवेशनवार</w>
अधिवेशनीय</w>
अधिव्य
अधिव्यय</w>
अधिश
अधिशय</w>
अधिशयन</w>
अधिशयित</w>
अधिशायन</w>
अधिशायी</w>
अधिशासन</w>
अधिशासी</w>
अधिशीत
अधिशीतल</w>
अधिशीतलन</w>
अधिशीतलित</w>
अधिशुल्
अधिशुल्क/M</w>
अधिशेष/M</w>
अधिशोध
अधिशोधन/M</w>
अधिशोषण/M</w>
अधिश्र
अधिश्रय
अधिश्रय</w>
अधिश्रयण/E</w>
अधिश्रवण</w>
अधिश्राव
अधिश्राविकी</w>
अधिश्रित</w>
अधिश्री</w>
अधिश्ल
अधिश्लिष्ट</w>
अधिश्वेत</w>
अधिष्ट
अधिष्टाता</w>
अधिष्ठ
अधिष्ठाता/G</w>
अधिष्ठात्री</w>
अधिष्ठान
अधिष्ठान/M</w>
अधिष्ठानं</w>
अधिष्ठाप
अधिष्ठापक</w>
अधिष्ठापन/MF</w>
अधिष्ठापन्
अधिष्ठापन्न/M</w>
अधिष्प
अधिष्पंद</w>
अधिष्य
अधिष्यंद</w>
अधिसं
अधिसंकु
अधिसंकुचन</w>
अधिसंख
अधिसंख्य
अधिसंख्य/M</w>
अधिसंख्यक/M</w>
अधिसंच
अधिसंचयन</w>
अधिसिद्ध
अधिसिद्धान्त</w>
अधिसू
अधिसूच
अधिसूचना
अधिसूचना/JK</w>
अधिसूचनाएं</w>
अधिसूचित/M</w>
अधिसेव
अधिसेविका</w>
अधिस्तर</w>
अधिस्त्र
अधिस्त्राव</w>
अधिस्थ
अधिस्थग
अधिस्थगन</w>
अधिस्थगित</w>
अधिस्थित</w>
अधिस्थूल
अधिस्थूलक
अधिस्थूलक-प्रद
अधिस्थूलक-प्रदाह</w>
अधिस्थूलक</w>
अधिस्फोट
अधिस्फोट</w>
अधिस्फोटित</w>
अधिस्राव</w>
अधिस्वन
अधिस्वन</w>
अधिस्वनगामी</w>
अधिस्वनिक/E</w>
अधिस्वरक</w>
अधिस्वा
अधिस्वामि
अधिस्वामित्व
अधिस्वामित्व</w>
अधिस्वामित्ववाली</w>
अधिस्वीकरण</w>
अधिह
अधिहस्तित</w>
अधिहृत</w>
अधिहृष
अधिहृषता</w>
अधी
अधीक्ष
अधीक्षक
अधीक्षक/M</w>
अधीक्षकउ
अधीक्षकउद्ध
अधीक्षकउद्धार</w>
अधीक्षककार्य</w>
अधीक्षकदि
अधीक्षकदिल्ल
अधीक्षकदिल्ली</w>
अधीक्षकम
अधीक्षकमहास
अधीक्षकमहासर्वे
अधीक्षकमहासर्वेक्षक</w>
अधीक्षकमुद्रण</w>
अधीक्षकयंत्र</w>
अधीक्षकहि
अधीक्षकहिंदी</w>
अधीक्षण/M</w>
अधीक्षिका/JK</w>
अधीत/FE</w>
अधीन
अधीनत्व</w>
अधीनन/FD</w>
अधीनस्थ
अधीनस्थ/sTM</w>
अधीनस्थवि
अधीनस्थविधान</w>
अधीनित</w>
अधीनियो</w>
अधीनीकरण/M</w>
अधीयान</w>
अधीर
अधीरज</w>
अधीरथ</w>
अधीवास</w>
अधीश/M</w>
अधीशिक्षा/IC</w>
अधीश्व
अधीश्वर
अधीश्वर/EsTM</w>
अधीश्वरत्व</w>
अधीश्वी
अधीश्वीरी</w>
अधीष्ट</w>
अधु
अधुन
अधुना
अधुना/
अधुना/r
अधुना/r</w>
अधुनातन
अधुनातन-पुरा
अधुनातन-पुरातन</w>
अधुनातन/M</w>
अधुनातमत/F</w>
अधुर्य</w>
अधुला</w>
अधू
अधूम
अधूम</w>
अधूमक</w>
अधूम्र</w>
अधूरा
अधूरापन/M</w>
अधूरे
अधूरेपन</w>
अधृतत</w>
अधे
अधेंगा</w>
अधेंदु</w>
अधेड</w>
अधेल
अधेलिका</w>
अधेसि
अधेसिव</w>
अधेड़
अधेड़/sT</w>
अधेड़पन/F</w>
अधेड़ावस्था</w>
अधै
अधैर्य
अधैर्यवान</w>
अधो
अधो-</w>
अधोंश
अधोंशुक</w>
अधोकथ
अधोकथितत</w>
अधोकर्ष
अधोकर्ष</w>
अधोकर्षक</w>
अधोकर्षण</w>
अधोकर्षित</w>
अधोका
अधोकाष्ठ/F</w>
अधोकृ
अधोकृष्ट</w>
अधोक्ष
अधोक्षज</w>
अधोक्षिप्त</w>
अधोक्षेक्ष
अधोक्षेक्षे
अधोक्षेक्षेपण</w>
अधोक्षेप</w>
अधोक्षेपण</w>
अधोगत
अधोगत/E</w>
अधोगति</w>
अधोगमन/M</w>
अधोग्र
अधोग्रस
अधोग्रसनी</w>
अधोघ
अधोघंट
अधोघंटा</w>
अधोघण्
अधोघण्टा</w>
अधोचक्र
अधोचक्रण</w>
अधोचर्म
अधोचर्म</w>
अधोचर्मीय</w>
अधोचिह्न</w>
अधोचेत
अधोचेतना</w>
अधोछ
अधोछज</w>
अधोजानु</w>
अधोजिह्व
अधोजिह्विका</w>
अधोत
अधोतर/M</w>
अधोतलीय</w>
अधोत्वक</w>
अधोदारु</w>
अधोदिशा</w>
अधोदृष्टि</w>
अधोदेश</w>
अधोनयन</w>
अधोनिलय</w>
अधोनीत</w>
अधोन्
अधोन्मुख</w>
अधोप
अधोपतन
अधोपतन</w>
अधोपतनकारी</w>
अधोपतित</w>
अधोपरिधान</w>
अधोपा
अधोपातन</w>
अधोपातित</w>
अधोपार
अधोपारपथ</w>
अधोप्रवाह</w>
अधोबंधन</w>
अधोबिंदु</w>
अधोबिन्दु</w>
अधोभाग/M</w>
अधोभु
अधोभुव
अधोभुवन</w>
अधोभुवनीय</w>
अधोभूमि</w>
अधोभौम</w>
अधोम
अधोमंड
अधोमंडल/M</w>
अधोमार्ग
अधोमार्ग/EM</w>
अधोमुख
अधोमुख/sTE</w>
अधोमुख्यत</w>
अधोमृ
अधोमृदा</w>
अधोयंत्र</w>
अधोर
अधोरक्त</w>
अधोरथ</w>
अधोरध</w>
अधोरेख
अधोरेखन</w>
अधोरेखा/JK</w>
अधोरेखां
अधोरेखांकन</w>
अधोरेखांकित</w>
अधोरेखित</w>
अधोर्ध</w>
अधोर्षण</w>
अधोलंब</w>
अधोलम्ब</w>
अधोलिख
अधोलिखित/sT</w>
अधोलिखितत/F</w>
अधोलोक/M</w>
अधोव
अधोवर्ती</w>
अधोवस
अधोवस्त्र/M</w>
अधोवस्र</w>
अधोवाचक</w>
अधोवाची</w>
अधोवात</w>
अधोवायु</w>
अधोवाहक</w>
अधोशयन</w>
अधोशायी</w>
अधोशी
अधोशीर्ष
अधोशीर्षता</w>
अधोशील</w>
अधोशीश</w>
अधोसी
अधोसीमा</w>
अधोस्थ</w>
अधोस्थापन/F</w>
अधोस्थापित</w>
अधोस्थिति</w>
अधोस्वस्तिक</w>
अधोह
अधोहस्त
अधोहस्ताक्ष
अधोहस्ताक्षर
अधोहस्ताक्षरकर्ता</w>
अधोहस्ताक्षरी</w>
अधौर्
अधौर्द्ध</w>
अध्
अध्क
अध्कि
अध्कि</w>
अध्किर
अध्किरात
अध्किरातीत</w>
अध्किरिता</w>
अध्किरी</w>
अध्त
अध्ता
अध्तात्म</w>
अध्तीत</w>
अध्म
अध्मता</w>
अध्य
अध्यक्ष
अध्यक्ष/sTMF</w>
अध्यक्षत्व</w>
अध्यक्षपद</w>
अध्यक्षयुक्त</w>
अध्यक्षर</w>
अध्यक्षरहित</w>
अध्यक्षलाइ
अध्यक्षलाइब्र
अध्यक्षलाइब्रेर
अध्यक्षलाइब्रेरियन</w>
अध्यक्षहीन</w>
अध्यक्षा
अध्यक्षा-न
अध्यक्षा-नर्स</w>
अध्यक्षाधीन</w>
अध्यक्षित</w>
अध्यक्षीय</w>
अध्यग्नि</w>
अध्यध
अध्यधिक्षेप</w>
अध्यधीन</w>
अध्यय
अध्ययण</w>
अध्ययन
अध्ययन-
अध्ययन-अध्य
अध्ययन-अध्यापन</w>
अध्ययन-कक्ष/M</w>
अध्ययन-यात्र
अध्ययन-यात्रा/K</w>
अध्ययन/MV</w>
अध्ययनक
अध्ययनकक्ष/M</w>
अध्ययनना</w>
अध्ययनपूर्ण</w>
अध्ययनरत</w>
अध्ययनवृत्ति</w>
अध्ययनशि
अध्ययनशिवि
अध्ययनशिविर/M</w>
अध्ययनशील/sTM</w>
अध्ययना
अध्ययनाधीन</w>
अध्ययनार्थ</w>
अध्ययनाव
अध्ययनावकाश</w>
अध्ययनीय</w>
अध्ययनेतर</w>
अध्ययेत
अध्ययेतावृत्ति</w>
अध्यर्थ
अध्यर्थ/M</w>
अध्यर्थन/F</w>
अध्यर्थित</w>
अध्यर्ध
अध्यर्ध</w>
अध्यर्धश
अध्यर्धशत</w>
अध्यर्पण</w>
अध्यर्बुद</w>
अध्यव
अध्यवकलन</w>
अध्यवस
अध्यवसान</w>
अध्यवसाय
अध्यवसाय/EM</w>
अध्यवसायपूर्वक</w>
अध्यवसायहीन</w>
अध्यवसायित</w>
अध्यवसि
अध्यवसित</w>
अध्यवसिति</w>
अध्यवेक्षक</w>
अध्यशन</w>
अध्यस्त</w>
अध्या
अध्यांत
अध्यांतर
अध्यांतरिक/M</w>
अध्याकलन</w>
अध्याक्ष</w>
अध्याग्नि</w>
अध्यात</w>
अध्यातव्य
अध्यातव्य/sT</w>
अध्यात्म
अध्यात्म-ज्ञान</w>
अध्यात्म-रा
अध्यात्म-रामायण</w>
अध्यात्म/FM</w>
अध्यात्मक</w>
अध्यात्मचिंतक</w>
अध्यात्मज्ञ</w>
अध्यात्मज्ञाता</w>
अध्यात्मज्ञान
अध्यात्मज्ञान/E</w>
अध्यात्मयोग
अध्यात्मयोगनिलय</w>
अध्यात्मरा
अध्यात्मरामायण</w>
अध्यात्मवाद/ME</w>
अध्यात्मवे
अध्यात्मवेत्ता</w>
अध्यात्मिक/sT</w>
अध्यात्मीय</w>
अध्यादेश/M</w>
अध्याप
अध्यापक
अध्यापक-
अध्यापक-अध्याप
अध्यापक-अध्यापिका/K</w>
अध्यापक/sTME</w>
अध्यापकजी</w>
अध्यापकत्व</w>
अध्यापकीय</w>
अध्यापन
अध्यापन-सह
अध्यापन-सहायक/M</w>
अध्यापन/M</w>
अध्यापनकार्य</w>
अध्यापनीय</w>
अध्यापिक
अध्यापिका/GJK</w>
अध्यापित</w>
अध्यापितत</w>
अध्याय/ME</w>
अध्यार
अध्यारूढ़</w>
अध्यारोप
अध्यारोप/M</w>
अध्यारोपण/M</w>
अध्यारोपित</w>
अध्यारोही</w>
अध्याव
अध्यावरण/E</w>
अध्यास
अध्यास/M</w>
अध्यासन/M</w>
अध्यासित</w>
अध्यासीन</w>
अध्याह
अध्याहरण</w>
अध्याहरणीय</w>
अध्याहर्त
अध्याहर्तव्य</w>
अध्याहर्ता</w>
अध्याहार/M</w>
अध्याहार्य</w>
अध्याहुत</w>
अध्यीत</w>
अध्यु
अध्युत्पादन</w>
अध्युर्व
अध्युर्वरण</w>
अध्युषित</w>
अध्युष्ट</w>
अध्युष्ट्र</w>
अध्यूढ़
अध्यूढ़/F</w>
अध्ये
अध्येत
अध्येतव्य</w>
अध्येता</w>
अध्येतावृत्ति</w>
अध्येत्री</w>
अध्येय</w>
अध्येष
अध्येषण/F</w>
अध्र
अध्रि</w>
अध्रिय
अध्रियमाण
अध्रियमाणत</w>
अध्रिया
अध्रियाम
अध्रियामणी</w>
अध्रियामाण</w>
अध्रु
अध्रुव/sT</w>
अध्व
अध्व/F</w>
अध्वग/F</w>
अध्वगामी</w>
अध्वनि</w>
अध्वनित</w>
अध्वनीन</w>
अध्वपति</w>
अध्वर
अध्वर/sTM</w>
अध्वर्य
अध्वर्यु
अध्वर्यु</w>
अध्वर्युवेद</w>
अध्वा
अध्वांत</w>
अध्वागा</w>
अध्वाति</w>
अध्वायन</w>
अध्वि
अध्विस</w>
अध्शि
अध्शिष</w>
अन
अन-ए
अन-एई</w>
अनँग
अनँग/8ED34sTv</w>
अनँगियो</w>
अनं
अनंक
अनंकार
अनंकारवाद</w>
अनंकुरित</w>
अनंग
अनंग-क्रीड़ा</w>
अनंग/FEsTM</w>
अनंगका</w>
अनंगक्रीड़ा</w>
अनंगद</w>
अनंगना</w>
अनंगरि</w>
अनंगलेख
अनंगलेख/F</w>
अनंगवती</w>
अनंगश
अनंगशत्रु</w>
अनंगशेखर</w>
अनंगारि</w>
अनंगास
अनंगासु
अनंगासुह
अनंगासुहृ
अनंगासुहृद</w>
अनंगी
अनंगीकरण</w>
अनंगीका
अनंगीकार</w>
अनंगीकार्य</w>
अनंगीकृत</w>
अनंगीकृति</w>
अनंजन</w>
अनंड
अनंडा
अनंडाकर्ष
अनंडाकर्षित</w>
अनंत
अनंत-
अनंत-अंत</w>
अनंत-चतुर्दशी</w>
अनंत-तीर्थकृत</w>
अनंत-विजय</w>
अनंत/FEsTM</w>
अनंतक</w>
अनंतका
अनंतकाय/M</w>
अनंतकालीन/sT</w>
अनंतकुमार</w>
अनंतगति</w>
अनंतगुण
अनंतगुणता</w>
अनंतचतुर्दशी</w>
अनंतजीव
अनंतजीवन/M</w>
अनंतटंक</w>
अनंतत/F</w>
अनंततीर्थकृत</w>
अनंतदृष्टि</w>
अनंतदेव</w>
अनंतधाम</w>
अनंतनाग</w>
अनंतनाथ
अनंतनाथ</w>
अनंतनाथजी</w>
अनंतपथ</w>
अनंतपद/M</w>
अनंतपार</w>
अनंतपुर</w>
अनंतमूल
अनंतमूल/M</w>
अनंतर
अनंतर/sTM</w>
अनंतरंग/sT</w>
अनंतरंगत/F</w>
अनंतरज</w>
अनंतरजात</w>
अनंतरणीय</w>
अनंतरय</w>
अनंतराशि</w>
अनंतरित</w>
अनंतरीय</w>
अनंतरुप</w>
अनंतरूप</w>
अनंतर्हित</w>
अनंतवत</w>
अनंतवान</w>
अनंतविजय</w>
अनंतवीर्य</w>
अनंतव्रत</w>
अनंतशक्ति/PQ</w>
अनंतशयन</w>
अनंतशीर्ष/F</w>
अनंतश्री</w>
अनंतात्मा</w>
अनंतानु
अनंतानुबंधी</w>
अनंताभि
अनंताभिधेय</w>
अनंति
अनंतिम/M</w>
अनंतिमत</w>
अनंत्य</w>
अनंद
अनंदपुर</w>
अनंबर</w>
अनंभ</w>
अनंर्हित</w>
अनंश
अनंश/sT</w>
अनअदायगी</w>
अनअनट्र
अनअनट्रियम</w>
अनअर्
अनअर्न्
अनअर्न्ड</w>
अनअहि
अनअहिवात</w>
अनइंट
अनइंटैर
अनइंटैरप्
अनइंटैरप्टिड</w>
अनउ
अनउप
अनउपजा
अनउपजाऊ</w>
अनए
अनएई</w>
अनऑ
अनऑथ
अनऑथराइज़्ड</w>
अनक
अनक/8sTvED</w>
अनकं
अनकंड
अनकंडीश
अनकंडीशंड</w>
अनकंप/M</w>
अनकट
अनकटा/G</w>
अनकन
अनकनक्
अनकनक्टिड</w>
अनकमाई</w>
अनकमाया</w>
अनकम्
अनकम्प</w>
अनकरण</w>
अनकरणीय</w>
अनकस्मात</w>
अनकहा/G</w>
अनकिया/B</w>
अनक्ष
अनक्ष</w>
अनक्षर/M</w>
अनक्षिक</w>
अनक्षु
अनक्षुण्ण</w>
अनख
अनख/834sTvLMFED</w>
अनखाइयो</w>
अनखाया</w>
अनखाहट</w>
अनखियो</w>
अनखिला/G</w>
अनखुल
अनखुलझा</w>
अनखुला/G</w>
अनखोज
अनखोजा/G</w>
अनखौ
अनखौहा</w>
अनग
अनगढ
अनगढ/D</w>
अनगढपन</w>
अनगणित</w>
अनगन</w>
अनगनित</w>
अनगला/G</w>
अनगाइयो</w>
अनगार</w>
अनगिन
अनगिन/FED</w>
अनगिनत/sTM</w>
अनगु
अनगुँध
अनगुँधे</w>
अनगौरी</w>
अनग्नि</w>
अनगढ़
अनगढ़/FEDsT</w>
अनगढ़त/F</w>
अनगढ़पन/F</w>
अनघ
अनघ/sTM</w>
अनघटा</w>
अनघैरी</w>
अनघोर</w>
अनघ्र्य</w>
अनघड़
अनघड़</w>
अनघड़त</w>
अनघड़पन/F</w>
अनघढ़</w>
अनच
अनचखा</w>
अनचार्
अनचार्ज
अनचार्जड</w>
अनचाहा/GC</w>
अनचि
अनचित</w>
अनचित्ता</w>
अनचिन्
अनचिन्हा</w>
अनची
अनचीत/FE</w>
अनचीन्
अनचीन्हा/G</w>
अनचु
अनचुकापन</w>
अनचुकी</w>
अनचुन
अनचुना/G</w>
अनचुप
अनचुपड़ा/G</w>
अनचे
अनचेताई</w>
अनचेना</w>
अनचैन</w>
अनच्छ
अनच्छ</w>
अनच्छादन</w>
अनछ
अनछक
अनछके</w>
अनछि
अनछिद
अनछिदा/G</w>
अनछिदापन</w>
अनछिप
अनछिपा</w>
अनछिपापन</w>
अनछील
अनछीला/C</w>
अनछुआ
अनछुआ</w>
अनछुआपन</w>
अनछुई</w>
अनछेड़
अनछेड़/FE</w>
अनज
अनजन
अनजनमा</w>
अनजन्मा</w>
अनजला/G</w>
अनजा
अनजाँ
अनजाँच
अनजाँचा/C</w>
अनजाई</w>
अनजान
अनजान-
अनजान-जान
अनजान-जाना-प
अनजान-जाना-पहच
अनजान-जाना-पहचाना</w>
अनजान/MFED</w>
अनजानत</w>
अनजानपन</w>
अनजिर्त</w>
अनजु
अनजुत
अनजुता/G</w>
अनजुड़ा/G</w>
अनजूठा</w>
अनजो
अनजोखा</w>
अनजोत
अनजोता/G</w>
अनजड़ा/G</w>
अनट
अनटँका/G</w>
अनटिक
अनटिकाऊ</w>
अनटिकापन</w>
अनटूट
अनटूटा/G</w>
अनट्र
अनट्रेन्
अनट्रेन्ड</w>
अनठ
अनठानबे</w>
अनठानबेवाँ</w>
अनठानवे</w>
अनठानवेवाँ</w>
अनठाव
अनठावन
अनठावन</w>
अनठावनवा
अनठावनवाँ</w>
अनठावनवां</w>
अनड
अनडीठ</w>
अनडु
अनडुह/E</w>
अनड्
अनड्वान</w>
अनड्‌
अनड्‌वान</w>
अनड्‌वाह
अनड्‌वाही</w>
अनढ
अनढँका/G</w>
अनढका/CI</w>
अनणु</w>
अनत
अनत</w>
अनतः
अनतःपुर</w>
अनतपा</w>
अनतरंग</w>
अनतला/G</w>
अनति
अनतिक्र
अनतिक्रमण</w>
अनतिक्रमणीय</w>
अनतिक्रमित</w>
अनतिक्रान्त</w>
अनतिक्रामक</w>
अनतिनाशन</w>
अनतिर
अनतिरिक्
अनतिरिक्तता</w>
अनतिरेक</w>
अनतिशय</w>
अनती
अनतीखी</w>
अनतुल
अनतुला/G</w>
अनतो
अनतोला</w>
अनतौ
अनतौला</w>
अनथ
अनथक
अनथक/FEDsT</w>
अनथकापन</w>
अनथी
अनथीनाशन</w>
अनद
अनदबला</w>
अनदि
अनदिख
अनदिखाव
अनदिखावटी</w>
अनदिया</w>
अनदी</w>
अनदे
अनदेख
अनदेखा/IGC</w>
अनदेखापन</w>
अनद्य
अनद्यतन
अनद्यतन-
अनद्यतन-भ
अनद्यतन-भविष्य</w>
अनद्यतन-भूत</w>
अनद्यतन</w>
अनद्यतनभविष्य</w>
अनद्यतनभूत</w>
अनध
अनधरा/G</w>
अनधि
अनधिक
अनधिक/sTM</w>
अनधिकरण
अनधिकरण</w>
अनधिकरणकृत</w>
अनधिकार
अनधिकार/EsTM</w>
अनधिकारचेष्टा/JK</w>
अनधिकारत/F</w>
अनधिकारिक/M</w>
अनधिकृत
अनधिकृत/sTLM</w>
अनधिकृतत/F</w>
अनधिगत</w>
अनधिगम्य</w>
अनधिग्रह
अनधिग्रहण</w>
अनधिग्रहणशील</w>
अनधिग्रहणीय</w>
अनधिग्रहीत</w>
अनधिप्र
अनधिप्रवेश</w>
अनधिप्रवेशक</w>
अनधिमान/E</w>
अनधिष्ठित</w>
अनधिसू
अनधिसूचित</w>
अनधिहरण</w>
अनधीन/sT</w>
अनधुल
अनधुला/GC</w>
अनध्य
अनध्यक्ष</w>
अनध्याय</w>
अनध्यास</w>
अनध्यीत</w>
अनन
अनन</w>
अननक्व
अननक्वॉ
अननक्वॉड
अननक्वॉडियम</w>
अननख्या
अननख्याति</w>
अननज्ञात</w>
अननप
अननपे
अननपेंट
अननपेंटियम</w>
अननपेन्
अननपेन्ट
अननपेन्टियम</w>
अननब
अननबियम</w>
अननबीयम</w>
अननहे
अननहेक्
अननहेक्ज
अननहेक्जियम</w>
अननहेक्ज़
अननहेक्ज़ियम</w>
अननु
अननुकता</w>
अननुकरण
अननुकरण</w>
अननुकरणक्षम</w>
अननुकरणीय/sT</w>
अननुकार्य/sT</w>
अननुकूल
अननुकूल/sTM</w>
अननुकूलत/F</w>
अननुकृत</w>
अननुकृति</w>
अननुक्रमित</w>
अननुज्ञा</w>
अननुपा
अननुपालन/M</w>
अननुबंध
अननुबंध</w>
अननुबंधित/F</w>
अननुभव
अननुभव/E</w>
अननुभाव
अननुभावकता</w>
अननुभू
अननुभूत</w>
अननुभूति</w>
अननुभूत्य
अननुभूत्यता</w>
अननुम
अननुमत</w>
अननुमति</w>
अननुमत्य
अननुमत्य</w>
अननुमत्यत</w>
अननुमान
अननुमानित/sT</w>
अननुमेय
अननुमेय/sT</w>
अननुमेयत/F</w>
अननुमो
अननुमोदन</w>
अननुरक्त</w>
अननुरु
अननुरुप/sT</w>
अननुरू
अननुरूप/sT</w>
अननुरूपत/F</w>
अननुवाद्य</w>
अननुशास
अननुशासन</w>
अननुशासित</w>
अननुशील
अननुशीलन</w>
अननुष्ठ
अननुष्ठेय</w>
अननुसं
अननुसंधेय</w>
अननुसन्ध
अननुसन्धेय</w>
अननूद
अननूदित</w>
अननृ
अननृरुप</w>
अननृरूप</w>
अननैचुर
अननैचुरल</w>
अनन्
अनन्त
अनन्त-
अनन्त-चतुर्दशी</w>
अनन्त-जित</w>
अनन्त-तीर्थकृत</w>
अनन्त-विजय</w>
अनन्त/sTMF</w>
अनन्तकाय</w>
अनन्तकाल</w>
अनन्तकालिक</w>
अनन्तचतुर्दशी</w>
अनन्तजित</w>
अनन्तटंक</w>
अनन्ततीर्थकृत</w>
अनन्तत्व</w>
अनन्तदर्शन</w>
अनन्तदृष्टि</w>
अनन्तदेव</w>
अनन्तनाग</w>
अनन्तनाथ</w>
अनन्तपार</w>
अनन्तपुर</w>
अनन्तमूल</w>
अनन्तर
अनन्तर</w>
अनन्तरज</w>
अनन्तरजात</w>
अनन्तराशि</w>
अनन्तरित</w>
अनन्तरूप</w>
अनन्तर्हित</w>
अनन्तलोक
अनन्तलोकीय</w>
अनन्तविजय</w>
अनन्तशक्ति/PQ</w>
अनन्तशीर्ष/F</w>
अनन्ता
अनन्तानु
अनन्तानुबन्ध
अनन्तानुबन्धी</w>
अनन्ताभि
अनन्ताभिधेय</w>
अनन्ति
अनन्तिम</w>
अनन्त्य</w>
अनन्न</w>
अनन्ना
अनन्नास/EM</w>
अनन्नासा
अनन्नासाकार</w>
अनन्य
अनन्य-
अनन्य-वृत्ति</w>
अनन्य/sTM</w>
अनन्यगत
अनन्यगतिक</w>
अनन्यचित्त
अनन्यचित्त/sT</w>
अनन्यचेता</w>
अनन्यज</w>
अनन्यजन्मा</w>
अनन्यजात</w>
अनन्यतापूर्वक</w>
अनन्यत्व</w>
अनन्यदेव</w>
अनन्यपर
अनन्यपरता</w>
अनन्यपरा
अनन्यपराय
अनन्यपरायण
अनन्यपरायण</w>
अनन्यपरायणत</w>
अनन्यपूर्
अनन्यपूर्वा/CI</w>
अनन्यभव</w>
अनन्यभाव/M</w>
अनन्यमनस्क/sT</w>
अनन्यमना</w>
अनन्यमानस</w>
अनन्ययोग्य</w>
अनन्यवृत्ति</w>
अनन्यसाध
अनन्यसाधारण</w>
अनन्यहृत</w>
अनन्या
अनन्याधिकार
अनन्याधिकार/M</w>
अनन्याधिकारात्मक</w>
अनन्याधिकारीय</w>
अनन्यार्थ</w>
अनन्याश्रित</w>
अनन्योपा
अनन्योपासक</w>
अनन्योपासना</w>
अनन्व
अनन्वय/M</w>
अनन्वित</w>
अनन्ूर्
अनन्ूर्वा</w>
अनप
अनप</w>
अनपंग/sT</w>
अनपकरण</w>
अनपका/G</w>
अनपकार/E</w>
अनपकारक/sT</w>
अनपकृत</w>
अनपच
अनपच/FE</w>
अनपढ</w>
अनपत्य
अनपत्य/sT</w>
अनपत्यक</w>
अनपत्र
अनपत्रप</w>
अनपदेश</w>
अनपन
अनपनत्व</w>
अनपभ्र
अनपभ्रंश</w>
अनपभ्रंशित</w>
अनपभ्रष्ट</w>
अनपर</w>
अनपरा
अनपराध/E</w>
अनपरि
अनपरिचय</w>
अनपवाद
अनपवाद</w>
अनपवादीय</w>
अनपसर</w>
अनपसार
अनपसारक</w>
अनपह
अनपहच
अनपहचान
अनपहचाना/GCI</w>
अनपहरण
अनपहरणीयत</w>
अनपहृत</w>
अनपा
अनपाकरण</w>
अनपाय
अनपाय/FE</w>
अनपाया/GB</w>
अनपायिप
अनपायिपद</w>
अनपार्
अनपार्ल
अनपार्लमै
अनपार्लमैंट
अनपार्लमैंटरी</w>
अनपार्लियाम
अनपार्लियामेंट
अनपार्लियामेंटरी</w>
अनपावना</w>
अनपाश्रय</w>
अनपास्त
अनपास्तेरित</w>
अनपि
अनपिघ
अनपिघला/G</w>
अनपु
अनपुंस
अनपुंसित</w>
अनपेक्ष
अनपेक्ष/FEDsTM</w>
अनपेक्षणीय</w>
अनपेक्षत/F</w>
अनपेक्षत्व</w>
अनपेक्षित/sTM</w>
अनपेक्षितत/F</w>
अनपेक्ष्य</w>
अनपै
अनपैकिंग</w>
अनपैकित</w>
अनपोट
अनपोटे
अनपोटेबल</w>
अनप्या
अनप्यासा</w>
अनप्र
अनप्रतीत
अनप्रतीती</w>
अनप्रयोज्य/M</w>
अनपढ़
अनपढ़/FEsTM</w>
अनफ
अनफा</w>
अनफाँ
अनफाँस</w>
अनब
अनबँ
अनबँटा</w>
अनबँध
अनबँधा/G</w>
अनबंध
अनबंधित</w>
अनबदला/G</w>
अनबन
अनबन/FE
अनबन/FELM</w>
अनबरस
अनबरसे</w>
अनबस
अनबसा/G</w>
अनबसापन</w>
अनबि
अनबिँध
अनबिँधा/G</w>
अनबिँधापन</w>
अनबिंध
अनबिंधापन</w>
अनबिका/G</w>
अनबिग
अनबिगड़ा/G</w>
अनबिद्ध</w>
अनबिधा</w>
अनबीता/G</w>
अनबु
अनबुआ</w>
अनबुझ
अनबुझ/FED</w>
अनबुझापन</w>
अनबुल
अनबुला
अनबुलाई</w>
अनबुलाए</w>
अनबुलाया</w>
अनबुसा/G</w>
अनबू
अनबूझ
अनबूझ/FE</w>
अनबूड़ा</w>
अनबे
अनबेधा</w>
अनबो
अनबोई</w>
अनबोध
अनबोध्य</w>
अनबोया/C</w>
अनबोल
अनबोलापन</w>
अनब्या
अनब्याह
अनब्याहा/G</w>
अनब्याहापन</w>
अनभ
अनभरा
अनभरा/G</w>
अनभरापन</w>
अनभल
अनभल/FDM</w>
अनभाता/G</w>
अनभाया</w>
अनभाव
अनभावना</w>
अनभि
अनभिक
अनभिकथन</w>
अनभिकल्
अनभिकल्पन</w>
अनभिग्रह/E</w>
अनभिग्रहण</w>
अनभिग्रहीत</w>
अनभिज्ञ
अनभिज्ञ--
अनभिज्ञ--भि
अनभिज्ञ--भिज्ञ</w>
अनभिज्ञ/sT</w>
अनभिज्ञत/F</w>
अनभिज्ञात</w>
अनभिज्ञेय</w>
अनभिधेय</w>
अनभिप्र
अनभिप्रेत</w>
अनभिप्रेय/sT</w>
अनभिभव</w>
अनभिभू
अनभिभूत/sT</w>
अनभिभूतत/F</w>
अनभिभूति</w>
अनभिमत</w>
अनभिमान
अनभिमान/E</w>
अनभिमान्य</w>
अनभिरा
अनभिराम/sT</w>
अनभिरुचि</w>
अनभिरूप
अनभिरूप/sT</w>
अनभिल
अनभिलष
अनभिलषणीय</w>
अनभिलषित</w>
अनभिलाष
अनभिलाष/FE</w>
अनभिलाषिता</w>
अनभिलाष्य</w>
अनभिलासी</w>
अनभिलिखित</w>
अनभिवि
अनभिविझप्त</w>
अनभिव्य
अनभिव्यंज
अनभिव्यंजक/sT</w>
अनभिव्यंजन
अनभिव्यंजन/F</w>
अनभिव्यंजनीय</w>
अनभिव्यंज्य</w>
अनभिव्यक्त</w>
अनभिव्यक्तत</w>
अनभिव्यक्तव्य</w>
अनभिव्यक्ति</w>
अनभिष
अनभिषक्त</w>
अनभिस
अनभिसं
अनभिसंधान</w>
अनभिसंबंध</w>
अनभिसन्ध
अनभिसन्धान</w>
अनभिसम्बन्ध</w>
अनभिहित</w>
अनभी
अनभीष्ट</w>
अनभीष्ठ</w>
अनभु
अनभुग
अनभुगत
अनभुगताई</w>
अनभुगताया</w>
अनभुवना</w>
अनभेद
अनभेदी</w>
अनभोरी</w>
अनभ्य
अनभ्यर्थ
अनभ्यर्थित</w>
अनभ्यसित</w>
अनभ्यस्त
अनभ्यस्त/sTM</w>
अनभ्या
अनभ्यास/E</w>
अनम
अनम/v
अनम/v</w>
अनमँ
अनमँजा/G</w>
अनमतत</w>
अनमद</w>
अनमन
अनमना
अनमनाइयो</w>
अनमनापन/M</w>
अनमनाहट</w>
अनमनीय</w>
अनमरा/G</w>
अनमा
अनमाँग
अनमाँगा/GC</w>
अनमांगी</w>
अनमि
अनमित्र</w>
अनमिल
अनमिल/sTFE</w>
अनमिलत/F</w>
अनमील
अनमील/834sTvED</w>
अनमीलियो</w>
अनमुँ
अनमुँडे</w>
अनमुर
अनमुरझ
अनमुरझाई</w>
अनमुरझाया</w>
अनमे
अनमेलपन</w>
अनमो
अनमोल</w>
अनमोलपन</w>
अनम्भ</w>
अनम्र
अनम्रर</w>
अनम्ल
अनम्लीय</w>
अनय
अनय/M</w>
अनयच</w>
अनयन</w>
अनयस</w>
अनर
अनरँग
अनरँगा/G</w>
अनरख
अनरखा/GC</w>
अनरग
अनरगल</w>
अनरण
अनरण्य</w>
अनरस
अनरस/FDM</w>
अनरा
अनराता</w>
अनरिक
अनरिकार्
अनरिकार्डिड</w>
अनरिकार्डित</w>
अनरिकार्डेड</w>
अनरिकॉर्
अनरिकॉर्डिड</w>
अनरिकॉर्डेड</w>
अनरित
अनरितु</w>
अनरियो</w>
अनरी
अनरीक्
अनरीक्ले
अनरीक्लेमित</w>
अनरु
अनरुका/G</w>
अनरुकापन</w>
अनरुचि</w>
अनरूप</w>
अनर्
अनर्ग
अनर्गल
अनर्गल/sT</w>
अनर्गलत/F</w>
अनर्गलतापूर्ण</w>
अनर्घ
अनर्घ/sT</w>
अनर्घ्य</w>
अनर्जक</w>
अनर्जन</w>
अनर्जित</w>
अनर्णीत</w>
अनर्थ
अनर्थ/M</w>
अनर्थक/sT</w>
अनर्थकर/sT</w>
अनर्थकारी</w>
अनर्थत्व</w>
अनर्थदर्शी</w>
अनर्थना
अनर्थनाशी</w>
अनर्थबुद्धि</w>
अनर्थभाव</w>
अनर्थापद/M</w>
अनर्थित</w>
अनर्व
अनर्वरीकरण</w>
अनर्ह
अनर्ह/sT</w>
अनर्हत/F</w>
अनल
अनल/MFE</w>
अनलंकृत
अनलंकृत/sT</w>
अनलंकृतत/F</w>
अनलंब</w>
अनलकुंड</w>
अनलग
अनलगापन</w>
अनलच
अनलचूर्ण</w>
अनलदा/G</w>
अनलपं
अनलपंख
अनलपंख</w>
अनलपंखचार</w>
अनलपक्ष</w>
अनलप्रभा</w>
अनलप्रिया</w>
अनलमुख</w>
अनलल
अनललाह</w>
अनलस</w>
अनलसित</w>
अनलह
अनलहक/LM</w>
अनलहक़</w>
अनलायक</w>
अनलिख
अनलिखा/G</w>
अनलेखा</w>
अनलो
अनलोड</w>
अनल्प
अनल्प</w>
अनल्पमन्यु</w>
अनव
अनवकांक्ष
अनवकांक्षमाण</w>
अनवकाश
अनवकाश-
अनवकाश-दिवस</w>
अनवकाश/M</w>
अनवकाशित</w>
अनवग
अनवगत/sT</w>
अनवगाह
अनवगाहिता</w>
अनवगीत</w>
अनवग्रह</w>
अनवच्छिन्न</w>
अनवज्ञ/F</w>
अनवट
अनवट/LM</w>
अनवद
अनवद्य
अनवद्य/sTF</w>
अनवद्यतता</w>
अनवद्या
अनवद्यांग</w>
अनवधान
अनवधान/sTM</w>
अनवनत</w>
अनवभ
अनवभ्र</w>
अनवम</w>
अनवमत</w>
अनवय/M</w>
अनवर
अनवर/sT</w>
अनवरत/sTF</w>
अनवरतत/F</w>
अनवरति</w>
अनवरुद्ध
अनवरुद्ध/sT</w>
अनवरुद्धत/F</w>
अनवरू
अनवरूद्घ</w>
अनवरूद्धता</w>
अनवरोध
अनवरोध/M</w>
अनवरोधित</w>
अनवरोध्यत</w>
अनवलंब
अनवलंब</w>
अनवलंबन</w>
अनवलंबनीय/sT</w>
अनवलंबनीयत/F</w>
अनवलंबित/sT</w>
अनवलम्ब
अनवलम्ब</w>
अनवलम्बन</w>
अनवलम्बित</w>
अनवलोक
अनवलोकन</w>
अनवलोकनीय</w>
अनवलोकित</w>
अनवलोक्य</w>
अनवलोक्यत</w>
अनवश
अनवशा</w>
अनवशिष्ट
अनवशिष्टत/F</w>
अनवशेष
अनवशेष्य/sT</w>
अनवशोषित</w>
अनवशोषी</w>
अनवश्य
अनवश्यं
अनवश्यंभावना</w>
अनवश्यंभावी</w>
अनवश्यत</w>
अनवस
अनवसर
अनवसरवादिता</w>
अनवसरवादी</w>
अनवसरानु
अनवसरानुकूलता</w>
अनवसाद</w>
अनवसान</w>
अनवसित</w>
अनवस्थ
अनवस्थ/F</w>
अनवस्थान</w>
अनवस्थित/sT</w>
अनवस्थिति</w>
अनवह
अनवहित</w>
अनवहेल
अनवहेलित</w>
अनवा
अनवाँ
अनवाँस
अनवाँस/348sTvFED</w>
अनवाँसियो</w>
अनवांछित</w>
अनवाद/M</w>
अनवान
अनवानता</w>
अनवाप्ति</w>
अनवाय</w>
अनवि
अनविद्ध</w>
अनविलिंग</w>
अनवी
अनवीक
अनवीकरण</w>
अनवीकृत/sTM</w>
अनवीक्षण</w>
अनवे
अनवेक्ष
अनवेक्ष/FDM</w>
अनवेक्षक</w>
अनवेक्षण/M</w>
अनवेक्षणीय/sT</w>
अनवेक्षित</w>
अनशन
अनशन/sTM</w>
अनशि
अनशिला</w>
अनश्रु</w>
अनश्व</w>
अनस
अनसँ
अनसँव
अनसँवरे</w>
अनसकरा/G</w>
अनसख
अनसखरी</w>
अनसजा/G</w>
अनसट
अनसटा/G</w>
अनसटापन</w>
अनसठ</w>
अनसत्त</w>
अनसध
अनसधा/G</w>
अनसम
अनसमझ/FED</w>
अनसहन</w>
अनसां
अनसांइ
अनसांइटि
अनसांइटिफ्र
अनसांइटिफ्रिक</w>
अनसाइ
अनसाइंटि
अनसाइंटिफ़
अनसाइंटिफ़िक</w>
अनसार</w>
अनसि
अनसिखा</w>
अनसिझा</w>
अनसित
अनसितत्व</w>
अनसिल
अनसिला/GC</w>
अनसी
अनसीखा/G</w>
अनसीझा</w>
अनसु
अनसुन
अनसुन/FE</w>
अनसुनापन</w>
अनसुह
अनसुहाती</w>
अनसू
अनसूइया</w>
अनसूखा</w>
अनसूचित-
अनसूचित-जन
अनसूचित-जनजातियों</w>
अनसूचित</w>
अनसूय
अनसूय/MFD</w>
अनसूयत</w>
अनसूयतः</w>
अनसैचुर
अनसैचुरे
अनसैचुरेटिड</w>
अनसो
अनसोई</w>
अनसोच
अनसोच/FED</w>
अनसोया</w>
अनसौर्
अनसौर्टिड</w>
अनस्
अनस्क
अनस्कि
अनस्किल्ड</w>
अनस्क्र
अनस्क्रु
अनस्क्रुइ
अनस्क्रुइंग</w>
अनस्त</w>
अनस्ति
अनस्तित्व
अनस्तित्व/M</w>
अनस्तित्वमान</w>
अनस्तिव</w>
अनस्थ
अनस्थ</w>
अनस्थि
अनस्थिक</w>
अनस्थित</w>
अनस्थिर
अनस्थिर/sT</w>
अनस्थिरण</w>
अनह
अनहं
अनहं</w>
अनहंकार
अनहंकार/EM</w>
अनहंकारिणी</w>
अनहंकृति</w>
अनहक</w>
अनहद
अनहद/M</w>
अनहदनाद</w>
अनहलक</w>
अनहि
अनहिंगा</w>
अनहित
अनहित/M</w>
अनहितू</w>
अनहीकरण</w>
अनहुआ</w>
अनहुई</w>
अनहो
अनहोता</w>
अनहोन
अनहोना/G</w>
अनहोनीपन</w>
अनहोव
अनहोवन</w>
अनहोवनि</w>
अना
अना/734sTvG</w>
अनांड
अनांडबर</w>
अनांत
अनांतरिक/sT</w>
अनांद
अनांदोल
अनांदोलन</w>
अनांदोलित/sT</w>
अनांश
अनांशिकता</w>
अनाइयो</w>
अनाई
अनाईपठ
अनाईपठाई</w>
अनाउ
अनाउं
अनाउंस
अनाउंस</w>
अनाउंसमेंट</w>
अनाउंसमैंट</w>
अनाउंसर/M</w>
अनाक
अनाकनी</w>
अनाकर्ष
अनाकर्षक/sT</w>
अनाकर्षण</w>
अनाकल
अनाकलनीय/sT</w>
अनाकलित</w>
अनाकल्य</w>
अनाकस्म
अनाकस्मिक</w>
अनाकांक्ष
अनाकांक्षण
अनाकांक्षणीयता</w>
अनाकांक्षा/G</w>
अनाकांक्षित</w>
अनाकार
अनाकार/sT</w>
अनाकारत/F</w>
अनाकाल</w>
अनाकाश</w>
अनाकीर्ण
अनाकीर्ण/sT</w>
अनाकुल/sT</w>
अनाकृत</w>
अनाको
अनाकोंडा</w>
अनाक्रम
अनाक्रम्यत/F</w>
अनाक्रां
अनाक्रांत/F</w>
अनाक्रान्
अनाक्रान्त/F</w>
अनाक्राम
अनाक्रामक/sT</w>
अनाख
अनाखर</w>
अनाग
अनागंत
अनागंतुक</w>
अनागत
अनागत-
अनागत-आग
अनागत-आगत</w>
अनागत/sTM</w>
अनागतः</w>
अनागतविध
अनागतविधाता/K</w>
अनागतार्
अनागतार्त
अनागतार्तवा</w>
अनागताव
अनागतावेक्ष
अनागतावेक्षण</w>
अनागतावेक्षी</w>
अनागम</w>
अनागमन</w>
अनागम्य</w>
अनागर/sT</w>
अनागरिक/sT</w>
अनागामी</w>
अनागार</w>
अनागारिक</w>
अनागाह</w>
अनाग्रह/EM</w>
अनाघात</w>
अनाच
अनाचक</w>
अनाचरण
अनाचरण/M</w>
अनाचरणीय/sT</w>
अनाचार
अनाचार/ME</w>
अनाचारपूर्ण</w>
अनाचारिणी</w>
अनाचारिता</w>
अनाचित
अनाचित/E</w>
अनाच्छ
अनाच्छाद
अनाच्छादन/M</w>
अनाच्छादित</w>
अनाज
अनाजघर</w>
अनाजीय</w>
अनाजीव
अनाजीविका</w>
अनाज्ञ
अनाज्ञा</w>
अनाज्ञाकार
अनाज्ञाकारिता</w>
अनाज्ञाकारी</w>
अनाज्ञापित</w>
अनाड
अनाडंबर</w>
अनाडिर</w>
अनाडीपन</w>
अनाढ्य</w>
अनात
अनातं
अनातंक/M</w>
अनातप</w>
अनातय</w>
अनातर</w>
अनातुर
अनातुर-
अनातुर-आत
अनातुर-आतुर</w>
अनातुर/sTM</w>
अनातुरत/F</w>
अनातोल
अनातोलिया</w>
अनातोलियाई</w>
अनातोली</w>
अनात्म
अनात्म-धर्म</w>
अनात्म/sTMF</w>
अनात्मक
अनात्मक</w>
अनात्मकदु
अनात्मकदुः
अनात्मकदुःख</w>
अनात्मकदुख</w>
अनात्मज</w>
अनात्मज्ञ</w>
अनात्मधर्म</w>
अनात्मभाव/M</w>
अनात्मवाद/M</w>
अनात्मवान</w>
अनात्म्य/sT</w>
अनात्य
अनात्यंत
अनात्यंतिक</w>
अनाथ
अनाथ-स
अनाथ-सनाथ</w>
अनाथ/FDsTM</w>
अनाथत/F</w>
अनाथत्व</w>
अनाथपन</w>
अनाथानुसार
अनाथानुसारी</w>
अनाथाल
अनाथालय/M</w>
अनाथाश्र
अनाथाश्रम/M</w>
अनाद
अनाद/E</w>
अनादत्त</w>
अनादर
अनादर/M
अनादर/Mq</w>
अनादरकृत</w>
अनादरण/M</w>
अनादरणीय</w>
अनादरपूर्ण</w>
अनादरपूर्वक</w>
अनादरयुक्त</w>
अनादरित</w>
अनादर्य</w>
अनादर्श
अनादर्श/sT</w>
अनादान</w>
अनादायाद</w>
अनादार</w>
अनादि
अनादि/sT</w>
अनादिअंत</w>
अनादिक
अनादिक</w>
अनादिकाल
अनादिकाल/M</w>
अनादिकालिक</w>
अनादिकालीन</w>
अनादित्व/M</w>
अनादिनिधन</w>
अनादिम
अनादिम/sT</w>
अनादिमध्य
अनादिमध्यनिधन</w>
अनादिमध्या
अनादिमध्यांत</w>
अनादिष्ट</w>
अनादृत</w>
अनादेश
अनादेशित</w>
अनाद्य
अनाद्यन
अनाद्यनंत</w>
अनाध
अनाधार
अनाधार</w>
अनाधारितता</w>
अनाधिक
अनाधिकार
अनाधिकार/ME</w>
अनाधिकारिक</w>
अनाधिकृत</w>
अनाधिकृति</w>
अनाधीन/sT</w>
अनाधृष्ट</w>
अनाधृष्य</w>
अनाध्या
अनाध्यात्म
अनाध्यात्मवाद</w>
अनान
अनानंद</w>
अनानंदित</w>
अनानास/M</w>
अनानु
अनानुपू
अनानुपूर्
अनानुपूर्व्य
अनानुपूर्व्य/M</w>
अनानुपूव
अनानुपूव्र्य</w>
अनानुवंश
अनानुवंशिक/sT</w>
अनाप
अनाप-श
अनाप-शनाप</w>
अनाप-स
अनाप-सनाप</w>
अनाप/F</w>
अनापत्त
अनापत्तति</w>
अनापत्ति</w>
अनापद
अनापद/sTF</w>
अनापन्न</w>
अनापशन
अनापशनाप</w>
अनापहारी</w>
अनाप्त
अनाप्त/sT</w>
अनाप्ति</w>
अनाप्य</w>
अनाप्लुत</w>
अनाब
अनाबंट
अनाबंटित</w>
अनाबद्घ/sT</w>
अनाबद्ध
अनाबद्ध/sT</w>
अनाबद्धक</w>
अनाबद्धन</w>
अनाबि
अनाबिद्ध</w>
अनाबेश
अनाबेशाही</w>
अनाभाव</w>
अनाभूष
अनाभूषित/sT</w>
अनाभूषितत/F</w>
अनाम
अनाम/FEsTM</w>
अनामंत्र
अनामंत्रित</w>
अनामक</w>
अनामत्व</w>
अनामय/sTM</w>
अनामवास/E0</w>
अनामा
अनामास्थि</w>
अनामिक
अनामिक/sTMF</w>
अनामिकबंधन</w>
अनामिकबन्धन</w>
अनामित</w>
अनामीस</w>
अनामीज़</w>
अनामुल</w>
अनामोद</w>
अनाय
अनायत्त</w>
अनाया
अनायाचन</w>
अनायाचित</w>
अनायास
अनायास/sT</w>
अनायासिक</w>
अनायु
अनायुक्त/M</w>
अनायुध</w>
अनायोज
अनायोजित/sT</w>
अनार
अनार-द
अनार-दाना</w>
अनार/xy
अनार/xyEM</w>
अनारंजनीय</w>
अनारंजित</w>
अनारंभ</w>
अनारकली</w>
अनारक्षित</w>
अनारदान
अनारदाना/CI</w>
अनारपन</w>
अनाराध
अनाराधनीय</w>
अनारूढ़</w>
अनारोग
अनारोग्य
अनारोग्यकर</w>
अनार्
अनार्ज
अनार्जव/M</w>
अनार्त
अनार्तव
अनार्तव/FsTM</w>
अनार्तवत/F</w>
अनार्द
अनार्दता</w>
अनार्द्र
अनार्द्र/sT</w>
अनार्द्रण</w>
अनार्द्रीकरण</w>
अनार्द्रीकृत</w>
अनार्य
अनार्य/sTM</w>
अनार्यक</w>
अनार्यज/M</w>
अनार्यत्व</w>
अनार्ष</w>
अनाल
अनालंब
अनालंबन</w>
अनालंबु
अनालंबुका</w>
अनालाप</w>
अनाले
अनालेपित</w>
अनालो
अनालोक
अनालोकित</w>
अनालोच
अनालोचक</w>
अनालोचन
अनालोचनात्मक</w>
अनालोचनीयता</w>
अनालोचित</w>
अनाव
अनावरक</w>
अनावरण/M</w>
अनावर्तक</w>
अनावर्तित/F</w>
अनावर्ती</w>
अनावर्षण</w>
अनावलंब
अनावलंब/E</w>
अनावलंबन</w>
अनावास
अनावास/E</w>
अनावासिक</w>
अनावासित/sTF</w>
अनावासीय</w>
अनावास्यता</w>
अनावाह
अनावाहन</w>
अनावाहित/sT</w>
अनावि
अनाविद्ध</w>
अनाविर्
अनाविर्भूत</w>
अनाविष्ट
अनाविष्ट/sT</w>
अनाविष्टत/F</w>
अनावृ
अनावृ+
अनावृ+वृष्टि</w>
अनावृत/M</w>
अनावृत्त
अनावृत्त</w>
अनावृत्तबी
अनावृत्तबीजी</w>
अनावृत्ति</w>
अनावृष्ट
अनावृष्टि
अनावृष्टि/QM</w>
अनावेदक</w>
अनावेदन</w>
अनावेदित</w>
अनावेशित</w>
अनावेष्ट
अनावेष्टित</w>
अनाश
अनाश/FE</w>
अनाशंक
अनाशंका</w>
अनाशंकित</w>
अनाशंकितत</w>
अनाशक</w>
अनाशका
अनाशकायन</w>
अनाशय
अनाशयित</w>
अनाशवान</w>
अनाशु</w>
अनाशोधन</w>
अनाश्च
अनाश्चर्य</w>
अनाश्यत/F</w>
अनाश्र
अनाश्रमी</w>
अनाश्रित/sT</w>
अनास
अनासक्त
अनासक्त/sT</w>
अनासक्तत/F</w>
अनासक्ति</w>
अनासती</w>
अनासन्न</w>
अनासाद
अनासादित</w>
अनासाद्य</w>
अनासि
अनासिर/M</w>
अनासीन</w>
अनास्
अनास्त
अनास्तास
अनास्तासिया</w>
अनास्ते
अनास्तेसिया</w>
अनास्थ
अनास्था
अनास्थावादी</w>
अनास्वाद</w>
अनास्वादित</w>
अनाह
अनाहत
अनाहत/sTM</w>
अनाहतचक्र/M</w>
अनाहतत/F</w>
अनाहतनाद</w>
अनाहति</w>
अनाहद
अनाहद-
अनाहद-वाणी</w>
अनाहद</w>
अनाहरित</w>
अनाहार
अनाहारमार्ग
अनाहारमार्गणा</w>
अनाहूत
अनाहूत-आ
अनाहूत-आह
अनाहूत-आहुत</w>
अनाहूत/sTM</w>
अनाहूति</w>
अनाह्ल
अनाह्लादित</w>
अनाज़
अनाज़</w>
अनाज़माया</w>
अनाड़ी</w>
अनि
अनिंद
अनिंदात्मक</w>
अनिंदित</w>
अनिंद्रिय</w>
अनिक
अनिक</w>
अनिकट/sT</w>
अनिकृष्ट</w>
अनिकेत/M</w>
अनिकेतन</w>
अनिग
अनिगदन</w>
अनिग्न</w>
अनिग्रह
अनिग्रहत</w>
अनिग्रहीत</w>
अनिच्छ
अनिच्छ/F</w>
अनिच्छत</w>
अनिच्छनीय/sT</w>
अनिच्छा/JK</w>
अनिच्छापूर्वक</w>
अनिच्छाय
अनिच्छायुक्त</w>
अनिच्छित/M</w>
अनिच्छु
अनिच्छु</w>
अनिच्छुक/sTM</w>
अनिजक</w>
अनिजत्व</w>
अनित
अनित/FsT</w>
अनितरता</w>
अनितांत</w>
अनित्य
अनित्य-न
अनित्य-नित्य</w>
अनिदि
अनिदिंत</w>
अनिद्र
अनिद्र/MFD</w>
अनिद्रित</w>
अनिद्रितत</w>
अनिनी</w>
अनिन्द
अनिन्द</w>
अनिन्दनीय</w>
अनिप</w>
अनिपात/M</w>
अनिबद्ध
अनिबद्ध/M</w>
अनिभ्य</w>
अनिम
अनिमंत्रण</w>
अनिमक</w>
अनिमग्न</w>
अनिमा</w>
अनिमि
अनिमित्
अनिमित्त/M</w>
अनिमित्त्
अनिमित्त्कता</w>
अनिमिया</w>
अनिमिर्त</w>
अनिमिषा
अनिमिषाक्ष</w>
अनिमिषाचार्य</w>
अनिमे
अनिमेष
अनिमेषदृष्टि</w>
अनिमेषनयन</w>
अनिमेषलोचन</w>
अनिय
अनियंत्रण</w>
अनियत
अनियत/sTMF</w>
अनियतकालिक</w>
अनियतपु
अनियतपुं
अनियतपुंस्का</w>
अनियतरूप
अनियतरूपी</w>
अनियत्रित</w>
अनियम
अनियमबद्ध</w>
अनियमवाद</w>
अनियमानु
अनियमानुसार</w>
अनियमित
अनियमितत
अनियमितता
अनियमितता/JK</w>
अनियमितताएं</w>
अनियमितताय
अनियमिततायें</w>
अनियम्यत</w>
अनिया
अनियाउ</w>
अनियार
अनियारा/G</w>
अनियुक्त</w>
अनियोज
अनियोजित/sT</w>
अनिर
अनिरवा</w>
अनिरसन</w>
अनिरस्त</w>
अनिरा
अनिराकरण</w>
अनिराकरणीय/sT</w>
अनिराकृत</w>
अनिरु
अनिरुक्त</w>
अनिरुक्तत</w>
अनिरुद्घ</w>
अनिरुपित</w>
अनिरूपण</w>
अनिरोध
अनिरोध्य</w>
अनिर्
अनिर्घात</w>
अनिर्जर</w>
अनिर्ण
अनिर्णय/sTM</w>
अनिर्णयग्रस्तता</w>
अनिर्णित/M</w>
अनिर्णेय</w>
अनिर्द
अनिर्दय</w>
अनिर्दशा</w>
अनिर्दि
अनिर्दिष्ट
अनिर्दिष्टकाल</w>
अनिर्देश
अनिर्देश</w>
अनिर्देश्य
अनिर्देश्यवपु</w>
अनिर्धारण</w>
अनिर्धार्य</w>
अनिर्बन्ध</w>
अनिर्भ
अनिर्भर</w>
अनिर्भरणीय</w>
अनिर्मल</w>
अनिर्माण</w>
अनिर्माता</w>
अनिर्व
अनिर्वचन
अनिर्वचनीयत/F</w>
अनिर्वाच
अनिर्वाचक</w>
अनिर्वाचन</w>
अनिर्वाचित</w>
अनिर्वाच्य/sT</w>
अनिर्वाण</w>
अनिर्वाय</w>
अनिर्वार्य
अनिर्वार्य/sT</w>
अनिर्वाह</w>
अनिर्वि
अनिर्विण</w>
अनिर्वेद</w>
अनिल
अनिल-
अनिल-वाह</w>
अनिल/M</w>
अनिलकुमार</w>
अनिलघ्न
अनिलघ्नक</w>
अनिलवाह</w>
अनिलसखा</w>
अनिलसार</w>
अनिलसारथि</w>
अनिला
अनिलात्मज</w>
अनिलामय</w>
अनिलाशी</w>
अनिवार
अनिवारण</w>
अनिवारणीयत/F</w>
अनिवारितत</w>
अनिवार्य
अनिवार्य-वै
अनिवार्य-वैकल्पिक</w>
अनिवार्य/sTM</w>
अनिवार्यत/F</w>
अनिवार्यतः</w>
अनिवार्यतापूर्वक</w>
अनिवार्यबा
अनिवार्यबाध्य
अनिवार्यबाध्यकारी</w>
अनिवार्यरूप</w>
अनिवार्येतर</w>
अनिवृ
अनिवृत्
अनिवृत्ति
अनिवृत्ति-
अनिवृत्ति-वादर</w>
अनिवृत्तिवादर</w>
अनिश</w>
अनिश्
अनिश्च
अनिश्चतता</w>
अनिश्चयग्रस्तता</w>
अनिश्चल
अनिश्चल</w>
अनिश्चलत</w>
अनिश्चि
अनिश्चिच
अनिश्चिचतता</w>
अनिश्चित
अनिश्चितकालीन</w>
अनिश्चितता/K</w>
अनिश्चिताकार
अनिश्चिताकार/sT</w>
अनिश्चिताकारीय</w>
अनिश्चिय</w>
अनिश्चियात्म
अनिश्चियात्मक/M</w>
अनिश्वर
अनिश्वरवादी</w>
अनिष
अनिषि
अनिषिक्त</w>
अनिषिद्घत/F</w>
अनिषे
अनिषेक
अनिषेकज</w>
अनिषेकजनन</w>
अनिषेकजनित</w>
अनिषेध</w>
अनिष्
अनिष्का
अनिष्काल
अनिष्कालन</w>
अनिष्कासन</w>
अनिष्कासित</w>
अनिष्क्र
अनिष्क्रांत</w>
अनिष्छ
अनिष्छनीय</w>
अनिष्ट
अनिष्ट-इ
अनिष्ट-इष्ट</w>
अनिष्ट-सं
अनिष्ट-संकेत</w>
अनिष्ट/q
अनिष्ट/qsTM</w>
अनिष्टकर
अनिष्टकर/EsT</w>
अनिष्टकरत/F</w>
अनिष्टकरपन</w>
अनिष्टका
अनिष्टकामी</w>
अनिष्टकार
अनिष्टकारक</w>
अनिष्टकारिता</w>
अनिष्टचिंतन</w>
अनिष्टत/F</w>
अनिष्टपूर्ण</w>
अनिष्टहीन</w>
अनिष्टार्थी</w>
अनिष्टाश
अनिष्टाशंसी</w>
अनिष्ठ/F</w>
अनिष्ठित</w>
अनिष्ण
अनिष्णतता</w>
अनिष्णात/sT</w>
अनिष्पक्ष</w>
अनिष्पादित</w>
अनिस्त
अनिस्ती
अनिस्तीर्यता</w>
अनी
अनी/O
अनी/OsTM</w>
अनीक
अनीक/M</w>
अनीकिनी</w>
अनीकीय</w>
अनीच</w>
अनीति</w>
अनीतिक
अनीतिकर</w>
अनीतिपूर्ण</w>
अनीनी</w>
अनीप्
अनीप्सा</w>
अनीप्सित</w>
अनीम
अनीमा</w>
अनीमिक</w>
अनीमिया
अनीमिया/JK</w>
अनीमियाजन्य</w>
अनीय/sT</w>
अनीर्
अनीर्ष
अनीर्षितत</w>
अनीर्ष्य</w>
अनीर्ष्यत</w>
अनील
अनील</w>
अनीलन/M</w>
अनीलबाजी</w>
अनीलवा
अनीलवाजी</w>
अनीश
अनीश/FDsTM</w>
अनीशत्व</w>
अनीश्व
अनीश्वर
अनीश्वर/sT</w>
अनीश्वरत्व</w>
अनीश्वरवाद/EM</w>
अनीश्वरीयता</w>
अनीश्वरोप
अनीश्वरोपदिष्ट</w>
अनीष्
अनीष्र्य
अनीष्र्यत</w>
अनीस/M</w>
अनीसून</w>
अनीह
अनीह/FDM</w>
अनीहत</w>
अनीड़</w>
अनु
अनु-</w>
अनु/V
अनु/VU
अनु/VUq</w>
अनुंस
अनुंसधान</w>
अनुक
अनुकंप
अनुकंप/MFED</w>
अनुकंपनीय/sT</w>
अनुकंपी-
अनुकंपी-अनु
अनुकंपी-अनुकारी</w>
अनुकथन</w>
अनुकम्
अनुकम्प
अनुकम्पा/CI</w>
अनुकरण
अनुकरण/MV</w>
अनुकरणकर्त्ता</w>
अनुकरणकारी</w>
अनुकरणक्षम</w>
अनुकरणज</w>
अनुकरणपूर्ण</w>
अनुकरणशील</w>
अनुकरणात्मक/sT</w>
अनुकरणीय/sTM</w>
अनुकर्ष</w>
अनुकर्षण</w>
अनुकाट</w>
अनुकारक</w>
अनुकार्य
अनुकार्यत</w>
अनुकाल</w>
अनुकूल
अनुकूल-प्र
अनुकूल-प्रतिक
अनुकूल-प्रतिकूल</w>
अनुकूल/sTMFD</w>
अनुकूलक/M</w>
अनुकूलकारी</w>
अनुकूलतम</w>
अनुकूलन
अनुकूलन/FM</w>
अनुकूलनशील/sT</w>
अनुकूलनहीनता</w>
अनुकूलनीय/sT</w>
अनुकूलित</w>
अनुक्ति</w>
अनुक्र
अनुक्रम
अनुक्रम/EsTM</w>
अनुक्रमण
अनुक्रमण/ME</w>
अनुक्रमणिक/F</w>
अनुक्रमणिका/JK</w>
अनुक्रमणी
अनुक्रमणीकार/M</w>
अनुक्रमानु
अनुक्रमानुपाती</w>
अनुक्रमानुसारत</w>
अनुक्रमिक</w>
अनुक्षि
अनुक्षिति
अनुक्षितिज
अनुक्षितिजत/F</w>
अनुख्य
अनुख्यान/M</w>
अनुग
अनुगत
अनुगत</w>
अनुगतत</w>
अनुगम
अनुगमन</w>
अनुगमीय</w>
अनुगव
अनुगवीन</w>
अनुगाम
अनुगामीयुक्त</w>
अनुगामीहीन</w>
अनुगुण
अनुगुणत</w>
अनुगूँ
अनुगूँज</w>
अनुग्र
अनुग्र/sT</w>
अनुग्रत/F</w>
अनुग्रह
अनुग्रह-ट
अनुग्रह-टिप
अनुग्रह-टिप्प
अनुग्रह-टिप्पणी</w>
अनुग्रह-वि
अनुग्रह-विग्रह</w>
अनुग्रह/EM</w>
अनुग्रहकारी</w>
अनुग्रहपा
अनुग्रहपात्र
अनुग्रहपात्र/sT</w>
अनुग्रहपूर्ण</w>
अनुग्रहपूर्वक/M</w>
अनुग्रहांक/M</w>
अनुग्राहक</w>
अनुग्राह्य</w>
अनुचक्र
अनुचक्रत</w>
अनुचर
अनुचर/sT</w>
अनुचरगण</w>
अनुचरत/F</w>
अनुचिंत
अनुचिंतत</w>
अनुचित
अनुचित/sT</w>
अनुचितत/F</w>
अनुचितार्थ/M</w>
अनुचित्रक</w>
अनुचिर्
अनुचिर्तित</w>
अनुच्
अनुच्च
अनुच्च/sT</w>
अनुच्चर
अनुच्चरण</w>
अनुच्चरित</w>
अनुच्चरितत</w>
अनुच्चार
अनुच्चार</w>
अनुच्चारण</w>
अनुच्चारणीय</w>
अनुच्चारित</w>
अनुच्छ
अनुच्छिन्न</w>
अनुच्छिष्ट
अनुच्छिष्ट/sT</w>
अनुच्छेद
अनुच्छेद/M</w>
अनुच्छेदनीय</w>
अनुच्छेदीय</w>
अनुच्छेद्य</w>
अनुज
अनुज-
अनुज-अग्र
अनुज-अग्रज</w>
अनुजन्मा</w>
अनुजवध
अनुजवधू/R</w>
अनुज्ञ
अनुज्ञ/MFD</w>
अनुज्ञा
अनुज्ञा-पत्र/M</w>
अनुज्ञा-प्राप्त</w>
अनुज्ञाप
अनुज्ञापक</w>
अनुज्ञापज्ञ</w>
अनुज्ञापत्र/M</w>
अनुज्ञाप्र
अनुज्ञाप्रद</w>
अनुज्ञाप्राप्त</w>
अनुज्ञेय/sTM</w>
अनुत
अनुतरंग</w>
अनुतान
अनुतानात्मक</w>
अनुतिथ्य</w>
अनुतुर
अनुतुरता</w>
अनुतृषित</w>
अनुतेजना</w>
अनुत्
अनुत्क
अनुत्क</w>
अनुत्कंठ
अनुत्कंठि</w>
अनुत्कंठित</w>
अनुत्क्रम
अनुत्क्रम</w>
अनुत्क्रमणीय/sT</w>
अनुत्क्रमित</w>
अनुत्क्रामक</w>
अनुत्त
अनुत्तम/sT</w>
अनुत्तमो
अनुत्तमो</w>
अनुत्तर
अनुत्तरदाय
अनुत्तरदायित्व</w>
अनुत्तरदायी</w>
अनुत्तरित</w>
अनुत्तरितत</w>
अनुत्तान</w>
अनुत्ताप/M</w>
अनुत्तीर्ण
अनुत्तीर्ण/sTM</w>
अनुत्ते
अनुत्तेज
अनुत्तेजक/sT</w>
अनुत्तेजना</w>
अनुत्तेजित/sT</w>
अनुत्तेजितत/F</w>
अनुत्तेज्य</w>
अनुत्पत्ति</w>
अनुत्पन्न</w>
अनुत्पा
अनुत्पाद
अनुत्पादक/sTM</w>
अनुत्पादन</w>
अनुत्पादनशील</w>
अनुत्पादित</w>
अनुत्पादी</w>
अनुत्प्र
अनुत्प्रेर
अनुत्प्रेरक</w>
अनुत्मक</w>
अनुत्स
अनुत्सवी</w>
अनुत्साह
अनुत्साह/ME</w>
अनुत्साहित</w>
अनुत्सु
अनुत्सुक/sT</w>
अनुत्सेक</w>
अनुद
अनुदकि
अनुदकिद</w>
अनुदनीय</w>
अनुदय</w>
अनुदर
अनुदर/sTFE</w>
अनुदात्त
अनुदात्त/sTM</w>
अनुदान
अनुदान/MV</w>
अनुदानमा
अनुदानमांग</w>
अनुदानों
अनुदानोंविन
अनुदानोंविनियो
अनुदानोंविनियोगो
अनुदानोंविनियोगों</w>
अनुदार
अनुदार/sT</w>
अनुदारत/F</w>
अनुदारतावादी</w>
अनुदारमनस्क/sT</w>
अनुदारवादी</w>
अनुदास
अनुदासीनता</w>
अनुदाह
अनुदाहरणीय</w>
अनुदाहऱ
अनुदाहऱणीय</w>
अनुदिश
अनुदिशगामी</w>
अनुदिशत</w>
अनुदिशत्व</w>
अनुदीय
अनुदीयमान/sT</w>
अनुद्
अनुद्घ
अनुद्घा
अनुद्घाट
अनुद्घाटन</w>
अनुद्घाटित</w>
अनुद्घोषित</w>
अनुद्ध
अनुद्धत/sT</w>
अनुद्धतत/F</w>
अनुद्धर्ष</w>
अनुद्धार</w>
अनुद्धार्य</w>
अनुद्धृत</w>
अनुद्भ
अनुद्भट/sT</w>
अनुद्भव</w>
अनुद्भाव
अनुद्भाव्यता</w>
अनुद्भूत</w>
अनुद्य
अनुद्यत/sT</w>
अनुद्यम
अनुद्यम/E</w>
अनुद्यमशील</w>
अनुद्योग
अनुद्योग/E</w>
अनुद्योगशील</w>
अनुद्योगीकरण</w>
अनुद्व
अनुद्वतत/F</w>
अनुद्वाह</w>
अनुद्वि
अनुद्विग्न
अनुद्विग्न/sT</w>
अनुद्विग्नत/F</w>
अनुद्वे
अनुद्वेग
अनुद्वेग</w>
अनुद्वेगकर</w>
अनुद्वेलक</w>
अनुद्वेलित</w>
अनुधर्म
अनुधर्मक</w>
अनुन
अनुनय
अनुनय-वि
अनुनय-विन
अनुनय-विनय</w>
अनुनय/E</w>
अनुनयपूर्वक</w>
अनुना
अनुनाद
अनुनाद/E</w>
अनुनादक</w>
अनुनादन</w>
अनुनादितत</w>
अनुनादित्र</w>
अनुनास
अनुनासन</w>
अनुनासिक
अनुनासिक/sTM</w>
अनुनासिकवत</w>
अनुनीत</w>
अनुनु
अनुनुकृति</w>
अनुन्
अनुन्न
अनुन्नत/sT</w>
अनुन्नति</w>
अनुन्नत्त</w>
अनुन्मत्त</w>
अनुन्मुक्त</w>
अनुन्मूल
अनुन्मूलनीय</w>
अनुन्मूल्य</w>
अनुन्मो
अनुन्मोचित</w>
अनुप
अनुपकार/E</w>
अनुपगत</w>
अनुपगति</w>
अनुपगीत</w>
अनुपचर्या</w>
अनुपचार
अनुपचारित</w>
अनुपज</w>
अनुपजा
अनुपजाऊ
अनुपजाऊ/M</w>
अनुपजाऊपन</w>
अनुपद
अनुपद</w>
अनुपदिष्ट</w>
अनुपदीना</w>
अनुपधि</w>
अनुपन</w>
अनुपनीत</w>
अनुपन्यास</w>
अनुपपत्ति</w>
अनुपपत्र</w>
अनुपपन्न</w>
अनुपपाद
अनुपपाद्य/sT</w>
अनुपभुक्
अनुपभुक्त/sTF</w>
अनुपभोग
अनुपभोग</w>
अनुपभोगित/sT</w>
अनुपभोग्य</w>
अनुपम
अनुपम/sTMF</w>
अनुपमत/F</w>
अनुपमित</w>
अनुपय
अनुपयश</w>
अनुपयुक्
अनुपयुक्त/sTM</w>
अनुपयोग
अनुपयोग/EM</w>
अनुपयोगित/sTF</w>
अनुपयोग्य</w>
अनुपयोज्य/M</w>
अनुपल
अनुपलक्ष
अनुपलक्षित</w>
अनुपलब्ध
अनुपलब्ध/sT</w>
अनुपलब्धि</w>
अनुपलभ्य</w>
अनुपव
अनुपवीत</w>
अनुपश
अनुपशांत</w>
अनुपस्थ
अनुपस्थान</w>
अनुपस्थि
अनुपस्थित
अनुपस्थित/sTME</w>
अनुपस्थितत/F</w>
अनुपस्थिति
अनुपस्थिति-उप
अनुपस्थिति-उपस्थिति</w>
अनुपस्थिति</w>
अनुपहत</w>
अनुपा
अनुपात
अनुपातक</w>
अनुपातत</w>
अनुपाततः</w>
अनुपातपूर्ण</w>
अनुपातयुक्त/sT</w>
अनुपातहीन/sT</w>
अनुपातहीनतः</w>
अनुपातीय</w>
अनुपाद
अनुपादक/sT</w>
अनुपान</w>
अनुपार्
अनुपार्जक</w>
अनुपार्जित</w>
अनुपाल
अनुपालंभ</w>
अनुपालित/sT</w>
अनुपासन</w>
अनुपासित</w>
अनुपूर
अनुपूरक
अनुपूरक-
अनुपूरक-हित</w>
अनुपूरकप्र
अनुपूरकप्रश्न</w>
अनुपूरकीय</w>
अनुपूर्
अनुपूर्व्य</w>
अनुपृथ
अनुपृथ्व
अनुपृथ्विता</w>
अनुपेक्ष
अनुपेक्षक</w>
अनुपेक्षित</w>
अनुपेक्ष्यता</w>
अनुप्त
अनुप्तश
अनुप्तशस्य</w>
अनुप्र
अनुप्रणन</w>
अनुप्रमाण
अनुप्रमाणित/M</w>
अनुप्रयु
अनुप्रयुत/M</w>
अनुप्रयोग
अनुप्रयोग-उ
अनुप्रयोग-उन्
अनुप्रयोग-उन्मुख/M</w>
अनुप्रवाह
अनुप्रवाहगामी</w>
अनुप्रस्थ
अनुप्रस्थत/F</w>
अनुप्रास
अनुप्रासत</w>
अनुप्रासयुक्त</w>
अनुप्रासित</w>
अनुप्रेर
अनुप्रेरण</w>
अनुबंध
अनुबंध-पत्र/M</w>
अनुबंधक</w>
अनुबंधकर्त्ता</w>
अनुबंधकारी</w>
अनुबंधहीनता</w>
अनुबंधाधीन</w>
अनुबंधानुसार</w>
अनुबंधानुसारत</w>
अनुबंधीय</w>
अनुबद्ध
अनुबद्ध</w>
अनुबद्धतापूर्वक</w>
अनुबद्धनिय
अनुबद्धनियत</w>
अनुबन्ध
अनुबन्ध/E
अनुबन्ध/EV
अनुबन्ध/EVM</w>
अनुबन्धकर्त्ता</w>
अनुबल</w>
अनुभ
अनुभर
अनुभरा/C</w>
अनुभव
अनुभव-
अनुभव-गम्य</w>
अनुभवगत</w>
अनुभवगम्य/sT</w>
अनुभवजन्य</w>
अनुभवपूर्ण/sT</w>
अनुभवप्र
अनुभवप्रसू
अनुभवप्रसूत</w>
अनुभवप्राप्त</w>
अनुभवमूलक</w>
अनुभवरहित</w>
अनुभववाद/M</w>
अनुभवशून्य</w>
अनुभवसम
अनुभवसमृ
अनुभवसमृद्ध</w>
अनुभवसिद्ध
अनुभवसिद्ध/LM</w>
अनुभवहीन/sT</w>
अनुभवहीनतः</w>
अनुभवा
अनुभवातीत
अनुभवातीत/FsT</w>
अनुभवात्मक</w>
अनुभवियो</w>
अनुभा</w>
अनुभागीय/M</w>
अनुभाजन</w>
अनुभार</w>
अनुभु
अनुभुक्
अनुभुक्त/F</w>
अनुभुति</w>
अनुभू
अनुभूत</w>
अनुभूति
अनुभूतिगम्य</w>
अनुभूतिग्राहक</w>
अनुभूतिजन्य</w>
अनुभूतित्र</w>
अनुभूतिप्र
अनुभूतिप्रव
अनुभूतिप्रवण/sT</w>
अनुभूतियाँ</w>
अनुभूतियुक्त/sT</w>
अनुभूतियुक्तत/F</w>
अनुभूतियों</w>
अनुभूतियोग</w>
अनुभूतिशून्य/sT</w>
अनुभूतिहीन/sT</w>
अनुभूती
अनुभूतींद्रिय</w>
अनुभूत्य/sT</w>
अनुभूय
अनुभूयमान</w>
अनुभोग
अनुभोगित/F</w>
अनुम
अनुमत/sT</w>
अनुमतत/F</w>
अनुमति
अनुमतिदत्त</w>
अनुमतिपत्र/M</w>
अनुमतिप्राप्त</w>
अनुमतियोग्य</w>
अनुमतिहीनतः</w>
अनुमान
अनुमान.</w>
अनुमानत/FED</w>
अनुमानतः</w>
अनुमानपत्रीय</w>
अनुमानसिद्ध</w>
अनुमानातीत
अनुमानातीत/sT</w>
अनुमानातीतत/F</w>
अनुमानिक</w>
अनुमानित/sTM</w>
अनुमानीकरण</w>
अनुमानुरू
अनुमानुरूप
अनुमानुरूपत</w>
अनुमापक</w>
अनुमापन</w>
अनुमित</w>
अनुमिति
अनुमितिवाद/M</w>
अनुमृ
अनुमृता</w>
अनुमेय
अनुमेय/sTM</w>
अनुमोद
अनुमोद</w>
अनुमोदक</w>
अनुमोदन/M</w>
अनुमोदनात्मक</w>
अनुमोदनार्थ</w>
अनुमोदनीय</w>
अनुम्ल
अनुम्लो
अनुम्लोचा</w>
अनुया
अनुयाचन/FM</w>
अनुयाज/F</w>
अनुयान/M</w>
अनुयाय
अनुयायन</w>
अनुयायिता</w>
अनुयायिनी</w>
अनुयायिय/M</w>
अनुयायीयुक्त</w>
अनुयायीहीन</w>
अनुयूष
अनुयूषम</w>
अनुयोग
अनुयोग/E</w>
अनुर
अनुरंजित</w>
अनुरक्त
अनुरक्त-वि
अनुरक्त-विर
अनुरक्त-विरक्त</w>
अनुरक्तत/F</w>
अनुरक्ष
अनुरक्षण
अनुरक्षण/qM</w>
अनुरतत/F</w>
अनुरथ्या</w>
अनुरा
अनुराग
अनुराग-विरा
अनुराग-विराग</w>
अनुराग/q
अनुराग/q34sTv
अनुराग/q34sTvME</w>
अनुरागत
अनुरागता/AGC</w>
अनुरागनीय</w>
अनुरागि
अनुरागिए
अनुरागिए</w>
अनुरागिएग
अनुरागिएगा/G</w>
अनुरागो</w>
अनुरु
अनुरुपत/F</w>
अनुरूप
अनुरूप/834sTvED</w>
अनुरूपत/FED</w>
अनुरूपियो</w>
अनुरूप॒
अनुरूप॒/M</w>
अनुरेख
अनुरेखक/M</w>
अनुरेखन/M</w>
अनुरोध
अनुरोध-पत्र/M</w>
अनुरोध-ब
अनुरोध-बस-
अनुरोध-बस-अड्
अनुरोध-बस-अड्डा</w>
अनुरोध</w>
अनुरोधपूर्वक</w>
अनुर्ती
अनुर्तीण
अनुर्तीण-उ
अनुर्तीण-उर्ती
अनुर्तीण-उर्तीण</w>
अनुर्तीण/M</w>
अनुर्य
अनुर्यायी</w>
अनुर्व
अनुर्वर
अनुर्वर/sTF</w>
अनुर्वरित</w>
अनुर्वरी
अनुर्वरीकरण/M</w>
अनुल
अनुलंगम</w>
अनुलंब
अनुलंबखाता</w>
अनुलगम</w>
अनुलग्
अनुलग्गन</w>
अनुलग्न
अनुलग्न</w>
अनुलग्नक/M</w>
अनुलग्नम</w>
अनुलग्नित</w>
अनुलब्
अनुलब्ध
अनुलब्धियां</w>
अनुलब्न</w>
अनुलम्ब
अनुलम्बखाता</w>
अनुला
अनुलाक्ष्य</w>
अनुलाप/M</w>
अनुलिप
अनुलिपिक</w>
अनुलिपिकरण/M</w>
अनुलिपित्र
अनुलिपित्र/M</w>
अनुलिपित्रित</w>
अनुले
अनुलेप</w>
अनुलेपन/M</w>
अनुलो
अनुलोम
अनुलोम-
अनुलोम--वि
अनुलोम--विलो
अनुलोम--विलोम</w>
अनुलोम-विवाह</w>
अनुलोमज</w>
अनुलोमत</w>
अनुल्क</w>
अनुल्ल
अनुल्लंघ
अनुल्लंघक</w>
अनुल्लंघकारी</w>
अनुल्लंघन/M</w>
अनुल्लंघनकारी</w>
अनुल्लंघनशील</w>
अनुल्लंघनीय/sT</w>
अनुल्लंघित/sT</w>
अनुल्लिख
अनुल्लिखित</w>
अनुल्लेख
अनुल्लेख/M</w>
अनुल्लेखनीय/sT</w>
अनुल्लेख्यता</w>
अनुवंश
अनुवंशजनन</w>
अनुवंशजनित</w>
अनुवंशाव
अनुवंशावलि</w>
अनुवंशिकीय</w>
अनुवर्त
अनुवर्तन
अनुवर्तन/FM</w>
अनुवर्ता/G</w>
अनुवर्ष</w>
अनुवा
अनुवा</w>
अनुवातो
अनुवातोमि
अनुवातोमिर</w>
अनुवातोमिर्</w>
अनुवाद
अनुवादक
अनुवादकीय/M</w>
अनुवादनीय</w>
अनुवादीकरण</w>
अनुवादीय</w>
अनुवास
अनुवासन
अनुवासन-व
अनुवासन-वस्ति</w>
अनुवासित/sT</w>
अनुवि
अनुविन्यास</w>
अनुवृत्त
अनुवृत्त/E</w>
अनुवृत्तिक</w>
अनुवे
अनुवेध</w>
अनुश
अनुशंस
अनुशंसक</w>
अनुशंसा-पत्र/M</w>
अनुशंसा/ICJK</w>
अनुशंसाकारी</w>
अनुशंसात्मक</w>
अनुशय/ME</w>
अनुशास
अनुशासन
अनुशासन/sTM</w>
अनुशासनपर</w>
अनुशासनप्रिय/sT</w>
अनुशासना
अनुशासनाध
अनुशासनाधीन
अनुशासनाधीनत</w>
अनुशासिक</w>
अनुशिक्ष
अनुशिक्षक</w>
अनुशिक्षी</w>
अनुशियाना</w>
अनुशील
अनुशीलन
अनुशीलन/MV</w>
अनुशेष</w>
अनुशो
अनुशोच
अनुशोचत</w>
अनुशोची</w>
अनुश्र
अनुश्रवण
अनुश्रवणक/M</w>
अनुष
अनुषंग
अनुषंगिक</w>
अनुषंगिनी</w>
अनुषक्त</w>
अनुषक्ति</w>
अनुषत्कि</w>
अनुष्ट
अनुष्टु
अनुष्टुप/M</w>
अनुष्टुभ</w>
अनुष्ठ
अनुष्ठात
अनुष्ठातव्य/sT</w>
अनुष्ठाता</w>
अनुष्ठान
अनुष्ठान-
अनुष्ठान-निर्देश</w>
अनुष्ठान/M</w>
अनुष्ठानन</w>
अनुष्ठानपूर्वक</w>
अनुष्ठानिक</w>
अनुष्ठानित</w>
अनुष्ठापक</w>
अनुष्ठित</w>
अनुष्ठेय/sT</w>
अनुष्ठ्य</w>
अनुष्ण
अनुष्ण/sT</w>
अनुष्णगु</w>
अनुष्णरुधिर
अनुष्णरुधिर/F</w>
अनुस
अनुसं
अनुसंधान
अनुसंधानकर्त्ता</w>
अनुसंधानपरक</w>
अनुसंधानप्र
अनुसंधानप्रदर्शन</w>
अनुसंधानात्मक</w>
अनुसंधानाधीन</w>
अनुसंधानिक</w>
अनुसंधायक</w>
अनुसंधि
अनुसंधित्स
अनुसंधित्सु</w>
अनुसंबद्ध</w>
अनुसन्ध
अनुसन्धान
अनुसन्धान/348sTv
अनुसन्धान/348sTvLMED
अनुसन्धान/348sTvLMEDV</w>
अनुसन्धानकर्त्ता</w>
अनुसन्धानिक</w>
अनुसन्धानित</w>
अनुसन्धानियो</w>
अनुसन्धेय</w>
अनुसम
अनुसमर्थन</w>
अनुसर</w>
अनुसार
अनुसारण/F</w>
अनुसारिता</w>
अनुसू
अनुसूइया</w>
अनुसूचन/M</w>
अनुसूचित-
अनुसूचित-क्षेत्र/M</w>
अनुसूचित-जन
अनुसूचित-जनजाति</w>
अनुसूचित-जाति</w>
अनुसूचित</w>
अनुसूर्य
अनुसूर्यता</w>
अनुसो
अनुसोचक</w>
अनुसोचना</w>
अनुस्
अनुस्त
अनुस्तरण/E</w>
अनुस्तारा
अनुस्ताराश्म</w>
अनुस्म
अनुस्मारक</w>
अनुस्मृत</w>
अनुस्वार
अनुस्वार/M</w>
अनुह
अनुहर
अनुहर/sT
अनुहर/sTv</w>
अनुहरत/FED</w>
अनुहार
अनुहार/8sTvLMED</w>
अनुहारियो</w>
अनुहार्यत/F</w>
अनुहृ
अनुहृदे
अनुहृदेत</w>
अनुि
अनुिल्ल
अनुिल्लख
अनुिल्लखित</w>
अनुृ
अनुृणी</w>
अनू
अनूक
अनूकाश</w>
अनूकूल</w>
अनूक्त</w>
अनूक्ति</w>
अनूच
अनूचान</w>
अनूज
अनूजरा</w>
अनूजिर्त</w>
अनूठ
अनूठा/GCI</w>
अनूठापन/M</w>
अनूठेपन</w>
अनूतर</w>
अनूदित</w>
अनूद्य</w>
अनून/F</w>
अनूप/M</w>
अनूबिस</w>
अनूभाग/M</w>
अनूभू
अनूभूत्य</w>
अनूरु
अनूरु</w>
अनूरुसारथि</w>
अनूरू
अनूरू</w>
अनूर्
अनूर्ज
अनूर्जता</w>
अनूर्जित</w>
अनूसूची/NO</w>
अनूढ़
अनूढ़/FDM</w>
अनूढ़ा
अनूढ़ागमन</w>
अनृ
अनृज
अनृजु</w>
अनृण
अनृण/EsT</w>
अनृत
अनृत/EM</w>
अनृतक</w>
अनृतभाषी</w>
अनृमन्यु</w>
अने
अनेक
अनेक/sTM</w>
अनेककृत</w>
अनेकचर</w>
अनेकज</w>
अनेकतावाद</w>
अनेकत्रण</w>
अनेकत्रित</w>
अनेकत्व/M</w>
अनेकदा</w>
अनेकधा</w>
अनेकमूर्ति</w>
अनेकर
अनेकरु
अनेकरुप/sT</w>
अनेकरू
अनेकरूप
अनेकरूप/sT</w>
अनेकरूपीय/sT</w>
अनेकलोचन</w>
अनेकवचन</w>
अनेकवर्
अनेकवर्णी</w>
अनेकवाद</w>
अनेकविध
अनेकविध/sT</w>
अनेकवृत्ति</w>
अनेकश</w>
अनेकशः</w>
अनेका
अनेकांग
अनेकांगी</w>
अनेकांगीयता</w>
अनेकांत
अनेकांत</w>
अनेकांतवाद/M</w>
अनेकांश/M</w>
अनेकाकार
अनेकाकारीय/sT</w>
अनेकाक्षर</w>
अनेकाग्र
अनेकाग्र/sT</w>
अनेकाग्रचित्त
अनेकाग्रचित्त/sT</w>
अनेकाग्रचित्तत/F</w>
अनेकाग्रत/F</w>
अनेकान
अनेकानेक</w>
अनेकान्त
अनेकान्त</w>
अनेकान्तवाद</w>
अनेकार्थ
अनेकार्थ/EsT</w>
अनेकार्थक/sT</w>
अनेकाल</w>
अनेकेश्व
अनेकेश्वर
अनेकेश्वर/ME</w>
अनेकेश्वरवाद/E</w>
अनेग</w>
अनेत
अनेतर/sT</w>
अनेत्र</w>
अनेथा</w>
अनेरा</w>
अनेला</w>
अनेह
अनेहस</w>
अनै
अनैक
अनैकांत
अनैकांत</w>
अनैकांतिक
अनैकांतिक</w>
अनैकांतिकह
अनैकांतिकहेतु</w>
अनैकांत्य</w>
अनैक्य/M</w>
अनैच्छ
अनैच्छिक/sT</w>
अनैठ/M</w>
अनैतिक
अनैतिकतत</w>
अनैतिहास
अनैतिहासिक-
अनैतिहासिक-ऐ
अनैतिहासिक-ऐतिहास
अनैतिहासिक-ऐतिहासिक</w>
अनैतिहासिक/M</w>
अनैपु
अनैपुण्य</w>
अनैयायिक</w>
अनैरो
अनैरोब
अनैरोब</w>
अनैरोबियम</w>
अनैलि
अनैलिटिक
अनैलिटिकल</w>
अनैश्व
अनैश्वर्य
अनैश्वर्य</w>
अनैश्वर्यदायी</w>
अनैश्वर्यप्रद
अनैश्वर्यप्रद</w>
अनैश्वर्यप्रदायक</w>
अनैश्वर्यप्रदायी</w>
अनैस
अनैस/8FED34sTv</w>
अनैसर्
अनैसर्ग
अनैसर्गिक</w>
अनैहा</w>
अनो
अनोओ
अनोओप</w>
अनोक
अनोकशाय
अनोकशायिता</w>
अनोकशायी</w>
अनोकह</w>
अनोख
अनोखापन/M</w>
अनोखेपन</w>
अनोद
अनोदय
अनोदयना
अनोदयनाम</w>
अनोना</w>
अनौ
अनौचित
अनौचित्यपूर्ण</w>
अनौज
अनौजस्य</w>
अनौट/F</w>
अनौद्घ
अनौद्घत्य</w>
अनौद्ध
अनौद्धत्य</w>
अनौप
अनौपचार
अनौपचारिक
अनौपचारिक/sTM</w>
अनौपचारिकतापूर्वक</w>
अनौपम्य</w>
अनौरस
अनौरस/sT</w>
अन्
अन्-</w>
अन्करी
अन्करीब</w>
अन्कित</w>
अन्कु
अन्कुर</w>
अन्जा
अन्जाम</w>
अन्जु
अन्जुमन</w>
अन्ट
अन्टार्कटिक/F</w>
अन्ठ
अन्ठानबे</w>
अन्ठानबेवाँ</w>
अन्ठानवे</w>
अन्ठानवेवाँ</w>
अन्ठावन</w>
अन्ड
अन्डर
अन्डरटेकिंग</w>
अन्डरटैकिंग</w>
अन्डर्
अन्डर्टेकिंग</w>
अन्डर्टैकिंग</w>
अन्त
अन्त-लघु</w>
अन्त/M</w>
अन्तः
अन्तः/M</w>
अन्तःकरण/M</w>
अन्तःकालीन</w>
अन्तःको
अन्तःकोप</w>
अन्तःकोष</w>
अन्तःक्रिया</w>
अन्तःक्षेप/M</w>
अन्तःप
अन्तःपरि
अन्तःपरिधि</w>
अन्तःपवित्रा</w>
अन्तःपुर
अन्तःपुर</w>
अन्तःपुरप्रचार</w>
अन्तःपुरिक</w>
अन्तःपूजा</w>
अन्तःप्र
अन्तःप्रजनन</w>
अन्तःप्रविष्ट</w>
अन्तःप्रान्त
अन्तःप्रान्तीय</w>
अन्तःप्रेरणा/JK</w>
अन्तःश
अन्तःशरीर</w>
अन्तःशल्य</w>
अन्तःशुद्धि</w>
अन्तःस
अन्तःसं
अन्तःसंज्ञा</w>
अन्तःसत्वा</w>
अन्तःसार</w>
अन्तःसारवान</w>
अन्तःसुख</w>
अन्तःस्थ</w>
अन्तःस्थापन</w>
अन्तःस्वेद</w>
अन्तक/M</w>
अन्तकारी</w>
अन्तकाल</w>
अन्तगर्भा
अन्तगर्भाशयी</w>
अन्तडी</w>
अन्तत</w>
अन्ततः</w>
अन्ततोग
अन्ततोगत्वा</w>
अन्तध्व
अन्तध्वंस/M</w>
अन्तपुर</w>
अन्तप्र
अन्तप्रक्षेप
अन्तप्रक्षेपगृह</w>
अन्तभाव
अन्तभावितता</w>
अन्तय
अन्तयानुप्रास</w>
अन्तयेष्टि
अन्तयेष्टि-व्यापार</w>
अन्तयेष्टि</w>
अन्तर
अन्तर-</w>
अन्तर-सं
अन्तर-संरचना</w>
अन्तर/MFD</w>
अन्तरंग
अन्तरंग-
अन्तरंग--बहिरंग</w>
अन्तरंग-बहिरंग</w>
अन्तरंग/M</w>
अन्तरंग</w>
अन्तरक</w>
अन्तरजातीय</w>
अन्तरजामी</w>
अन्तरजाल</w>
अन्तरज्ञ</w>
अन्तरण</w>
अन्तरत्वचा</w>
अन्तरदृष्टि</w>
अन्तरराष्ट्रीय</w>
अन्तरवाली</w>
अन्तरा
अन्तराग्रहीय</w>
अन्तरातार
अन्तरातारकी</w>
अन्तरात्मा</w>
अन्तरानुभूति</w>
अन्तराप
अन्तरापृष्ठ
अन्तरापृष्ठीय</w>
अन्तराभिमुखी</w>
अन्तरायक</w>
अन्तराल</w>
अन्तरालिका</w>
अन्तराव
अन्तरावलोकन</w>
अन्तरावास/E0</w>
अन्तराष्ट्रीय</w>
अन्तरि
अन्तरिक</w>
अन्तरिक्ष
अन्तरिक्ष-यात्री</w>
अन्तरिक्ष-विज्ञान/M</w>
अन्तरिक्ष</w>
अन्तरिक्षयान</w>
अन्तरिक्षविज्ञान</w>
अन्तरिक्षसत</w>
अन्तरित/E</w>
अन्तरितक</w>
अन्तरिम</w>
अन्तरी
अन्तरीक</w>
अन्तरीप</w>
अन्तरीय</w>
अन्तर्
अन्तर्-</w>
अन्तर्ग
अन्तर्गत/M</w>
अन्तर्गति</w>
अन्तर्गान्
अन्तर्गान्धार</w>
अन्तर्गामी</w>
अन्तर्ग्र
अन्तर्ग्रथन</w>
अन्तर्ग्रथित</w>
अन्तर्ग्रह</w>
अन्तर्घट</w>
अन्तर्चितवन</w>
अन्तर्जात
अन्तर्जात</w>
अन्तर्जातीय
अन्तर्जातीय-विवाह</w>
अन्तर्जातीय</w>
अन्तर्जानु</w>
अन्तर्ज्ञान</w>
अन्तर्ज्योति</w>
अन्तर्द
अन्तर्दश
अन्तर्दशा</w>
अन्तर्दशाह</w>
अन्तर्दहन</w>
अन्तर्दृष्टि</w>
अन्तर्देशी</w>
अन्तर्देशीय</w>
अन्तर्दौह
अन्तर्दौहिक</w>
अन्तर्द्धान</w>
अन्तर्द्व
अन्तर्द्वन्
अन्तर्द्वन्द</w>
अन्तर्द्वन्द्व</w>
अन्तर्द्वार</w>
अन्तर्धान</w>
अन्तर्ध्यान</w>
अन्तर्नि
अन्तर्निरीक्षण</w>
अन्तर्निविष्ट</w>
अन्तर्निवेशन</w>
अन्तर्निष्ठ</w>
अन्तर्निह
अन्तर्निहित/M</w>
अन्तर्पट</w>
अन्तर्प्र
अन्तर्प्रदेश</w>
अन्तर्प्रदेशीय</w>
अन्तर्प्रांतीय</w>
अन्तर्प्रादेशिक</w>
अन्तर्बाह्य</w>
अन्तर्बोध</w>
अन्तर्भ
अन्तर्भाव</w>
अन्तर्भावना</w>
अन्तर्भावित</w>
अन्तर्भासी</w>
अन्तर्भूत</w>
अन्तर्भूमि</w>
अन्तर्भौम</w>
अन्तर्मन
अन्तर्मन/MF</w>
अन्तर्मनस्क</w>
अन्तर्मल</w>
अन्तर्मुख/E</w>
अन्तर्मृत</w>
अन्तर्य
अन्तर्यामी</w>
अन्तर्योग</w>
अन्तर्राज</w>
अन्तर्राज्य
अन्तर्राज्यिक</w>
अन्तर्राज्यी</w>
अन्तर्राज्यीय</w>
अन्तर्राष्ट्र
अन्तर्राष्ट्रवादी</w>
अन्तर्राष्ट्रीय
अन्तर्राष्ट्रीय/sTM</w>
अन्तर्राष्ट्रीयतावादी</w>
अन्तर्रोध</w>
अन्तर्रोधन</w>
अन्तर्लम्ब</w>
अन्तर्लीन</w>
अन्तर्लेखन</w>
अन्तर्व
अन्तर्वती</w>
अन्तर्वत्नी</w>
अन्तर्वदल</w>
अन्तर्वर्ग</w>
अन्तर्वर्ती</w>
अन्तर्वर्धित</w>
अन्तर्वस्तु</w>
अन्तर्वाणिज्य</w>
अन्तर्वाणी</w>
अन्तर्वाष्प</w>
अन्तर्वाह</w>
अन्तर्वि
अन्तर्विकार</w>
अन्तर्विद्ध</w>
अन्तर्विनि
अन्तर्विनिमय</w>
अन्तर्विभागीय</w>
अन्तर्विवाह</w>
अन्तर्विष्ट</w>
अन्तर्वे
अन्तर्वेग</w>
अन्तर्वेगी
अन्तर्वेगीज्वर</w>
अन्तर्वेद
अन्तर्वेद/E</w>
अन्तर्वेध</w>
अन्तर्वेश
अन्तर्वेश/E</w>
अन्तर्वेशन</w>
अन्तर्वेशिक</w>
अन्तर्वेश्म</w>
अन्तर्वेश्मिक</w>
अन्तर्ह
अन्तर्हास</w>
अन्तर्हित</w>
अन्तलघु</w>
अन्तवर्ण</w>
अन्तवर्ती</w>
अन्तवाला</w>
अन्तविदारण</w>
अन्तवे
अन्तवेला</w>
अन्तशय्या</w>
अन्तश्
अन्तश्चेतना</w>
अन्तश्छद</w>
अन्तस
अन्तस</w>
अन्तसद</w>
अन्तसमय</w>
अन्तस्
अन्तस्त
अन्तस्ताप</w>
अन्तस्थ</w>
अन्तस्थिति</w>
अन्तस्नान</w>
अन्तस्यता</w>
अन्तस्सलिल/F</w>
अन्तहीन/sT</w>
अन्तह्
अन्तह्करण</w>
अन्तह्पुर</w>
अन्ताक्ष
अन्ताक्षरी</w>
अन्ताराष्ट्रीय</w>
अन्ताव
अन्तावरी</w>
अन्तावशायी</w>
अन्ति
अन्तिक/sT</w>
अन्तिम
अन्तिम/M</w>
अन्तिमयात्रा</w>
अन्तिमसफर</w>
अन्तिमेत्थम</w>
अन्ते
अन्तेवर</w>
अन्तेवास/0E</w>
अन्तोन</w>
अन्त्य
अन्त्य/F</w>
अन्त्यकर्म</w>
अन्त्यभ</w>
अन्त्ययुग</w>
अन्त्ययोनि</w>
अन्त्यवर्ण</w>
अन्त्यविदारण</w>
अन्त्यविपुला</w>
अन्त्या
अन्त्याक्ष
अन्त्याक्षर/E</w>
अन्त्याघाती</w>
अन्त्यानुप्रास</w>
अन्त्येष्टि</w>
अन्त्र
अन्त्रप्रद
अन्त्रप्रदाह</w>
अन्त्रवृद्धि</w>
अन्त्रा
अन्त्राण्ड
अन्त्राण्डवृद्धि</w>
अन्त्रालजी</w>
अन्द
अन्दर
अन्दर-बाहर</w>
अन्दर/yxM</w>
अन्दरसा</w>
अन्दरू
अन्दरूनी</w>
अन्दा
अन्दाज
अन्दाजन/FD</w>
अन्दाजपट्टी</w>
अन्दाजपीटी</w>
अन्दाजियो</w>
अन्दाज़
अन्दाज़न</w>
अन्दाज़पट्टी</w>
अन्दु
अन्दु</w>
अन्दुआ</w>
अन्देश
अन्देशा</w>
अन्दोर</w>
अन्दोलन</w>
अन्दोह</w>
अन्ध
अन्ध-पर
अन्ध-परम्परा</w>
अन्ध-विश्वास
अन्ध-विश्वास/E</w>
अन्ध-विश्वासी/O</w>
अन्ध/FEDsTM</w>
अन्धक
अन्धक</w>
अन्धकमुनि</w>
अन्धकार
अन्धकार-
अन्धकार-प्र
अन्धकार-प्रकाश</w>
अन्धकार-युग</w>
अन्धकार/E</w>
अन्धकारपन</w>
अन्धकारपूर्ण/sT</w>
अन्धकारमय</w>
अन्धकूप</w>
अन्धखोपड़ी</w>
अन्धतमस</w>
अन्धधु
अन्धधुन्ध</w>
अन्धपर
अन्धपरम्परा</w>
अन्धपूतनाग्रह</w>
अन्धबक</w>
अन्धबाई</w>
अन्धबिन्दु</w>
अन्धरा/G</w>
अन्धवायु</w>
अन्धविश्वास
अन्धविश्वास/E</w>
अन्धस</w>
अन्धाधु
अन्धाधुंध</w>
अन्धानु
अन्धानुकरण</w>
अन्धानुयायिता</w>
अन्धापन</w>
अन्धार/E</w>
अन्धिका</w>
अन्धिय
अन्धियारा</w>
अन्धु</w>
अन्धुल</w>
अन्धेर
अन्धेर/8sTvFED</w>
अन्धेरगर्
अन्धेरगर्दी</w>
अन्धेरियो</w>
अन्धोरी</w>
अन्धौरी</w>
अन्धड़</w>
अन्न
अन्न-
अन्न-उ
अन्न-उत्पादन</w>
अन्न-क
अन्न-कण
अन्न-कणों</w>
अन्न-कूट</w>
अन्न-कोष्ठ</w>
अन्न-क्षेत्र/M</w>
अन्न-गो
अन्न-गोदा
अन्न-गोदाम</w>
अन्न-च
अन्न-चोर</w>
अन्न-छ
अन्न-छेत्र</w>
अन्न-जल</w>
अन्न-द
अन्न-दा
अन्न-दाता</w>
अन्न-दोष</w>
अन्न-द्
अन्न-द्वेष</w>
अन्न-पाक</w>
अन्न-पात्र/M</w>
अन्न-पानी</w>
अन्न-भाग</w>
अन्न-मल</w>
अन्न-रस</w>
अन्न-लिप्सा</w>
अन्न-विकार</w>
अन्न-सं
अन्न-संस्कार</w>
अन्न/U
अन्न/UF
अन्न/UFM</w>
अन्नं</w>
अन्नकूट/M</w>
अन्नकोष्ठ</w>
अन्नक्षेत्र</w>
अन्नग्रहण</w>
अन्नच
अन्नचोर/M</w>
अन्नज</w>
अन्नजल</w>
अन्नजात</w>
अन्नत
अन्नतकाल</w>
अन्नत्याग</w>
अन्नद/F</w>
अन्नदा
अन्नदा-एकादशी</w>
अन्नदान</w>
अन्नदोष
अन्नदोष-श
अन्नदोष-शूल</w>
अन्नद्वेष/E</w>
अन्नपति</w>
अन्नपाक</w>
अन्नपूर्ण
अन्नपूर्ण/FDM</w>
अन्नपूर्णेश्व
अन्नपूर्णेश्वरी</w>
अन्नपूर्णोपनिषद</w>
अन्नप्र
अन्नप्राशन/M</w>
अन्नब्रह्म</w>
अन्नभ
अन्नभंड
अन्नभंडार/M</w>
अन्नभाग</w>
अन्नम</w>
अन्नमय
अन्नमय-कोष</w>
अन्नमय</w>
अन्नमयकोश/M</w>
अन्नमल</w>
अन्नरस</w>
अन्नरहित</w>
अन्नलिप्सा</w>
अन्नव
अन्नवाहिनी</w>
अन्नवि
अन्नविकार/M</w>
अन्नविषा
अन्नविषाणु</w>
अन्नव्य
अन्नव्य</w>
अन्नव्यज</w>
अन्नशेष</w>
अन्नस
अन्नसं
अन्नसंस्कार</w>
अन्नसत्र/M</w>
अन्नसन्न</w>
अन्नस्त</w>
अन्ना
अन्नांकु
अन्नांकुर</w>
अन्नाकाल</w>
अन्नागार</w>
अन्नात्म
अन्नात्मन</w>
अन्नात्मा</w>
अन्नाद</w>
अन्नाद्य</w>
अन्नाद्र
अन्नाद्रमुक</w>
अन्नान</w>
अन्नाम
अन्नामलाई</w>
अन्नाहरी</w>
अन्नाहारी</w>
अन्नि
अन्नि</w>
अन्निम</w>
अन्नीय</w>
अन्नू</w>
अन्नोत्
अन्नोत्पादक</w>
अन्नोत्पादन</w>
अन्नोत्सर्ग</w>
अन्य
अन्य-
अन्य-गोत्र</w>
अन्य/F
अन्य/Fr
अन्य/FrsTM</w>
अन्यकालीन/sT</w>
अन्यकृत</w>
अन्यग
अन्यग/F</w>
अन्यगमन
अन्यगमनपूर्ण</w>
अन्यगामिनी</w>
अन्यगामी</w>
अन्यगोत्र</w>
अन्यचित</w>
अन्यचित्त</w>
अन्यच्च</w>
अन्यज/sT</w>
अन्यजात</w>
अन्यजातीय</w>
अन्यत/F</w>
अन्यतः</w>
अन्यतम
अन्यतम/sT</w>
अन्यतो
अन्यतोपाक</w>
अन्यत्र
अन्यत्र/M</w>
अन्यत्रवास/E0</w>
अन्यत्व
अन्यत्व</w>
अन्यत्वभावना</w>
अन्यत्ववाद</w>
अन्यथ
अन्यथा/IC</w>
अन्यथानु
अन्यथानुप
अन्यथानुपपत्ति</w>
अन्यथास
अन्यथासि
अन्यथासिद्धि</w>
अन्यद
अन्यदा</w>
अन्यदीय/F</w>
अन्यदेशी</w>
अन्यदेशीय</w>
अन्यधर्म</w>
अन्यनाभ
अन्यनाभि</w>
अन्यनाभीय</w>
अन्यपर</w>
अन्यपु
अन्यपुरुष/M</w>
अन्यपुष्ट
अन्यपुष्ट/F</w>
अन्यपूर्
अन्यपूर्वा/IC</w>
अन्यबी
अन्यबीज
अन्यबीज</w>
अन्यबीजज</w>
अन्यबीजोत्
अन्यबीजोत्पन्न</w>
अन्यभ
अन्यभरण</w>
अन्यभृ
अन्यभृत/F</w>
अन्यमनस्क/sT</w>
अन्यमात
अन्यमातृ
अन्यमातृज/F</w>
अन्यमानस</w>
अन्यर
अन्यरचित</w>
अन्यराष्ट्रीय</w>
अन्यरूप</w>
अन्यवंश
अन्यवंशीय</w>
अन्यवा
अन्यवादी</w>
अन्यवाप</w>
अन्यव्रत</w>
अन्यसं
अन्यसंक्राम
अन्यसंक्रामण</w>
अन्यसंग
अन्यसंगम</w>
अन्यसंभो
अन्यसंभोग
अन्यसंभोगदुःखिता</w>
अन्यसंभोगी</w>
अन्यसुर
अन्यसुरति
अन्यसुरतिदुःखिता</w>
अन्यस्त</w>
अन्या
अन्यादृश</w>
अन्याधीन</w>
अन्यान्य</w>
अन्याप
अन्यापदेश</w>
अन्यापि</w>
अन्याय
अन्याय/ME</w>
अन्यायत</w>
अन्यायपूर्ण
अन्यायपूर्ण/sTM</w>
अन्याययुक्त</w>
अन्याय्य</w>
अन्यार्थ</w>
अन्याव
अन्यावलंब
अन्यावलंबी</w>
अन्याश्रित</w>
अन्यास
अन्यास</w>
अन्यासक्त</w>
अन्यिड</w>
अन्येद
अन्येद्य
अन्येद्यु</w>
अन्येद्युक</w>
अन्यो
अन्योअन
अन्योअन्य</w>
अन्योक्ति
अन्योक्ति</w>
अन्योक्तिपर
अन्योक्तिपरक/sT</w>
अन्योत्
अन्योत्सुक</w>
अन्योद
अन्योदर/sT</w>
अन्योदरज</w>
अन्योदर्य</w>
अन्योन
अन्योन्य
अन्योन्य/sTM</w>
अन्योन्यकलह</w>
अन्योन्यक्रिया/JK</w>
अन्योन्यत/F</w>
अन्योन्यभेद</w>
अन्योन्यवृत्ति</w>
अन्योन्या
अन्योन्याघात</w>
अन्योन्याभाव</w>
अन्योन्याश्र
अन्योन्याश्रय
अन्योन्याश्रय/E</w>
अन्योन्याश्रयवाद</w>
अन्योन्याश्रित</w>
अन्योन्योप
अन्योन्योपजीविता</w>
अन्योढ़ा</w>
अन्व
अन्वक्ष
अन्वक्ष-</w>
अन्वक्ष/sT</w>
अन्वय
अन्वय/sTME</w>
अन्वयदोष
अन्वयदोष/M</w>
अन्वयन</w>
अन्वययुक्त</w>
अन्वयस
अन्वयसहित</w>
अन्वया
अन्वयाकर्षण</w>
अन्वयागत/sT</w>
अन्वयीय</w>
अन्वर
अन्वरत्
अन्वरत्नि</w>
अन्वर्
अन्वर्थ</w>
अन्ववाय</w>
अन्ववे
अन्ववेक्षा</w>
अन्वष्ट
अन्वष्टका</w>
अन्वा
अन्वाच
अन्वाचय</w>
अन्वाद
अन्वादिष्ट</w>
अन्वाधान</w>
अन्वाधि</w>
अन्वाधेय</w>
अन्वायन</w>
अन्वायुक्
अन्वायुक्तियां</w>
अन्वायोजन</w>
अन्वार
अन्वारूढ़</w>
अन्वालो
अन्वालोपी</w>
अन्वास
अन्वासीन</w>
अन्वाह
अन्वाहार्य
अन्वाहार्य-
अन्वाहार्य-श्राद्ध</w>
अन्वाहार्य</w>
अन्वाहार्यश्राद्ध</w>
अन्वाहित</w>
अन्वि
अन्विच्छ
अन्विच्छा</w>
अन्वित
अन्वित/sTF</w>
अन्वितार्थ/M</w>
अन्विति</w>
अन्विष्ट</w>
अन्वी
अन्वीक्षक</w>
अन्वीक्षण/M</w>
अन्वीत</w>
अन्वीप</w>
अन्वे
अन्वेष
अन्वेषण
अन्वेषण-
अन्वेषण-अधिकारी</w>
अन्वेषण/FM</w>
अन्वेषणकर्त्ता</w>
अन्वेषणपूर्ण</w>
अन्वेषणशील</w>
अन्वेषणात्मक</w>
अन्वेषा/G</w>
अन्वेषित</w>
अन्वेष्टा</w>
अन्ह
अन्हवा/734sTv</w>
अन्हवाइयो</w>
अन्हा/734sTv</w>
अन्हाइयो</w>
अन्हौरी</w>
अन्क़
अन्क़रीब</w>
अन्य़
अन्य़</w>
अनख़
अनख़री
अनख़रीदा</w>
अनफ़
अनफ़्र
अनफ़्राइड</w>
अप
अप-
अप-</w>
अप-ट
अप-टू
अप-टू-
अप-टू-डेट</w>
अप-मिश्रण</w>
अप/v
अप/vV</w>
अपं
अपंक
अपंकिल</w>
अपंख</w>
अपंग
अपंग/sT</w>
अपंगघात</w>
अपंगत/F</w>
अपंगन</w>
अपंगु</w>
अपंज
अपंजीकृत/M</w>
अपंडित</w>
अपंथ</w>
अपंव
अपंवचित</w>
अपअँधेर
अपअँधेरा</w>
अपक
अपक/E</w>
अपकरण/M</w>
अपकरु
अपकरुण</w>
अपकर्
अपकर्तन/M</w>
अपकर्त्ता</w>
अपकर्म
अपकर्म/MFE</w>
अपकर्ष
अपकर्ष/sTME</w>
अपकर्षक/sT</w>
अपकर्षण/M</w>
अपकर्षत/F</w>
अपकर्षित</w>
अपकल
अपकलंक</w>
अपकल्म
अपकल्मष</w>
अपकषा
अपकषाय</w>
अपका
अपकाजी</w>
अपकामी</w>
अपकामु
अपकामुकता</w>
अपकार
अपकार-उप
अपकार-उपकार</w>
अपकार/ME</w>
अपकारक/sT</w>
अपकारपूर्ण</w>
अपकाररहित</w>
अपकारविहीन</w>
अपकारहीन/sT</w>
अपकारिता</w>
अपकारी
अपकारीचार</w>
अपकार्य</w>
अपकाल</w>
अपकाष्ठ
अपकाष्ठा</w>
अपकाष्ठागत</w>
अपकाष्ठात्मक</w>
अपकिरण</w>
अपकीर्
अपकीर्ण</w>
अपकीर्त</w>
अपकीर्तन</w>
अपकीर्ति
अपकीर्ति</w>
अपकीर्तिकर</w>
अपकीर्तित</w>
अपकीर्तिप्रद</w>
अपकृ
अपकृत
अपकृत/M</w>
अपकृति</w>
अपकृत्य/M</w>
अपकृष्ट/sT</w>
अपकेंद्र
अपकेंद्रण</w>
अपकेंद्रत/F</w>
अपकेंद्रिक</w>
अपकेंद्रित</w>
अपकेंद्रितत</w>
अपकेंद्रित्र</w>
अपकेंद्रीय</w>
अपकेन्द्र
अपकेन्द्रण</w>
अपकेन्द्रित</w>
अपको
अपकोणित</w>
अपक्य</w>
अपक्र
अपक्रम
अपक्रम/ME</w>
अपक्रमण/M</w>
अपक्रमत</w>
अपक्रामी</w>
अपक्रिया/JK</w>
अपक्रो
अपक्रोश
अपक्रोश</w>
अपक्रोशपूर्ण</w>
अपक्व
अपक्वकलुष</w>
अपक्ष
अपक्ष</w>
अपक्षय
अपक्षय/ME</w>
अपक्षयण/M</w>
अपक्षरण/M</w>
अपक्षरणीय</w>
अपक्षिप्त</w>
अपक्षीय</w>
अपक्षेप</w>
अपक्षेपण/M</w>
अपखंड</w>
अपखंडन</w>
अपग
अपगत
अपगत/sT</w>
अपगतव्या
अपगतव्याधि</w>
अपगति</w>
अपगम</w>
अपगमन/M</w>
अपगर</w>
अपगल्
अपगल्भ</w>
अपगवय</w>
अपगा/IC</w>
अपगामी</w>
अपगीत</w>
अपगु
अपगुण/E</w>
अपगो
अपगोपुर</w>
अपग्र
अपग्रल्भ
अपग्रल्भता</w>
अपघ
अपघट
अपघटन/ME</w>
अपघट्य</w>
अपघन</w>
अपघर
अपघरनी</w>
अपघर्षण/M</w>
अपघात/ME</w>
अपघातक</w>
अपघाति
अपघातिन/E</w>
अपच
अपच/ME</w>
अपचय
अपचय/EM</w>
अपचयीय</w>
अपचर
अपचरित</w>
अपचायक</w>
अपचार
अपचार-उप
अपचार-उपचार</w>
अपचार/ME</w>
अपचारक</w>
अपचार्जित</w>
अपचाल</w>
अपचेता</w>
अपचेष्ट
अपचेष्टित</w>
अपच्छ
अपच्छाय
अपच्छाय/F</w>
अपच्छेदन</w>
अपछ
अपछरा</w>
अपज
अपजय</w>
अपजस</w>
अपजात</w>
अपज्ञान</w>
अपट
अपटन</w>
अपटापन</w>
अपटी
अपटीक्षेप</w>
अपटु
अपटुडेट</w>
अपट्
अपट्ठ
अपट्ठमान</w>
अपठ
अपठ</w>
अपठन
अपठनीय/sTM</w>
अपठित</w>
अपठितत</w>
अपड
अपडर/8EDsTv</w>
अपडे
अपडेट</w>
अपडेटिंग</w>
अपण
अपण्या
अपण्यार्थ</w>
अपत
अपत/E</w>
अपतंत्र
अपतंत्र</w>
अपतंत्रक/M</w>
अपतंत्रग्रस्त</w>
अपतट</w>
अपतटीय</w>
अपतर्पण/M</w>
अपतान/F</w>
अपतानक</w>
अपताप</w>
अपति
अपतिक/sT</w>
अपतित</w>
अपतिव्रत</w>
अपतीर्
अपतीर्थ</w>
अपतोस</w>
अपत्ति</w>
अपत्न
अपत्नी</w>
अपत्नीक/sT</w>
अपत्य
अपत्य/M</w>
अपत्यकाम</w>
अपत्यक्त</w>
अपत्यपथ</w>
अपत्यवाचक</w>
अपत्यशत्रु</w>
अपत्र
अपत्र</w>
अपत्रपण</w>
अपत्रय</w>
अपथ
अपथ्य/sT</w>
अपद
अपद/M</w>
अपदचर</w>
अपदयुक्त/M</w>
अपदस्थ</w>
अपदा
अपदांतर</w>
अपदान/M</w>
अपदान्तर</w>
अपदारण</w>
अपदिष्ट</w>
अपदूत</w>
अपदेखा</w>
अपदेवता</w>
अपदेश</w>
अपदोष</w>
अपदोह
अपदोहन</w>
अपद्र
अपद्रवित</w>
अपद्रव्य
अपद्रव्य/sTM</w>
अपद्रव्यण</w>
अपद्राव
अपद्रावक</w>
अपद्रावण</w>
अपद्रावित</w>
अपद्वार</w>
अपध
अपधमन</w>
अपधमित</w>
अपधर्म
अपधर्मिता</w>
अपधर्मी</w>
अपधावन</w>
अपध्
अपध्व
अपध्वंस
अपध्वंस/EM</w>
अपध्वंसज</w>
अपध्वंस्य</w>
अपध्वस्त/sT</w>
अपध्वांत</w>
अपन
अपनत्व
अपनत्व/M</w>
अपनत्वपूर्ण/sT</w>
अपनत्वहीन</w>
अपनप
अपनपौ</w>
अपनमन</w>
अपनमित</w>
अपनय</w>
अपनयन/M</w>
अपना
अपना-
अपना-अप
अपना-अपना</w>
अपनांत</w>
अपनाइयो</w>
अपनाएँ</w>
अपनाने_वाला</w>
अपनान्तिक</w>
अपनाप
अपनापन/M</w>
अपनापा/IC</w>
अपनामत</w>
अपनाय
अपनायक</w>
अपनायत/LM</w>
अपनाया/IGC</w>
अपनालय</w>
अपनाहट</w>
अपनिद्र</w>
अपनिर्
अपनिर्देश
अपनिर्देशन</w>
अपनिर्वचन</w>
अपनीत</w>
अपनु
अपनुत्ति</w>
अपने
अपने-
अपने-अपन
अपने-अपने</w>
अपने-आप</w>
अपने/sT</w>
अपनेआप</w>
अपनेपन</w>
अपनेसै
अपनेसैन्य</w>
अपनोद</w>
अपनोदन</w>
अपन्
अपन्न</w>
अपन्हुति</w>
अपपरि
अपपरिवर्तन</w>
अपपा
अपपाठ</w>
अपपात्र/M</w>
अपपात्रित</w>
अपप्र
अपप्रचार</w>
अपप्रयोग</w>
अपप्रवृत्ति</w>
अपभ
अपभंर
अपभंरश</w>
अपभय
अपभय</w>
अपभयकारी</w>
अपभयन</w>
अपभरणी</w>
अपभाष
अपभाषण/M</w>
अपभाषा/JKG</w>
अपभीत</w>
अपभीति</w>
अपभू</w>
अपभोग</w>
अपभ्र
अपभ्रंश/M</w>
अपभ्रंशित</w>
अपभ्रष्ट</w>
अपभ्रष्टत</w>
अपम
अपमंड
अपमंडनात्मक</w>
अपमन
अपमनस्क
अपमनस्कता</w>
अपमर्द</w>
अपमर्दन/M</w>
अपमर्श</w>
अपमा
अपमाजिर्त</w>
अपमान
अपमान-
अपमान-जनक</w>
अपमान-लेख/M</w>
अपमान-सम्मान</w>
अपमानकर्त्ता</w>
अपमानकारक</w>
अपमानकारी</w>
अपमानजनक</w>
अपमानपूर्ण</w>
अपमानपूर्वक</w>
अपमानयोग्य</w>
अपमानवीकरण</w>
अपमानात्मक</w>
अपमानित</w>
अपमानितत</w>
अपमानियो</w>
अपमान्य/sT</w>
अपमार
अपमारगी</w>
अपमार्
अपमार्ग
अपमार्ग/EM</w>
अपमार्ज
अपमार्जक/F</w>
अपमार्जन/M</w>
अपमार्जित</w>
अपमिश्र
अपमिश्रक</w>
अपमिश्रव्य</w>
अपमिश्रित/sT</w>
अपमी</w>
अपमुद्रण</w>
अपमूल
अपमूल्य
अपमूल्यन</w>
अपमृ
अपमृत
अपमृति
अपमृतिगणित</w>
अपमृत्यु
अपमृत्यु-वि
अपमृत्यु-विचारक</w>
अपमृत्यु</w>
अपमृषित</w>
अपमो
अपमोचक</w>
अपमोचन</w>
अपयश
अपयश/EM</w>
अपयशकर</w>
अपयशस्क</w>
अपयान</w>
अपयु
अपयुग
अपयुग्म
अपयुग्मन</w>
अपयोग
अपयोग/ME</w>
अपयोजन/M</w>
अपर
अपर-
अपर-प्रतिरोपण</w>
अपर-लोक</w>
अपरंप
अपरंपरा
अपरंपरागत
अपरंपरागत/sTM</w>
अपरंपराव
अपरंपरावदी</w>
अपरंपरावाद</w>
अपरंपार</w>
अपरक
अपरकट</w>
अपरके
अपरकेस
अपरकेस</w>
अपरकेसलो
अपरकेसलोअरक
अपरकेसलोअरकेस</w>
अपरक्त</w>
अपरक्ति</w>
अपरछन</w>
अपरति</w>
अपरत्व</w>
अपरद
अपरद</w>
अपरदक्षिण</w>
अपरदन/M</w>
अपरदनकारी</w>
अपरदिशा</w>
अपरदेशीय</w>
अपरधियों</w>
अपरना</w>
अपरपक्ष</w>
अपरपत्र</w>
अपरपत्रीय</w>
अपरब्रह्म</w>
अपरम्
अपरम्परा
अपरम्परागत</w>
अपरम्पार</w>
अपरलोक</w>
अपरव
अपरव/M</w>
अपरवक्त</w>
अपरवश</w>
अपरसरण</w>
अपरस्
अपरस्पर
अपरस्पर/FsT</w>
अपरा
अपरा-एकादशी</w>
अपरांत
अपरांतक</w>
अपरांतिका</w>
अपराइ
अपराइट</w>
अपराकरणीय</w>
अपराग्नि</w>
अपराज
अपराजय</w>
अपराजित
अपराजित/FsTM</w>
अपराजेय/sTM</w>
अपरात्र</w>
अपरात्रि</w>
अपराद्ध</w>
अपराद्धि</w>
अपराध
अपराध-
अपराध-कर्ता/K</w>
अपराध-क्ष
अपराध-क्षमा</w>
अपराध-नि
अपराध-निवारण</w>
अपराध-वि
अपराध-विज्ञान/ME</w>
अपराध-विभाग</w>
अपराध-विस्मरण</w>
अपराध-व्य
अपराध-व्यसन/E</w>
अपराध-सह
अपराध-सहायक</w>
अपराध-स्वीकरण</w>
अपराध/0
अपराध/0V
अपराध/0VsT
अपराध/0VsTME</w>
अपराधजनक</w>
अपराधत/F</w>
अपराधदंड</w>
अपराधपन</w>
अपराधपूर्ण/sT</w>
अपराधबोध
अपराधबोध/M</w>
अपराधबोधपूर्वक</w>
अपराधभ
अपराधभंजन</w>
अपराधभीति</w>
अपराधम
अपराधमुक्त</w>
अपराधमुक्ति</w>
अपराधलोक/M</w>
अपराधविज्ञान
अपराधविज्ञान/EM</w>
अपराधशील</w>
अपराधसिद्ध</w>
अपराधहीन/sT</w>
अपराधहीनतः</w>
अपराधानुसार</w>
अपराधिक/FE</w>
अपराधिकीविद</w>
अपराधिता</w>
अपराधिय/M</w>
अपराधी-
अपराधी-भाव</w>
अपराधीकरण</w>
अपराधीय</w>
अपराध्
अपराध्/E</w>
अपरान्त
अपरान्त</w>
अपरान्तक</w>
अपराप
अपरापरण</w>
अपराभव
अपराभवनीय</w>
अपराम
अपरामर्श</w>
अपरामृष्ट</w>
अपरायण</w>
अपरार्ध</w>
अपरावर्त
अपरावर्तनीय</w>
अपरावली</w>
अपरास्त</w>
अपराहन</w>
अपराह्
अपराह्ना
अपराह्नांत</w>
अपरि
अपरिक्रम</w>
अपरिग
अपरिगण
अपरिगणन
अपरिगणन</w>
अपरिगणनीत
अपरिगणनीतत</w>
अपरिगणनीयत/F</w>
अपरिगण्य/sT</w>
अपरिचय/ME</w>
अपरिचर्चा</w>
अपरिचर्या</w>
अपरिच्छद</w>
अपरिच्छन्न</w>
अपरिच्छेद
अपरिच्छेद्य</w>
अपरिज्ञ
अपरिज्ञात
अपरिज्ञातत</w>
अपरिज्ञान</w>
अपरिण
अपरिणत</w>
अपरिणय</w>
अपरिणेय</w>
अपरित्या
अपरित्याज्य</w>
अपरिधान
अपरिधान</w>
अपरिधानितत</w>
अपरिप
अपरिपक्व
अपरिपक्व/sTM</w>
अपरिपक्वत/F</w>
अपरिपूर्ण</w>
अपरिभाष
अपरिभाषा</w>
अपरिभाषित/sTM</w>
अपरिभाषेय</w>
अपरिभूषित</w>
अपरिम
अपरिमाप्य</w>
अपरिमार्ज
अपरिमार्जन</w>
अपरिमार्जितत</w>
अपरिमित/sTM</w>
अपरिमेयत/F</w>
अपरिरक्षित</w>
अपरिर्व
अपरिर्वतनीय</w>
अपरिवर्
अपरिवर्तन
अपरिवर्तनशील/sTM</w>
अपरिवर्नीयत</w>
अपरिवहन</w>
अपरिवार
अपरिवार/sT</w>
अपरिशोधित</w>
अपरिष्कार्य
अपरिष्कार्यत/F</w>
अपरिसर</w>
अपरिसी
अपरिसीम</w>
अपरिस्कंद</w>
अपरिह
अपरिहार्य
अपरिहार्यत/F</w>
अपरिहार्यता
अपरिहार्यतावाची</w>
अपरिहास
अपरिहास/E</w>
अपरी
अपरीक्ष
अपरीक्षित</w>
अपरीक्ष्‌
अपरीक्ष्‌य</w>
अपरु
अपरुतुक</w>
अपरुद्ध
अपरुद्धता</w>
अपरुप
अपरुपता</w>
अपरूप
अपरूप/sTE</w>
अपरूपक</w>
अपरूपित</w>
अपरो
अपरोधक</w>
अपरोधित</w>
अपरोप</w>
अपरोपण</w>
अपर्
अपर्ध
अपर्धम</w>
अपर्य
अपर्याप्य</w>
अपर्याय
अपर्याय/M</w>
अपर्स्प
अपर्स्पश</w>
अपल
अपल</w>
अपलक</w>
अपलक्षण/M</w>
अपलन</w>
अपलब्ध</w>
अपलब्धि</w>
अपलापक</w>
अपलाभ
अपलाभ/ME</w>
अपलाभार्जन</w>
अपलाभिया</w>
अपलायन</w>
अपलाष
अपलाषिका</w>
अपलाषी</w>
अपलाषुक</w>
अपलाष्य</w>
अपलि
अपलिंक</w>
अपलिखित</w>
अपलेख/M</w>
अपलेखन</w>
अपलो
अपलोक</w>
अपलोड</w>
अपलोडि
अपलोडिंग</w>
अपल्ल
अपल्लव</w>
अपल्लवित</w>
अपव
अपवंच
अपवंचक/sT</w>
अपवंचन/M</w>
अपवंचित/sT</w>
अपवक्ता</w>
अपवचन
अपवचन/ME</w>
अपवचनपूर्ण</w>
अपवजिर्त</w>
अपवर
अपवरक/F</w>
अपवरण/M</w>
अपवरीय</w>
अपवर्
अपवर्ग/ME</w>
अपवर्जक</w>
अपवर्जन/M</w>
अपवर्जित</w>
अपवर्ण</w>
अपवर्त
अपवर्त</w>
अपवर्तक/M</w>
अपवर्तन/M</w>
अपवर्ति
अपवर्तित</w>
अपवर्तितत</w>
अपवर्त्य/M</w>
अपवर्धन</w>
अपवर्धित</w>
अपवल्
अपवल्कन</w>
अपवल्कित</w>
अपवश</w>
अपवह
अपवहन
अपवहन-क्षेत्र/M</w>
अपवहन-पट्ट</w>
अपवहन/M</w>
अपवहित</w>
अपवाक्य/M</w>
अपवाच
अपवाचक/sT</w>
अपवाचा/G</w>
अपवाद
अपवाद/ME</w>
अपवादक/sT</w>
अपवादजनक</w>
अपवादत</w>
अपवादपूर्ण</w>
अपवादयुक्त</w>
अपवादस्व
अपवादस्वरुप</w>
अपवादस्वरूप</w>
अपवादहीन/sT</w>
अपवादहीनतः</w>
अपवादात्मक</w>
अपवादानु
अपवादानुदान</w>
अपवादिक</w>
अपवादीय</w>
अपवार
अपवारक</w>
अपवारण/M</w>
अपवारित</w>
अपवाह
अपवाह/E</w>
अपवाहक</w>
अपवाहन</w>
अपवाहित</w>
अपवाहुक</w>
अपवि
अपविक
अपविकास</w>
अपविक्र
अपविक्रय</w>
अपविघ्न
अपविघ्न/sT</w>
अपवित्र
अपवित्र/sTM
अपवित्र/sTMV</w>
अपवित्रित</w>
अपविद्ध</w>
अपविद्य
अपविद्या/JK</w>
अपविद्यु
अपविद्युतन</w>
अपविष</w>
अपवृ
अपवृक्त</w>
अपवृत्त</w>
अपवृत्ति</w>
अपवृद्घ</w>
अपवृद्ध</w>
अपवृद्धि</w>
अपवो
अपवोड़ा</w>
अपवोढ़ा</w>
अपव्य
अपव्यय
अपव्यय/ME</w>
अपव्ययपूर्ण</w>
अपव्ययित/F</w>
अपव्यापन</w>
अपव्याप्ति</w>
अपव्यूहन</w>
अपश
अपशकु
अपशकुन
अपशकुन/ME</w>
अपशकुनत</w>
अपशकुनपूर्ण</w>
अपशकुनित</w>
अपशगु
अपशगुन/E</w>
अपशना</w>
अपशब्
अपशब्द
अपशब्द/M</w>
अपशब्दपूर्ण</w>
अपशब्दयुक्त</w>
अपशब्दा
अपशब्दात्मक</w>
अपशल्
अपशल्कन</w>
अपशिष्ट</w>
अपशुकन</w>
अपशोक</w>
अपशोध
अपशोधन</w>
अपश्र
अपश्री</w>
अपश्रुति</w>
अपस
अपस</w>
अपसं
अपसंचय/ME</w>
अपसंवेदन</w>
अपसंस्
अपसंस्कृति</w>
अपसद</w>
अपसमा
अपसमायोजन</w>
अपसर
अपसर</w>
अपसरक</w>
अपसरण/M</w>
अपसरत</w>
अपसर्
अपसर्ग</w>
अपसर्जक</w>
अपसर्जन/M</w>
अपसर्जित</w>
अपसर्प
अपसर्प</w>
अपसर्पक</w>
अपसर्पण/M</w>
अपसर्पित</w>
अपसव
अपसव/8ED34sTv</w>
अपसवांत</w>
अपसवियो</w>
अपसव्य</w>
अपसाइड</w>
अपसादी</w>
अपसाम
अपसामान्य/sTM</w>
अपसार
अपसार/E</w>
अपसारक</w>
अपसारित</w>
अपसि
अपसिद्
अपसिद्ध
अपसिद्धांत
अपसिद्धांत/M</w>
अपसिद्वांत</w>
अपसृत</w>
अपसृतत</w>
अपसृष्ट</w>
अपसेट</w>
अपसोस
अपसोस/834sTvED</w>
अपसोसियो</w>
अपसौन</w>
अपस्
अपस्कर
अपस्कर/M</w>
अपस्ख
अपस्खल</w>
अपस्त
अपस्तनन</w>
अपस्तुति</w>
अपस्थ
अपस्थानिक</w>
अपस्नात</w>
अपस्नान</w>
अपस्फ
अपस्फीत
अपस्फीति</w>
अपस्फीतिकारक</w>
अपस्फीतिकारी</w>
अपस्म
अपस्मार
अपस्मार/ME</w>
अपस्मारग्रस्त</w>
अपस्मृति</w>
अपस्व
अपस्वर/M</w>
अपस्वा
अपस्वार्थी</w>
अपह
अपह</w>
अपहत</w>
अपहतप
अपहतपाप
अपहतपाप्मा</w>
अपहति</w>
अपहन
अपहन</w>
अपहनन/M</w>
अपहर/8EDsTv</w>
अपहरक</w>
अपहरण
अपहरण-
अपहरण-कर्ता/K</w>
अपहरण/VM</w>
अपहरणकर्त्ता</w>
अपहरणशील</w>
अपहरणीय</w>
अपहरियो</w>
अपहर्ता</w>
अपहसित</w>
अपहानि</w>
अपहार/ME</w>
अपहारक</w>
अपहारण</w>
अपहारित</w>
अपहार्य</w>
अपहास/M</w>
अपहास्य</w>
अपहित
अपहित</w>
अपहितहीन</w>
अपहृत
अपहृत-</w>
अपहृत</w>
अपहृतज्ञान</w>
अपहृतसं
अपहृतसंज्ञ</w>
अपहृति</w>
अपहे
अपहेला</w>
अपह्न
अपह्नव</w>
अपह्नु
अपह्नुति</w>
अपह्नुवान</w>
अपह्नो
अपह्नोता</w>
अपह्र
अपह्रत</w>
अपह्रास</w>
अपा
अपां
अपांग
अपांग</w>
अपांगक</w>
अपांड
अपांडु</w>
अपांत
अपांतर
अपांतर/sT</w>
अपांतरण</w>
अपांतरीयम</w>
अपांनाथ</w>
अपांनिधि/PQ</w>
अपांपति</w>
अपांपि
अपांपित्त</w>
अपांव
अपांवत्
अपांवत्स</w>
अपांश</w>
अपाइ
अपाइंट
अपाइंटमेंट</w>
अपाइन्
अपाइन्टमेन्ट</w>
अपाक
अपाकरणीय</w>
अपाकर्ता</w>
अपाकर्म</w>
अपाकशाक</w>
अपाकृत</w>
अपाकृति</w>
अपाखंड</w>
अपाट
अपाटव</w>
अपाटवत</w>
अपाटॉ
अपाटॉव</w>
अपाठ</w>
अपाणु</w>
अपात्र
अपात्रत/F</w>
अपात्रदायी</w>
अपात्रीकरण</w>
अपाद
अपादान/M</w>
अपान
अपान/M</w>
अपानन/M</w>
अपानवायु</w>
अपाना
अपानाथ</w>
अपानृत</w>
अपान्य</w>
अपाप</w>
अपाम
अपामार्
अपामार्ग/M</w>
अपामार्जन</w>
अपामार्जित</w>
अपामृत्यु</w>
अपाय
अपाय/EM</w>
अपायत</w>
अपायन</w>
अपार
अपारक्षण</w>
अपारण</w>
अपारत/F</w>
अपारदर्
अपारदर्श
अपारदर्शक
अपारदर्शक-व
अपारदर्शक-वस्तु
अपारदर्शक-वस्तु</w>
अपारदर्शक-वस्तुएँ</w>
अपारदर्शक</w>
अपारदर्शी
अपारदर्शी-वस्तु</w>
अपारदर्शी</w>
अपारप्य</w>
अपारम्पर
अपारम्परिक</w>
अपारि
अपारित</w>
अपारिभाषिक</w>
अपारिवार
अपारिवारिक</w>
अपार्
अपार्जित</w>
अपार्ट
अपार्टम
अपार्टमन्ट</w>
अपार्टमेंट/M</w>
अपार्टमेन्ट</w>
अपार्टमैंट</w>
अपार्टही
अपार्टहीड</w>
अपार्थ
अपार्थ</w>
अपार्थक</w>
अपार्यत/F</w>
अपाल
अपाल/F</w>
अपालक</w>
अपालत
अपालतू
अपालतूपन</w>
अपालन/M</w>
अपाव
अपावत्त
अपावत्तर्
अपावत्तर्न</w>
अपावन/sT</w>
अपावरण</w>
अपावर्
अपावर्तन</w>
अपावर्त्त
अपावर्त्तन</w>
अपावृ
अपावृति</w>
अपावृत्ति</w>
अपाश्रय</w>
अपाश्रित</w>
अपास
अपासंग</w>
अपासन/M</w>
अपासम</w>
अपासरण</w>
अपासित</w>
अपासु</w>
अपास्त/M</w>
अपाह
अपाहज</w>
अपाहरक</w>
अपाहरण</w>
अपाहर्ता</w>
अपाढ़</w>
अपि
अपि</w>
अपिक
अपिकंठ
अपिकंठ</w>
अपिकंठिका</w>
अपिच</w>
अपिचर्म</w>
अपिजनन</w>
अपिजनित</w>
अपित
अपितकता</w>
अपितृ
अपितृ/sT</w>
अपितृक/sT</w>
अपित्
अपित्र्य
अपित्र्य/sT</w>
अपिपा
अपिपासा</w>
अपिपासु</w>
अपिबद्ध</w>
अपिया</w>
अपिर
अपिरच्छन्न</w>
अपिवान
अपिवानर-
अपिवानर-मानव</w>
अपिवृक्
अपिवृक्क
अपिवृक्की</w>
अपिवृक्कीन</w>
अपिवृत्त</w>
अपी
अपीच</w>
अपीडा</w>
अपीन
अपीनस</w>
अपीय</w>
अपीर
अपीरिय
अपीरियड
अपीरियडिक</w>
अपील
अपील-न्यायालय</w>
अपील/V
अपील/VE
अपील/VELM</w>
अपीलनीय</w>
अपीलयोग्य</w>
अपीलां
अपीलांट</w>
अपीलार्थी</w>
अपीलीय/M</w>
अपीड़
अपीड़क</w>
अपीड़ित</w>
अपु
अपुचित</w>
अपुच्छ</w>
अपुन
अपुनः
अपुनःपरि
अपुनःपरिष्कार्य
अपुनःपरिष्कार्यता</w>
अपुनप
अपुनपो</w>
अपुनरा
अपुनरावर्तन</w>
अपुनरुद्ध
अपुनरुद्धार्यत/F</w>
अपुनर्
अपुनर्जन्म</w>
अपुनर्म
अपुनर्मव</w>
अपुपर्
अपुपर्जन्म</w>
अपुर
अपुरु
अपुरुप</w>
अपुरुपण</w>
अपुरुष
अपुरुषत/F</w>
अपुरुषार्थ/E</w>
अपुरू
अपुरूप</w>
अपुरूपण</w>
अपुरो
अपुरोद
अपुरोदंत</w>
अपुरोदन्त</w>
अपुष
अपुष्ट
अपुष्टि</w>
अपुष्टीकृत/M</w>
अपुष्प
अपुष्पकल
अपुष्पकलता</w>
अपुष्य</w>
अपू
अपूज
अपूजक/sT</w>
अपूजा</w>
अपूजित</w>
अपूठ
अपूठ/8FED34sTv</w>
अपूठियो</w>
अपूठौ</w>
अपूणा</w>
अपूत
अपूत/FEsT</w>
अपून</w>
अपूप्य</w>
अपूयन</w>
अपूयित</w>
अपूर
अपूर</w>
अपूरणी</w>
अपूरित/M</w>
अपूर्
अपूर्ण
अपूर्ण/sTM</w>
अपूर्णकाम</w>
अपूर्णच्छ</w>
अपूर्णभूत
अपूर्णभूतकालिक</w>
अपूर्णयंत्र
अपूर्णयंत्रीकृत</w>
अपूर्णांक</w>
अपूर्णांशिक</w>
अपूर्णेच्छ</w>
अपूर्ति</w>
अपूर्व
अपूर्व/sTMF</w>
अपूर्वकथ
अपूर्वकथ्य</w>
अपूर्वतया</w>
अपूर्वतापूर्वक</w>
अपूर्वत्व</w>
अपूर्वप
अपूर्वपति</w>
अपूर्वपत्नी</w>
अपूर्वरूप</w>
अपूर्वलिख
अपूर्वलिखितत</w>
अपूर्ववि
अपूर्वविधि</w>
अपूर्वानु
अपूर्वानुमे
अपूर्वानुमेय</w>
अपृष्ठ
अपृष्ठवंश
अपृष्ठवंशी</w>
अपेंड
अपेंडिक्स</w>
अपेंडिस
अपेंडिसाइ
अपेंडिसाइटि
अपेंडिसाइटिस/M</w>
अपेंडिसायटिस</w>
अपेक्ष
अपेक्ष/MFED</w>
अपेक्षक</w>
अपेक्षणीय/sT</w>
अपेक्षत</w>
अपेक्षतः</w>
अपेक्षतया</w>
अपेक्षया</w>
अपेक्षा
अपेक्षा-
अपेक्षा--उप
अपेक्षा--उपेक्षा</w>
अपेक्षा/JKIGC</w>
अपेक्षाएं</w>
अपेक्षाकृत
अपेक्षाकृत/sTM</w>
अपेक्षाकृतत/F</w>
अपेक्षात्मक</w>
अपेक्षापूर्ण</w>
अपेक्षाबुद्धि</w>
अपेक्षारहित</w>
अपेक्षाह
अपेक्षाहीनता</w>
अपेक्षित
अपेक्षित-
अपेक्षित-अनपेक्ष
अपेक्षित-अनपेक्षित</w>
अपेक्षित/sTMF</w>
अपेक्षितत/F</w>
अपेक्षितह
अपेक्षितहो</w>
अपेक्ष्य</w>
अपेत
अपेत</w>
अपेतत</w>
अपेन्ड
अपेन्डिक्स</w>
अपेन्डिस
अपेन्डिसायटिस</w>
अपेल</w>
अपै
अपैंड
अपैंडिक्स</w>
अपैच्छ
अपैच्छित</w>
अपैठ</w>
अपैरे
अपैरेट
अपैरेटस</w>
अपैशु
अपैशुन</w>
अपॉ
अपॉइंटमेंट/M</w>
अपॉइन्
अपॉइन्टमेन्ट</w>
अपॉर
अपॉरच
अपॉरचु
अपॉरचुनि
अपॉरचुनिटि</w>
अपॉरचुनिटी</w>
अपॉरच्यु
अपॉरच्युनिटी</w>
अपॉर्च
अपॉर्चुनिटी</w>
अपो
अपोगंड</w>
अपोजी
अपोजीशन</w>
अपोत्ते
अपोत्तेजक</w>
अपोत्तेजन/F</w>
अपोत्तेजित</w>
अपोत्स
अपोत्साह</w>
अपोत्साहित</w>
अपोद्ध
अपोद्धरण</w>
अपोमय</w>
अपोरुष
अपोरुषेय</w>
अपोर्च
अपोर्चुनिटी</w>
अपोर्च्यू
अपोर्च्यूनिटी</w>
अपोल
अपोलो
अपोलोवाणी</w>
अपोल्य
अपोल्योन</w>
अपोषण</w>
अपोषित</w>
अपोसल</w>
अपोह
अपोह/M</w>
अपोहन/M</w>
अपोज़
अपोज़</w>
अपोज़िट</w>
अपोज़ी
अपोज़ीशन</w>
अपोढ़</w>
अपौ
अपौइंट
अपौइंटमैंट</w>
अपौरुष
अपौरुषेयत/F</w>
अपौष्ट
अपौष्टिक</w>
अप्
अप्त
अप्तु</w>
अप्तो
अप्तोर्य
अप्तोर्याम</w>
अप्पति</w>
अप्पम</w>
अप्पू</w>
अप्य
अप्यय</w>
अप्ययन</w>
अप्र
अप्रक
अप्रकंप</w>
अप्रकट
अप्रकट/sT</w>
अप्रकटत/F</w>
अप्रकटन</w>
अप्रकटितत</w>
अप्रकट्य/sT</w>
अप्रकरण</w>
अप्रकांड</w>
अप्रकाश
अप्रकाश</w>
अप्रकाशन</w>
अप्रकृ
अप्रकृत
अप्रकृत</w>
अप्रकृतआ
अप्रकृतआश्र
अप्रकृतआश्रित
अप्रकृतआश्रितश्ल
अप्रकृतआश्रितश्लेष</w>
अप्रकृति
अप्रकृतिस्थ</w>
अप्रको
अप्रकोपक</w>
अप्रक्षालन</w>
अप्रख्यात</w>
अप्रग
अप्रगट</w>
अप्रगति</w>
अप्रगतिशील</w>
अप्रगल्भ
अप्रगल्भ/sT</w>
अप्रगाध</w>
अप्रगाढ़
अप्रगाढ़/sT</w>
अप्रगाढ़न</w>
अप्रगुण</w>
अप्रच
अप्रचंड</w>
अप्रचार</w>
अप्रचोद
अप्रचोदना</w>
अप्रच्छि
अप्रच्छिन्न/sT</w>
अप्रज/F</w>
अप्रजन
अप्रजनन/sT</w>
अप्रज्ञ</w>
अप्रत
अप्रतर्क
अप्रतर्क्य</w>
अप्रति
अप्रति</w>
अप्रतिगृहीत</w>
अप्रतिचार</w>
अप्रतिद्वंद्व</w>
अप्रतिपक्ष</w>
अप्रतिबंध
अप्रतिबंधक</w>
अप्रतिबद्घ</w>
अप्रतिबन्ध</w>
अप्रतिभूत</w>
अप्रतियोगी</w>
अप्रतिरुप</w>
अप्रतिरूप/M</w>
अप्रतिरोध/E</w>
अप्रतिरोधक</w>
अप्रतिसंह
अप्रतिसंहरणीय</w>
अप्रती
अप्रतीक</w>
अप्रतीक्षा</w>
अप्रतीत</w>
अप्रतीप</w>
अप्रतीय
अप्रतीयमान</w>
अप्रतुल/sT</w>
अप्रत्
अप्रत्त/F</w>
अप्रत्य
अप्रत्यक्ष
अप्रत्यक्ष/FsTM</w>
अप्रत्यक्षतः</w>
अप्रत्यन
अप्रत्यनीक</w>
अप्रत्यय/E</w>
अप्रत्यश
अप्रत्यशित/M</w>
अप्रत्या
अप्रत्यायन</w>
अप्रत्यावर्
अप्रत्यावर्तन</w>
अप्रत्यावर्तित</w>
अप्रत्याश
अप्रत्याश/F</w>
अप्रत्याशातीत
अप्रत्याशातीतता</w>
अप्रत्याशित
अप्रत्याशिततः</w>
अप्रथ
अप्रथम/sT</w>
अप्रद
अप्रदत्त</w>
अप्रदर्श
अप्रदर्शन
अप्रदर्शन</w>
अप्रदर्शनप्रिय</w>
अप्रदर्शनीय</w>
अप्रदर्शित</w>
अप्रदर्श्य</w>
अप्रदान</w>
अप्रदायक</w>
अप्रदूषित</w>
अप्रदेश
अप्रदेश्यता</w>
अप्रध
अप्रधृष्य</w>
अप्रपन्न</w>
अप्रफ
अप्रफुल्ल
अप्रफुल्लित</w>
अप्रब
अप्रबंध</w>
अप्रबल/sT</w>
अप्रबुद्ध</w>
अप्रभ
अप्रभ</w>
अप्रभत</w>
अप्रभा
अप्रभाज्य</w>
अप्रभान्वित</w>
अप्रभाव
अप्रभावकरत</w>
अप्रभावपूर्ण</w>
अप्रभावशील</w>
अप्रभावित</w>
अप्रभावितत</w>
अप्रभावोत्पादक</w>
अप्रभूत</w>
अप्रभेद</w>
अप्रम
अप्रमद/F</w>
अप्रमा
अप्रमा</w>
अप्रमाण
अप्रमाण</w>
अप्रमाणन</w>
अप्रमाणिक</w>
अप्रमाढ़</w>
अप्रमित</w>
अप्रमे
अप्रमेयत/F</w>
अप्रमेयात्मा</w>
अप्रय
अप्रयत्
अप्रयत्नशील</w>
अप्रयास
अप्रयासशील</w>
अप्रयुक्
अप्रयुक्त/sT</w>
अप्रयुक्तत्व</w>
अप्रयो
अप्रयोग
अप्रयोग</w>
अप्रयोगित</w>
अप्रयोजक</w>
अप्रयोजन
अप्रयोजनता</w>
अप्रयोजनीय</w>
अप्रयोज्य/M</w>
अप्रलम्ब</w>
अप्रवणित</w>
अप्रवर्तक</w>
अप्रवास/E</w>
अप्रवासन</w>
अप्रवाह
अप्रवाह/EsT</w>
अप्रवाहित</w>
अप्रविध
अप्रविधिक/M</w>
अप्रवृत्ति</w>
अप्रवेश</w>
अप्रश
अप्रशंस
अप्रशंसनीय</w>
अप्रशंसित</w>
अप्रशमन</w>
अप्रशम्य/sT</w>
अप्रशिक्षित</w>
अप्रस
अप्रसंग</w>
अप्रसंगिक</w>
अप्रसन्न
अप्रसन्न/sT</w>
अप्रसन्नकारी</w>
अप्रसन्नता
अप्रसन्नताकारक</w>
अप्रसऩ
अप्रसऩ्न
अप्रसऩ्नता</w>
अप्रसरण</w>
अप्रसव</w>
अप्रसाद</w>
अप्रसाध
अप्रसाधन</w>
अप्रसाम
अप्रसामान्य</w>
अप्रसार
अप्रसार</w>
अप्रसारशील</w>
अप्रसिद्ध
अप्रसिद्ध/M</w>
अप्रसिद्धि</w>
अप्रस्
अप्रस्तु
अप्रस्तुत
अप्रस्तुत/sTLM</w>
अप्रस्तुतप्र
अप्रस्तुतप्रशंस
अप्रस्तुतप्रशंसा</w>
अप्रस्थान</w>
अप्रस्न्न</w>
अप्रह
अप्रहत/sT</w>
अप्रा
अप्रांग
अप्रांगार</w>
अप्राकृत</w>
अप्राग
अप्रागि
अप्रागितिहास
अप्रागितिहासिकता</w>
अप्राचु
अप्राचुर्य</w>
अप्राज्ञ
अप्राज्ञ/sT</w>
अप्राथ
अप्राथम
अप्राथमिकता</w>
अप्राद
अप्रादुर्
अप्रादुर्भाव</w>
अप्राध
अप्राध-
अप्राध-रो
अप्राध-रोकथ
अप्राध-रोकथाम</w>
अप्राध</w>
अप्राप्त
अप्राप्तमार्ग</w>
अप्राप्तयौ
अप्राप्तयौवन</w>
अप्राप्तवयस्क</w>
अप्राप्ति</w>
अप्रामा
अप्रामाण्य</w>
अप्राय</w>
अप्रायोग
अप्रायोगिक</w>
अप्राव
अप्रावह
अप्रावहता</w>
अप्राविधिक</w>
अप्राशन</w>
अप्रास
अप्रासं
अप्रासंंगिक</w>
अप्रासां
अप्रासांंगिक</w>
अप्रासांग
अप्रासांगिक</w>
अप्रिय
अप्रिय/sTM</w>
अप्रियं
अप्रियंव
अप्रियंवद/F</w>
अप्रियकर</w>
अप्रियभागी</w>
अप्रीतिक
अप्रीतिकर</w>
अप्रीतिकरत</w>
अप्रू
अप्रूवल</w>
अप्रे
अप्रेंटि
अप्रेंटिस
अप्रेंटिस/M</w>
अप्रेंटिसश
अप्रेंटिसशिप
अप्रेंटिसशिप/LM</w>
अप्रेत</w>
अप्रेम</w>
अप्रेमय</w>
अप्रेयत/F</w>
अप्रेर
अप्रेरक</w>
अप्रेरणा</w>
अप्रेस-
अप्रेस-स्क
अप्रेस-स्की</w>
अप्रेस</w>
अप्रै
अप्रैल
अप्रैलफ
अप्रैलफूल</w>
अप्रो
अप्रोक्त</w>
अप्रोच/M</w>
अप्रोत्साह
अप्रोत्साहन</w>
अप्रोषित</w>
अप्र्य</w>
अप्ल
अप्लाय
अप्लायड</w>
अप्लिकेशन</w>
अप्लीक
अप्लीकेश
अप्लीकेशन/M</w>
अप्वा
अप्वाइंटमेंट/M</w>
अप्स
अप्सर
अप्सर/MFED</w>
अप्सरणी</w>
अप्सरस</w>
अप्सरस्पति</w>
अप्सरा
अप्सरा/JKIGC</w>
अप्सराध
अप्सराधिपति</w>
अप्सरान्
अप्सरान्माद</w>
अप्सरास
अप्सरासमान</w>
अप्सरेश</w>
अप्सरो
अप्सरोन्
अप्सरोन्मत्त</w>
अप्सरोन्मा
अप्सरोन्माद
अप्सरोन्माद</w>
अप्सरोन्मादग्रस्त</w>
अप्सर्पिणी</w>
अप्सु
अप्सुचर</w>
अपड़
अपड़ाइयो</w>
अपड़ाव/D</w>
अफ
अफग
अफगान/ME</w>
अफगानिस्तान</w>
अफजूँ</w>
अफताब/F</w>
अफनना</w>
अफर
अफर/8sTvFED</w>
अफरवा/734sTv</w>
अफरवाइयो</w>
अफरा
अफरा-त
अफरा-तफरी</w>
अफरा/7AGCB34sTv</w>
अफराइयो</w>
अफरात
अफरातफरी</w>
अफराया</w>
अफराव/MD</w>
अफरियो</w>
अफरी
अफरीक
अफरीकन</w>
अफरीका
अफरीका-वासी/O</w>
अफरीका-संबंधी</w>
अफरीका/G</w>
अफरीकावासी</w>
अफरीकी-देश</w>
अफरीद</w>
अफरीज़
अफरीज़ाल</w>
अफल
अफल/sTMFD</w>
अफलप्रद</w>
अफलात
अफलातून
अफलातून/E</w>
अफलातूनवाद</w>
अफवा</w>
अफवाज</w>
अफवाह
अफवाह/LME</w>
अफशा</w>
अफशाँ</w>
अफशान</w>
अफस
अफसंतीन</w>
अफसर
अफसर/EM</w>
अफसरशाही</w>
अफसराना</w>
अफसरियत</w>
अफसून</w>
अफसोस
अफसोस/M</w>
अफसोसजनक</w>
अफारा</w>
अफार्
अफार्स</w>
अफीम/EM</w>
अफीमची</w>
अफुल्
अफुल्ल</w>
अफे
अफेन</w>
अफेनि
अफेनिल</w>
अफ्
अफ्त
अफ्तार</w>
अफ्फान</w>
अफ्र
अफ्रयून/E</w>
अफ्रिक
अफ्रिका-
अफ्रिका-अमेर
अफ्रिका-अमेरिका</w>
अफ्रिका</w>
अफ्रीक
अफ्रीकन</w>
अफ्रीका
अफ्रीका-अमेर
अफ्रीका-अमेरिका</w>
अफ्रीका-वासी/O</w>
अफ्रीका-संबंधी</w>
अफ्रीका/G</w>
अफ्रीकावास/0E</w>
अफ्रीकियों</w>
अफ्रीकी-
अफ्रीकी-अमरीकी</w>
अफ्रीकी-देश</w>
अफ्रीमची</w>
अफ्रीक़
अफ्रीक़ी</w>
अफ्रेश
अफ्रेशिया</w>
अफ्रग़ानिस्तान</w>
अफग़ानिस्तान</w>
अफज़
अफज़ाही</w>
अब
अबंड</w>
अबंद</w>
अबंध
अबंधक</w>
अबंधत</w>
अबंधित</w>
अबंधुत</w>
अबंधुर</w>
अबक
अबका/GC</w>
अबख
अबखरा</w>
अबखोरा</w>
अबज
अबजद</w>
अबटन</w>
अबतर/E</w>
अबद
अबदुल्ला</w>
अबद्घ</w>
अबध
अबध</w>
अबधार्
अबधार्ह</w>
अबधिया</w>
अबन्ध
अबन्ध-नीति</w>
अबन्धक</w>
अबन्धु</w>
अबन्धुर</w>
अबर
अबरक</w>
अबरख</w>
अबरन</w>
अबरनीय</w>
अबरस/M</w>
अबरी
अबरीदार</w>
अबल
अबल/sTMFD</w>
अबलक/M</w>
अबलख
अबलख/FE</w>
अबलग</w>
अबलत/F</w>
अबला
अबला/IC
अबला/ICK</w>
अबलाकारी</w>
अबलापन</w>
अबलाव
अबलावर्क</w>
अबलास
अबलासेन</w>
अबलो
अबलोन्
अबलोन्मत्त</w>
अबल्य</w>
अबलक़</w>
अबवा
अबवाब</w>
अबस</w>
अबह
अबहु
अबहु</w>
अबहुँ</w>
अबहुधा</w>
अबहुल/sT</w>
अबांध
अबांधव</w>
अबांधवत</w>
अबाइ
अबाइया
अबाइयांग</w>
अबाइस्
अबाइस्स
अबाइस्सिन
अबाइस्सिनियाई</w>
अबाउट</w>
अबाक
अबाकस</w>
अबाद
अबादान/E</w>
अबाध
अबाध-व्यापार</w>
अबाधत/F</w>
अबाधव्य
अबाधव्यापार</w>
अबान</w>
अबाब
अबाबा</w>
अबाबील/LM</w>
अबार/E</w>
अबाल
अबाल/E</w>
अबास</w>
अबाह
अबाहुल
अबाहुल्य</w>
अबि
अबिंध
अबिंधन</w>
अबिंध्य</w>
अबिंबा
अबिंबात्मक</w>
अबिचार</w>
अबिद
अबिदजान</w>
अबिन्ध
अबिन्धन</w>
अबिन्ध्य</w>
अबिर
अबिरल</w>
अबी
अबीज/F</w>
अबीर
अबीर/FEM</w>
अबील</w>
अबीस
अबीसीन
अबीसीनिया</w>
अबीसीनियाई</w>
अबु
अबुंद</w>
अबुजा</w>
अबुझ</w>
अबुद्धि</w>
अबुध</w>
अबुभु
अबुभुक्षा</w>
अबुल
अबुल</w>
अबुलफ
अबुलफजल</w>
अबूजा</w>
अबूझ
अबूझ/F</w>
अबूझ्य/sT</w>
अबृ
अबृहद</w>
अबे
अबेचनीय</w>
अबेध</w>
अबेध्य</w>
अबेय
अबेयंस</w>
अबेर
अबेर/M</w>
अबैन</w>
अबो
अबोध
अबोध/sT</w>
अबोधगम
अबोधगम्यत</w>
अबोधत/F</w>
अबोधतापूर्ण</w>
अबोधपन</w>
अबोमास
अबोमासम</w>
अबोल
अबोल/FEDM</w>
अब्
अब्ज
अब्ज/FDM</w>
अब्जकर्ण
अब्जकर्णिका</w>
अब्जद/M</w>
अब्जन
अब्जनयन/FE</w>
अब्जब
अब्जबांधव</w>
अब्जभव</w>
अब्जभू</w>
अब्जयोनि</w>
अब्जवाह
अब्जवाहन/F</w>
अब्जस्थित</w>
अब्जहस्त</w>
अब्जाद</w>
अब्जासन</w>
अब्जि
अब्जिन
अब्जिनि</w>
अब्जिनी
अब्जिनी</w>
अब्जिनीपति</w>
अब्जे
अब्जेक्
अब्जेक्शन</w>
अब्तर</w>
अब्द
अब्द/EM</w>
अब्दकोश</w>
अब्दकोष</w>
अब्दज्ञ</w>
अब्दप</w>
अब्दवाहन</w>
अब्दीय</w>
अब्दुल्ल
अब्दुल्ला/IC</w>
अब्ध
अब्धि
अब्धि</w>
अब्धिक
अब्धिकफ</w>
अब्धिद्वी
अब्धिद्वीपा</w>
अब्धिन
अब्धिनगरी</w>
अब्धिनव
अब्धिनवन
अब्धिनवनीतक</w>
अब्धिप</w>
अब्धिफ
अब्धिफेन</w>
अब्धिमंड
अब्धिमंडू
अब्धिमंडूकी</w>
अब्धिशय</w>
अब्धिशयन</w>
अब्धिसार</w>
अब्ध्य
अब्ध्यग्नि</w>
अब्ना</w>
अब्ब
अब्बर</w>
अब्बा/CI</w>
अब्बाज
अब्बाजान/M</w>
अब्बास/ME</w>
अब्बू</w>
अब्भक्ष</w>
अब्र
अब्र/M</w>
अब्रम
अब्रम</w>
अब्रमॉ
अब्रमॉफ़</w>
अब्राह
अब्राहमिक</w>
अब्राह्म</w>
अब्रि
अब्रिज
अब्रिजमेंट</w>
अब्सार</w>
अब्ख़
अब्ख़ाज़
अब्ख़ाज़ियन</w>
अबज़
अबज़र
अबज़रवे
अबज़रवेटरी</w>
अबज़र्वे
अबज़र्वेटरी</w>
अबड़
अबड़-ध
अबड़-धब
अबड़-धबड़</w>
अबड़</w>
अभ
अभंग
अभंग/EsT</w>
अभंगपद/M</w>
अभंगुर
अभंगुरत/F</w>
अभंजन/M</w>
अभंजित</w>
अभक्त/M</w>
अभक्तत</w>
अभक्ष
अभक्ष</w>
अभक्ष्य/sT</w>
अभगत</w>
अभग्
अभग्न</w>
अभग्ना
अभग्नांग</w>
अभच
अभच्यता</w>
अभणित</w>
अभय
अभय-द
अभय-दक्षि
अभय-दक्षिणा</w>
अभय-दान</w>
अभय-पत्र/M</w>
अभय-मुद्रा</w>
अभय-वचन</w>
अभय/sTMF
अभय/sTMFD
अभय/sTMFDU</w>
अभयकर/E</w>
अभयकरण</w>
अभयचारी</w>
अभयडि
अभयडिंडि
अभयडिंडिम</w>
अभयदत्त</w>
अभयदान
अभयदान/M</w>
अभयदानदत्त</w>
अभयपत्र/M</w>
अभयपरि
अभयपरिग्रह/M</w>
अभयप्र
अभयप्रद</w>
अभयप्रदत्त</w>
अभयमुद्रा/JK</w>
अभयवन/M</w>
अभयस्त</w>
अभयार
अभयारण
अभयारण्य/M</w>
अभर
अभर</w>
अभरन</w>
अभरम</w>
अभर्
अभर्त्स
अभर्त्सना</w>
अभव</w>
अभवन</w>
अभवि
अभविष्णु</w>
अभविष्य
अभविष्यवाच
अभविष्यवाच्य</w>
अभस</w>
अभा
अभाग
अभाग/FEDM</w>
अभागापन</w>
अभागि
अभागिनि</w>
अभाग्य/M</w>
अभाजन</w>
अभाज्य</w>
अभाय</w>
अभार
अभार/sTM</w>
अभारयुक्त</w>
अभारित</w>
अभारिष्ट</w>
अभार्य</w>
अभाव
अभाव-ग्रस्त</w>
अभाव-पदार्थ</w>
अभाव-प्र
अभाव-प्रमाण</w>
अभावग्रस्त/sT</w>
अभावना</w>
अभावनात्मक</w>
अभावपदार्थ</w>
अभावप्रमाण</w>
अभावात्मक</w>
अभाव्य</w>
अभाषण</w>
अभाषित</w>
अभाष्य</w>
अभास</w>
अभि
अभिंस
अभिंसतान</w>
अभिऊ</w>
अभिक
अभिक</w>
अभिकथ
अभिकथन/M</w>
अभिकथनीय</w>
अभिकथित/M</w>
अभिकन्या</w>
अभिकरण/M</w>
अभिकर्
अभिकर्त
अभिकर्ता
अभिकर्ता-पत्र/M</w>
अभिकर्तापत्र</w>
अभिकर्तृ
अभिकर्तृत्व/M</w>
अभिकर्त्त
अभिकर्त्ता-पत्र/M</w>
अभिकर्त्ता</w>
अभिकर्त्तापत्र</w>
अभिकर्त्तृ
अभिकर्त्तृत्व</w>
अभिकर्म/sT</w>
अभिकल
अभिकल</w>
अभिकलन/M</w>
अभिकलित्र/M</w>
अभिकल्
अभिकल्प
अभिकल्प/M</w>
अभिकल्पक/M</w>
अभिकल्पन/FM</w>
अभिकल्पना/JK</w>
अभिकल्पनीय</w>
अभिकांक्ष
अभिकांक्षा/G</w>
अभिकाम
अभिकाम</w>
अभिकामना</w>
अभिकारक</w>
अभिकार्य
अभिकार्यता</w>
अभिके
अभिकें
अभिकेंंद्रीय</w>
अभिकेंद्र
अभिकेंद्र</w>
अभिकेंद्रत</w>
अभिकेंद्रीय</w>
अभिकेन्द्र
अभिकेन्द्री</w>
अभिक्र
अभिक्रंद</w>
अभिक्रंदन</w>
अभिक्रम
अभिक्रम/M</w>
अभिक्रमण/M</w>
अभिक्रमहीन</w>
अभिक्रांत
अभिक्रांत/E</w>
अभिक्रांति</w>
अभिक्रान्त
अभिक्रान्त/E</w>
अभिक्राम
अभिक्रामक</w>
अभिक्रामित</w>
अभिक्रिय
अभिक्रियक</w>
अभिक्रियत</w>
अभिक्रिया
अभिक्रिया-
अभिक्रिया-कारक</w>
अभिक्रिया/JK</w>
अभिक्रोश</w>
अभिक्ष
अभिक्ष</w>
अभिक्षमता</w>
अभिख
अभिखंड
अभिखंडन
अभिखंडन</w>
अभिखंडनीयता</w>
अभिखंडित</w>
अभिखनन</w>
अभिख्य
अभिख्या
अभिख्या/IC</w>
अभिख्यात/sT</w>
अभिख्यान/M</w>
अभिगति</w>
अभिगम/M</w>
अभिगम्य/sT</w>
अभिगामिनी</w>
अभिगामी</w>
अभिगु
अभिगुप्त</w>
अभिगुप्ति</w>
अभिगृह
अभिगृहीत
अभिगृहीत</w>
अभिगृहीतीय</w>
अभिगोपन</w>
अभिग्रह
अभिग्रह</w>
अभिग्रहण/M</w>
अभिग्रहणशील</w>
अभिग्रहणीय</w>
अभिग्रही
अभिग्रहीत/F</w>
अभिग्राहिता</w>
अभिग्राही</w>
अभिग्राह्य</w>
अभिघ
अभिघटक</w>
अभिघट्‌
अभिघट्‌य
अभिघट्‌यता</w>
अभिघात/ME</w>
अभिघातक</w>
अभिघार</w>
अभिघारण</w>
अभिच
अभिचर/M</w>
अभिचार
अभिचार/ME</w>
अभिचारक</w>
अभिचारण</w>
अभिचारिका</w>
अभिचूषित</w>
अभिज</w>
अभिजन/M</w>
अभिजनक</w>
अभिजय</w>
अभिजात
अभिजात-त
अभिजात-तंत्र</w>
अभिजात-तन्त्र</w>
अभिजात-भवन</w>
अभिजात/sT</w>
अभिजातकी</w>
अभिजाततंत्र/M</w>
अभिजाततन्त्र</w>
अभिजातवर्
अभिजातवर्गीय</w>
अभिजाति</w>
अभिजातियों</w>
अभिजातीय</w>
अभिजात्य/sT</w>
अभिजि
अभिजिति</w>
अभिजीत</w>
अभिज्ञ
अभिज्ञ-
अभिज्ञ-अनभि
अभिज्ञ-अनभिज्ञ</w>
अभिज्ञात
अभिज्ञात/sTMF</w>
अभिज्ञात्य</w>
अभिज्ञान
अभिज्ञान/ME</w>
अभिज्ञानात्मक</w>
अभिज्ञापक</w>
अभिज्ञापन/M</w>
अभिज्ञेय/sT</w>
अभित
अभित</w>
अभितप्त</w>
अभिता
अभिताप/M</w>
अभिताभ</w>
अभितृप्त</w>
अभितो
अभितोमुख</w>
अभित्य
अभित्यक्त/F</w>
अभित्यजन</w>
अभित्या
अभित्याग/M</w>
अभित्याजक</w>
अभित्र
अभित्रस्त</w>
अभित्रास/M</w>
अभित्रासक/M</w>
अभिद
अभिदत्त/M</w>
अभिदर्शन/M</w>
अभिदान/M</w>
अभिदाय/M</w>
अभिदार
अभिदारी</w>
अभिदिश
अभिदिशा/IC</w>
अभिदिष्ट</w>
अभिदेय</w>
अभिदेश
अभिदेश/M</w>
अभिदेशना/JK</w>
अभिद्यान</w>
अभिद्र
अभिद्रव</w>
अभिद्रवण</w>
अभिद्रुत</w>
अभिद्रोह
अभिद्रोह/M</w>
अभिध
अभिधमन/M</w>
अभिधम्
अभिधम्म</w>
अभिधरण</w>
अभिधर्म/M</w>
अभिधा/CI</w>
अभिधात्मक/sT</w>
अभिधान
अभिधान/ME</w>
अभिधानक</w>
अभिधाम
अभिधामूल</w>
अभिधायक</w>
अभिधार
अभिधारण
अभिधारण/F</w>
अभिधारणाएँ</w>
अभिधारिता</w>
अभिधारी</w>
अभिधार्थ
अभिधार्थ/M</w>
अभिधार्थक/sT</w>
अभिधार्थत</w>
अभिधाव</w>
अभिधावक</w>
अभिधावन</w>
अभिधाश
अभिधाशक्ति/PQ</w>
अभिधृत</w>
अभिधृति</w>
अभिधे
अभिधेय
अभिधेय</w>
अभिधेयात्मक</w>
अभिधेयार्थ/M</w>
अभिध्या</w>
अभिध्यान</w>
अभिन
अभिनंद
अभिनंद/E</w>
अभिनंदक</w>
अभिनंदन
अभिनंदन-पत्र/M</w>
अभिनंदन/FM</w>
अभिनंदनग्रंथ
अभिनंदनग्रंथ/M</w>
अभिनंदननाथ</w>
अभिनंदनपत्र/M</w>
अभिनंदनपूर्ण</w>
अभिनंदनात्मक</w>
अभिनंदनीय/sT</w>
अभिनंदनीयत/F</w>
अभिनंदिका</w>
अभिनंदित/sT</w>
अभिनंदितत/F</w>
अभिनंद्य</w>
अभिनत/sT</w>
अभिनति</w>
अभिनन्द
अभिनन्दन
अभिनन्दन-पत्र/M</w>
अभिनन्दन/M</w>
अभिनन्दनपत्र</w>
अभिनन्दनीय</w>
अभिनन्दित</w>
अभिनम
अभिनम्र</w>
अभिनय
अभिनय-
अभिनय-ज
अभिनय-जग
अभिनय-जगत</w>
अभिनय-जगत्</w>
अभिनय-लिप्
अभिनय-लिप्सु</w>
अभिनय/VM</w>
अभिनयकर्ता/K</w>
अभिनयकला/CI</w>
अभिनयच
अभिनयचात
अभिनयचातु
अभिनयचातुर्य/M</w>
अभिनयन</w>
अभिनयपूर्ण</w>
अभिनयपूर्वक</w>
अभिनययोग्य</w>
अभिनयशाला/JK</w>
अभिनयात्मक</w>
अभिनव
अभिनव-
अभिनव-अभिध
अभिनव-अभिधान</w>
अभिनव/sTM</w>
अभिनवगु
अभिनवगुप्त</w>
अभिनवन</w>
अभिनवभार
अभिनवभारती</w>
अभिनवी
अभिनवीकरण/M</w>
अभिनहन</w>
अभिनाय
अभिनायक
अभिनायकत्व/M</w>
अभिनाल</w>
अभिनि
अभिनित</w>
अभिनिधन</w>
अभिनियम</w>
अभिनियुक्त</w>
अभिनियो
अभिनियोग</w>
अभिनियोजन</w>
अभिनिर्
अभिनिर्ण
अभिनिर्णय/M</w>
अभिनिर्णायक/M</w>
अभिनिर्णीत</w>
अभिनिर्देश/M</w>
अभिनिर्धार
अभिनिर्धारण/M</w>
अभिनिर्धारित</w>
अभिनिर्माण</w>
अभिनिर्य
अभिनिर्याण</w>
अभिनिर्वृत्ति</w>
अभिनिविष्ट/sT</w>
अभिनिवृ
अभिनिवृत्त</w>
अभिनिवृत्ति</w>
अभिनिवृर्
अभिनिवृर्त्ति</w>
अभिनिवेश
अभिनिवेश/ME</w>
अभिनिवेशित</w>
अभिनिश्
अभिनिश्चित/M</w>
अभिनिष
अभिनिषि
अभिनिषिद्ध</w>
अभिनिषेध</w>
अभिनिष्
अभिनिष्कम</w>
अभिनिष्क्रम</w>
अभिनिष्क्रमण</w>
अभिनिष्पत्ति</w>
अभिनिष्पन्न</w>
अभिनीत
अभिनीत/sT</w>
अभिनीतत/F</w>
अभिनीति</w>
अभिनीय</w>
अभिनेत
अभिनेतव्य</w>
अभिनेत्र
अभिनेत्रियों</w>
अभिनेत्री/NO</w>
अभिनेय/sT</w>
अभिन्न
अभिन्न/rsT</w>
अभिन्नपद/M</w>
अभिन्नपु
अभिन्नपुट</w>
अभिन्नहृद
अभिन्नहृदय/sT</w>
अभिन्यस्त</w>
अभिन्या
अभिन्यास
अभिन्यास/VM</w>
अभिप
अभिपतन/M</w>
अभिपत्र/M</w>
अभिपद/M</w>
अभिपन्न</w>
अभिपा
अभिपाचन</w>
अभिपिता</w>
अभिपीड़
अभिपीड़न/M</w>
अभिपीड़ित</w>
अभिपु
अभिपुत्र
अभिपुत्र/E</w>
अभिपुष्ट</w>
अभिपुष्टि</w>
अभिपुष्प/M</w>
अभिपू
अभिपूजित</w>
अभिपूर्ण</w>
अभिपूर्ति</w>
अभिपोषण/M</w>
अभिपोषित</w>
अभिप्र
अभिप्रणय/M</w>
अभिप्रणयन</w>
अभिप्रणीत</w>
अभिप्रपन्न</w>
अभिप्रमाणित</w>
अभिप्रहत</w>
अभिप्राण
अभिप्राणन/M</w>
अभिप्राप्ति</w>
अभिप्राय
अभिप्रायत</w>
अभिप्रायवि
अभिप्रायविरुद्ध</w>
अभिप्रायानुसार</w>
अभिप्रीति</w>
अभिप्रेत
अभिप्रेत/sTM</w>
अभिप्रेय/sT</w>
अभिप्रेरण
अभिप्रेरण/FM</w>
अभिप्ल
अभिप्लव/M</w>
अभिबंधन</w>
अभिबुद्धि</w>
अभिभ
अभिभंग</w>
अभिभव/M</w>
अभिभान</w>
अभिभाव
अभिभाव/E</w>
अभिभावक
अभिभावक/sTM</w>
अभिभावकत्व/M</w>
अभिभावकयुक्तता</w>
अभिभावकहीन/sT</w>
अभिभावकीय</w>
अभिभावन/M</w>
अभिभाविका</w>
अभिभावित/F</w>
अभिभावुक</w>
अभिभाष
अभिभाषक/M</w>
अभिभाषण/M</w>
अभिभाषित</w>
अभिभाष्य</w>
अभिभुत</w>
अभिभू</w>
अभिभूत
अभिभूत/sT
अभिभूत/sTV</w>
अभिभूतकारी</w>
अभिभूति</w>
अभिम
अभिमंचन</w>
अभिमंचित</w>
अभिमंड
अभिमंडन/M</w>
अभिमंडनीय</w>
अभिमंडित/sT</w>
अभिमंतव्य</w>
अभिमंता</w>
अभिमंत्र
अभिमंत्रक/sT</w>
अभिमंत्रण
अभिमंत्रण/M</w>
अभिमंत्रणकारी</w>
अभिमंत्रित</w>
अभिमंत्रितत</w>
अभिमण्ड
अभिमण्डन</w>
अभिमत
अभिमत/sTM</w>
अभिमतयुक्त</w>
अभिमतहीन</w>
अभिमति</w>
अभिमतीय</w>
अभिमद्य
अभिमद्यत</w>
अभिमन्
अभिमन्त
अभिमन्तव्य</w>
अभिमन्त्रित</w>
अभिमन्यु</w>
अभिमरण</w>
अभिमर्द
अभिमर्दन/M</w>
अभिमर्दित</w>
अभिमर्श
अभिमर्श/E</w>
अभिमर्शक</w>
अभिमर्शन</w>
अभिमर्षक</w>
अभिमर्षण</w>
अभिमाता</w>
अभिमाद</w>
अभिमान
अभिमान-न
अभिमान-नम
अभिमान-नम्र
अभिमान-नम्रता</w>
अभिमान/sTME</w>
अभिमानत/F</w>
अभिमानत्व</w>
अभिमानपूर्वक</w>
अभिमानरहित</w>
अभिमानवत</w>
अभिमानशून्य/sT</w>
अभिमानित/F</w>
अभिमानिनी</w>
अभिमान्य/M</w>
अभिमार्जन</w>
अभिमुख
अभिमुख/sTM</w>
अभिमुखत/F</w>
अभिमुखीकरण</w>
अभिमूर्
अभिमूर्छित</w>
अभिमृष्ट</w>
अभिय
अभियंत
अभियंता
अभियंता/K</w>
अभियंताउ
अभियंताउत्पादन</w>
अभियंताउप</w>
अभियंताजू
अभियंताजूनिय
अभियंताजूनियर</w>
अभियंताप
अभियंताप्रा
अभियंताप्रादेशिक</w>
अभियंत्र
अभियंत्र</w>
अभियंत्रिकी</w>
अभियन्
अभियन्ता</w>
अभियन्त्र
अभियन्त्रण/F</w>
अभिया
अभियां
अभियांत्र
अभियांत्रण</w>
अभियांत्रिकीविद</w>
अभियाग</w>
अभियाच
अभियाचन/FM</w>
अभियाचिका</w>
अभियाचित</w>
अभियाच्य</w>
अभियाजक</w>
अभियात्र
अभियात्रा/G</w>
अभियान
अभियान/MEV</w>
अभियानिक</w>
अभियुक्
अभियुक्त
अभियुक्त/MF</w>
अभियुक्ति</w>
अभियो
अभियोक्त
अभियोक्ता</w>
अभियोक्तृ</w>
अभियोग
अभियोग/ME</w>
अभियोगकर्त्ता</w>
अभियोगपत्र/M</w>
अभियोगपूर्ण</w>
अभियोगमुक्त</w>
अभियोगयोग
अभियोगयोग्यता</w>
अभियोगात्मक</w>
अभियोगाधीन</w>
अभियोग्य/sT</w>
अभियोज
अभियोजक/M</w>
अभियोजन
अभियोजनप्र
अभियोजनप्रो
अभियोजनप्रोस
अभियोजनप्रोसिक
अभियोजनप्रोसिक्यू
अभियोजनप्रोसिक्यूटर</w>
अभियोजनीय</w>
अभियोज्य/sT</w>
अभिर
अभिरंजक</w>
अभिरंजित</w>
अभिरक्ष
अभिरक्षक/sTM</w>
अभिरक्षण/M</w>
अभिरक्षणीय</w>
अभिरक्षा/CI</w>
अभिरक्षित/F</w>
अभिरक्ष्य</w>
अभिरचना</w>
अभिरत
अभिरत/sTFED</w>
अभिरतत/F</w>
अभिरमण</w>
अभिरमणीय</w>
अभिरम्य</w>
अभिरा
अभिरामत/F</w>
अभिरियो</w>
अभिरु
अभिरुच
अभिरुचियुक्त</w>
अभिरुचीय</w>
अभिरुत/F</w>
अभिरुदन</w>
अभिरू
अभिरूचि</w>
अभिरो
अभिरोग
अभिरोग/ED</w>
अभिरोध</w>
अभिल
अभिलंघ
अभिलंघक</w>
अभिलंघन</w>
अभिलक्षण/M</w>
अभिलक्षित</w>
अभिलक्ष्य</w>
अभिलमंडित</w>
अभिलमण्ड
अभिलमण्डित</w>
अभिलम्ब
अभिलम्ब</w>
अभिलम्बीय</w>
अभिलष
अभिलषण</w>
अभिलषिक</w>
अभिलषित</w>
अभिला
अभिलाक्ष
अभिलाक्षणिक</w>
अभिलाख
अभिलाख/FE</w>
अभिलाखना</w>
अभिलाप</w>
अभिलाभ</w>
अभिलाव</w>
अभिलाष
अभिलाषण</w>
अभिलाषणीय</w>
अभिलाषाएँ</w>
अभिलाषापूर्ण</w>
अभिलाषारहित</w>
अभिलाषाहीन/sT</w>
अभिलाषाहीनतः</w>
अभिलाषिका</w>
अभिलाषिणी</w>
अभिलाषित</w>
अभिलाषीना</w>
अभिलाषुक</w>
अभिलाष्य/sT</w>
अभिलास
अभिलास/F</w>
अभिलिख
अभिलिखित/sT</w>
अभिलीन</w>
अभिलुप्त</w>
अभिलेख
अभिलेख-
अभिलेख-अधिक
अभिलेख-अधिकरण</w>
अभिलेख-कार्य
अभिलेख-कार्यालय</w>
अभिलेख/M
अभिलेख/MU
अभिलेख/MUE</w>
अभिलेखक/M</w>
अभिलेखकीय</w>
अभिलेखन/M</w>
अभिलेखनीय</w>
अभिलेखपा
अभिलेखपाल/M</w>
अभिलेखबद्ध</w>
अभिलेखाग
अभिलेखागार/M</w>
अभिलेखागारीय</w>
अभिलेखाध
अभिलेखाधिकरण</w>
अभिलेखाध्य
अभिलेखाध्यक्ष/M</w>
अभिलेखाप
अभिलेखापाल</w>
अभिलेखित
अभिलेखित</w>
अभिलेखितृ</w>
अभिलेख्य</w>
अभिलो
अभिलोपन/M</w>
अभिव
अभिवंचन/M</w>
अभिवंद
अभिवंदन/FM</w>
अभिवंदनीय</w>
अभिवंदित/sT</w>
अभिवंद्य</w>
अभिवक्ता</w>
अभिवचन/M</w>
अभिवत
अभिवता</w>
अभिवताप
अभिवताप्ल
अभिवताप्ली
अभिवताप्लीडर</w>
अभिवदन/M</w>
अभिवन्द
अभिवन्दन/F</w>
अभिवन्दनीय</w>
अभिवन्दित</w>
अभिवन्द्य</w>
अभिवर्तन</w>
अभिवर्ध
अभिवर्धक</w>
अभिवर्धन/M</w>
अभिवर्धित</w>
अभिवर्धी</w>
अभिवसित</w>
अभिवा
अभिवांछित</w>
अभिवाक/M</w>
अभिवाचक</w>
अभिवाचन</w>
अभिवाचित</w>
अभिवाद
अभिवाद/E</w>
अभिवादक/M</w>
अभिवादन/M</w>
अभिवादनपूर्ण</w>
अभिवादनीय</w>
अभिवादयिता</w>
अभिवादिका</w>
अभिवादित</w>
अभिवाद्य</w>
अभिवान
अभिवानर</w>
अभिवानरीय</w>
अभिवास/M</w>
अभिवासन</w>
अभिवि
अभिविख्यात</w>
अभिविझप्त</w>
अभिविन
अभिविनय</w>
अभिविनीत/sT</w>
अभिविन्यस्त</w>
अभिविन्यास/M</w>
अभिविमान</w>
अभिविश्र
अभिविश्रु
अभिविश्रुत</w>
अभिविश्रुतव्य
अभिविश्रुतव्यता</w>
अभिवृ
अभिवृति</w>
अभिवृत्ति</w>
अभिवृद्ध</w>
अभिवृद्धि</w>
अभिवृष्ट</w>
अभिवे
अभिवेग</w>
अभिवेचक</w>
अभिवेचन/M</w>
अभिवेदक</w>
अभिवेदन/M</w>
अभिवेदित</w>
अभिव्य
अभिव्यंज
अभिव्यंजक/sT</w>
अभिव्यंजक</w>
अभिव्यंजन
अभिव्यंजन/F</w>
अभिव्यंजन/FM</w>
अभिव्यंजनपूर्ण
अभिव्यंजनपूर्णता</w>
अभिव्यंजनपूर्वक</w>
अभिव्यंजनवादी</w>
अभिव्यंजनशीलता</w>
अभिव्यंजना
अभिव्यंजना/JK
अभिव्यंजना/JKq</w>
अभिव्यंजनापूर्ण</w>
अभिव्यंजनापूर्वक</w>
अभिव्यंजनावाद/EM</w>
अभिव्यंजनीय/sT</w>
अभिव्यंजित</w>
अभिव्यंज्य/sT</w>
अभिव्यक्त
अभिव्यक्त/sTM</w>
अभिव्यक्ति
अभिव्यक्ति/D</w>
अभिव्यक्तिकार
अभिव्यक्तिकारिता</w>
अभिव्यक्तिपूर्ण</w>
अभिव्यक्तिपूर्वक</w>
अभिव्यक्तियाँ</w>
अभिव्यक्तियों</w>
अभिव्यक्तिवाद/EM</w>
अभिव्यक्तिशील/sT</w>
अभिव्यक्तिहीन/sT</w>
अभिव्या
अभिव्याप
अभिव्यापक</w>
अभिव्यापत</w>
अभिव्यापन</w>
अभिव्यापी</w>
अभिव्याप्त</w>
अभिव्याप्तत</w>
अभिव्याप्ति</w>
अभिव्याहृत</w>
अभिव्यिक्त</w>
अभिश
अभिशंक
अभिशंक/F</w>
अभिशंक/MFD</w>
अभिशंकित</w>
अभिशंस
अभिशंसा/IJK
अभिशंसा/IJKC</w>
अभिशक्त</w>
अभिशप्त/sT</w>
अभिशप्ति</w>
अभिशब्
अभिशब्दित</w>
अभिशस्त</w>
अभिशस्ति</w>
अभिशाप
अभिशापग्रस्त</w>
अभिशापन/M</w>
अभिशापपूर्ण</w>
अभिशापित</w>
अभिशास
अभिशासक/M</w>
अभिशासन/M</w>
अभिशासित</w>
अभिशीर्ष</w>
अभिशून्य
अभिशून्यन</w>
अभिशोक</w>
अभिशोष
अभिशोषक</w>
अभिशोषित</w>
अभिष
अभिषंग
अभिषंग/F</w>
अभिषंग/MFE</w>
अभिषंगित</w>
अभिषंजन/M</w>
अभिषद/M</w>
अभिषय</w>
अभिषव
अभिषव/M</w>
अभिषवण/M</w>
अभिषवणीय</w>
अभिषाव
अभिषावक/M</w>
अभिषिक्त</w>
अभिषुक</w>
अभिषुत</w>
अभिषे
अभिषेक
अभिषेक/M</w>
अभिषेकशाला</w>
अभिषेकाद
अभिषेकादि</w>
अभिषेक्ता</w>
अभिषेक्य</w>
अभिषेचन/M</w>
अभिषेचनीय</w>
अभिषेचित</w>
अभिषेच्य</w>
अभिषेणन</w>
अभिषेध/M</w>
अभिष्
अभिष्ट</w>
अभिष्त
अभिष्तुत</w>
अभिष्य
अभिष्यन्द/E</w>
अभिष्व
अभिष्वंग</w>
अभिस
अभिसं
अभिसंग/M</w>
अभिसंत
अभिसंतान</w>
अभिसंताप/M</w>
अभिसंद
अभिसंदे
अभिसंदेह/M</w>
अभिसंध
अभिसंध/MF</w>
अभिसंधक</w>
अभिसंधान/M</w>
अभिसंधानन</w>
अभिसंधि
अभिसंधि/sT</w>
अभिसंपात/M</w>
अभिसंयोग/M</w>
अभिसंश्रय</w>
अभिसंश्रयण</w>
अभिसंस्
अभिसंस्करण</w>
अभिसंस्कार
अभिसंस्कार</w>
अभिसंस्कारीय</w>
अभिसक्त</w>
अभिसत्र
अभिसत्र</w>
अभिसत्राध
अभिसत्राधिनियम</w>
अभिसन्ध
अभिसन्धक</w>
अभिसन्धान</w>
अभिसमय/M</w>
अभिसम्मत</w>
अभिसर
अभिसर/8sTvLMED</w>
अभिसरण/M</w>
अभिसरन/FD</w>
अभिसरित</w>
अभिसर्
अभिसर्ग/M</w>
अभिसर्जन</w>
अभिसर्ता</w>
अभिसव</w>
अभिसाध
अभिसाधक/M</w>
अभिसाधन/M</w>
अभिसाम
अभिसामयिक</w>
अभिसार
अभिसार/s8Tv
अभिसार/s8TvLMED</w>
अभिसारिका/JK</w>
अभिसारिणी</w>
अभिसारियो</w>
अभिसि
अभिसिंच
अभिसिंचक</w>
अभिसिंचन</w>
अभिसिंचनीय</w>
अभिसिंचित</w>
अभिसिंच्य</w>
अभिसूचना/JK</w>
अभिसृष्टि</w>
अभिसेवन</w>
अभिस्कंद</w>
अभिस्त
अभिस्ताव</w>
अभिस्त्र
अभिस्त्रावक</w>
अभिस्त्रावण/E</w>
अभिस्थ
अभिस्थान</w>
अभिस्थापन/F</w>
अभिस्थापित</w>
अभिस्थित/sT</w>
अभिस्थिति</w>
अभिस्थिर</w>
अभिस्थैतिक</w>
अभिस्य
अभिस्यंद/E</w>
अभिस्यंदन</w>
अभिस्यन्द/E</w>
अभिस्र
अभिस्राव</w>
अभिस्रावक</w>
अभिस्रावण/E</w>
अभिस्वी
अभिस्वीकरण</w>
अभिस्वीकृत</w>
अभिस्वीकृति</w>
अभिह
अभिहत</w>
अभिहति</w>
अभिहर</w>
अभिहरण/M</w>
अभिहरणीय</w>
अभिहर्ता</w>
अभिहव</w>
अभिहवन</w>
अभिहस्त
अभिहस्तांतर</w>
अभिहस्तांतरण</w>
अभिहस्तान्त
अभिहस्तान्तरित</w>
अभिहार
अभिहार/ME</w>
अभिहास</w>
अभिहि
अभिहित
अभिहित/F</w>
अभिहितत</w>
अभिहितान्व
अभिहितान्वय
अभिहितान्वयवाद/M</w>
अभिहिति</w>
अभिहूत</w>
अभिहोम</w>
अभी
अभीत/sT</w>
अभीत्वर</w>
अभीपन</w>
अभीप्
अभीप्स
अभीप्सक</w>
अभीप्सा/IJK
अभीप्सा/IJKGC</w>
अभीप्सित</w>
अभीप्सु</w>
अभीम</w>
अभीमोद</w>
अभीयोग</w>
अभीरु
अभीरुण</w>
अभीवर्त</w>
अभीश
अभीशु</w>
अभीषु</w>
अभीष्ट
अभीष्ट/sTMF</w>
अभीष्टत/F</w>
अभीष्टद</w>
अभीष्टदायक</w>
अभीष्टलाभ
अभीष्टलाभ/M</w>
अभीष्टि</w>
अभु
अभुंग
अभुंगर/sT</w>
अभुआ
अभुआ/sT</w>
अभुआना</w>
अभुक्
अभुक्त
अभुक्तपूर्व</w>
अभुक्तम
अभुक्तमूल</w>
अभुगत
अभुगतान</w>
अभुग्न</w>
अभुज</w>
अभू
अभू</w>
अभूखन</w>
अभूत
अभूत/sT</w>
अभूतदोष</w>
अभूतपूर्व
अभूतपूर्वत/F</w>
अभूतशत्रु</w>
अभूतोप
अभूतोपमा</w>
अभूमि
अभूमि</w>
अभूमिज</w>
अभूरि</w>
अभूषित</w>
अभृत
अभृत</w>
अभृतक</w>
अभे
अभेद
अभेद/M</w>
अभेदक</w>
अभेदरूप
अभेदरूपक/M</w>
अभेय</w>
अभेर
अभेर/8FED
अभेर/8FEDsTv</w>
अभेरियो</w>
अभेड़ा</w>
अभै
अभैदिक</w>
अभैर</w>
अभो
अभोक्तव्य</w>
अभोख
अभोखण</w>
अभोग
अभोग/FE</w>
अभोगिता</w>
अभोग्य</w>
अभोजन
अभोजन</w>
अभोजनीय/sT</w>
अभोजित</w>
अभौ
अभौतिक
अभौतिकवाद</w>
अभौम</w>
अभ्य
अभ्यं
अभ्यंंजनीय</w>
अभ्यंग/M</w>
अभ्यंग</w>
अभ्यंजन/M</w>
अभ्यंजन</w>
अभ्यंत
अभ्यंतर
अभ्यंतर/M</w>
अभ्यंतरक/M</w>
अभ्यंतरीय</w>
अभ्यक्त</w>
अभ्यतीत</w>
अभ्यध
अभ्यधिक</w>
अभ्यधीन</w>
अभ्यन
अभ्यनु
अभ्यनुक्त</w>
अभ्यनुज्ञा</w>
अभ्यन्त
अभ्यन्तर</w>
अभ्यमन</w>
अभ्यर्च
अभ्यर्चन/F</w>
अभ्यर्चनीय</w>
अभ्यर्चा</w>
अभ्यर्च्य</w>
अभ्यर्थ
अभ्यर्थक</w>
अभ्यर्थन
अभ्यर्थना/JK</w>
अभ्यर्थनापूर्ण</w>
अभ्यर्थियों</w>
अभ्यर्थी</w>
अभ्यर्थ्य</w>
अभ्यर्प
अभ्यर्पक</w>
अभ्यर्पण/M</w>
अभ्यर्पयिता</w>
अभ्यर्पित/E</w>
अभ्यव
अभ्यवस्क
अभ्यवस्कंद</w>
अभ्यवस्कंदन</w>
अभ्यस
अभ्यसन</w>
अभ्यसनीय</w>
अभ्यसु
अभ्यसुय</w>
अभ्यसू
अभ्यसूय/F</w>
अभ्यस्त
अभ्यस्त-
अभ्यस्त-अनभ्य
अभ्यस्त-अनभ्यस्त</w>
अभ्यस्त/sTM</w>
अभ्यस्तत/F</w>
अभ्या
अभ्यांतर</w>
अभ्याकांक्ष
अभ्याकांक्षित</w>
अभ्याख्यात</w>
अभ्याख्यान</w>
अभ्याग
अभ्यागत/M</w>
अभ्यागति</w>
अभ्यागम/M</w>
अभ्यागमन</w>
अभ्यागार
अभ्यागारिक</w>
अभ्यागारिणी</w>
अभ्याचार</w>
अभ्यात्त</w>
अभ्याधान</w>
अभ्याधानन</w>
अभ्याप
अभ्यापत्ति</w>
अभ्यापात</w>
अभ्यामर्द</w>
अभ्याय/M</w>
अभ्यार
अभ्यारण्य</w>
अभ्यारोपण</w>
अभ्यार्थी</w>
अभ्यावेदक</w>
अभ्यावेदन/M</w>
अभ्याश</w>
अभ्यास
अभ्यास-पुस्तिका/K</w>
अभ्यास-स्थल</w>
अभ्यास/MEV</w>
अभ्यासक</w>
अभ्यासकला/CI</w>
अभ्यासन</w>
अभ्यासर
अभ्यासरत</w>
अभ्यासरहित</w>
अभ्यासवश</w>
अभ्यासस्थल</w>
अभ्यासाद</w>
अभ्यासादन</w>
अभ्यासिक/F</w>
अभ्यासिका/JK</w>
अभ्यासित्र</w>
अभ्याहत</w>
अभ्याहरण</w>
अभ्याहार/M</w>
अभ्यु
अभ्युक्
अभ्युक्त</w>
अभ्युक्ति</w>
अभ्युक्तियां</w>
अभ्युक्षण</w>
अभ्युचित/sT</w>
अभ्युच्च
अभ्युच्चता</w>
अभ्युच्चय</w>
अभ्युच्छ
अभ्युच्छू
अभ्युच्छूय</w>
अभ्युच्छ्र
अभ्युच्छ्रय</w>
अभ्युत
अभ्युतक्रो
अभ्युतक्रोशन
अभ्युतक्रोशनम
अभ्युतक्रोशनमंत्र</w>
अभ्युति</w>
अभ्युत्थ
अभ्युत्थान/M</w>
अभ्युत्थायी</w>
अभ्युत्थित</w>
अभ्युत्थेय</w>
अभ्युद
अभ्युदय/M</w>
अभ्युदाहरण</w>
अभ्युदित/F</w>
अभ्युद्
अभ्युद्गत</w>
अभ्युद्गमन</w>
अभ्युद्घ
अभ्युद्घात</w>
अभ्युद्घातक</w>
अभ्युद्घातित</w>
अभ्युद्दिष्ट</w>
अभ्युद्देश
अभ्युद्देश</w>
अभ्युद्देशक</w>
अभ्युद्ध
अभ्युद्धरंग</w>
अभ्युन्नत</w>
अभ्युन्नति</w>
अभ्युप
अभ्युपगत</w>
अभ्युपगम
अभ्युपगम-सिद्धांत</w>
अभ्युपगम/M</w>
अभ्युपगमन</w>
अभ्युपपत्ति</w>
अभ्युपा
अभ्युपाय</w>
अभ्युपायन</w>
अभ्युपित</w>
अभ्युपेत</w>
अभ्युपेय</w>
अभ्यूढ़</w>
अभ्र
अभ्र/M</w>
अभ्रं
अभ्रंक
अभ्रंकष/M</w>
अभ्रंलिह</w>
अभ्रंश</w>
अभ्रक-
अभ्रक-खान
अभ्रक-खान-
अभ्रक-खान-श्र
अभ्रक-खान-श्रम-
अभ्रक-खान-श्रम-कल
अभ्रक-खान-श्रम-कल्याण
अभ्रक-खान-श्रम-कल्याण-
अभ्रक-खान-श्रम-कल्याण-निधि/PQ</w>
अभ्रक/M</w>
अभ्रना
अभ्रनामक</w>
अभ्रपट
अभ्रपटल</w>
अभ्रपि
अभ्रपिशा
अभ्रपिशाच</w>
अभ्रपुष्प</w>
अभ्रभेदी</w>
अभ्रम</w>
अभ्रमण
अभ्रमणशील</w>
अभ्रमात
अभ्रमातंग</w>
अभ्रमित</w>
अभ्रमु</w>
अभ्ररोह</w>
अभ्रष्ट</w>
अभ्रांत</w>
अभ्राव
अभ्रावकाश
अभ्रावकाशी</w>
अभ्रित</w>
अभ्व
अभ्व्य
अभ्व्यक्ति</w>
अभ्ष
अभ्षक्ति</w>
अम
अमंग
अमंगल
अमंगल/qM</w>
अमंगल</w>
अमंगलकारक</w>
अमंगलिक</w>
अमंगल्य</w>
अमंड</w>
अमंत्र
अमंत्र</w>
अमंत्रणा</w>
अमक/F</w>
अमकट</w>
अमकर
अमकरिया</w>
अमका
अमका-ध
अमका-धम
अमका-धमका</w>
अमगं
अमगंल</w>
अमग्न</w>
अमघौत</w>
अमच
अमचुर</w>
अमचू
अमचूर/M</w>
अमज
अमजद</w>
अमजोद</w>
अमत
अमत/M
अमत/MU</w>
अमत्
अमत्त</w>
अमत्सर/M</w>
अमद
अमद</w>
अमदन</w>
अमदोन्मत्त</w>
अमद्य
अमद्य</w>
अमद्यप</w>
अमध
अमधुर</w>
अमन
अमन-च
अमन-चैन</w>
अमन/MF</w>
अमनच
अमनचै
अमनचैन/M</w>
अमनज
अमनजोत</w>
अमनप
अमनपंस
अमनपंसद/E</w>
अमनपस
अमनपसंद/E</w>
अमनस</w>
अमनाक</w>
अमनीषी</w>
अमनु
अमनुज/sT</w>
अमनुष
अमनुष्य
अमनुष्यत/F</w>
अमनुष्यत्व</w>
अमनृत</w>
अमनै
अमनैक
अमनैक/ME</w>
अमनो
अमनोगत</w>
अमनोज्ञ
अमनोज्ञ</w>
अमनोज्ञत</w>
अमनोन
अमनोनयन</w>
अमनोनीत</w>
अमनोर
अमनोरथ</w>
अमनोह
अमनोहर</w>
अमन्द
अमन्द</w>
अमन्दीप</w>
अमपारा</w>
अमम
अममत्व</w>
अमर
अमर-
अमर-ध
अमर-धाम</w>
अमर-ब
अमर-बेल</w>
अमर-बौंर</w>
अमर-राज</w>
अमर-लोक</w>
अमर-व
अमर-वल्ल
अमर-वल्लरी</w>
अमर-वल्ली</w>
अमरई</w>
अमरक
अमरकंट
अमरकंटक/M</w>
अमरकंटिका</w>
अमरकंद</w>
अमरकण्
अमरकण्टक</w>
अमरकण्टिका</w>
अमरका
अमरकानन</w>
अमरकाष्ठ</w>
अमरकुसुम</w>
अमरकोश/M</w>
अमरकोष</w>
अमरख
अमरख/E</w>
अमरज/M</w>
अमरजीत</w>
अमरत
अमरत/F</w>
अमरतट
अमरतटिनी</w>
अमरतर
अमरतरु</w>
अमरत्व/M</w>
अमरदत्त</w>
अमरदा
अमरदारु</w>
अमरदास</w>
अमरदीप</w>
अमरद्वि
अमरद्विज</w>
अमरधाम</w>
अमरनाथ</w>
अमरप
अमरपक्ष
अमरपक्ष/E</w>
अमरपख</w>
अमरपगा</w>
अमरपति</w>
अमरपद/M</w>
अमरपुर
अमरपुर/E</w>
अमरपुष्प
अमरपुष्प/E</w>
अमरपुष्पिका</w>
अमरप्र
अमरप्रख्य</w>
अमरप्रभ
अमरप्रभ</w>
अमरप्रभु</w>
अमरब
अमरबेल/LM</w>
अमरबौंर</w>
अमरमाला</w>
अमरर
अमररत्न</w>
अमरराज</w>
अमरलोक
अमरलोक/sTM</w>
अमरवत</w>
अमरवर</w>
अमरवल्लरी</w>
अमरवल्ली</w>
अमरवाणी</w>
अमरशाही</w>
अमरस/EM</w>
अमरसर
अमरसरित/F</w>
अमरसिंह</w>
अमरस्त्र
अमरस्त्री</w>
अमरा
अमरांग
अमरांगना</w>
अमराइ
अमराइयों</w>
अमराई/O</w>
अमराउ</w>
अमराग
अमरागं
अमरागंना</w>
अमराचार्य</w>
अमराद्रि</w>
अमराधिप</w>
अमराप
अमरापगा</w>
अमरारि</w>
अमराव</w>
अमरावती</w>
अमरि
अमरिंद
अमरिंदर</w>
अमरिका</w>
अमरित</w>
अमरीक
अमरीकन
अमरीकन/M</w>
अमरीकनीकरण</w>
अमरीकर</w>
अमरीका
अमरीका-विरोधी</w>
अमरीका-संबंधी</w>
अमरीका/IGC</w>
अमरीकावास/0E</w>
अमरीकियों</w>
अमरीकी
अमरीकी-इन्डियन</w>
अमरीकी-प
अमरीकी-पश्
अमरीकी-पश्चि
अमरीकी-पश्चिमी</w>
अमरीकी/O</w>
अमरीकी</w>
अमरीकीकरण</w>
अमरीकीकृत</w>
अमरीकीयों</w>
अमरीश
अमरीशपुरी</w>
अमरीशीयम</w>
अमरु
अमरु</w>
अमरुत</w>
अमरुश
अमरुशतक</w>
अमरू</w>
अमरूद
अमरूद/xy
अमरूद/xyM</w>
अमरेश/M</w>
अमरेश्वर/EM</w>
अमरैया</w>
अमरो
अमरोप
अमरोपम</w>
अमरोलिया</w>
अमरौ
अमरौली</w>
अमर्
अमर्त्य
अमर्त्याप
अमर्त्यापगा</w>
अमर्ध
अमर्धत</w>
अमर्य
अमर्याद
अमर्याद/FDsTM</w>
अमर्ष
अमर्षक</w>
अमर्षज</w>
अमर्षण</w>
अमल
अमल-प
अमल-पट्
अमल-पट्टी</w>
अमल/834sTvLMFED</w>
अमलको
अमलकोची</w>
अमलत
अमलत/FED</w>
अमलतास/ME</w>
अमलद
अमलदस्त
अमलदस्तू
अमलदस्तूर/M</w>
अमलदार/E</w>
अमलपट्ट
अमलपट्टा/G</w>
अमलब
अमलबे
अमलबेंत</w>
अमलबेत/M</w>
अमलमणि</w>
अमलाक</w>
अमलानक</w>
अमलारा</w>
अमलास
अमलासा
अमलासाजी</w>
अमलासाज़/E</w>
अमलियो</w>
अमलीकरण</w>
अमलीय
अमलीयात</w>
अमलु
अमलुकी</w>
अमलूक</w>
अमले
अमलेदार</w>
अमलो
अमलोनी</w>
अमस</w>
अमसू
अमसूल</w>
अमह
अमहत</w>
अमहत्त्व</w>
अमहत्व
अमहत्व</w>
अमहत्वपूर्ण</w>
अमहर/M</w>
अमहा</w>
अमहैरिक</w>
अमा
अमा/734sTv
अमा/734sTvIGC</w>
अमाँ</w>
अमां
अमांति
अमांतिला
अमांतिलाद
अमांतिलादो</w>
अमांस
अमांसल
अमांसलकाय</w>
अमाइ
अमाइताल</w>
अमाइयो</w>
अमाई
अमाईताल</w>
अमाघौत</w>
अमाजि
अमाजिर्
अमाजिर्त/sT</w>
अमात
अमात/8FED34sTv</w>
अमातियो</w>
अमातृ
अमातृक</w>
अमातृता</w>
अमात्य/M</w>
अमात्स
अमात्सर्य</w>
अमाद
अमादक</w>
अमान
अमान/FED</w>
अमानक</w>
अमानत
अमानत-
अमानत-नामा</w>
अमानत/ME</w>
अमानतखाना</w>
अमानतघर</w>
अमानतदार/M</w>
अमानतख़ाना</w>
अमाननीय</w>
अमानव
अमानवित</w>
अमानवीकरण</w>
अमानवो
अमानवोचित
अमानवोचितत/F</w>
अमानस्य</w>
अमानिया/JK</w>
अमानी
अमानीदार/E</w>
अमानु
अमानुल्ला</w>
अमानुल्लाह</w>
अमानुष
अमानुष/sTME</w>
अमानुषीकरण</w>
अमान्
अमान्डीन</w>
अमान्य/sTM</w>
अमाप
अमाप/F</w>
अमाप्यत/F</w>
अमामा</w>
अमायिक</w>
अमार/E</w>
अमारक</w>
अमारण</w>
अमार्
अमार्ग/M</w>
अमार्ज्य
अमार्ज्य/F</w>
अमार्मिक</w>
अमाल</w>
अमाव
अमाव/8ED34sTv</w>
अमावस
अमावस/LME</w>
अमावस्य
अमावस्या
अमावस्या-प्र
अमावस्या-प्रूर्
अमावस्या-प्रूर्ण
अमावस्या-प्रूर्णि
अमावस्या-प्रूर्णिमा</w>
अमावस्या/CI</w>
अमावास
अमावास्या</w>
अमावड़</w>
अमाश
अमाशय</w>
अमाह
अमाह/E</w>
अमा्
अमा्जित</w>
अमि
अमि/QsTM</w>
अमिक
अमिकर</w>
अमिट
अमिट/sTM</w>
अमिटत/F</w>
अमित
अमितविक्रम</w>
अमिता
अमिताचारी</w>
अमिताभ
अमिताभ/M</w>
अमिताभजी</w>
अमिताशन</w>
अमितौ
अमितौजा</w>
अमित्
अमित्र
अमित्रखा
अमित्रखाद</w>
अमित्रघ्न</w>
अमित्रतापूर्ण</w>
अमित्रवत</w>
अमित्रस
अमित्रसाह</w>
अमित्रा
अमित्राक्षर/M</w>
अमित्र्य</w>
अमित्ाती</w>
अमिथुन
अमिथुनक</w>
अमिथ्या</w>
अमिय
अमिय-म
अमिय-मूरि</w>
अमिय/FM</w>
अमियनिधि/PQ</w>
अमियम
अमियमूरि</w>
अमियर
अमियरस/M</w>
अमिया/JK</w>
अमिर
अमिरती</w>
अमिल
अमिल/E</w>
अमिलता
अमिलतास</w>
अमिलन</w>
अमिलपट्टी</w>
अमिलिय
अमिलियाप
अमिलियापाट</w>
अमिश्र
अमिश्र/sT</w>
अमिश्रणीय</w>
अमिश्रतता</w>
अमिश्रराशि</w>
अमिश्रेय</w>
अमिष/M</w>
अमिह
अमिहति</w>
अमी
अमीकला</w>
अमीकी</w>
अमीत</w>
अमीतल</w>
अमीन
अमीनदी
अमीनदीवी</w>
अमीनिधि/PQ</w>
अमीब
अमीबा
अमीबा/CI</w>
अमीबाणु</w>
अमीबीय</w>
अमीर
अमीर-
अमीर-ग़रीब</w>
अमीरउ
अमीरउमरा</w>
अमीरज
अमीरजादा/GC</w>
अमीरा
अमीरात/M</w>
अमीराना</w>
अमीरु
अमीरुल</w>
अमीरू
अमीरूल</w>
अमीरों
अमीरों-ग
अमीरों-गरी
अमीरों-गरीब
अमीरों-गरीबों</w>
अमीरज़ाद
अमीरज़ादा/GCI</w>
अमीव
अमीव/F</w>
अमु
अमुंडित</w>
अमुक-
अमुक-अम
अमुक-अमुक</w>
अमुक/sTM</w>
अमुकुल
अमुकुल</w>
अमुकुलित/sT</w>
अमुक्त/sT</w>
अमुख
अमुख</w>
अमुख्य</w>
अमुख्यत</w>
अमुग्ध</w>
अमुची</w>
अमुत्र
अमुत्र</w>
अमुत्रलोक</w>
अमुद्र
अमुद्रां
अमुद्रांक
अमुद्रांकित/M</w>
अमुर</w>
अमुष
अमुष्
अमुष्मिक</w>
अमुष्य
अमुष्य</w>
अमुष्यकुल</w>
अमुष्यपुत्र/ME</w>
अमुसलि
अमुसलिम</w>
अमू
अमूक/sT</w>
अमूत्त
अमूत्तर</w>
अमूत्तर्</w>
अमूमन</w>
अमूर</w>
अमूर्
अमूर्त
अमूर्तत्व</w>
अमूर्तदा
अमूर्तदाय</w>
अमूर्तमान</w>
अमूर्तवाद/EM</w>
अमूर्ति</w>
अमूर्तिमान</w>
अमूर्त्त</w>
अमूर्त्ति</w>
अमूल
अमूलक</w>
अमूलित</w>
अमूढ़</w>
अमृ
अमृण
अमृणाल</w>
अमृत
अमृत-
अमृत-ना
अमृत-नाद
अमृत-नाद</w>
अमृत-नादोपनिषद</w>
अमृत-नादोपनिषद्</w>
अमृत-बि
अमृत-बिंदु</w>
अमृत-बिन्दु</w>
अमृत-म
अमृत-मंथन</w>
अमृत-रश्मि</w>
अमृत/FM</w>
अमृतक/D</w>
अमृतकर
अमृतकर/M</w>
अमृतकल
अमृतकलश</w>
अमृतकामना</w>
अमृतकु
अमृतकुंड
अमृतकुंड</w>
अमृतकुंडली</w>
अमृतकुंभ</w>
अमृतकुण्ड
अमृतकुण्ड</w>
अमृतकुण्डली</w>
अमृतके/M</w>
अमृतक्षार</w>
अमृतगति</w>
अमृतगर्भ</w>
अमृतज
अमृतजटा</w>
अमृतत
अमृततप</w>
अमृतत्व/M</w>
अमृतदान</w>
अमृतदी
अमृतदीधि
अमृतदीधिति</w>
अमृतद्य
अमृतद्यति</w>
अमृतद्युति</w>
अमृतद्र
अमृतद्रव</w>
अमृतधार
अमृतधारा/CI</w>
अमृतधु
अमृतधुनि</w>
अमृतध्व
अमृतध्वनि</w>
अमृतपुत्र/EM</w>
अमृतफल
अमृतफल/MF</w>
अमृतब
अमृतबंधु</w>
अमृतबन्धु</w>
अमृतबान/M</w>
अमृतबिंदु</w>
अमृतबिन्दु</w>
अमृतबू
अमृतबूटी</w>
अमृतभुक</w>
अमृतभुज</w>
अमृतभोजी</w>
अमृतम
अमृतमंथन/M</w>
अमृतमति</w>
अमृतमय
अमृतमय/E</w>
अमृतमहल</w>
अमृतमाल
अमृतमालिनी</w>
अमृतमूरि</w>
अमृतमूर्ति</w>
अमृतयोग/M</w>
अमृतरश्मि</w>
अमृतरस
अमृतरस/MF</w>
अमृतल
अमृतलता</w>
अमृतलतिका</w>
अमृतलोक/M</w>
अमृतवपु</w>
अमृतवल्लरी</w>
अमृतवा
अमृतवाका</w>
अमृतस
अमृतसंभवा</w>
अमृतसम्
अमृतसम्भवा</w>
अमृतसर
अमृतसर</w>
अमृतसरिया</w>
अमृतसह
अमृतसहोदर</w>
अमृतसार/M</w>
अमृतसू</w>
अमृतस्थान</w>
अमृतस्र
अमृतस्रोत</w>
अमृतांध
अमृतांध/F</w>
अमृतांश
अमृतांशू
अमृतांशूद्
अमृतांशूद्भव</w>
अमृताक्ष
अमृताक्षर</w>
अमृतान
अमृतानंद
अमृतानंदमय
अमृतानंदमयी</w>
अमृताप
अमृतापुरी</w>
अमृताश
अमृताश/E</w>
अमृताशं</w>
अमृतास</w>
अमृतासु</w>
अमृताहरण</w>
अमृतीश
अमृतीशु</w>
अमृतेश
अमृतेशय</w>
अमृतेश्व
अमृतेश्वर/E</w>
अमृतेष्ट
अमृतेष्टका</w>
अमृतोस</w>
अमृत्य
अमृत्यरत</w>
अमृष्य</w>
अमे
अमेंड
अमेंडमेंट/M</w>
अमेंश
अमेंशिया</w>
अमेंड़</w>
अमेघ</w>
अमेजन/FD</w>
अमेट
अमेट</w>
अमेट्य/sT</w>
अमेठ
अमेठ/8ED34sTv</w>
अमेठियो</w>
अमेत
अमेते</w>
अमेद
अमेदस्क
अमेदस्क/sT</w>
अमेदस्किनी</w>
अमेधा</w>
अमेध्य
अमेध्यत्व</w>
अमेध्ययुक्त</w>
अमेयात्मा</w>
अमेर
अमेरि
अमेरिंड</w>
अमेरिक
अमेरिकन</w>
अमेरिका
अमेरिका-
अमेरिका-वासी/O</w>
अमेरिका-विरोधी</w>
अमेरिका/G</w>
अमेरिकावास/0E</w>
अमेरिकाज़</w>
अमेरिकी-इन्डियन</w>
अमेरिश
अमेरिशियम</w>
अमेरी-
अमेरी-इ
अमेरी-इंड
अमेरी-इंडियन</w>
अमेरीक
अमेरीका/G</w>
अमेल
अमेल/E</w>
अमेह/M</w>
अमेज़न</w>
अमै
अमैंड
अमैंडमैंट</w>
अमैंड़</w>
अमैथुन
अमैथुनजनन</w>
अमैरी
अमैरीका</w>
अमैल्
अमैल्गम
अमैल्गमेशन</w>
अमो
अमोक</w>
अमोक्ष/M</w>
अमोघ
अमोघदंड</w>
अमोघदर्शी</w>
अमोघदृष्टि</w>
अमोघपतन</w>
अमोघविक्रम</w>
अमोघा/B</w>
अमोट</w>
अमोद</w>
अमोन
अमोनि
अमोनिअम
अमोनिअम</w>
अमोनियम</w>
अमोनिया
अमोनिया/JK</w>
अमोनियाक</w>
अमोल
अमोल/FD</w>
अमोलक</w>
अमोल्य</w>
अमोह/E</w>
अमौ
अमौआ</w>
अमौन</w>
अमौवा</w>
अम्
अम्पाय
अम्पायर/M</w>
अम्पायरिंग</w>
अम्पारा</w>
अम्ब
अम्ब/FE</w>
अम्बक</w>
अम्बर
अम्बरा
अम्बराई</w>
अम्बराव</w>
अम्बरिका</w>
अम्बरी
अम्बरीष</w>
अम्बा
अम्बानी</w>
अम्बाबाई</w>
अम्बार/E</w>
अम्बाला</w>
अम्बालिका</w>
अम्बासा</w>
अम्बाह
अम्बाहलदी</w>
अम्बाहल्दी</w>
अम्बाड़ी</w>
अम्बिक
अम्बिका/JK</w>
अम्बिकाप
अम्बिकापुर</w>
अम्बिकेय</w>
अम्बिया</w>
अम्बु
अम्बु/M</w>
अम्बुक
अम्बुकण्टक</w>
अम्बुकिरात</w>
अम्बुकेशी</w>
अम्बुचामर</w>
अम्बुज
अम्बुज/F</w>
अम्बुजास
अम्बुजासना</w>
अम्बुद</w>
अम्बुधर</w>
अम्बुधि</w>
अम्बे
अम्बेडकर</w>
अम्बेडकरनगर</w>
अम्बेर</w>
अम्भो
अम्भोधर</w>
अम्म
अम्मय</w>
अम्मरस</w>
अम्मा
अम्मा/GCI
अम्मा/GCIKS
अम्मा/GCIKSA</w>
अम्माँ
अम्माँजी</w>
अम्माँें</w>
अम्मां</w>
अम्मांजी</w>
अम्माजी</w>
अम्मान</w>
अम्माम</w>
अम्मौ
अम्मौं</w>
अम्र
अम्रत्या</w>
अम्रातक</w>
अम्ल
अम्ल-
अम्ल-क
अम्ल-केशर</w>
अम्ल-प
अम्ल-परीक्षण</w>
अम्ल-प्र
अम्ल-प्रक्षालन</w>
अम्ल-वर्षा</w>
अम्ल-स्थायी</w>
अम्ल/sTM</w>
अम्लक
अम्लकारी</w>
अम्लकेशर</w>
अम्लक्षार</w>
अम्लजन</w>
अम्लन</w>
अम्लनाशक</w>
अम्लनि
अम्लनिशा/CI</w>
अम्लपंच
अम्लपंचक/M</w>
अम्लपत्र/M</w>
अम्लपाद
अम्लपादप</w>
अम्लपि
अम्लपित्त/M</w>
अम्लमे
अम्लमेह/M</w>
अम्लरक्त
अम्लरक्तता
अम्लरक्तता-प्रति
अम्लरक्तता-प्रतिरोधी</w>
अम्लरक्तता</w>
अम्लरस</w>
अम्लरोधी</w>
अम्लवारक</w>
अम्लवे
अम्लवेत</w>
अम्लवेतस</w>
अम्लव्य</w>
अम्लशाक</w>
अम्लस
अम्लसह</w>
अम्लसार/M</w>
अम्लहर</w>
अम्लाध
अम्लाधिक्य</w>
अम्लाध्य
अम्लाध्युषित</w>
अम्लिका</w>
अम्लित</w>
अम्लिमा/JK</w>
अम्ली
अम्लीकरण</w>
अम्लीभवन</w>
अम्लीय/sT</w>
अम्लोत्
अम्लोत्पाद</w>
अम्लोद
अम्लोदगार</w>
अम्लोप
अम्लोपचय</w>
अम्ह
अम्हार
अम्हारिक</w>
अम्हैरिक</w>
अम्हौरी</w>
अमज़
अमज़द</w>
अय
अय/MD</w>
अयं
अयं</w>
अयंत्र</w>
अयंन
अयंनजीत</w>
अयः
अयःपान</w>
अयःश
अयःशंकु</w>
अयःशिरा</w>
अयःशूल</w>
अयक्ष्म</w>
अयजनीय</w>
अयज्ञ
अयज्ञिप</w>
अयज्ञिय</w>
अयत
अयत/E</w>
अयतार्थ
अयतार्थता</w>
अयतेंद्र
अयतेंद्रिय</w>
अयतेन्द्र
अयतेन्द्रिय</w>
अयत्
अयत्न
अयत्न</w>
अयत्नकारी</w>
अयत्नकृतत</w>
अयत्नत</w>
अयथ
अयथा
अयथा</w>
अयथात
अयथातथ्य</w>
अयथापूर्
अयथापूर्वत</w>
अयथास्थित</w>
अयथो
अयथोच
अयथोचित</w>
अयथोचितत</w>
अयन
अयन-काल/M</w>
अयन-सं
अयन-संक्रम</w>
अयन-संक्रान्ति</w>
अयन/ME</w>
अयनकाल/M</w>
अयनभाग</w>
अयनमास</w>
अयनस
अयनसं
अयनसंक्रम</w>
अयनसंक्रां
अयनसंक्रांति</w>
अयनसंक्रान्ति</w>
अयनसंपात</w>
अयनसन्
अयनसन्पात</w>
अयना
अयनांत/M</w>
अयनांश/M</w>
अयनान्त</w>
अयप्
अयप्पा</w>
अयय
अययज्ञ</w>
अयव</w>
अयश
अयशत्य</w>
अयश्च
अयश्चूर्ण</w>
अयस
अयस/M</w>
अयसम</w>
अयसस्
अयसस्कांत
अयसस्कांतमणि</w>
अयसा
अयसाकर्षण</w>
अयसायक</w>
अयसीय</w>
अयस्
अयस्</w>
अयस्क
अयस्क/M</w>
अयस्कम</w>
अयस्कांड</w>
अयस्कांत
अयस्कांत/sT</w>
अयस्कांतीय</w>
अयस्कान्त</w>
अयस्काम</w>
अयस्कार</w>
अयस्कीयम</w>
अया
अयाचक</w>
अयाचित/M</w>
अयाज्य
अयाज्यत्व</w>
अयाज्यया
अयाज्ययाजक</w>
अयात
अयातपूर्व</w>
अयातित</w>
अयातुल्ला</w>
अयात्र
अयात्रा</w>
अयात्रित</w>
अयाथ
अयाथार्थ
अयाथार्थिक</w>
अयादि</w>
अयान
अयान/FEsT</w>
अयानगी</w>
अयानचारण</w>
अयानत/F</w>
अयानप</w>
अयानपन</w>
अयानापन</w>
अयापनीय</w>
अयाल
अयाल/EM</w>
अयालदार</w>
अयाशी</w>
अयास</w>
अयाह
अयाहव</w>
अयि</w>
अयु
अयुक्
अयुक्छद</w>
अयुक्त
अयुक्तकर्
अयुक्तकर्मी</w>
अयुक्तत्व</w>
अयुक्ति
अयुक्तिपूर्ण/M</w>
अयुग
अयुग</w>
अयुगक्ष</w>
अयुगप
अयुगपद्
अयुगपद्भाव</w>
अयुगल</w>
अयुगि
अयुगिषु</w>
अयुग्
अयुग्बाण</w>
अयुग्म
अयुग्मकता</w>
अयुग्मनयन</w>
अयुग्मनेत्र</w>
अयुग्मबाण</w>
अयुग्मवाह</w>
अयुग्मशर</w>
अयुग्शक्ति/PQ</w>
अयुत</w>
अयुद्ध
अयुद्ध</w>
अयुद्धक</w>
अयुध</w>
अयुध्य</w>
अयुम्
अयुम्म
अयुम्मशर</w>
अयुष</w>
अयू
अयूब/F</w>
अयो
अयो-</w>
अयोग
अयोगगुड़</w>
अयोगव</w>
अयोग्य
अयोग्य/sT</w>
अयोग्यकरण</w>
अयोघन</w>
अयोचन</w>
अयोच्छ
अयोच्छिष्ट</w>
अयोज
अयोजन/F</w>
अयोजना
अयोजनाबद्ध</w>
अयोजित/sTM</w>
अयोज्य</w>
अयोद्धा</w>
अयोध/E</w>
अयोध्य
अयोध्य/sTMFD</w>
अयोध्या
अयोध्याकांड</w>
अयोध्याकाण्ड</w>
अयोध्याप
अयोध्यापति</w>
अयोध्यावास/E0</w>
अयोनि
अयोनिज/F</w>
अयोनिजत्व</w>
अयोनिसंभवा</w>
अयोभुज</w>
अयोमणि</w>
अयोमुख</w>
अय्य
अय्यर</w>
अय्यव
अय्यवझी</w>
अय्या
अय्यार/ME</w>
अय्याश/E</w>
अय्य्
अय्य्वा
अय्य्वाझी</w>
अर
अर</w>
अरं
अरंकृति</w>
अरंग
अरंग/E</w>
अरंगने
अरंगनेत्र
अरंगनेत्रिणी</w>
अरंगम</w>
अरंगर</w>
अरंगे
अरंगेत्र
अरंगेत्रम</w>
अरंज
अरंजित</w>
अरंज्य
अरंज्य/F</w>
अरंध्र</w>
अरंभ
अरंभना</w>
अरइ
अरइल/M</w>
अरक
अरक/8sTvLMED</w>
अरकंटक</w>
अरकगीर</w>
अरकटी</w>
अरकन
अरकनाना</w>
अरकला</w>
अरकवाद
अरकवादियान</w>
अरका
अरकाट/E</w>
अरकासार</w>
अरकियो</w>
अरको
अरकोच</w>
अरकोछ
अरकोछ</w>
अरकोल</w>
अरक्त
अरक्त/sT</w>
अरक्तताजन्य</w>
अरक्ष
अरक्षक</w>
अरक्षणी</w>
अरक्षा</w>
अरक्षितत/F</w>
अरग
अरग/F</w>
अरगंजा</w>
अरगंट</w>
अरगंड
अरगंडी</w>
अरगज
अरगजा/GCI</w>
अरगट</w>
अरगण्
अरगण्ट</w>
अरगत</w>
अरगन/E</w>
अरगल</w>
अरगलीय</w>
अरगवानी</w>
अरगाइयो</w>
अरगान
अरगान/FD</w>
अरगानवादक</w>
अरगु
अरगुल</w>
अरगो
अरगोट</w>
अरग्र
अरग्रगामी</w>
अरगज़
अरगज़ा/G</w>
अरघ
अरघ/MFD</w>
अरघट्ट</w>
अरघट्टक</w>
अरचित/sT</w>
अरज
अरज/FE</w>
अरजल</w>
अरजस्क</w>
अरजेंट</w>
अरझ
अरझियो</w>
अरट</w>
अरड
अरडी
अरडींग</w>
अरण
अरण/E</w>
अरणिक/F</w>
अरणी
अरणीसुत</w>
अरण्ड
अरण्ड/E</w>
अरण्य
अरण्य-
अरण्य-षष्ठी</w>
अरण्य/sTMFD</w>
अरण्यकांड</w>
अरण्यकाण्ड</w>
अरण्यग
अरण्यगत</w>
अरण्यगान/M</w>
अरण्यचंद्र
अरण्यचंद्रिका/JK</w>
अरण्यचन्द्र
अरण्यचन्द्रिका</w>
अरण्यद
अरण्यदमन/M</w>
अरण्यनि
अरण्यनिनाद/M</w>
अरण्यप
अरण्यपंड
अरण्यपंडित/M</w>
अरण्यपति</w>
अरण्यप्र
अरण्यप्रदेश/M</w>
अरण्यभव</w>
अरण्यम
अरण्यमक्ष
अरण्यमक्षिका</w>
अरण्यमार्ज
अरण्यमार्जार</w>
अरण्यमु
अरण्यमुद्‌
अरण्यमुद्‌ग</w>
अरण्ययान/M</w>
अरण्यराज/M</w>
अरण्यरुदन</w>
अरण्यरो
अरण्यरोदन/M</w>
अरण्यवास
अरण्यवास/EM</w>
अरण्यश्व
अरण्यश्वा</w>
अरण्यश्वान/M</w>
अरण्यषष्ठी</w>
अरण्या
अरण्यानि</w>
अरण्यानी</w>
अरण्यायन</w>
अरति
अरतिज</w>
अरतिपूर्ण</w>
अरतिस</w>
अरती
अरतीस</w>
अरत्
अरत्न
अरत्नि
अरत्नि</w>
अरत्निक/F</w>
अरत्निज्य
अरत्निज्या</w>
अरथ
अरथ/FE</w>
अरथचरण</w>
अरथा/7G34sTv</w>
अरथाइयो</w>
अरथी
अरथी/NO</w>
अरथीवाहक</w>
अरद
अरदंड</w>
अरदण्ड</w>
अरदन/FD</w>
अरदब</w>
अरदल/E</w>
अरदा
अरदाबा</w>
अरदावा/IC</w>
अरदास/LM</w>
अरदियो</w>
अरध
अरध</w>
अरधंग
अरधंग/E</w>
अरन/MFED</w>
अरनि</w>
अरन्य</w>
अरप
अरप/834sTv
अरप/834sTvFED</w>
अरपन/FD</w>
अरपनग
अरपनगंडा</w>
अरपित</w>
अरपियो</w>
अरब
अरब-इ
अरब-इज़
अरब-इज़राइ
अरब-इज़राइल</w>
अरब/x
अरब/xM
अरब/xME
अरब/xMEy</w>
अरबप
अरबपतियों</w>
अरबर
अरबर/FE</w>
अरबरा/7G34sTv</w>
अरबल
अरबली
अरबलीग</w>
अरबवाँ</w>
अरबवास/0E</w>
अरबांश</w>
अरबि
अरबिंद
अरबिंदो</w>
अरबी-
अरबी-फ
अरबी-फार
अरबी-फारसी</w>
अरबी-भार
अरबी-भारतीय</w>
अरबी-भाषा/K</w>
अरबेतर</w>
अरभ
अरभक</w>
अरम
अरम</w>
अरमण
अरमण/sT</w>
अरमणीय</w>
अरमनी</w>
अरममाण</w>
अरमाइ
अरमाइक</w>
अरमान/M</w>
अरमे
अरमेनिय
अरमेनियन</w>
अरमेनिया
अरमेनिया-वासी/O</w>
अरमेनिया</w>
अरमेनियाइयों</w>
अरमेनियाई-
अरमेनियाई-भाषा/K</w>
अरमेनियाई-लिपि</w>
अरमेनियाई</w>
अरमेनियावास/0E</w>
अरम्भ
अरम्भ/834sTvED</w>
अरम्भियो</w>
अरम्य/sT</w>
अरय
अरयारी</w>
अरर
अरर/8sTvFED</w>
अरररा</w>
अररा
अररा/7AGCB34sTv</w>
अरराइयो</w>
अरराया</w>
अरराहट</w>
अररि</w>
अररिया/B</w>
अररु</w>
अरल
अरलाक</w>
अरलि</w>
अरलुक</w>
अरलू</w>
अरलो
अरलोन</w>
अरलौन</w>
अरवन</w>
अरवल</w>
अरवा/
अरवा/G</w>
अरवि
अरविँ
अरविँद</w>
अरविंद
अरविंद/M</w>
अरविंददलप्रभ</w>
अरविंदन
अरविंदनयन/FE</w>
अरविंदनाभ</w>
अरविंदनाभि</w>
अरविंदपाणि</w>
अरविंदबंधु</w>
अरविंदयोनि</w>
अरविंदसद</w>
अरविंदाक्ष
अरविंदाक्ष/M</w>
अरविंदिनी</w>
अरविंदो</w>
अरविन्द
अरविन्ददलप्रभ</w>
अरविन्दबन्धु</w>
अरविन्दयोनि</w>
अरविन्दसद</w>
अरविन्दिनी</w>
अरश
अरशद</w>
अरस
अरस-परस</w>
अरस/834sTvLMFED</w>
अरसट्टा</w>
अरसठ
अरसठ</w>
अरसठवाँ</w>
अरसत/FED</w>
अरसथ</w>
अरसन
अरसन-पर
अरसन-परसन</w>
अरसनपर
अरसनपरसन</w>
अरसना
अरसना-प
अरसना-परस
अरसना-परसना</w>
अरसपर
अरसपरस</w>
अरसयान</w>
अरसा/7AIGCB34sTv</w>
अरसाइयो</w>
अरसात
अरसात/FED</w>
अरसियो</w>
अरसी
अरसील
अरसीला/B</w>
अरसौंह
अरसौंहाँ</w>
अरसौंहां</w>
अरसौहां</w>
अरस्त
अरस्तु</w>
अरस्तू</w>
अरह
अरहट</w>
अरहट्
अरहट्ठ</w>
अरहत</w>
अरहन/M</w>
अरहर/M</w>
अरहस्य</w>
अरहित</w>
अरहे
अरहेड़</w>
अरहड़</w>
अरा
अरा/734sTvAIGCB</w>
अरांग
अरांगूट
अरांगूटान</w>
अराअर
अराअरी</w>
अराइयो</w>
अराक</w>
अराग
अराग/E</w>
अरागज</w>
अराज
अराज</w>
अराजकता
अराजकताजन्य</w>
अराजकतापूर्ण</w>
अराजकतावाद/EM</w>
अराजकीय</w>
अराति/QM</w>
अराफ
अराफा
अराफाओ</w>
अराबा</w>
अराम</w>
अरार
अरार/F</w>
अरारुट</w>
अरारूट</w>
अरारोट/M</w>
अराल
अराल-क
अराल-कील</w>
अराल/FM</w>
अरावक</w>
अराष्ट्र
अराष्ट्रिक</w>
अराक़
अराक़/E</w>
अराड़/M</w>
अराफ़ात</w>
अरि
अरि-
अरि-मेद</w>
अरि/QsTM</w>
अरिंज</w>
अरिंद
अरिंद</w>
अरिंदम</w>
अरिआक
अरिआकंध</w>
अरिआकन्ध</w>
अरिक
अरिकर्षक</w>
अरिक्
अरिक्थ
अरिक्थभाग</w>
अरिघ्न</w>
अरिजित</w>
अरित्न</w>
अरित्र
अरित्र</w>
अरित्रीय</w>
अरित्व</w>
अरिथ
अरिथमे
अरिथमेट
अरिथमेटिक/M</w>
अरिथमै
अरिथमैटिक</w>
अरिद
अरिदमन</w>
अरिन
अरिनि
अरिनिपात</w>
अरिनुत</w>
अरिन्द
अरिन्द</w>
अरिन्दम</w>
अरिपु</w>
अरिप्र
अरिप्रकृति</w>
अरिबेल
अरिबेलस/M</w>
अरिभाव</w>
अरिमर्द</w>
अरिमर्दन</w>
अरिमेद</w>
अरिय
अरियल</w>
अरिया/7B34sTv</w>
अरियाइयो</w>
अरियाल
अरियालुर</w>
अरिराज/M</w>
अरिलोक</w>
अरिल्ल
अरिल्ल/M</w>
अरिवन</w>
अरिष</w>
अरिष्ट
अरिष्ट/MF</w>
अरिष्टक/M</w>
अरिष्टनेमि</w>
अरिष्टमथन</w>
अरिष्टलक्षण/M</w>
अरिष्टसूदन</w>
अरिष्टिका</w>
अरिसूदन</w>
अरिस्ट
अरिस्टोट
अरिस्टोटल</w>
अरिह
अरिहा/CI</w>
अरिहीन</w>
अरीकरण</w>
अरीत
अरीति</w>
अरीतिक</w>
अरीढ़</w>
अरु
अरुं
अरुंतु
अरुंतुद/M</w>
अरुंध
अरुंधती
अरुंधती</w>
अरुंधतीनाथ</w>
अरुंषिका</w>
अरुकन</w>
अरुक्ष</w>
अरुगण</w>
अरुच
अरुचि
अरुचि-
अरुचि-रुचि</w>
अरुचि</w>
अरुचिकता</w>
अरुचिर</w>
अरुज/M</w>
अरुझ
अरुझ/F</w>
अरुढ</w>
अरुण
अरुण-
अरुण-ज्योति</w>
अरुण/FEsTM</w>
अरुणकर</w>
अरुणचू
अरुणचूड</w>
अरुणचूड़</w>
अरुणज्योति</w>
अरुणनाग</w>
अरुणनेत्र</w>
अरुणम
अरुणम</w>
अरुणमल्ल
अरुणमल्लार</w>
अरुणलोचन</w>
अरुणशिखा</w>
अरुणसार</w>
अरुणसारथी</w>
अरुणा
अरुणांचल</w>
अरुणाई/O</w>
अरुणाग्र
अरुणाग्रज/M</w>
अरुणाच
अरुणाचल
अरुणाचल-वासी/O</w>
अरुणाचल/E</w>
अरुणाचलवास/E0</w>
अरुणाचलीय</w>
अरुणाचलेश्वर/ME</w>
अरुणाचाल</w>
अरुणात्म
अरुणात्मज
अरुणात्मज/MFD</w>
अरुणाभ</w>
अरुणाश्व
अरुणाश्व/M</w>
अरुणिम/F</w>
अरुणिमा/JK</w>
अरुणीयम</w>
अरुणेश</w>
अरुणोद
अरुणोदक/M</w>
अरुणोदधि</w>
अरुणोदय
अरुणोदय/M</w>
अरुणोदयस
अरुणोदयसप्त
अरुणोदयसप्तमी</w>
अरुणोपल</w>
अरुधि
अरुधिर</w>
अरुन
अरुन/FsT</w>
अरुनई</w>
अरुनचू
अरुनचूड़</w>
अरुनशिखा</w>
अरुना/734sTv</w>
अरुनाइयो</w>
अरुनायी</w>
अरुनार
अरुनार/F</w>
अरुनि
अरुनिमा</w>
अरुन्
अरुन्तु
अरुन्तुद</w>
अरुन्ध
अरुन्धति</w>
अरुन्धती</w>
अरुन्षिका</w>
अरुप/sT</w>
अरुपा
अरुपांयित</w>
अरुबा</w>
अरुवा/CI</w>
अरुष/EM</w>
अरुष्
अरुष्क</w>
अरुष्करत</w>
अरुस</w>
अरू
अरूंतु
अरूंतुद</w>
अरूंध
अरूंधती</w>
अरूकन</w>
अरूक्ष</w>
अरूग्
अरूग्ण</w>
अरूच
अरूचि
अरूचि-स
अरूचि-सुरू
अरूचि-सुरूचि</w>
अरूचि/QM</w>
अरूचिक
अरूचिकर/sT</w>
अरूच्च</w>
अरूण
अरूण/FsT</w>
अरूणचु
अरूणचुड</w>
अरूणनेत्र</w>
अरूणसारथी</w>
अरूणा
अरूणाचल</w>
अरूणात्म
अरूणात्मज/F</w>
अरूणाश्व</w>
अरूणि</w>
अरूणिम/F</w>
अरूप
अरूप/FsTM</w>
अरूपत/F</w>
अरूपलोक</w>
अरूपा
अरूपांयित</w>
अरूपाकार
अरूपाकार/sT</w>
अरूपाव
अरूपावचर</w>
अरूबा</w>
अरूर/8EDsTv</w>
अरूरियो</w>
अरूरु</w>
अरूष/EM</w>
अरूष्
अरूष्कर</w>
अरूस</w>
अरूढ़</w>
अरे
अरे-प
अरे-परे</w>
अरें
अरेंज
अरेंजमैंट</w>
अरेंजर</w>
अरेंज्
अरेंज्ड</w>
अरेब
अरेबिक</w>
अरेर
अरेर/8EDsTv</w>
अरेस्ट
अरेस्ट/M</w>
अरेस्टिड</w>
अरै
[...]
