अ न
र ्
् र
M </w>
अ ं
् य
त </w>
ा </w>
/ M</w>
न </w>
अ व
अ प
s T
ि क
ी </w>
ा र
त ्
अ भ
क ्
अ ध
स ्
/ sT
क </w>
अं त
त ि
/ F
य </w>
अभ ि
अ ल
ा न
अ र्
व ा
ि त</w>
E </w>
अ म
/sT </w>
क् ष
अ स
अन ु
ण </w>
अ ग
ि य
त् म
/F </w>
ा /
ि त
अ र
ष ्
अन ्
न ्
र </w>
ी य</w>
द ्
त ्र
क ा
ल </w>
आ त्म
र ा
न ि
्य </w>
अ श
/ E</w>
ति </w>
ा प
ष् ट
म </w>
अं ग
अल ्
अ स्
अध ि
व ि
िक </w>
अन ा
ि </w>
ं ग
आ द
त ा</w>
्य ा
ं द
अंत र्
ू र्
ज ्
प ्र
/ M
व </w>
त /F</w>
अर् ध
द् ध
क ार
अ ह
स </w>
द </w>
अ क
अन् त
ज् ञ
म ा
न ा
् व
ं त
ु </w>
य ो
प ा
अ क्ष
आ न
अ ज
अ ँ
अप ्र
ट </w>
न /M</w>
ा व
अ त
ग ्र
अव ि
े श
क ्र
च ्
अग ्
अ द
D </w>
क र
ा य
/sT M</w>
ार </w>
अल् प
अ ब
अग ्र
च् छ
प ूर्
अन ि
अध िक
ा/ G
ृ त
ी य
ा ह
ं ड
sT v
/ E
िय ो
र ो
/M E</w>
स ं
स् थ
ा ं
ु र
ा न</w>
अंत र
ी न
आ ँ
् ल
अग् नि
प </w>
ज </w>
K </w>
ा त
अं ब
वा द
ा म
आ ध
का श
अ च
ा स
अ ट
अ य
ा ल
न ा</w>
ा/G </w>
अ ति
ण /M</w>
म ्
क /M</w>
4 sTv
ज न
अं ध
ी न</w>
ु क्
अं क
अस ं
व े
/E M</w>
ं </w>
C </w>
ध </w>
ा र्
आ ग
अश ्व
व र्
क ृ
म ान
त्र </w>
स् त
िक ा</w>
3 4sTv
ा/ J
र ि
भ ू
आ त
ु ल
श </w>
अध ो
श ी
ह </w>
ग </w>
वा स
त् त
अ ष्ट
अर् थ
E D</w>
अन्त र्
आ इ
ई </w>
अंत ः
द ्र
ा/J K</w>
भ ा
/M F
आ ं
ष </w>
अम र
व ृ
व ्य
िय ा</w>
क र्
अस् थ
ल ा
ल ो
अन ्य
श ्
आ काश
अम ृत
अध ्य
र् श
अभ ्य
अन न
न ीय</w>
त् व</w>
ण ्
ियो </w>
ब ा
म ु
ि न
पूर् ण</w>
च ार
क ु
अं श
ान ु
ं ध
िक ्
े र
ड </w>
कर ण</w>
अं ड
न् द
ष् ठ
अधिक ार
ि प
/ 8
अर् द्ध
अर ु
क ल
द ेश
ल े
अन् न
ह ीन
अन व
आ ज
ा इ
ंग </w>
ा/ I
स र
अ फ
श ्र
- प
थ </w>
प न</w>
अ ख
34sTv </w>
अ फ़
्र </w>
अन भ
त ा
म े
् त</w>
यो </w>
ग ु
आन ंद
ं ब
कृ त</w>
ँ </w>
आद ि
िय ा
र ू
ा द
अ ड़
L M</w>
अप रा
ं ज
ग्र ह
स ू
अंब ु
ी /
र ी
्य /sT</w>
C I
ित ा</w>
र् य
े त
ुक् त</w>
ल ा</w>
M F
न् त
अव ध
ित /sT</w>
अभि न
् म
अस्थ ि
व क</w>
अह ि
क ो
अ ठ
र ण
अ का
E D
त् त</w>
त्र /M</w>
आ ई
द ा
क /sT</w>
र ी</w>
ज ी
भ ाव
र ण</w>
O </w>
ा ध
अन ंत
अक्ष र
ष्ट </w>
र ु
शी ल</w>
िक् ष
अंत रा
े द
ब </w>
ान ा</w>
म ो
अनु प
त् व
िक ्र
ं ट
े क्ष
कार ी</w>
कार </w>
अ ज़
ण ी</w>
आ ख
ब ु
ब ंध
अँ ग
द्ध </w>
आन ु
- वि
रो ध
प ु
CI </w>
भ ो
ह ित</w>
ी त</w>
ं क
/F E</w>
ट ्
ब े
ो प
स ु
ण् ड
अ घ
ज ा
ः </w>
च ि
द र्श
अब ्
स् त</w>
ाप ूर्
ा/ 7
अम ्
अन े
ी त
क र</w>
नि </w>
ट ी</w>
/ LM</w>
अश ्र
ा/I C</w>
त्म क</w>
ं च
ान /M</w>
ू ल
े य</w>
आ क
ंड </w>
व न</w>
ं स
आ ज्ञ
ू </w>
अनभ ि
र /M</w>
् त
त ्य
ग ्
अव ्य
म न
भ </w>
क्र म
क्ष े
क् त
हीन /sT</w>
अप रि
र् य</w>
अ ड
अव स
ध ि
sT M</w>
यो ग
य न</w>
व ी
वा ह
ी -
र् थ
अम ्ल
अस् त
त ी</w>
ण ीय</w>
अं ज
ो ल
- स
ीय /sT</w>
त ः</w>
ल ्
ित त</w>
ो ष
िन ी</w>
आ च
म ि
अत ्य
अग् न
ो र
ाप न</w>
य ा
अन् ध
अन प
ियो ं</w>
द ्य
अर ि
अव श
आ ट
- ब
य ा</w>
त् ति</w>
स ि
ग म
ल ि
मु ख
अस् त्र
कर् ष
अ क्
द ि
अभ ्या
/sT MF
वा द</w>
अप र
ि र
ज न</w>
न् ध
अव ल
्य /M</w>
स ार
आध ार
स ो
अप ह
अभ्य ु
ह ीन</w>
अर् ज
अपरा ध
ो ध
अस म
अ च्छ
sT </w>
ं ट</w>
ंद ्र
द्ध ि</w>
ब ्
ल ी</w>
य ुक्त</w>
य /M</w>
अ द्
अ थ
अरु ण
र े
अ ज्ञ
व ्य</w>
अनन ु
ज ित</w>
ले ख
न् न
च न</w>
त् स
व ेश
ाम ी</w>
का ल
ाइ यो</w>
ी र्
अध ्या
आ क्
त न</w>
ल ्ल
स ी
अन न्त
न् न</w>
ा/ CI</w>
म /M</w>
अर् क
/MF </w>
म ा</w>
न /F</w>
अद ्र
अभि व्य
श ्व
ु न
ग त</w>
व ार
त /sT</w>
ी करण</w>
ाय ी</w>
मा न</w>
ा त</w>
आ ंत
अ ण
िक ार
च ित
ान ी</w>
नि र्
अर ू
न ी</w>
द् घ
अभि म
ी क
अव न
भ व
B </w>
ध ार
/ P
/P Q
ृ त</w>
अर ण
अं द
- श
अ क़
म् ब
अनि र्
ब ि
क् ति
/PQ </w>
आ घ
े न्
अभ िक
ष्ट ि</w>
े </w>
ं श
ा ंत
द न</w>
ड़ </w>
ज ी</w>
अ छ
- प्र
ग ो
अश ्म
देश </w>
अट ्
त /M</w>
- </w>
आ ड
ट ि
/MF D</w>
क् त</w>
/F M</w>
अ ण्ड
ढ़ </w>
अन्त ः
भा ष
ध ि</w>
अश्र ु
ित /M</w>
अव त
अन ी
/F D
अन्त र
र् ष
अव ा
ु क</w>
अस ि
आ च्छ
आ कार
- सं
स् म
ं त्र
आँ ख
र् म
अव ह
वा च
प ्
अण ु
त् ता</w>
अरण ्य
जी व
क् ति</w>
अह ं
ज ात
अव म
ठ </w>
ु त</w>
र क्ष
ी ड़
पूर् वक</w>
प /M</w>
ो </w>
ं त्र</w>
ध ान
ं त</w>
क ा</w>
इ यो</w>
च ल
अंग ार
आद ्य
अभि स
श ा
अनन ्य
द /M</w>
ो न
र् प
प र
आ उ
अभि ष
क्ष </w>
त ी
अव गु
ो ह
अस ु
आ चार
आत्म स
े य
द ार
पूर् ण
अप ा
ार् य
अस ुर
मा र्
म ै
स् ट
आद र्श
G C</w>
ी र
अंग ुल
त ापूर्
स ार</w>
- व
अव ै
अव ग
अन ू
ा/ K</w>
ज ा</w>
ग ामी</w>
आ ंग
/sT F
आन न्द
अने क
अप स
ज ि
M E</w>
अप व
स् क
/8 ED
च </w>
ि णी</w>
अत ्या
आ ति
वे द
ग्र स्त</w>
ाय क</w>
स /M</w>
अप न
न िय
अल् पा
े व
ं घ
ी ल
अन ै
अभि ध
अव रो
अल ि
/sTMF </w>
र् म</w>
स् व
ह न</w>
ण ु</w>
ा स</w>
ा ल</w>
ष्ट ्र
भू त</w>
िक ा/JK</w>
् न
ल /M</w>
शी ल
अप ेक्ष
आद ेश
िक /sT</w>
आ </w>
अप क
र् व
आत्म वि
ी/ O</w>
ट् ट
- द
ज्ञ ान</w>
- क
ज्ञ </w>
ो द
ह ार
ा ंग
ा त्मक</w>
ित ्र</w>
म ित</w>
अश ो
े ष
्य त/F</w>
च ित</w>
य ुक्
ू त
अंक ु
म ि</w>
/8 34sTv
े ट
अभि श
अभ य
स् फ
च्छ ेद
अना द
त र
ित ्य
ित /F</w>
ंद </w>
अ यो
अल े
लो क
अंत ्य
आ क्र
रू प</w>
अभ ्र
वा न</w>
ु र</w>
अप ूर्
आउ ट
ू र
च ार</w>
ल ंब
ि य</w>
अम न
थ ि
भ व</w>
ां त</w>
ला ष
अं ट
/8 sTv
ग ति</w>
वाद ी</w>
G C
य न
वृ त्ति</w>
ा/7 34sTv</w>
भ ु
- न
अस् ति
अम ल
े ल
हीन तः</w>
/MF ED</w>
ज़ </w>
ह ्
अस म्
ां श
प रि
/ 0
ग्र ाह
अन ब
िय म</w>
अव च
ि म
L MF
/F E
आग म
अव काश
क्ष ण</w>
ज ्य
ु ष
अभ ी
्र े
प ति</w>
र हित</w>
प ुर
भा व</w>
अन ह
बंध ी</w>
िय ा/JK</w>
/F ED
अय ु
वा ह</w>
अर स
्र ा
ाप </w>
वास ी/O</w>
अम ि
द ान</w>
अन ल
ख </w>
द ा</w>
ख ा</w>
भ ि
ान ्
- उ
वास /0
वास/0 E</w>
अप ्
/sTF </w>
्य ता</w>
ं ध</w>
द ी</w>
कर ण/M</w>
त न
ी/ N
ी/N O</w>
भा ग
अप ो
ीय त</w>
अस् व
अर वि
अका ल
क ूल
वा /
अँ क
ध ान</w>
र् त
म न</w>
अक ्र
अभि व
अभि ह
ू न
/FD M</w>
ा ग
अल ं
ग त
व िक
अक्ष य
ा श
म य</w>
अम ान
अन ंग
अभि लेख
्य ा</w>
अक ल
श् च
कृ ति</w>
ण ित</w>
प ू
च न
आट ो
अंड र
LMF ED</w>
अन् व
ं ठ
ो ट
अध ी
ी कृत</w>
अर् ण
अस्ति त्व
ू ष
प ्त</w>
ा -
आद ित्य
स् त्र
त म
क /sTM</w>
वा ँ</w>
व र</w>
ो त्
अम् ब
ड े
अं स
ना य
क ीय</w>
िक /M</w>
च क्र
अनु श
ज ान
द ृ
का ं
वर् ध
नि ष
ष्ठ </w>
अव र
आद र
ाह </w>
/F D</w>
द े
ड़ ी</w>
अप मान
अज्ञ ात
अन स
अनु त्
ाप ्त</w>
भ ौ
अति थि
व /M</w>
र ीय</w>
अनु भव
व ा</w>
आत्म प्र
मु द्र
ज क</w>
V </w>
िय न</w>
त ो
ा/ C</w>
ध ा</w>
ान ्त</w>
ान ्त
/sT ME</w>
ार् थ
क्ति /PQ</w>
े ंद्र
अनु पा
अम े
ार् य</w>
य ु
क्षे प
ित त/F</w>
अट् ट
म त</w>
अश ु
अन ध
श ्य
ेश न</w>
िया ई</w>
अफ ्र
मा ण</w>
आद म
अभि ल
ाप न/M</w>
रा ष्ट्र
ति त</w>
आ क्रम
अंतर िक्ष
ं प
स ा
- वासी/O</w>
आ प
अप श
जन न</w>
अभिन ंद
अभि प्र
ा ई</w>
र ब
ग /M</w>
म ूल
ब द्ध</w>
अंतर् व
ीन /sT</w>
अस ै
आति श
ू ल</w>
अन म
आ कर्ष
-सं बंधी</w>
अनु भू
घ ात</w>
व त</w>
ीय त/F</w>
ित ्र
-प त्र/M</w>
अल ग
श् वास
स ित</w>
अक ु
अनि ष्ट
आत श
न शील</w>
र /ME</w>
मुख </w>
अर ग
अभ िक्र
अँ ध
ी म
र् द
ज्ञ ान
वृ द्धि</w>
अम ु
अध र
अश ्
- त
िक /F</w>
ां </w>
अन िय
अनु ल
/ Q
अर ा
ठ ान
आ ठ
आइ स
ल ै
अ ख़
च क</w>
वाद /E</w>
अभि नि
अनु त्त
ं भ
अप्र ति
ा/I GC</w>
थ न</w>
ड़ ा</w>
अग ु
ी म</w>
आँ व
आध ि
अद ृ
अन्न -
ब ी
अन ग
िक /sTM</w>
/F ED</w>
अवै ध
अग्नि श
भ ्र
पु ष्
अं दा
ा/G C</w>
ह ा</w>
आ ंद
द ार</w>
ं जन
ा त्म
ल न</w>
स्थ ा</w>
अव सर
अने का
ध ्व
स ्र
पूर्ण /sT</w>
श ा</w>
अव रोध
अंश ु
ल ि</w>
अप वाद
ी ति</w>
च र
ग ी</w>
अब् ज
ाप ्
अद्र ि
प ार
न् ध</w>
ग्र ह</w>
अक ड़
ल ित</w>
म ी</w>
घ ात
स ी</w>
द ी
द्घ </w>
्य त</w>
आं त्र
ज ्य</w>
ी र</w>
र् थ</w>
/ O</w>
अप ार
अस् म
/8ED 34sTv</w>
क न
आँ ध
अंतः प्र
ी ब
अर् ह
अंग ्रे
अस मा
तापूर् वक</w>
भू ति</w>
अभि य
आत ंक
काल ीन</w>
अर्ध स
ज न्
वाद /M</w>
त त/F</w>
अध्या त्म
वर् ष
न् ट</w>
च्छ </w>
अह म
ट े
ा म</w>
अंब र
िक ी</w>
न् द</w>
कर् त्ता</w>
स न</w>
द त्त</w>
ज /M</w>
ना थ</w>
अप ू
ार /M</w>
अव स्थ
अर ब
जा त</w>
अवध ि
अ त्र
क न</w>
कार क</w>
न ीय/sT</w>
अय न
ण न</w>
ापूर् ण</w>
अभि लाष
ट ा</w>
स्थ ि
बा ज़
ं क</w>
ं भ</w>
ो ग
त ्या
ाप् ति</w>
ज /F</w>
कां क्ष
अवश ्य
अस् वा
अच ल
वे ष
कर ण
ब ोध
ा ब
का ल</w>
ा उ
अस र
आँ ग
अज्ञ ान
अम ेर
अं जन
ज न/M</w>
अधि श
ई /O</w>
िक ा
प त्र
प न्न</w>
ृ ति</w>
ग र्
F ED</w>
आत्म क
आ क्ष
प ट
अध्य क्ष
श न</w>
ो ट</w>
अव द
अभि सं
ो ष</w>
अध्य यन
अंग ी
वृ त्त
ख ंड
च ाल
न े
रू प
/sT E</w>
य ण</w>
अनु ष्ठ
आकाश -
म ंड
L M
श क्ति/PQ</w>
स्थ </w>
न ा/JK</w>
गम न</w>
अन ाप
अह ो
अन् ना
ख ्य
अनु द्
ग ृ
व ार</w>
अले क्
अव क्र
आख ेट
श िक्ष
ं स</w>
अस ह
अप त
H </w>
ो ं</w>
अक्ष रा
आक् सी
अल् ज
अल स
अप ि
ीय म</w>
अन धि
अनुभू ति
आइ ड
अमर ीक
अन र्
अधिकार ी
ि ल
स ा</w>
/ D</w>
अं भो
अना ह
अन्य ोन
र स</w>
व ंश
त ्य</w>
पा द
दर्श न</w>
अन च
ग र</w>
अरवि ंद
/FED M</w>
अन ्या
आ कल
दर्श ी</w>
अद ्य
ण् ड</w>
िप ्त</w>
ेश ्व
अन ार
य ाय
अं भ
अव ज्ञ
ट न</w>
र ण/M</w>
ाल ा</w>
स्थ ान</w>
अत ी
र् च
न िया
ु ति</w>
अध्य ाप
अँ ख
ज /E</w>
अना म
अपूर् व
अशो क
अव नि
प ीड़
अनु मान
े ष्ट
स् त्र</w>
त् थ
चार ी</w>
/F sT</w>
न ार
स े
भो ग
ल क</w>
अक्ष ि
िक ी
श ी</w>
वृ त्त</w>
मा ल
त्व /M</w>
वेश </w>
द ु
क ू
र ित</w>
अध ्
क ि
त ाल
ं ता</w>
ो न्
ब द्ध
अस् प
थ ि</w>
्र त</w>
र् ष</w>
अवरो ह
वर् त
ह ास
ि द्र
अन र
रा ग
प ि
ा क्ष
नि धि
अव मान
यो ं</w>
अन र्थ
ा/G CI</w>
आच ार्य
त ता</w>
अब ल
े द</w>
अनु द
योग ्य</w>
क् ता</w>
अभिन य
ख ्या
ह /M</w>
अभि मान
स /E</w>
ो र</w>
म ण
अभ्या स
न /E</w>
ाप क</w>
े त</w>
ाय ा</w>
अव लोक
श ोध
ग् न</w>
व स
र ा</w>
अधि प्र
अंतर् वि
क ी</w>
न ्या
अना त्म
अच ि
च ना</w>
तापूर् ण</w>
व य
GC B</w>
अनु ल्ल
आज ्य
ी श</w>
त ु
अधिक रण
म िक</w>
आ कृ
प ी
अभिष े
प त्र/M</w>
श य
अथ र्व
अल् ट
अवस ाद
अनु म
ब ाह
अभि जात
वास /E
वास/E 0
वास/E0 </w>
अनु प्र
यो नि</w>
आच्छ ाद
/E sT</w>
आत्म नि
अनु ज्ञ
पु र</w>
ी/ 5
4sTv </w>
अंग ो
र /sT</w>
अनु कूल
ार /E</w>
अत्य ु
आज्ञ ा
वि द</w>
श ु
र् क
े ंड
ं श</w>
अर्ण व
अस त्
ार् थ</w>
अधि मान
प्र द
अम् बु
िय त</w>
्य ु</w>
अना त
व्य य
अध ्व
अवध ्व
आत्म सं
जन क</w>
वाच क</w>
अंग ु
अत ीत
LM ED</w>
ाव क</w>
आग ्न
े ंद
अस त्य
ज ल</w>
अन छ
अवह ेल
क्ष ा</w>
अव घ
ंग ा</w>
अधी क्ष
अयु ग
आइ सो
्य ू
श /M</w>
अर्ज ुन
आ छ
मा स</w>
अत ु
ित /sTM</w>
ध न</w>
आ ढ
अभिव्य ंजन
निधि /PQ</w>
र ा/G</w>
/ H</w>
वा य
/MF E</w>
अंध ानु
ता ल</w>
प त्र</w>
े ज
श त्र
अधिक ्र
ंद न</w>
क्ष क</w>
ंट ि
ा/ B</w>
प ित</w>
अल् ल
ग्रह ण</w>
त त</w>
ख ा
ा ँ
ब ्र
अँ ड
अवि न
ेश </w>
ह त</w>
अभि भाव
र् ता</w>
त ंत्र</w>
अन ख
त /sTM</w>
रो ध</w>
्य /sTM</w>
म ार</w>
दृ ष्टि</w>
अंध कार
ेन् द्र
् न</w>
रण ीय</w>
अप्र ा
ार ा</w>
आ ग्रह
े -
अल िप
त म</w>
अर् घ
अवल ंब
अन्त ्य
/Q M</w>
आद िक
अट् ठ
अज ग
अत िक्र
रा ज</w>
ल /sT</w>
वर् ती</w>
अस ू
अन क
ण ा</w>
क ता</w>
ि ष्ट
अव िक
वा इयो</w>
व ण</w>
ल िप
क /F</w>
अन्त रा
अम रा
न िक</w>
त्र ी</w>
अस ंग
ड ्
अम ो
अंदा ज़
अल् ब
अरुण ा
अल ब
ा ड़
अन त
ब ंध</w>
अव र्
अव्य क्त
ि र</w>
फ ो
र क</w>
अंतर् प्र
पूर् व
अव ले
अल बे
पा ल</w>
स न्ध
वा ला</w>
/ V
ऊ </w>
अभि योग
च र</w>
च ी</w>
अट ै
आ त्त
अभि वि
व ती</w>
ट क</w>
ज्य ो
ि ष्ट</w>
च् च
- भ
श ास
ग ार</w>
अनि ष्
म र्
वा र्य
क ृत
अत ं
GC B
ै या</w>
ण् ठ
आँ क
अप्र स
ष ा
- क्र
अप कार
ल ब्
िया ँ</w>
ड ी</w>
घ </w>
ज य</w>
अनु बंध
कर णीय</w>
ाप ्त
रोध ी</w>
य ान</w>
अभि र
ल य</w>
वर् ण</w>
न ीयत/F</w>
वि द्य
ेत र</w>
अध ः
च ेत
अना ध
ं थ
भा ग</w>
ध ्य
पुष् प
ी द
त ीय</w>
्र िया</w>
अभ ाव
/834sTv ED</w>
आंद ोल
दर्श क</w>
ध र</w>
शत्र ु</w>
म न/M</w>
अज ि
फ़ </w>
ृ ष
जीव ी</w>
् म</w>
मै ंट</w>
अन पा
यो ग</w>
चक्र </w>
अहं कार
अधि व
वाद /EM</w>
ंज ित</w>
स्थ ाप
/ 3
/3 4
अल क
अर् प
थ ा</w>
वि ध
भू मि</w>
अरू ण
- म
ाह ी</w>
भ ा</w>
अवल ु
आक्रम ण
अनि च्छ
ोप निष
ल ा/G</w>
भू </w>
स र्
स्थि ति</w>
आ का
ुर ू
अ कार
ण ्य</w>
लो क</w>
/834sTv LMFED</w>
्य ु
ु ल</w>
ंट /M</w>
अप द
यो ज
अनु करण
अति र
अना श
श्व र
/E sTM</w>
अल ख
ू ठ
ब न्ध
दे व</w>
अल ी
त /LM</w>
अस ो
आ न्
अस ाम
ु ष</w>
ला इ
अव प्र
अन घ
ि ल</w>
अन ौ
ए ँ</w>
अव य
आघ ात
अनु सं
अंत ्र
आध ्या
अल ु
अग ड़
अंतरा व
रे ख
अं का
आध ुन
अव ट
अख ंड
टि ड</w>
अव लो
आत प
अं च
अग्नि द
ोष ित</w>
अंकु श
अवगु ंठ
शील /sT</w>
अस े
अल ल
/ R
अंगुल ि
दि न</w>
काश </w>
ल क्ष
े ष</w>
अनि वार्य
अँ ज
ड ा</w>
अवल म्ब
श ायी</w>
न /MF</w>
अग र
अस ृ
ना त्मक</w>
ंग ी</w>
अध ब
अक़ ्
श ंस
अफ री
ेत ु</w>
अंत स्
अंतर् नि
अनु ना
ो ह</w>
ग म</w>
व ्रत</w>
म ह
अपूर् ण
ो ल</w>
आंत र
ीड़ ा</w>
- ध
श ाल
िक ता</w>
अग्न ्या
चि ंत
े स</w>
अलं कार
अक्ष म
अध रा
ौ री</w>
त त्व</w>
ी का
अध िय
आ थ
ट /M</w>
प ट्
अ ज्
अक ौ
अना दि
आच रण
स लि
अम ा
ट र</w>
अव प
अभि निर्
ु ट
म ल</w>
क़ </w>
अप ु
िक ेशन</w>
आई ए
ार िक</w>
ग ा</w>
अम ी
ानु सार</w>
अप च
अन् वा
म् ब</w>
पा त</w>
ु रा
ंच न</w>
अज ी
अंद र
रा श
राश ि</w>
अद ाय
स ान
अस ल
अग्नि म
स र</w>
अनभि व्य
अर्ध ांग
अय ा
/34 8
/348 sTv
अप वर्
भो ग</w>
ह र</w>
F ED
अन् द
ग् ध</w>
आत्म ह
अंतर् ज
/sTMF D</w>
अम ूर्
अना स
य ित</w>
अश ्ल
अर्ध प्र
आ कांक्ष
ठान वे
भाव ना</w>
अनि ल
म ुक्त</w>
अर्ध श
आद ान
अभि वाद
को ष</w>
अका उ
ू म
स् क</w>
द ंड</w>
अभिव्य क्ति
प र्
ित ा
द् व
अंक ुर
अर्ज ेन्
ाह ट</w>
प ण</w>
ल् प
सि द्ध
आत्म ा
आकृ ति
अव बोध
त्म ा</w>
धार ी</w>
अना थ
ष्ट /sT</w>
अन् वेष
ुल ्ल
अर मे
गु ण</w>
वा/ 7
आत्म ीय
य /ME</w>
अँ ग्र
अब् द
अक ब
ीर् ण
ा व</w>
ी करण/M</w>
ग ाम
स ्य</w>
ध ी</w>
ी/5 4sTv</w>
स ंग
ग ण
अनु ग्रह
ह ्व
ी पन</w>
अव ्या
आख ु
का र्य
म ी
वि ष्ट</w>
ोल न</w>
sTv </w>
रु द्ध
अल् जी
लि ख
न /FD</w>
अग्न िक
अनप ेक्ष
ा/J K
ीय /M</w>
ो श</w>
आख ्य
ट् ‌
र ियो</w>
अन ज
अव्य व
ज्ञ ान/M</w>
म ू
अवश ेष
अस िप
ाध ीन</w>
/ U
युक् त/sT</w>
/FE M</w>
कल ्
म य
-श ि
री क्षण</w>
मे ंट</w>
आ ना
अंतर प्र
/R </w>
अधि ष्ठ
अज न
े क</w>
अप ाव
ू ट</w>
न न</w>
अंग्रे ज़
/F sTM</w>
च्छेद न</w>
A I
GCB 34sTv</w>
ा कार</w>
मुद्र ा</w>
ो स</w>
ुक् ति</w>
न कारी</w>
ा/7 34sTv
G </w>
ब ी</w>
र् स</w>
ध ित</w>
वे द</w>
ष ंग
र् त्त
का ंत
अभि या
छ ेद
ंग /M</w>
मा त्र
अर क
च्छ ि
प न/F</w>
अधीक्ष क
त न/M</w>
े ता</w>
ुल ्
अपक ेंद्र
अय ान
झ ा</w>
स् वी
प न/M</w>
मा द</w>
अलेक् ज़
च ि</w>
मो द
शील ता</w>
अभ ा
ान ि
अव े
वा ल
अंतर् द
अर ो
ग्र </w>
न् द्र
अप ना
द ्य</w>
वि ज्ञान</w>
अन सू
ी क</w>
ार क</w>
J K</w>
ट िक</w>
ध ्य</w>
अरि ष्ट
अदृ श्य
जन ित</w>
िक ीय</w>
ी प
फ़ िकेशन</w>
न यन</w>
िय ा/B</w>
अर्थ -
ी/ O
ो पा
त िक
जन ीय</w>
गम ्य</w>
अर े
आकर्ष ण
ल िका</w>
आंग ्ल
अधि रो
अक ै
अग द
श यो
ण शील</w>
अल ो
अज़ ी
मि श्र
भि मुख
प े
वा णी</w>
अश र
प ट</w>
ंक ृत
ां श</w>
क ट
ाव न</w>
ज्ञ ा</w>
अर ह
/8 FED
G 34sTv</w>
र् ड</w>
अँ ब
र िया</w>
ास /M</w>
घ ्न</w>
म ूर्
च य</w>
म त्त</w>
आत्म व
अध ित
स् क/sT</w>
ंड /M</w>
ोपनिष द</w>
स िक</w>
त्स ाह
े ख
गम न/M</w>
मा ण
कार /M</w>
अट कल
बु द्धि</w>
ग त/M</w>
अध म
मे य
अब ि
अन न्
अप भ
अस ां
ा ट
कु मार</w>
अज ा
अधि वास
रा इयो</w>
अर् श
ु आ</w>
ज् वर</w>
अवि चार
अवा क्
अ त्त
अप का
क्र म</w>
भाव /M</w>
दि ष्ट</w>
त ा/K</w>
म क</w>
अभ्यु प
ख ाना</w>
ंघ न</w>
अव क
अल्प सं
अद ी
ठान बे
अर्द्ध स
अप ील
ंच ित</w>
र /E</w>
अँ कु
वर् तन</w>
िक -
अन ो
अय स्
र् त</w>
ो त</w>
वा स</w>
अवि ल
ष् ण
-स म्
मो ह
अर् ज़
ानु भूति</w>
आज्ञ ाप
ी ल</w>
अब् धि
स ेव
रब ै
रबै जान
अनुल्ल ंघ
अपक ीर्
भाग ीय</w>
अक ि
अच ार
ू ढ़</w>
अस् वी
अध क
क्ष ित</w>
िकार ी</w>
अधि न
ृ ष्ट</w>
ान ्व
श ून
अप् सर
/8ED sTv</w>
अंबु क
पा द</w>
वाच ी</w>
बा द</w>
अवत ार
अध ीन
स् त्र/M</w>
वस ाय
अनि श्
q </w>
अद् भु
अल्ट ्र
े ड़
अंत िम
आध्या त्म
ा कार
प् ति</w>
/FD sTM</w>
ं ठ</w>
ां ध
आत्म द
अंतर् भ
ा ब</w>
न िया</w>
थ ित</w>
कर्ष ण</w>
अन ट
च न/M</w>
s 8
s8 T
s8T v
अनु सू
ाल य</w>
जात ीय</w>
े ह
ती ज</w>
अक ो
अना ग
री ब</w>
असै न
ज्यो ति</w>
द /E</w>
अल् फ़
अभि प
पु त्र
का द
ि स
ी ध
अस्थ िक
द ल</w>
प ा</w>
अर् य
व िक</w>
अवगु ण्ठ
र्प ण/M</w>
अंब िक
हीन ता</w>
र क्त
अत्य ंत
ट ै
अव रा
आत्म त
त् त्व</w>
प थ</w>
र् </w>
धार ण</w>
अवि स्म
वाद /ME</w>
अल म
अनु द्य
अप त्य
अव िक्र
असं स
ीय /sTM</w>
अर र
ब ार</w>
ास ी</w>
/8sTv LMED</w>
ौ ह
ान्त र</w>
ति थि</w>
ापूर् वक</w>
अप द्र
ार ि</w>
अब ु
अं चल
अप ार्
अनु द्ध
ना मा</w>
वाह न</w>
अयुग ्म
्र ि
अच ेत
व ल्ल
न ु</w>
अनुपा त
अमर क
अँग ुल
अव कु
देश /M</w>
फ </w>
अभि ज्ञ
श ि
द िक</w>
अग ल
ेन् ड
अद् व
च ंद्र
अनि ष
आ क्षेप
ंद /E</w>
ो द्
ि न</w>
रा इ
ट्ट ा</w>
अन्ध कार
आज ान
ाह /M</w>
भ ि</w>
अन् दा
पट् टी</w>
अंत ्या
J K
त /FED</w>
र् बु
प्र िय</w>
अप ास
अर् द
ो क</w>
ुल ा</w>
जन् मा</w>
अर्थ ाप
ध ेय</w>
अन बि
/ f
न्द ु</w>
अनंत र
अम् मा
अस् फ
अधि श्र
ी/O M</w>
ह् म</w>
अग िय
िक्ष े
अप्र भाव
अव ार
ल ्य</w>
भ ेद</w>
िर ा</w>
भू ष
अव भ
ै ल</w>
ाह ीन/sT</w>
कल न</w>
अधि नाय
अस ्र
प ु</w>
अद ि
ि त्व</w>
ण /E</w>
मे न्ट</w>
अप ॉ
अष्ट पा
आत्मस म्
ाम क</w>
ोर ा</w>
अभि रक्ष
मण ि</w>
मा इ
अप् स
अप क्ष
अड ्
रु प</w>
ग्राह ्य</w>
क ्य</w>
अँ ट
अध्या ह
काल /M</w>
/8FED 34sTv</w>
आत ुर
अर थ
ा/7 G34sTv</w>
त्र ित</w>
न् त</w>
अग िन
आ कर
अप्र त्या
क्षे त्र</w>
ु आ
अव क्रम
ू जा</w>
रा ई</w>
अर् बु
-न ार
श ्य</w>
ा ई
र ह
आ कु
आध िप
आधिप त्य
अक् ख
अर द
व ी</w>
ज़ ा</w>
य /E</w>
ब र</w>
ाव स्था</w>
म /F</w>
ग् न
ट् ट</w>
क्ष /M</w>
वाह क</w>
र् ग</w>
य िता</w>
अभिनंद न
े ज़
ब ा</w>
स्थ ित</w>
र त</w>
अनु सन्ध
अं घ
ढ </w>
श यन</w>
ू त</w>
अच ्यु
अप्र ग
ा ढ़
आ ंड
ग्रह ीत</w>
अप ध
र िक</w>
क ा/G</w>
च ा</w>
अप म
मे ंट/M</w>
जा ति</w>
दार ण</w>
प त्ति</w>
ख़ ाना</w>
ेश्व र/ME</w>
ब ल</w>
अनु याय
ष ्य</w>
आज ी
ंद ु</w>
अर् मे
ला भ
ला ंत
अप घ
अस ंत
च ु
ुर ा</w>
ाप ्य</w>
ए </w>
अस ौ
ाय ब
प्र ाप्त</w>
अनिय म
त िक</w>
मान /E</w>
ग न</w>
ंज स
ण ीय/sT</w>
ल ीय</w>
- च
देश िक</w>
ाप /M</w>
क्षे त्र/M</w>
आक स्म
अमो घ
आ न्त
अमान त
- व्य
अनु क्रम
ता ई</w>
आज्ञ ानु
द् </w>
ग् नि</w>
आक् स
थ ी</w>
अर् ग
अप ुन
अक ृ
प ्य</w>
भाव ी</w>
अ ढ़
अवट ु
अशु द्ध
िय ां</w>
ृ द
पा दन</w>
ति य
आत्म -
ेय /sT</w>
त्र ण</w>
अना गत
प्र देश</w>
क ित</w>
अंतर् वे
अल्प काल
आँव ल
अवध ार
्या य
अग म
प्र द</w>
अनु च्
ब् द</w>
वा ली</w>
ल /F</w>
ार /ME</w>
पा क</w>
त् </w>
रा ज्य
अग ौ
ू ट
ँ ग
त र</w>
द ाय
अभ्य र्थ
च्छ द</w>
जि ह्व
/FE sTM</w>
आइड ै
अल्ट्र ास
ध ्या
च ौ
अल्प वि
अह ी
च र्म</w>
जन ्य</w>
ग्राह ी</w>
अल्प ो
अंत व
अनुसं धान
अष्ट ांग
सो </w>
आ ण
सर ण</w>
ड़ ा/G</w>
अन्तर िक्ष
रोध ित</w>
न् त्र</w>
अन द्य
आधुन िक
र्ष ण</w>
प क</w>
र् ध
अभिनि ष्
ास ा</w>
अम ाव
ू ष</w>
अध्य य
वार ण</w>
अंग सं
/ s8Tv
ित ता</w>
्म ा</w>
चार क</w>
अंतर सं
स्क ृत
अरवि न्द
स द</w>
कृ मि</w>
देश ीय</w>
भौ म</w>
वास /E</w>
ध ान/M</w>
ा च</w>
आग ाम
स् वा
ल िक</w>
फ लक</w>
अना र्
अंग ूर
अध रो
िकी विद</w>
ध ीन</w>
आत्म ानु
कु ल</w>
अभी ष्ट
अल्प त
क्ष म</w>
अध ्र
अप ान
ा ँ</w>
श ेष</w>
श ल</w>
अ ढ
बा ँ
अड़ ो
आत्म निय
आत्मनिय ंत्र
ंज र</w>
अधि ग
कि ंग</w>
अभि ला
अंतः पुर
/FE sT</w>
ीय ता</w>
आनु षंग
ुर ी</w>
न ग
सो स
वा ल</w>
स् कार</w>
ूष ित</w>
अम ह
क ि</w>
अनुष्ठ ान
/8sTv FED</w>
व ्या
त् न</w>
सार /M</w>
/M V</w>
अप ंग
अम ीर
अदृ ष्ट
लो चन</w>
ेंद ्र</w>
अँग रे
अभ्यु द्
अम ू
त्त र</w>
अंतरा ल
अघ ोर
अभिन न्द
व ित</w>
अज ात
ष्ट ा</w>
अपार् ट
ह ि
ंद ी</w>
अध्य ार
अस न्
- आ
आत्मवि श्वास
ाद ित</w>
अलि ंद
अभ ो
अड ि
अनु न
अ -
शा स्त्र
ीद तम
ंद ्र</w>
अमि श्र
ह ृत</w>
अंतर ंग
अनभि ज्ञ
अनु राग
/ q
अनु मोद
ंक ित</w>
ह ार</w>
ानि स्त
उ </w>
म् भ
अब ोध
ूर् ण</w>
अधि मा
अप ां
अक्ष ु
अनि मि
अं ह
क्षे प</w>
आढ ्य
वा त</w>
-प ु
ा द</w>
अंत स्थ
वाय ु</w>
च न्द्र
अं ख
न /MFD</w>
आई ना
पा ली</w>
अह ल
अज ाम
े ध</w>
ग ी
कर /sT</w>
अल ै
अनु दार
अन वे
आधार -
/f </w>
आं ध
-ब ि
अल्ज ेर
आ ग्र
भाष ा/K</w>
व स्था</w>
ांश ीय</w>
द ै
भो जी</w>
असै ंब
अंग म
खा ता</w>
अस ाध
अवन ी
अम ै
/sTMF E</w>
अल्प प्र
अप्र त्य
म /sT</w>
वृ द्ध</w>
अनव लंब
स् ना
गृ ह</w>
आक ुल
ंत ु
आत्म रक्ष
र स
अव ना
े न</w>
ंड ा</w>
मार् ग</w>
अनव लोक
अति शयो
अध ियो
अनुश ंस
क थ
ह ी</w>
ान /ME</w>
त्र ि</w>
स /EM</w>
अव क्ष
-ब ह
बा ई</w>
अख िल
अम ंग
स्थाप ित</w>
श री
ंग े
ज़ /E</w>
चित ्र</w>
शा ँ</w>
ष /M</w>
शोध न</w>
न्द न</w>
आत्म -क
ा ण</w>
वर्ध ित</w>
अना व
अठ ख
अठख ेल
अनुश ास
अन्योन ्या
ाम /M</w>
न्या स</w>
म ता</w>
ीन त/F</w>
अल ह
मा त</w>
अंतः स
अह ित
बंध ु</w>
आइसो ले
अधिनाय क
अन् ति
वा क
अनर िक
ॉ र्
ड ि
्रा व</w>
ा घ
ो ध</w>
ष्ठ ी</w>
ुर ु
बा ज/E</w>
िय /M</w>
पूर् व</w>
/FED sTM</w>
अँ ठ
अवि र
अंत ाव
अप कर्ष
अज ै
ंज ी</w>
त क</w>
ो त्स
ब न्ध</w>
द् वि
व श</w>
िय ान</w>
ौ न</w>
अव स्क
ृत त</w>
कु सु
आइस लै
द /F</w>
्या ण
अय थ
A GCB34sTv</w>
अव रू
अनन ्या
म त/F</w>
द ायी</w>
अस क
असि स्ट
अस्थि र
अफ्र ीक
अब ्र
ांत ीय</w>
ात ीत
े ट</w>
अप ग
अंगु श्
अन् ह
ार्य त/F</w>
ं थ</w>
अधि म
क्र िया</w>
क्ष ी</w>
/E D</w>
ास न</w>
अभिम ंत्र
अक र्त
अन्तर् वेश
अभि सि
अन्व य
रा या</w>
ो न</w>
अद ब
अस् ता
ह ा/G</w>
प /sT</w>
अन्वेष ण
अधो रेख
द ान/M</w>
पा य
स्थ ि</w>
वर्त क</w>
अंत स्त
िन ियम</w>
अनु भ
अंज ना
मु ँ
प ल
स् प
अज ायब
ग िर
गिर ि</w>
प ्त
अग्नि -
अध श्च
क -
कल ी</w>
स् ति
ंब र</w>
अध र्म
स्त ु
मंड ल</w>
ी स
अक ृत
अब ंध
आई सी
ा देशिक</w>
अर्ध नार
ख्या त</w>
अमृत कु
अट पट
ा ता</w>
नि द्र
त् न
अनु क
बि ंदु</w>
या त्र
प ं
राष्ट्र ीय
अस्थि सं
ान /E</w>
ब र
वा ँ
कर् म</w>
च ित/sT</w>
त्त ी</w>
मोह िता</w>
अथर्व -शि
ष् क</w>
ंज न</w>
अन्योन ्य
स्र ाव
त िका</w>
य ंत्र</w>
अंध ेर
अल्ब ान
आग ा
हार ी</w>
ौ ं
अट ल
अल का
ष् णु</w>
अक ुल
वि </w>
बाज़ /E</w>
ंच न
अश्व स
अरुणा चल
िय ार
ा/G CI
स् </w>
अच र
न वा
अस्प ृ
सू च
ंस /M</w>
भ ार
I GC</w>
अवि ना
आदर्श वाद
ल म्ब</w>
अंत श्
शून ्य</w>
अल् बे
अनै श्व
वृ त</w>
र /8EDsTv</w>
ो ं
बद्ध न</w>
या ँ</w>
मूर् ति</w>
अक्ष त
े पन</w>
म ना</w>
क्र ान्
अनुम ति
िक्र म</w>
अनत िक्र
आक ब
मान /M</w>
अन्तर् नि
ौ </w>
वार क</w>
सू </w>
अप्र े
रि आ
अवश ोष
बंध न</w>
र /EM</w>
आँख फो
प द/M</w>
स्थ ल</w>
अनु न्
का म</w>
आत्म सु
नि टी</w>
ै न</w>
अनाद र
िक् स</w>
ना श</w>
मि चौ
I C</w>
बाह ु</w>
आड ंब
छ ित</w>
वि श्वास
अप ै
ंग िक</w>
त् नी</w>
अभ ु
अर् ब
यु ग</w>
अस ित
अरु न
अम िय
अट्ट ाल
अम ित्र
ाय ु</w>
ार ण</w>
ण /F</w>
अनि र
अत ृ
वा ंत</w>
प रा
अभिय ंत
क्ष ि
न् स</w>
कर् ण</w>
अस द्
अग्र ाह
अनुसन्ध ान
ू ला</w>
अका र्य
ात्म क/sT</w>
कार /E</w>
अनि श्च
िम ा/JK</w>
-वि ज्ञान/M</w>
त न्त्र</w>
अनद्य तन
अपश कु
अपशकु न
सू दन</w>
मार् जन</w>
अर ार
म् भ</w>
अप मार्
म ती</w>
अम ात
आटो मै
/V M</w>
त्त े
अवन म
अल क्ष
अन ति
कल् प</w>
ख ंड</w>
ूर ि</w>
स्त ंभ
अनुज्ञ ाप
अभ्यु त्थ
लेख /M</w>
क ै
वि च्छ
क्र ो
श न
ख ्य</w>
आत्म ब
अवगुंठ न
वा/ CI</w>
अनु वाद
अंत ि
प द</w>
त ार
अनार् द्र
अधिक -
अग्न ्य
अय स
स्फ ोट</w>
अपेक्ष ा
/8sTv LMFED</w>
अद ल
अना क
च ल</w>
बे ल
द ार्थ</w>
शु द्धि</w>
ष्ठ ा</w>
वि हीन</w>
ु ट</w>
आँ सू
स्त ु</w>
म ूल</w>
क्ष र/M</w>
अफ़ ग़
अनिर् ण
ा/ CI
आँख -
अव ष्ट
असं ब
सर ियत</w>
अन् ड
चन ा/JK</w>
आ न्द
भु ज</w>
आइ ं
आइं स्ट
ाइ न</w>
आग ार
आत्मक थ
ाल िका</w>
ू ढ़
आन ृ
-वि द्य
ानु सार
फ ्र
स ा/G</w>
अव ी
-व िक
अर्ध -
ज ु
अन्तर् द
नि लय</w>
जि न</w>
सि द्ध</w>
अक ड
ुर ु</w>
ार्थ /M</w>
े न
अर िय
अन िक
आद्य ंत
अशो भ
य -
अनभ ्य
छ ाप</w>
शाल ा/JK</w>
ति हास
अवग ाह
अंक -
अड ॉ
-ब ग
छ िद्र
अनुद् वे
द ान
गृ ह
अद ा
ध /M</w>
द ीय</w>
अश ौ
म ंज
अय ुक्
ंग /sT</w>
ानिस्त ान</w>
ाल य
फ र</w>
े व</w>
जन /F</w>
आत्म प
अर्ध द
गर् भ</w>
ब् ध</w>
ार ह
श्र ी</w>
वा ण
अल -
ट ित</w>
अक् ल
अफ़ ्र
ी क़
ी- देश</w>
अभी प्
व ानी</w>
A </w>
्या स</w>
ोत् कर्ष
ल घ
लघ ु</w>
अंतर् ल
ाव ृ
अंग ड़
आइ डे
लेख न</w>
अँध ेर
ांत र/M</w>
अस ीम
अर्ध क
ल /E</w>
ति पूर्ण</w>
अफ्र ीका
अत्र ि
अनु ह
स क</w>
ब्र ह्म</w>
अभि भाष
अल्ल ाह
प क्ष</w>
अग स्त
कर् ण
खंड न</w>
अनव श
श िरा</w>
आन ा</w>
र् व</w>
अव ेद
ण ीत</w>
द ा/G</w>
अय ः
वृ क्
ल न/M</w>
च्छ न्न</w>
ुर म
ज़ ्
े ंट</w>
ह न
अट्ट हास
िक ा/G</w>
लब् धि</w>
भव /F</w>
ो ज
अन् त्र
ओ ं</w>
ह े
दर्श न/M</w>
आग र
अँ त
चित -
ति यों</w>
असु ख
अ योग
अंतर् सं
य क</w>
मिश्र ण</w>
योग ी</w>
आत्मसम् मान
अहो रा
अज़ी ज़
य न/M</w>
य िक</w>
अभ ूत
अक र
अंत ग्र
अन जान
अनु वंश
को श</w>
अह ेर
अनध िकार
तर ंग</w>
अभिव न्द
अक ठ
अग्निश ाम
ो टी</w>
ड ियन</w>
अंग विक
अम ्म
स्व न
शी र्ष</w>
ी श
ृत /M</w>
असं ल
अहि र्बु
ले </w>
जीव िता</w>
अभिन व
अंतर् व्य
श्र ित</w>
ना क</w>
त ः
त -
अवि वाह
चक्र /M</w>
क्र िया/JK</w>
अम ित
अपह रण
अज ीब
अभि यो
टि ंग</w>
ोद य/M</w>
अंतर्व क्र
भ ्य</w>
अह म्
ाह िक</w>
र ि</w>
अर्बु द
िक /E</w>
य श
ष ष्ठी</w>
अज वा
श्व र/ME</w>
अनेका ग्र
अंध ्र
म ृत</w>
ल् दी</w>
ंट ी
ा णु</w>
अपर ंप
अभि ग्रह
अध प
ल दी</w>
ह रण</w>
र् हित</w>
द ेय</w>
अद म
ठानवे </w>
का ंड</w>
वृ ष्टि</w>
ंड ित</w>
ए ं</w>
ा/I GCB</w>
अंतर -
सर कारी</w>
अर्ध न
अवश िष्ट
ां क</w>
अश्म कु
भ वन</w>
अव रे
न ्या</w>
का य</w>
अनुल िप
अंब ा
अप्र त
भिमुख ी</w>
ृत ्यु</w>
क्ष ण/M</w>
अव क्
अह ्
अभ ू
आच्छ ा
आइ ज़
ध ु
अकल ्याण
लिप ि</w>
अस्वा स्थ
अट का
ाल ी</w>
असं वेद
ा/7 AGCB34sTv</w>
आद िन
अच्छ िद्र
आद िप
ध िकार
अल ूम
अफ ल
ग्र स्त
अ ग़
े ड</w>
िक् ष</w>
अधि प
अंग्रे ज
- रा
ी ण</w>
अच्यु ता
चाल न</w>
क े
अहि ल
अभि द्र
ंज न/M</w>
हार /M</w>
अप्र कट
र् ग
जा ल</w>
अति -
त्त /M</w>
ध र/M</w>
अधिक ांश
ष् ण</w>
अना वास
ित /sTF</w>
इ ंट
ब् ध
ा भ
सर ण/M</w>
क् व
ध र्म</w>
वि दारण</w>
ंट क</w>
अल प
योज क/M</w>
दि शा</w>
ना शन</w>
ती र्थ
तीर्थ कृत</w>
रो प
न्न /sT</w>
र् ध</w>
अक र्म
अंज लि
य ंत्र
ग्रह /E</w>
अन्य ो
म् मत</w>
ँ ध
आंदोल न
त /E</w>
अश् वा
ीन ी</w>
अच क
अचक च
न ियाई</w>
अध ु
प ना</w>
अग्नि स
ाय न</w>
अँ च
क्र ां
अक ल्
योग /M</w>
वि ज्ञान
अस् स
आई ऐ
आक् ट
अप ाह
वर् ग</w>
ग ंध</w>
अँग्र ेज़
आद ्या
अग्र सार
अक र्
दि श
अर्जेन् टि
अल्प व्यय
वि द्ध</w>
ौ र
असि ध
ठानवे वाँ</w>
े रा
म -
व चन</w>
च ू
अधि स्थ
अक्ष ो
अँ ड़
े य/M</w>
अपराध -
अल् ह
अंध क
अनु रूप
अल ौ
अना उ
श ाय
अभिव ंद
आन् त्र
म ण्ड
अय ्य
ज् ज</w>
ार्थ ी</w>
अब र
ंच क</w>
तु र्द
तुर्द शी</w>
/M D</w>
काल िक</w>
ह् न</w>
विद्य ा</w>
स् वन</w>
अंतर् प
आ नि
अह स
अध्य ु
असं ज्ञ
अज ित
अनिय त
ना थ
श् न</w>
स्व र</w>
अविल म्ब
आत्म ाव
अधि र
अयन सं
न र</w>
अनुक्रम ण
स् कर
र्द न/M</w>
पू जा</w>
व ध
अनुत्त ेज
अभिव्य ंज
आति थ
स्थ /sT</w>
अमृत -
घात ी</w>
वाह िनी</w>
म णीय</w>
अनु त
असम ंजस
अग ि
अधि निय
अंत े
ं त्र/M</w>
अध मा
पूर् ति</w>
अँ तर
अ द्ध
व ना</w>
पा त/M</w>
अना र्य
अब ह
अर ंग
ट िका</w>
अज़ रबैजान
ंद ित</w>
त्य ा</w>
गम /M</w>
बे ल</w>
असं प
श ्ल
ान /FD</w>
अवि द
ार ा
ष्ट्र ीय</w>
स्थ ित/sT</w>
आं श
आड म्ब
आडम्ब र
अव सं
अग ाड़
लो क/M</w>
अधि निर्
ण य/M</w>
y x
अर्ध पार
िया -वासी/O</w>
आं जन
ंत /M</w>
ू तन</w>
अकि ंचन
अंतर्वे ध
/8sTv ED</w>
र्च ा</w>
वाद िता</w>
िय ुक्त</w>
अभि न्न
चि त्त</w>
अह सान
/sT M
श् व</w>
द् ‌
ह ृद
अभि घ
मन स्क/sT</w>
ज ू
अन्या य
अपश ब्
अन बु
वर्ध क</w>
निय न</w>
U </w>
अब न्ध
ण /sT</w>
ं ति
आन द्ध
अधि सं
अचि ंत
अधि ल
अंड को
ूष ण</w>
अरमे निया
िक ्य</w>
िक् त</w>
ाम ा</w>
स्थ ायी</w>
अलि फ़
शी त
मो चन</w>
ष्ट त</w>
वाक ्य/M</w>
ान्व ित</w>
कर त</w>
र्ष ण/M</w>
अश ृ
अस्थ ित
जि र्त</w>
पुर ुष</w>
अनैश्व र्य
अभ ार
असं य
अर्थ च्छ
अप्र िय
अप ध्व
ंच न/M</w>
प्र िया</w>
ाद ि</w>
अभि रु
िकार क</w>
अवय व
प्र ति
आं ख
ा एँ</w>
अस् वाद
देश /E</w>
वर्ध न</w>
न गर</w>
ंत क</w>
अव ेक्ष
अनु लो
अना लो
अस्त ंग
अल्ज े
रा त
ांत र
आड ियो
ग्र ा
अंज ु
ोष ण</w>
अव रुद्ध
य ास
ने त्र</w>
बा ज
अवकाश -
वृत्त िक</w>
ग ंगा</w>
क् त्र</w>
े ह</w>
अंब रा
आ ई</w>
ाल ु</w>
-उ प
ु र्
अधिकार -
अर ज़
अग ण
आदर -
न ्य</w>
अफ र
अश्व ार
वर्ष ा</w>
ान ि</w>
अधि भोग
ड् ‌
तिय ां</w>
अपस र्
अव पा
अ त्
बन्ध ु</w>
गो पन</w>
अंबु ज
ौ र</w>
ंब </w>
ध र्म
वेश न</w>
गाम िनी</w>
अल्ट्रास ोन
आं ज
लि ंग</w>
अह स्त
ी दा
अंध विश्वास
नि ष्ठ</w>
जन् म</w>
अप भ्र
ले ट</w>
अल फ़
त् कार</w>
अर प
अप लाष
अभिक ल्प
मन ्यु</w>
अद् वि
अप्र दर्श
-प ि
वा/7 34sTv</w>
अनु च्छेद
ा कारी</w>
चार ण</w>
आनु वंश
का र्य</w>
ेर ण
अल्जी र
आत्मप्र शंस
अर्ध प
/ x
अल ज
अलब ान
अध्य वसाय
लिप ्
आइ ना
अस भ
ग न्ध</w>
अभ ाग
अस ंद
आज ि
अ ष्ठ
अपह ्न
ल र</w>
दृ श</w>
आँ त
च र्य
द् व</w>
/ V</w>
ष् प</w>
अव च्छेद
अवत रण
अख़ ्त
अल्पसं ख्य
अप ाल
ध क</w>
ज़ न</w>
ब न</w>
अभि सार
अधिरो ह
अन्तः प्र
व ियो</w>
अनध िक
दी प</w>
ट ि</w>
वे दन</w>
अरा ज
अख ण्ड
अनिश् चित
ा ति
अख ड़
अना चार
अर ोग
भ ेद
असत्य ं
आत म
- मुद्रा</w>
34sTv LM</w>
अत थ
पूर्व क/M</w>
थ ्य</w>
ब ग
अव्यव ह
मन ी</w>
आद ी
ता वाद/E</w>
च ्य
अनुप्र ास
अमाव स
/ L
/L ME</w>
अध्यय ना
म् पर
भाग ्य</w>
स ाइ
ड र</w>
अवा च
अपो त्ते
रक्ष ी</w>
रो ग/M</w>
र /s8Tv
असिप ु
आत्म पीड़
अति शी
्म ी</w>
अच ेष्ट
वा य</w>
ज ियो</w>
अज िन
ास न/M</w>
द् वी
अंतः प
वि र</w>
अन ृत
अटै च
अनुत्त र
अमृत म
ड़ प
ौ टी</w>
ी स</w>
ंद्र िय</w>
अमर प्र
े ज</w>
अभिवि न
अर्द्ध नार
अंगो ला
ग़ रीब</w>
अनुकूल न
ीय क</w>
असिप त्र
अव्य य
असैन ्य
ा ण
ो ड़ा</w>
ख ी</w>
अँक ुर
अंग व
अजन ब
अधरो त्थ
इ स</w>
अल् ज़
ेर ी</w>
अम ुष
पुत्र /ME</w>
- ए
काद शी</w>
अर्द्ध -
अश ि
आं ब
अक् कल
अवि द्य
ां त्र
अधो र
अप ेंड
अर्थ ात
मर् द</w>
मा या</w>
स म
अनभि लाष
अंट ी
धान न</w>
श्च ेत
आत ्य
बेल /LM</w>
अट क
अस्थि श
अवगुण्ठ न
अन्तर् व
अन्य सं
दु ः
ा च
य /sTM</w>
ं ह</w>
अंज र
वेद ी</w>
आन्द ोल
ण िक</w>
गो ल</w>
वृत्त /M</w>
ह िका</w>
अधिक र्म
भू त
अव ार्
ाप नीय</w>
श् त</w>
अप व्यय
अवले ह
अवध्व ंस
लब् ध
अंग र
ीय न</w>
गो त्र</w>
म /E</w>
आन र्त्त
अन ित
मा स
-विद्य ा</w>
आँ कु
अप रूप
नग रीय</w>
अप्र ाप्त
य ौ
अफरी का
अनै कांत
बा ल</w>
छेद न</w>
त िक/sT</w>
ार /EM</w>
अय स्क
अट ेंड
ि न्न</w>
द न/M</w>
च्छि न्न</w>
अनि मे
अनिमे ष
वा हित</w>
इ </w>
अनि म
ंत्र ण</w>
स ीय</w>
अस त
अभि त
बी ज</w>
अं जी
अनग ढ़
ून ्य
अश्व ग
अना ब
द्घ /sT</w>
अव ित
-क्र ीड़ा</w>
्रि प</w>
ेत /M</w>
च ेता</w>
अनु न्न
्ल ुत</w>
ीय /F</w>
वल्ल ी</w>
आंत रा
अल्प ज्ञ
ात /sT</w>
अँ का
अभिस ्य
कर /E</w>
ध ाम</w>
अडि ग
आग्न े
ह री</w>
-वि श्
अनप भ्र
असं ख्य
अभि स्वी
अभिप्र ाय
अका म
अक्ष द
चिंत न</w>
पुष्प िका</w>
अप सं
गृह ीत</w>
अनु चित
ग़ </w>
अज ाग
अभ ंग
अनिष े
अनिषे क
द् म</w>
अन रु
मान व</w>
अवध ाव
अधो प
अमर ीका
-वि रोधी</w>
ि ख
ू द
ालय ी</w>
अड़ स
आन े
असह ाय
ोष ण/M</w>
आन क
-द ु
ु भि</w>
चित /M</w>
विद्य ा/JK</w>
श्र ु</w>
- इ
िक ा/K</w>
ा/7 JK
स्त क</w>
ांत रण</w>
अश क्त
अंतर ी
भो जन</w>
अठ ारह
काल ीन/sT</w>
ष ्य
अन्ध ेर
वाण ि
कर् ता</w>
अवि घ
क /E</w>
ज ै
अह ्र
अव दा
ंड क्
ंडक् टर</w>
को ण</w>
अह ुट
अवमान न
अश ा
ोत्कर्ष /M</w>
अज़ ्
ाइ यों</w>
ना श
अल ट
अभिक र्त्त
ा -पत्र/M</w>
श् म</w>
अनू ठ
पुष् प/M</w>
ंटि फ़िकेशन</w>
ोट न</w>
अछ िद्र
आग स्ट
र ता</w>
मान स</w>
आचार्य ्य
वेश ित</w>
अप ठ
ीध ्र</w>
अफ़ ्
सो स/M</w>
अंतर् स
अरब ी-
नाय क</w>
अत ुल
र् क</w>
स म्
भव ा</w>
कल ा</w>
अर्ध परि
अभि मुख
् ष
ल् ड</w>
ध ार</w>
क्र ाम
द ायक</w>
पुष्प ी</w>
अमेर िका
ला क</w>
अन् वी
िप ति</w>
ून /E</w>
र् द</w>
अध स्त
अश ै
अँड ु
ियो ग
अनुद ान
म ्य</w>
ु प्त</w>
अपराध -वि
ज्ञान /ME</w>
िप ु</w>
अवभ ास
र ु</w>
अपा ट
अभिभाव क
अल ाइ
श्र ा
श्रा द्ध</w>
अह ुरम
े ंट
अंग ुर
आध िकार
अकै ड
अगद ं
अनि द्र
अव ेर
अँग र
अन्य थ
अल रि
भाव िक</w>
अधिक तम
अँत ड़
अवन त
न्न त</w>
अँ कर
जीव ियों</w>
-वि ष
ना न</w>
ि ष्ठ
श ान</w>
ो प</w>
इ न्
ट मेन्ट</w>
अधिकार ी-
अनव श्य
ेष्ट ि
स्क ंद</w>
अफ़ सान
अत र
ौ टा</w>
अवस न्न
चार ित/F</w>
अभि भ
अमि ल
-व ै
ा/G B</w>
ंस ी</w>
-त ंत्र</w>
ा गत</w>
को ट</w>
ृष ्य</w>
अज म
ज् ज
अप्स रो
अप्सरो न्
ह ंता</w>
बाज़ /ME</w>
ीदतम ंद</w>
ना द</w>
ि द</w>
अशर फ
अड् डे
प र</w>
अग्नि सं
क ेत</w>
अननु म
ध ्
अल ग़
क्त व्य</w>
अपरि ण
अस्त मन
अल ंकृत
अल ल्ल
अंब री
आँ ट
अक्ष ांश
पा त्र/M</w>
ट्ट क</w>
ूल क</w>
श ंक
अनुत् पाद
ेन्द्र ित</w>
ध ्न</w>
अलक स
ठ ी</w>
अनु चर
अस्त्र -श
शरी र</w>
अपरि भाष
अर ल
ेक्ष </w>
आद रा
-श क्ति/PQ</w>
अध्य र्थ
- सु
अभिष ंग
स /H</w>
अभ्यु द
-द ायक</w>
अति सार
कृत त</w>
अज ो
अच ान
अग्र यो
आत्म ार
क ल</w>
आत्म ाध
अभ्य ंत
प ंच
अनह ो
अनुद्य ोग
वि न
ार ीय</w>
अनु र
त ुक</w>
आंग ्रे
आंग्रे ज़
अध् वा
ाध ु
अल्प मूल
ाप्त ाहिक</w>
सु त</w>
अध ू
C B</w>
अवि च्छि
श ाही</w>
लंब न</w>
अश्ल ाघ
म् पन</w>
आक्र ाम
क तापूर्ण</w>
वेद क</w>
त ाइयो</w>
अवध ू
ोन् मत्त</w>
अर्द्ध -नार
ी श्वर/ME</w>
जान ु</w>
ज् जित</w>
नि र
चि त्त
अंतर् परि
अट्ठ ाई
ृत ्य</w>
असं घ
रह ित/sT</w>
अपरंप रा
अन्न पूर्ण
अव स्त
ी ठ</w>
अल ाय
ुर /M</w>
अनरिक ार्
अंतर् स्र
ै र
पत्र क</w>
वर्ष ीय</w>
अभि त्र
असू य
अ क्त
असुर द्र
र्थ न</w>
अत र्क
बु द्ध
क्र ीम</w>
अव बा
कर ु
अर्द्ध पार
ड ीन</w>
अलग ाव
अल्प म
त्साह ित</w>
श्र य</w>
भाग /M</w>
मुद्र ीय</w>
अनुल्ल ेख
शास कीय</w>
पा ती</w>
ा ट</w>
र्ष /M</w>
आंत ी
आत्म ान
ुरू प</w>
ग ाह</w>
म ीय</w>
अर् ना
- कोष</w>
ृत /sT</w>
ोत् पाद
ोत्पाद क</w>
अकाउ ंट
अनाद िक
अनादिक ाल
अप व्य
अक़ ल
आक्र ो
ल त/F</w>
अन ानु
आत्म ोद्
आइसलै ंड
अंबिक ाप
अंदा ज
ले प</w>
अन ीर्
मूल क</w>
मेय त/F</w>
री क्ष
ुल ी</w>
आज ्या
ार ी</w>
अनन्या धिकार
पर् ण</w>
अम िता
अश्ल ील
अवर -स
ेव ा</w>
द् वेष
ि प</w>
भ ुक्
अनु र्व
अर्ज ै
त् र्य</w>
अनह ं
अभिह स्त
ज्ञ ानी</w>
कल् प
स्थाप न/F</w>
द्व ं
आग मन
अध्य व
पा ठ
पर क</w>
अचेत न
ब ान</w>
वि प
विप ुला</w>
अर्जेन् ट
ीन ा</w>
अन्तर् प्र
ड ु</w>
अनपा य
चेत न/F</w>
ा -प
अद्व ै
म त्ता</w>
प ार</w>
त या</w>
अर्श ो
-प्र ति
रो पण</w>
म िका</w>
अंगुश् तन
कु ंड</w>
ृष ित</w>
/Q sTM</w>
ी- त
अंग रे
वर् ष</w>
अल ब्ध
अम ार्
अप ट
ेश /M</w>
अति स
अस न्त
भा ज</w>
ुल् क</w>
आत्मा भि
ख़ ान
आध िक
वा ं</w>
ाश ी</w>
अस ाह
अन थ
ेक्ष ा</w>
अश्व म
आध ्
्य स्त</w>
अव स्फ
ुर ित</w>
क्ष र</w>
मुख /M</w>
रु ह</w>
अनसू य
अंग िर
अव दार
वर् ति
ाह र</w>
अकर्त ृ
री क्षक</w>
्म िक</w>
अनी श्वर
ग ण</w>
असु रा
धान िक</w>
ान क</w>
आग्रह ाय
त र/M</w>
गो ला
ेश र</w>
वि ष्ट/sT</w>
अप लाभ
अप प्र
अति रे
अतिरे क
अंग ू
का न</w>
अस्ता चल
असंत ोष
वाद ्य</w>
अंभ ी
मूल ्य</w>
अँ गु
ा स्थि</w>
अवि ष
अक ंप
ुल्ल ा</w>
अवि रू
र् वे
आद ्र
अँग ूठ
ीन ता</w>
अन् वाह
अधु ना
ा/I C
अग्र क
ष ण</w>
अप मिश्र
अंतरिक्ष विज्ञान
सु ता</w>
r sT</w>
अधि -
दि व
दिव स</w>
मो द</w>
कर् ता/K</w>
न /MFED</w>
आईऐ स
ाप क/M</w>
अच पल
ग ढ़</w>
अनुल ग्न
अर्ध नि
श ः</w>
अनु ष
अप्र ो
अप्र यो
अनभि ल
अफ़ सू
कल ित</w>
् वि
्वि ला</w>
य ूष
अनु दिश
अर्जेन्टि ना
ष ित</w>
प ू</w>
सो म</w>
अर्ध ेंद
अप ित
सू त्री</w>
आत्म ग
च नीय</w>
ूर ा</w>
ग्र ी
आं क
ब ोध</w>
ण ि</w>
अक्ष ित
ी प</w>
्र ा</w>
अव्य थ
बा जी</w>
अन स्ति
स /F</w>
ंश /M</w>
आध ू
ड े</w>
िक -स
अभ्य र्प
ित /E</w>
अर्ध वि
ाश न/M</w>
ठानबे वाँ</w>
ाप ित</w>
्य पूर्ण</w>
अय त
क्षे त्र
आदि ल
अड़ ताल
व ल</w>
अवि श्वास
सर /M</w>
चार /M</w>
भ िन
अछ ूत
ात ु</w>
् र्य</w>
अँ दा
अफ़ सर
चि ह्न</w>
अपह ृत
अग्र सं
अभिम ंड
आकस्म िक-
व त्स
निद्र </w>
ास ्य</w>
अनुक ंप
अपा त्र
अर ौ
अंत निर्
अनव सर
-प र
आन्त र्
ो दन</w>
पा लन</w>
अनुसू चित-
दार /M</w>
स ु</w>
अस्म ित
युक् त/M</w>
अन्त य
ाप ार</w>
अश र्
लाइ नर</w>
अव स्कर
अग्न िका
अभि वे
अद ्या
अफ़ री
अनु ष्ण
ऊ पन</w>
संग त</w>
ज़् ड</w>
स्त /M</w>
अथर्व-शि ख
अंक गण
अस िता
म र</w>
ु क
ा क
ां क/M</w>
वास न</w>
अंगु ष्ठ
अंतः स्राव
द्ध ता</w>
अल्प भाष
भ क्ष</w>
अन सि
द् वार
िय ल</w>
व ै
-प ड़
ो सी</w>
क्रम ित</w>
बंध /M</w>
अर को
अनाम िक
- ग
न्त ु
ा क</w>
ा ख
अहम क
ानु प्र
ौं ह
ी ठ
अतं र्
मुख ी</w>
अध्यार ोप
अनभ ु
आत्म द्र
ना भि</w>
क्ष मता</w>
अभिक थ
िय ता</w>
अरू पा
स्व स्त
मार् ग
रोध क</w>
य /sT</w>
ल ीन</w>
ग त/sT</w>
जा कार</w>
अन ान
कर् ष</w>
अख़ ्
त्व ा</w>
अर्थ ा
क ड़</w>
अहि ंस
अमर -
अतिक्र मण
अभ्य स्त
िय /sT</w>
अँकु ड़
मु क</w>
अस ुन
ारा ष्ट्रीय</w>
यो जन/M</w>
स्व रूप</w>
द्र ि</w>
ोह /E</w>
अँक ड़
ा ई/O</w>
अप यश
अंग -
अरू प
आत्म ल
अन्द र
/ yx
/yx M</w>
ब द्घ</w>
ज ानी</w>
अनात ुर
अल्प स
ृ श्य</w>
ंड र</w>
अज रा
रण ी</w>
चाल ित</w>
अद ाव
अवि शोध
ीर /E</w>
आत्मनि ंद
रा मो
अर्ध -स
अत लांत
स ियान</w>
बि न्दु</w>
रा ज/M</w>
अस्वी कार
ीत /sT</w>
हृद य</w>
अस मान
अपू ठ
आइस ब
अवर् ण
क ी
त्स ा</w>
अधो क्ष
ढ़ ा</w>
ह ानी</w>
स त</w>
E M</w>
अम् बे
बा ड़ी</w>
स् कर</w>
फ ा</w>
अप स्फ
क् स</w>
स् पति</w>
अन्तर् वि
अधिल ंघ
र् ती
ई -
अना कांक्ष
अनुना द
ति /QM</w>
सर् ग</w>
असह म
जी त</w>
निर् माण</w>
क ंठ</w>
अंग ौ
आख ्याय
अर् गो
न /LM</w>
ग /F</w>
वा चन</w>
ेष ण/M</w>
अधि शीत
अन्य ोद
धि प</w>
ीम ची</w>
रा स</w>
अज ीर्ण
ष ी</w>
अल्ट ्रा
न िका</w>
आ ए
थ ्या</w>
ख ोप
ं कु
निया -वासी/O</w>
अशृ ं
अशृं ख
पा ई</w>
र /FE</w>
नाथ /M</w>
अभ ेद
आकस्म िक
ू झ
ोर /E</w>
त /ME</w>
वि ष्णु</w>
ंद िर</w>
र्य /M</w>
अपध्व ंस
बा ण</w>
अभ्यु द्घ
कू ट/M</w>
िक्ष िप्त</w>
न्द ा</w>
बु द्ध</w>
अँ को
वि ष</w>
अव कर्ष
- ट
् प
प्र भा</w>
वी ं</w>
वर् ग/M</w>
ित /sTMF</w>
ग ट्टा</w>
/348sTv FED</w>
शा स्त्र</w>
िकार /M</w>
अर् वाच
अठ ान
बे </w>
ड कर</w>
अधि ग्रह
अमन ो
अब् ब
अर्ध -नार
ओ </w>
अग्र िम
अफ सर
अहम द
आँ च
े ष्टि</w>
र्ष ण
अप स्म
अनव र
अशोक -
अत ः
अतः पर
-प्र ाप्त</w>
अध ा
घात क</w>
अल्जे रिआ
अध स
व /sT</w>
अक्ष िक
अल ार्
ग्रह ण/M</w>
ो द्ध
आत्म मो
स् ति</w>
अवि लंब
आद ित
वाद पूर्ण</w>
-सम् मान</w>
राष्ट्र ीय</w>
आइ लै
क्र </w>
टि ड्
टिड् डा</w>
अमेर िक
अख़ ब
अर्थ ोप
अवध ूत
अँ द
ीक ी</w>
अप ्ल
/sTF E</w>
लो प</w>
ेत क</w>
ी श्वर
विध ा
ाप ि</w>
अल क़
अमूर् त
ता वाद</w>
ीत िक
क् व</w>
न ु
अन्तर् राज्य
अर ै
अवि चल
अवि श्र
ध ानी</w>
आन र्
अभ्य र्च
वाद ियों</w>
आंध ्र
ग ीत</w>
अनि रा
व क्त्र</w>
अस ाव
पि ंड</w>
ित्र /M</w>
भा क</w>
अनु रोध
ीय ुक्त</w>
िय त
् </w>
छ द</w>
अग ोर
अर् जन
ति मान</w>
म न्द</w>
ास ु</w>
अधि वेश
अन ठ
न त</w>
अनो क
अमर प
ंजन ीय</w>
अस्व च्छ
आँग न
अस ाढ़
ै निक</w>
ंक न</w>
अपन े
स ै
ीर् घ
अर्क सु
अपरि गण
अश्वार ोह
ंत ु</w>
आं चल
अनुशास न
अज रबैजान
y </w>
अक़् क़
बोध /M</w>
/ v
अंग न
युक् त
मा त्र</w>
अप क्रम
अन सु
अनिष्ट कर
अवग ण
ब ला</w>
अवि ज
ेय त/F</w>
ा/734sTv AI
ा/734sTvAI GCB</w>
घ न</w>
अयो ध्या
अम ोल
रि ंग</w>
अवि धि
अभि सर
द ोष</w>
भाव ित</w>
े त्र
ेय /sTM</w>
यो जन</w>
अनर् ग
ुल /sT</w>
ग्राह क</w>
ग्र ं
मी ढ़</w>
त व्य
प्रद ायक</w>
र्प ण</w>
अनुप ूर
स ना</w>
िक /FE</w>
अनात ोल
त प
त् पादन</w>
चेत न</w>
अप सार
र ज</w>
अ ऱ
भा स</w>
अँग ड़
श ा/CI</w>
आध ा-
मुख /E</w>
ना भ
क्र ोश</w>
रोध न</w>
अक्ष माल
अल्प वय
िक ि
भूष ित</w>
आत्मवि स्म
अन्तर् वे
ग ं
व ल
अवि निय
अंग भ
अर् वा
अचर ज
र् ग/M</w>
अध्याप क
आइ स्
आत्म निर्
अन सो
अध ेड़
आइड ियो
रू प/M</w>
अरुण ोद
अंतव ्
अंतव् र्य
योज ्य/M</w>
क्त त</w>
पूर्ण त</w>
अभि धार
ज्ञान /EM</w>
अंग रक्ष
/F 8
/F8 ED
अं त</w>
्र ि</w>
ंठ ित</w>
अंतर म
अंद ोह
ँ द
अनियम ित
ात /M</w>
ूर् य
अच ु
लिप् सा</w>
अवश्य ं
जिह्व ा</w>
डे ट</w>
शिक्ष ित</w>
दार /E</w>
ोट /M</w>
अर्थ ानु
ाद न</w>
ब /F</w>
सि द्धि</w>
ति या</w>
ु म
मन स्क</w>
त्र ाण</w>
क ट</w>
ज़ ी</w>
निया वास/0E</w>
न ित</w>
अर् चि
अप्रत्या श
सूच ी/NO</w>
अव्य ंग
ा ंग</w>
अर्थ -वि
ंड ्रिया</w>
अग्र प्र
अग्रप्र ेष
अनव काश
अस्थि भ
अंग स
अल्प ल
अना ज्ञ
का पन</w>
ल म्ब
क्षेप ण</w>
पा त्र</w>
ाय क/M</w>
ि शाँ</w>
अभिनय -
अर्थ ाल
ाम ्य</w>
भ ृत</w>
शाल ी</w>
अक् ट
अगम ्य
अस्वास्थ ्य
म ंग
अग िया
आइंस्ट ीन
ेक्ष ण</w>
वर् तन
ान ्य</w>
अम ोन
अँग ो
अंक पा
आ त्र
र्ष क</w>
ाकार /sT</w>
अलु म
अभ ोग
द्र व्य</w>
भो र</w>
ना ग</w>
ंठ न/M</w>
- ज्ञान</w>
वार ित</w>
अश्व -
अख़्त र
अग्नि ष्ट
ो म</w>
मिचौ नी</w>
अल् फ
ां सो</w>
ं थन</w>
अर घ
अश रा
अब् ध
ष क</w>
आँखफो ड़
ठानबे </w>
य ान/M</w>
या त्मक</w>
शी र्ष
अन ृ
अनु द्घ
च ्य</w>
अवम ूल
आक्सी जन
ान न</w>
अनौ प
सि ंग</w>
अपॉ र
चर्य ा</w>
आख्य ान
व ली</w>
अलेक् ज
आड ि
रा त</w>
ा य</w>
अस्त व्य
अस्तव्य स्त
ास ुर</w>
अनच ु
अप्र ती
र्प िणी</w>
अख ाड़
घात /ME</w>
अना ड
आटो मो
अयो नि
क ता
वाह /M</w>
चि ंता</w>
ुर िया</w>
अँग्र ेज
लिख ित</w>
अप ौ
अव लेख
अर्द्ध श
अत ल
वाल ा/IGC</w>
अहि रि
अद त्त
अह द
सलि ल/F</w>
अग्निक ो
अँख ु
ेर ा</w>
आत्मक ेंद्र
सा द</w>
अल ाउ
ज्ञ ात</w>
अंतर राष्ट्र
ह ट</w>
वा/ IC</w>
असं भ
नाय ी</w>
ँ ग</w>
मान ु
वि ष्य</w>
व णीय</w>
अर ज
शि खा</w>
न हीन</w>
ात ी</w>
अर्ध चंद्र
ान िक</w>
आज ाद
अंग ूठ
म्ब न्ध
आदि जी
आक् टे
ट िक
ूत नीय</w>
अभिम र्श
अच िर
अनुप ेक्ष
अवन ति
म ण/M</w>
अनब ुल
_ वाला</w>
अब ाध
पी टी</w>
/8ED 34sTvLM</w>
ो री</w>
अनज ु
अगड़ म
ड़ म</w>
ार्य ्य</w>
अनी श
अप िक
ांत र</w>
असर ंद
असरंद ा
अनव रू
अनु रेख
ुल /M</w>
च्य ुत</w>
अपस र्प
पूर्व /sT</w>
अनव रोध
स्त म्भ</w>
मा णित</w>
आज मू
ौ र्
अग्र पू
अना ज
घ र</w>
ड ाई</w>
क्रम ण</w>
आत्म जि
आत्मजि ज्ञ
अपव चन
ेष /M</w>
अमात ृ
अग रब
आउट साइ
अंडर स्ट
ंड ि
अंच व
अंतर ण
िका ऊ</w>
अव मो
त्र िका</w>
पत्र ीय</w>
अवि च
असि द्ध
रे क</w>
सो ची</w>
अजिन पत्र
अनुत् क
अंतःप ्ल
अस्त्र श
अंतरसं स्कृत
. .
. </w>
स्तंभ /M</w>
अनुज्ञाप ्र
िक्र िया</w>
अवा ङ
अन क्ष
ण् ण</w>
अग ोट
अल् कै
अल्कै स्त
लंब </w>
अग ेह
अज ीर
अंत ड़
O 4sTv</w>
अज़ ीब
ो ग़रीब</w>
आगाम ि
य क्त
यक्त िक</w>
आच मन
्य ार</w>
अधि स्वा
अधिस्वा मि
मे त्थ
मेत्थ म</w>
अत्यु च्च
अमन प
-भ वन</w>
ग /E</w>
अत्यु त्
सु क</w>
अनु त्स
अन्तर् ग्र
आत्मानु शास
अमुष ्य
स िया</w>
-ए कादशी</w>
अक़ ्ल
अर्द्ध प
ोह ल</w>
अना स्
वाद ित</w>
िक ेय</w>
अह िक
-ब ार</w>
वेद न/M</w>
अल्पत ांत्र
अनभि भू
आँ ह
अपेंड िस
अधो कर्ष
अनम ुर
अनमुर झ
से ना</w>
लक्ष ण/M</w>
अपेक्षा कृत
बा ज</w>
अँज ोर
म ा/IC</w>
अना र्त
अनार्त व
अगु ण
अष्ट क
ौ शल</w>
श्चेत ना</w>
ो च्छेदन</w>
निय म</w>
ां चल</w>
अस्थि ध
न् वा</w>
रोध /E</w>
-प दार्थ</w>
ा/7 AI
ा/7AI GCB34sTv</w>
आत्मप्र ति
अल ान
अग वा
आत्मस म
ास ुत</w>
अध्ययन -
अल्पा व
अड़ो स
प ड़
दुः ख
दुःख िता</w>
घ ट</w>
अक्षर -
-प्र ाच
-प्राच ीन</w>
कू प</w>
स्त र</w>
अच ंभ
/M E
/ME V</w>
अम्ल रक्त
अ षा
अषा ढ़
अम्बु क
ेश ी</w>
-प ंजर</w>
अठ ल
अभ्यु च्छ
अन्ड र
टै किंग</w>
सू चना/JK</w>
अंब ष्ठ
अप त्र
अन्य ेद
अद ेव
आज ानु
अंतः स्फ
ा/734sTv G</w>
अर्धस म
अग्र ता
-क्र म</w>
अभि भूत
ै बी</w>
अवार् ताल
आध ान
दा श्त</w>
अध्व र्य
अभि खंड
अर्ध चाल
अर्ध तर
अक् काद
आनुषंग िक
आनुषंगिक लब्ध
अफ़ सोस
ीर् घ</w>
ह /E</w>
अन जा
आँव ला
ानुसार त</w>
ु ई</w>
देश ी</w>
म ील
मील ित</w>
अल्प सु
भौ री</w>
अनु या
चन /FM</w>
आइ रि
-विक ार</w>
भौ तिक/sT</w>
अर्ध व्या
मात्र िक</w>
अह ोर
-प का</w>
अंडर ग्र
अना बद्ध
ना इयो</w>
अनुना स
र्श ित</w>
ृ प्त</w>
अपव ित्र
अनछ िप
अभिनन्द न
अवहेल न
वर्ष /M</w>
अहि फ
/FED sT</w>
आं य
ां य</w>
अच्छ ा-
े च्छ</w>
अज़ ीर्
ा/7 B
ा/7B 34sTv</w>
अहम क़
अंड ख
ोह ी</w>
भाव ना/JK</w>
को श/M</w>
रो ह</w>
झ प्त</w>
अंग </w>
श्र यण</w>
त नीय</w>
सू नु</w>
रो ग</w>
अशोभ न
अभिन ियो
अवरो ध</w>
अवैध ा
आंत क
न्द /E</w>
अँगुल ी-
पु झा</w>
ज्ञ /F</w>
ण यन</w>
च र/M</w>
त्स ित</w>
अनुन य
ज्यो ति
ज्योति ष</w>
-विश् वासी/O</w>
/ LMF
भाव ्य</w>
अनाध िकार
प ंथ
न ाप</w>
अभिज्ञ ात
आ क्षे
आक्षे पा
मा यण</w>
ह क</w>
अयो ध्य
छिद्र ण</w>
जी वन</w>
अल्फ़ ा
ीदतम न्द</w>
ी ंद्र</w>
अभि ख्य
व न/M</w>
्र क</w>
अप वाच
मो ला</w>
मान तीय</w>
अलेक्ज़ ेन्ड
बा ग़</w>
- ग्रस्त</w>
र ंग</w>
स् वेद</w>
ना र्थ</w>
मंज री</w>
अठ वा
ड़ ा/C</w>
च र्म
अग्निश िख
अनु वा
अनुवा तो
अनुवातो मि
अठ ाइ
स वाँ</w>
ग़ ानिस्तान</w>
अश्व प्र
शिक्ष ालयी</w>
रु द्ध</w>
ाव े
आथ ो
अर म्भ
आकाश च
म स</w>
अत्या ध
अन चि
अवि द्
वे ष</w>
आनक -दु
न्द ुभि</w>
रो ट/M</w>
ान्त िक</w>
अन्त ह्
अन्दा ज
अक्षर जीव
अनिमि षा
नि धन</w>
-पु स्त
-पुस्त िका/K</w>
अस ाक्ष
का व</w>
तर /E</w>
अर क्ष
ा/7JK 34sTv</w>
ाय ाद</w>
अवि रा
अर्ध चन्द्र
ज ्य/M</w>
य दा</w>
अड़ क
अड ल्
अंकु रा
र्बु द</w>
ाइ ड</w>
सलि ल
सलिल ा/JK</w>
ग्र ाम
आँव ठ
अणु जै
अणुजै विक
म ंद/E</w>
ब /M</w>
प द/E</w>
अनु स्म
-क पाली</w>
अफ़्र ीक़
अशु भ
बे ला</w>
ा/I JK
अहल ्या
अंत ोप
अह रि
अभिनिर् धार
GCB 34sTv
GCB34sTv A</w>
ा/G JK</w>
अल् बु
अरि थ
अंक ि
- लघु</w>
अन्न -क
नाश क</w>
आग -ब
आग-ब ब
अप वर्त
पूर् ण/M</w>
अध्य ेत
ावृ त्ति</w>
अवस ेर
ोन् माद</w>
अभिस ाध
असम ीप
- ख
ंग ड़</w>
ह ी
ा भि
ह् व</w>
अश ून्य
अशून्य श
अशून्यश यन
ल् क</w>
असम् मि
अमृत -बि
अग्र द
ां स्कृत
ांस्कृत िक</w>
र्थ क</w>
अनिष् ण
अग्र सर
अध भ
व ान
र -
च ाप</w>
- ग्रहण</w>
ी कर</w>
अंगम र्द
न /sT</w>
अनन ब
अनुह र
श्व र/M</w>
अनन्य ोपा
ं ड़</w>
तिक र्म</w>
अप्रत्य क्ष
अवि प
अज ह
अनधि ग्रह
अंग -व
िक्षे प</w>
स्ना न</w>
अगस्त ्य
- गृह</w>
य ून/E</w>
आ कर्ण
न ुरा
नुरा सन</w>
ज़ ्म</w>
अशु चि
अस्थि व
- अल
आत्मस ंतु
व त
र ौटी</w>
अव च्छ
अंत श्च
अप्र ास
क्षे प/M</w>
पूर्ण त/F</w>
ग्राह िता</w>
अना भूष
ा वाद</w>
अमरीक ी</w>
पा न</w>
अर्ह त
अधि वृक्
यो नि
योनि त्व</w>
अभ्यु पा
अनपा र्
अनपार् ल
िय ाम
ेत न</w>
अह ीन
ग ु</w>
अनै तिहास
अस्त ब
ल -
अंगार का
जा द</w>
आं कु
आत्म ोप
अक़् द
अज्ञात पूर्
आ ट्ट
च ाम
चाम र</w>
ाल जी</w>
ंटि टी</w>
अब ज़
ट री</w>
त े</w>
भव /M</w>
फ ला</w>
अप कर्
अं छ
आत्मनि ष्ठ
जा तियों</w>
अग ा
Q M</w>
अंगो छ
वार ी</w>
क िनी</w>
अका ट
अमर -व
अमर-व ल्ल
ान र</w>
री ट</w>
अनधि प्र
अधि दै
व स्त्र</w>
अंतर्सं बंध
अंतर्संबंध -विष
कथ ा/JK</w>
आक ि
ास ी
आदि म
भिमुख ता</w>
अभि स्त्र
ाव ण/E</w>
अग्र ी
अंतर ीप
अंत्य ेष्टि
गृ ह/M</w>
ाह रण</w>
फ़ रो
वी स/EM</w>
क म</w>
आग स्त
अ -न
अल ोन
ै च
ैच ुर
िक /ME</w>
-प रस</w>
अस्प ष्ट
क्ति पूर्ण</w>
वा त्मक</w>
व ण
ग ल्ल
गल्ल म</w>
द ित</w>
स्त रीय</w>
अं फ
अंफ ेट
अंफेट ा
अकठ िन
अंतर् वेद
अमंग ल
/q M</w>
ंध ्य</w>
अव ंश
्र /sT</w>
यन /FE</w>
अजम ेर
अजमेर शरी
ल ा/IC</w>
स्थि र</w>
अदाय ग
ू /R</w>
अणु क
ण िका</w>
अका र्
आं न
अड़ ंगे
अमरक ंट
अनादि म
अनख ुल
अनु बद्ध
िक ाल</w>
अस ज
अंग जा
अनाह त
ला इयो</w>
मु ल</w>
क्ष त्र</w>
अम ानु
अमानु ष
अम ेद
/348sTv ED</w>
ेंद्र ित</w>
ग /ME</w>
बा इ
अमे रि
- देश
ाय िक</w>
स्वन गामी</w>
आत्मस ंत
अँट िय
अप सोस
ार् कट
ार्कट िक/F</w>
शंक ु</w>
अंड ोर
र्म /sT</w>
वस ायी</w>
अम ज
ो द</w>
अश्व व
त्य ंग</w>
वा ले</w>
अपराध भ
अनुश िक्ष
क /LM</w>
त ा/734sTv</w>
आखेट ोप
दार ु</w>
अस ग
अंकुश -
ाप ेक्ष</w>
अंतर्वि रोध
अंग ना
तर त/F</w>
ष्ट /sTF</w>
िय ाना</w>
अनु स्त
रण /E</w>
अघ ुल
अव ास
सु ख</w>
अज ु
अभ ै
विध िक</w>
अप्र शंस
े ल</w>
गु ण
अमर ीश
पुर ी</w>
अट ार
अपन े-
आ प</w>
द गी</w>
ार ंभ</w>
अप पा
रे </w>
ोग रीब</w>
अन्तर् राष्ट्र
स् मात</w>
अफ़ ज़
अश् विन
कर ा/G</w>
ह स्त</w>
अंध श्र
अंधश्र द्ध
अप रु
अभि त्य
क् त/F</w>
ात ा/K</w>
आकाश न
अहम् मन
्य क</w>
आ न्न
अन्ति म
स फर</w>
अनरिक ॉर्
डि ड</w>
आधार भू
स ्राव</w>
अच म्भ
ा/ CB</w>
अचि रा
ा ज़
ांध व</w>
आत्म परि
रो स</w>
अधि द
निर् मित</w>
अद् र्य
ी ज़</w>
अनन हे
अननहे क्
अण्ड ाश
अग्र जात
अजवा यन
अंध कू
स ल</w>
अवम र्श
सं धि</w>
अप ं
अस्त्र स
-श ै
अनेकाग्र चित्त
ंच नीय</w>
अफ रा
फ री</w>
ड़ ाना</w>
आँ वाह
अति लो
ल ु
आइडे ंटी
अंतरा य
ष्ट ्र</w>
अंब ाह
ड़ /sTM</w>
अग ठ
अजग ंध
अज ान
आनु गत
अप सर
सर ीयत</w>
डे ड</w>
-ध र्म</w>
अग ूढ़
व्य ंग
अन्य त्व
ज क/M</w>
आट ोर
आटोर िक्
घ ्न
अपो ज़
ि ट</w>
अमे ठ
अना वृ
ास क/M</w>
मा ई</w>
अब ाइ
ु ह</w>
अनध ्य
जन शील</w>
ाव त</w>
शिक्ष ितत</w>
अल्प ि
- काल/M</w>
ता ब्
ताब् दी</w>
आत्म स्वी
अति पा
अनु ग्र
ग्न /sT</w>
ग ाँ
द ल
दल प्र
दलप्र भ</w>
अभिलेख ाध
ोत्स र्ग</w>
अंकु ड़
ेद ार</w>
अवरे ब
अभ ौ
आत ी-
अनर् ह
अंध का
स ुर
अधो मुख
अनर् घ
अप र्य
रा त्रि</w>
प ी</w>
ीन वी
ीनवी स/M</w>
अम ां
अक ीद
अभिक ेंद्र
अंब ाल
ीय ा</w>
ना द/M</w>
आदर स
अकार ाद
स् का</w>
अंतर् भौ
न्द ित</w>
अशौ च
आति र
आत्म चर
अनुप स्थ
च्च ू</w>
त्या ग</w>
जन /FD</w>
आध ूम
आदि -
हार /E</w>
अंत यो
अश्र द्ध
अक़ द
आक्रो श
अन मि
अग्र े
अनीर् ष
ित ल</w>
द र्
-व स्तु</w>
अनब ो
य ा/C</w>
वाणि ज्य</w>
अट वा
वय स्क</w>
स्थ ाली</w>
अश ास
रूप ण</w>
ोन् मुख</w>
अनन् ना
अभ्य ार
ावृ त्त</w>
अलूम ीन
रो ं
अंग ज
य ग्रस्त
यग्रस्त ता</w>
अत ाल
अधिप्र माण
आ चि
अमिता भ
अह र्
अणु व
व ंश</w>
ै </w>
ग़ ल</w>
पुर ुष
पुरुष /M</w>
अनछ ि
मा ला</w>
अय ज्ञ
भुक् </w>
अट ाट
अप ोह
अं चित
ज्ञ /M</w>
अन य
अप वाह
अनात्म क
अवरो प
ू हन</w>
म य/M</w>
अफ ग
कल्प िक</w>
अध े
आत्म च
अल्पा य
अल्पाय ुष
-स ि
-सि द्ध
-सिद्ध ांत</w>
अर्क च
अनि वार
मे द</w>
के /M</w>
परि धान</w>
अजी व
अनुप योग
अप्रग ाढ़
ंध ्र</w>
अक्षर पाठ
क ुल
-प ार
-पार दर्शी</w>
ज ा/G</w>
मि ति
अंतर् वेश
ेख र</w>
अपध र्म
ने मि</w>
ै रिक</w>
अर्थ ो
अनुमान ातीत
आत त
अना च्छ
लि ह</w>
अक् का
अनग ढ
ह च
अभि द
आदि अंत
कृ ष्ण</w>
वास /M</w>
-प्रति रोपण</w>
अंगुश्तन ु
त्व चा</w>
अप भाष
भा जन</w>
ंब ी</w>
अत्या व
अंतर छेद
मह ल</w>
इंट मेंट/M</w>
े वक</w>
आँध ी-त
आँधी-त ू
फ ान</w>
प् सित</w>
अत्य ल्प
असन्त ोष
य /F</w>
अवघ ोष
ज ान</w>
आत्माभि व्य
न ान/M</w>
अक्षर -सं
अभ्य ाप
अमृत ल
लोक न</w>
ृ ष्टि</w>
अवबोध क
अश र्त
भव िक</w>
अतिर िक्
त ाय
या त्मा</w>
आजी व
अर्ध -म
आघ ्र
सं प
अम ौ
स्फ ोट
-ब ाहर</w>
अत्त ाब
लक्ष ्मी</w>
अव िक्ष
अंतर्वि ल
अग्निम न्
-भ ंग</w>
अस िक्
अध बु
अभ्य व
अह ार
मन ्य/sT</w>
द्घ त/F</w>
असृ क्
अस ाइ
अर्ध यंत्र
र्श ार
र्शार ीर
र्शारीर िक</w>
पाद ित</w>
अका लो
अकालो त्
े र</w>
गोला कार</w>
-क ेंद्र</w>
घ ौ
घौ त</w>
आँक ड़
अयो ज
ार् जन</w>
अस्थ िक्ष
ाव ट</w>
अंतर् दु
अभि चार
अनभ ी
अपघ ट
-वि श्वास
अदब द
अर्धस ह
िक्र ीड़ा</w>
आत्म तु
ै ंट</w>
अं र्त
क्षेप ण/M</w>
अनबि ँध
आँ जन
अर का
ट /E</w>
कार ियों</w>
अथ ॉ
आग े
पी छ
अर त्
अँग ू
रो ं</w>
अ त्म
अक ू
अपका ष्ठ
निर् देश</w>
अह ः
अहः सं
-प्र देश</w>
अयन -सं
क्ष ्य</w>
ा छाप</w>
अधिक ्ष
अन्वाह ार्य
सं ह
-प ुरा
मह ा
आंत र्
आंतर् वेश
ा/IC JK</w>
ु कन</w>
क्र ीड़ा</w>
ि ड</w>
अतिर ंज
अतिरंज ना
आज ू
अंग पा
अनी श्व
िय ा/734sTv</w>
अनु रा
गो </w>
अधो भु
बन्ध न</w>
ी/ H</w>
अरु ंध
अंग वि
वर् त</w>
अर्धन र
अर्धनर नार
ला भ</w>
अनाध िक
न /ME</w>
ं बा
अध मुँ
अपच य
अनुराग ि
अग ू
-व ्यास</w>
च्छ क</w>
िय त/LM</w>
त् कि</w>
आनु कूल
न ीन</w>
अस्त र
अध्या स
अर ाल
प्त त</w>
आच्छ े
आनु वा
आनुवा ंश
K S
A GCB</w>
अप ी
त् वक</w>
आत्मह ित
आनु श्र
अनू ढ़
आनु यूष
वा ण</w>
आ र
अपार दर्श
अपारदर्श क
ात व्य</w>
फ ल
असं ख
द ला/G</w>
अति शय
ेव ता</w>
अंतरा त्म
अप ुर
अपुर ुष
ार्थ /E</w>
अवक ीर्ण
अपित ृ
रक्ष ित</w>
आत्मग ौर
अग्न्या शय
े न्दु</w>
अफ़ रा
फ़ री</w>
अँध ेरा
-उ ज
-उज ाला</w>
्य ंदन</w>
ख ान
ां ति</w>
य ु</w>
अग्र ान
ीत /M</w>
अश्र ाव
अर्ध ाग
िन ी/OM</w>
पा णि</w>
अरुण चू
अम् पाय
ा ख़
स् फ़
अनी ल
अम्ल ाध
ुष ित</w>
अप ाय
अभि वर्ध
अधिकार ी</w>
जन नी</w>
बाँ य</w>
अय ना
अम्ल वे
र िक/sT</w>
अनाउ ंस
शाय िनी</w>
अभिध ार्थ
आँध ी
र् म/M</w>
अंगार पा
अर्द्ध गु
ड् स</w>
याय िक</w>
अनु गाम
ी हीन</w>
असाम ंजस
अंतर ि
ंद्र ीय</w>
निष ेध</w>
झ ी</w>
कल ुष</w>
आठ खंड
अर्ध ो
अवसर ानु
अश्व रक्ष
-च तुर्दशी</w>
व /MD</w>
अल्पा भिन
अछ त
अलिप र्
अग्नि बा
अनेका र्थ
पु ष्ट</w>
चित ता</w>
अव कल
फ़ ान</w>
ौ ड़ी</w>
प्र वाह</w>
अपव हन
- क्षेत्र/M</w>
अग्र स
- -
अव न्त
अँक वा
अद ै
अक सी
अकसी र
ो त
अल्प विक
अप ्त
अभ ुक्
ोद र</w>
अनो ख
को ह
कोह ल/M</w>
अय त्न
अभिम त
अंतरा ल/M</w>
ग्रह /M</w>
अति दु
ू ँ
श य</w>
ाय ापन</w>
अधो ह
अधोह स्त
अधोहस्त ाक्ष
कूल ता</w>
प्र ाप्य</w>
प तन</w>
असं लक्ष
अज ीत
अरस न
अस्व स्थ
री करण</w>
ं पर
अवप्र ण
क्र मा
ता वादी</w>
आत्म घ
अत्यु प
अपि पा
अहि च्छ
-व्य ापार</w>
अनिष् का
श ंस</w>
फ़ ी</w>
अनास क्त
र्ष ित</w>
अश री
अशरी र
आत्माव लंब
ट /sT</w>
अविवाह ित
बी ल</w>
अयथ ो
ग ान</w>
ां ब
अद्र िक
ान ्य/sTM</w>
ट ाई</w>
आज्ञ ा-
वध िक</w>
अच ं
रु धि
रुधि र
अम ्र
ात क</w>
द हा</w>
अभिक र्
अग रू
अप ्य
अनच े
-सम् मोहिता</w>
गर् भा
शय ी</w>
अना कार
आत्म ौ
प म</w>
अस ब
अंतर् ध्व
ोपनिष द्</w>
अप्स रा
अंबु वाह
अंतर् ह
अनभि सं
अंकगण ित
असिता चि
अब्र ाह
अवस ाय
ंत र</w>
अमृत- ना
अमृत-ना द
अग्र म
ाइ मर</w>
ले पन</w>
अं ड़
े बाज़
वर्ति त/F</w>
आक्र ीड़
अण्ड न
अण्डन िक्षे
अंडर लाइ
अना कल
ेज ना</w>
अंताव स
मर् श</w>
ण् टक</w>
अशर् फ
अर ोह
अभिक र्त
ाप त्र</w>
ाध िकार
ाधिकार /E</w>
वी थी</w>
अच्यु त
त ंत्र/M</w>
द्वार /M</w>
युक् तत/F</w>
अर्थ व
सी -पड़
सी-पड़ ोसी</w>
अविन य
ी धर</w>
अस्थ ान
अंतः सं
को ष्ठ</w>
अति -उ
ाह ा/GC</w>
सि ंह</w>
प ्यता</w>
असू च
असूच ी
अंगुश् त
ियो ज
ित क/M</w>
ड़प न/MF</w>
अद ूर
अति त
अधि लाभ
ाव ली</w>
ंज र/M</w>
- लाइनर</w>
मुद्र ा/JK</w>
अरस ौंह
अंतर् धान
अश्व यु
अण ो
आदि सिद्ध
ाव ी</w>
अवत ंस
अया ज्य
अंशु माल
ग र/E</w>
वे ष्ट
अन दे
अनदे ख
अकाउ न
अकाउन टै
आग -
अफल ात
अर्ध -त
ीद त</w>
अस्वा र्थ
अस मन
अज िर
अनु सार
े ज़</w>
पं क्ति</w>
अबह ु
ंच </w>
दे खा</w>
त ोष
स्थ पन</w>
ाह ीन
ाहीन तः</w>
ह्व ल</w>
व हन</w>
ी- भाषा/K</w>
अन्व या
अट र
अवि ध्व
स्त /sT</w>
अंज ि
िक-स ज्
िक-सज् जाकार</w>
न ीति</w>
अक्र म
अंतःस त्
अप कल
अनभि प्र
अंग च्छेद
ाम य</w>
-प ी
-पी छ
असंप र्क
अनभ िक
ू ह</w>
न ्य
अनुद ाह
वा ज</w>
े ंट/M</w>
अंग द
मय /sT</w>
ुक् तत</w>
अर्क पत्र
र चना</w>
अप्र श
म ्य/sT</w>
वा इ
कर् म/M</w>
जात /sT</w>
ज्ञ ाता</w>
अकृ च्छ
ि रण</w>
त ाम
ील /LM</w>
अकै प्
आच र
रक्ष ा</w>
आउट प
ध ियों</w>
अवि ध
अंद रू
ो ज/M</w>
ाद ृश्य</w>
मंड प</w>
अलेक् जा
अष्ट श्र
अतु ंद
अधिष्ठ ाप
अड् ड
आं र
अध र्
े वन</w>
अनप ै
अनुपा ल
अव्या कृत
अती न्द्र
िय वाद</w>
ार ंभ
ष ु</w>
अह क
च र्चा</w>
टे ड</w>
अ ऊ
प ठ
अंक ेक्ष
ू न</w>
अंतःप्र ज्ञ
ज त्व</w>
ं ष्ट्र
अपा मार्
अर्थ ान
ाप द/M</w>
सार वान</w>
ीर् ण</w>
सा क्ष
साक्ष ्य/M</w>
सि ओ
सिओ न</w>
कर ी
अल ाव
आई प
आँवल ाप
र्द गी</w>
अस र्प
अर दा
वाच ित</w>
अपमान -
वल्ल री</w>
अन्न स
फ़ रामो
फ़रामो श</w>
अर ाग
अक् लि
री प</w>
अँध ियार
ति शील</w>
अक्षर क्रम
अवर सेव
ष िका</w>
ाप ी</w>
अनुप जा
पार ा</w>
अभिवि श्र
/M ED</w>
अंगी कार</w>
मु नि</w>
कार्य /sT</w>
ित ्या
ौं र</w>
न ंग
जू ँ</w>
की ला</w>
अका द
अँग न
अपशब् द
आत्मह त्य
नवा ड़ी</w>
अवि वे
अम्ब ाह
आदिक ाल
अस्पृ ह
अल वा
अंगूर श
च /E</w>
अहि व
म ंद</w>
अपस्फ ीत
अप्र क
तम स</w>
ुर क्ति</w>
अद ेह
असं चल
धान ित</w>
अंडको श
द्वि ट</w>
अलख न
अल ्यू
अत ाप
अनु र्ती
ष्ठ /F</w>
अत्या चार
प्र िय/sT</w>
ा/ M
अरमेनिया ई-
अव कर्
शोध ित</w>
न पूर्ण</w>
त्म </w>
अश् मा
झ /FED</w>
अन्योन्या श्र
क क्ष</w>
धु ंध</w>
ा ध</w>
अनु ज
मी टर</w>
अहि वा
- खाता</w>
ोष ी</w>
ां च</w>
स् टिड</w>
अब ीस
अबीस ीन
े त्र</w>
अत्या हार
अरूण ा
ी षी</w>
अल्ट्रा वाय
लै ट</w>
अग्र क्र
ग्र ंथ
मा णन</w>
ौह ां</w>
अज र्य
अब े
पर् णी</w>
अवम ंद
आक्र ु
अन्य भ
खोप ड़ी</w>
स्थ ापन</w>
अप्र भ
CI 34sTv</w>
थ िक</w>
ंकु श</w>
कल ह</w>
ट्ट /M</w>
मा ता</w>
अनु सो
चि र्
आद त्त
द ोलन</w>
च /M</w>
ाय टि
ायटि स</w>
म ण</w>
अज ड़
अगम ्या
अती ंद्र
-वि रा
असंग ल
अद् वेष
अन्तः पुर
प्र चार</w>
अर्य ्य
ह ुति</w>
अनन ुरू
प त/F</w>
याय ाव
यायाव र</w>
अब ूझ
ानु करण</w>
आत े-
आत े</w>
भाष ा</w>
अनुच् चर
ै तिक</w>
वा र्ष
वार्ष िक</w>
मुद्र ण</w>
अम्मा ँ
े ं</w>
ी कु
ीकु म
अतिशयो क्ति
म ंदिर</w>
ज /sT</w>
ित ्य</w>
अव ्र
सार थी</w>
वि जय</w>
अन ढ
क ा/CI</w>
अयु ग्
आघ ोष
-प ानी</w>
ा तित</w>
लब् ध</w>
दा त्त
का मना</w>
अर्प ण
अर </w>
अंतर स
अध ार
अनु हार
अभिरु च
दी प/M</w>
ब क</w>
ा श्र
अव ृ
पा श</w>
ी ढ़</w>
र श्
रश् मि</w>
र् गत</w>
अड़ताल िस
अदाय गी</w>
ोप देश</w>
झ </w>
अच व
स्वस्त िक</w>
अठ प
अठप ह
अठपह ल
े ंस</w>
अप वृ
म रा</w>
त स</w>
अमे ध्य
अंब े
अर क्त
आकाश- ध
्र ु
्रु व</w>
श /E</w>
ीत क</w>
त ाव
ताव श</w>
आघात वर्ध
अद् घ
आकब त
आकबत अं
आईए स
अनुद् वि
अपरि प
अपरिप क्व
वे क्षक</w>
प्त /sT</w>
ब च
अफ़ स
ंत ीन</w>
अपव ल्
आग ो
असंत ुल
अधोरेख ां
अनि रु
अंब ाप
ेंद ु</w>
म्ब न्ध</w>
अनम ील
अनुलो म
-वि वाह</w>
आक् र्षण
कर िपु</w>
शून ्य/sT</w>
वृत्त ाकार</w>
-क्र ीम</w>
सार त</w>
ज़ ा
ील क</w>
न /FM</w>
अकल ख
अग ेत
अन्न मय
अप ेन्ड
श्व ेत</w>
सू त्रण</w>
अननु कूल
पत्र ित</w>
अंतर् राज्य
्या न</w>
अंध ियार
अलल ट
आद त
अनु वास
पा र्
ू ति</w>
-व्य व
-व्यव हार/M</w>
गु ड़</w>
अनन ृ
ट ीय</w>
अंजु मन
राइ ज़्ड</w>
अक ूट
अना या
िया त्म
व िक्रम</w>
ी- इन्
ी-इन् डियन</w>
आक ृत
अरू चि
स्ना त</w>
अठ ह
अनह ोन
ीश्वर /EM</w>
अथर्व-शि रोप
अथर्व-शिरोप निष
असु विधा
रु चि</w>
ल ग</w>
शयो क्ति</w>
अप्र ीतिक
अप लो
सू न</w>
खा बाद</w>
ं प</w>
- ज्वर</w>
अवि च्छेद
अश्व ब
अक ीर्
ॉ न</w>
म ु</w>
ोप ण</w>
अर् जी
लेख ा</w>
च्छ ा</w>
अड़ ा
ात्म ा</w>
ख्या न</w>
आक्स फ़
पीड़ ा</w>
स -
अन ड
अणु जीव
अश नि
मा ग
माग धी</w>
अप चार
र् ज</w>
आंग्रेज़ ियत
आंग्रेज़ियत -वि
आख ान
आखान व
/FD LM</w>
क िक</w>
त्व र</w>
अंत ह्
अन्त ाव
फो न</w>
आत्म -व
ीय ान</w>
अभि त्या
ठ /M</w>
अपि वृक्
अनव रुद्ध
अस् ल
अनुप भोग
अल्जी रिआ
अट ूट
अनठ ाव
आत ु
-प ट
ू स
अश्व त्थ
अधो लिख
्या य</w>
अच्छ े-
अच्छे- अच्छ
अंद रु
अस ाल
प द्ध
पद्ध ति</w>
ंग म</w>
फ़ ों</w>
ति मास</w>
अधिर थ
मा त
आँ ब
ुल्ल ाह</w>
अपद्र ाव
अर्थ े
िम /F</w>
अनहं कार
अष्ट शा
अपो र्च
अंत ्रा
अफ़ रो
अग ाध
अव ियोग
अवि लो
कल ा/CI</w>
अधि मूल
्या ंकन</w>
सु र</w>
अपरि ह
अल्पकाल ीन
-द ीर्घ
पा लक</w>
अभ्या ग
अड ंगे
रु दन</w>
ग्रह /EM</w>
अम् ह
अमन ोन
अभिय न्
अग्र भू
च् च</w>
सम् मोहिता</w>
अव्य प
ट ाम
अन ंति
अल्प परि
िल ा/G</w>
आत्म र
ात्म क/M</w>
अमल ास
अमलास ा
अभ्या सर
अभि पीड़
अधि वी
अवा ड्‌
ध ार्य</w>
ाप ्र
युक्त तता</w>
ेव र</w>
पट /E</w>
ु ंग</w>
ग ै
आत ोद
अस्थ िप
ंक /sTE</w>
अफ़ ी
अनसु न
अश्व से
वास ी</w>
असम र्थ
न ीयत</w>
ीत ल</w>
अवलु ण्ठ
तम त/F</w>
वि ट</w>
अन्तर ंग
-बह िर
-बहिर ंग</w>
अनग िन
ह ्य</w>
अद्भु त
भ ी</w>
आत ृ
अख ुट
अल ंब
- अमेर
अपार ि
न्या स/M</w>
ोप ल</w>
आज्ञ ाम
ो क्ति</w>
अवच ेत
अन द
अं पाय
अक्ष मा
मिचौ ली</w>
आइसलै ण्ड
ुक् त/sT</w>
अलिप ि
अमृत ब
्रा ण</w>
द ोष
अद ोष
अन्व क्ष
अद र
र/s8Tv FED</w>
भाष ी</w>
आई ओ
ै ताल</w>
ज् जा</w>
अष्टपा श्
अग ो
आकाश ध
ग्रह ीय</w>
िका य</w>
ना भ</w>
अंश तः
अना ंद
ड़ /F</w>
ति यो</w>
अप्रस न्न
अपरा ज
आइ ंट
अंध िर
अँग्रेज़ ीदा
ष्ठ ित</w>
अपन त्व
श र</w>
अमन ुष
भा स्कर</w>
अज्ञात ना
अंतर् क्षे
ठ र</w>
ट /F</w>
अंध भ
अका ंड
ण /MFD</w>
का बाद</w>
अनी म
त्त ल</w>
चि व</w>
ई न</w>
अवच ूर्
अतिथि -स
अनै रो
क्ष ाल
क्षाल न</w>
त्स म</w>
चिंत क</w>
अह ंक
अहंक ेन्द्र
अध ग
ुर क्त</w>
अंतर राष्ट्रीय
अव र्त
अर्ध ांश
कुसु म</w>
न्न ति</w>
अंदाज़ े
अंदाज़े ब
फ़ ात</w>
आउट ड
ा त्री</w>
न ीपन</w>
मण्ड ल</w>
अँग े
अले ग्र
बि स</w>
द ाव
ोर /F</w>
अनागत ाव
ी क्ष
ल् भ
अकब क
ज ा/IC</w>
वी र्य</w>
स क्ति</w>
व णित</w>
अल्पो क्
अल्पोक् सी
अल्पोक्सी ऋ
भ र</w>
अप ाइ
अर ति
प तित</w>
अप ीड़
असृ ग्
अरि आक
ज् वाल
अविधि मान
मंड ित</w>
अवस े
-पि छ
आत्म ज
-वि जय</w>
अस्त्र -च
अस्त्र-च िकि
अंश ां
अग िर
अह ्ल
व ान्
I GCB</w>
ास /ME</w>
न ना</w>
अभ र
-व चन</w>
ड ित</w>
ा/ A
ा/A GC</w>
आच क्र
तो ग
अग्न य
परि माण</w>
अद् वय
अर्ध -श
ु ंड</w>
आई पी
अप्रे ंटि
आ ओ
अस्पृ श्य
आनुवंश िकी
आनुवंशिकी वि
पर स्त</w>
अम ीब
अंति मा
अंगभ ंग
बि ल</w>
दाय /M</w>
ात ा/G</w>
ठ ा/G</w>
अश्व -द
आई स
/ rsT</w>
लि ंग
आत्मनिर् भ
अढ़ ह
अग ती
ित क</w>
अल्प -
व्यय ी</w>
अर्थ ोपा
र् जन/M</w>
अश्मकु ट्‌
अन मा
आकाश ा
ा कर
ाकर ि</w>
आइ ट
न र
अनुच् चार
अश्म ी
अभिश ाप
अंज ुल
अन ीक
अल्प क्र
अधिमान ुष
LM ED
जीव का
जीवका णु</w>
/x y
अनल ंकृत
अक रा
ध्या न</w>
अबि न्ध
अभिला ख
यौ वना</w>
ंथ ित/sT</w>
ज्ज ु</w>
अंख ुआ
U q
अना यास
आध ा
झ ारा</w>
अध् कि
वि श्
विश् वास</w>
ाँ ग</w>
अश स्त्र
वेश क</w>
/U q
अख ्त
अँक वार
-प ट्ट</w>
ाय दा</w>
स्म रण</w>
ग री</w>
आई आ
ऐ म</w>
अनन्त -
छ न</w>
आन ँद
अभिव्य क्त
अप निर्
व क्ता</w>
अनु ग
अस ूर्य
अ ष
ाउ ट</w>
अचु ंब
अस्फ ुट
स्व रक</w>
आत्मस ाक्ष
अप ल
वी करण</w>
द्ध ा</w>
म थन</w>
अच म्
त्त म</w>
श िष्ट
अवि षा
अग ट
आनंद प्र
अंत्र द
ीत /FE</w>
ाश न</w>
अर् भ
च नी</w>
अंध ड़
अति ग
ता ब/F</w>
शील त/F</w>
अक्ष िप
अधित ्या
न् </w>
थ ुन
अफ़ ग
ंद ेश</w>
ुम ौ
ुमौ लि</w>
अपरि म
/V ME</w>
ा/GCI JK</w>
िक /EM</w>
ंत व्य</w>
अधो पा
सार थि</w>
असि न्न
आइडै ंटी
ृ ष्ठ
आत ंच
वाद क</w>
आं वल
क्ष ार</w>
निद्र ा</w>
ख न</w>
ार हित</w>
ेर ी
असम ू
स्वा गत</w>
अनल ह
अर् न्त
विक ार</w>
अन्य बी
अन्यबी ज
अप ल्ल
ृ </w>
असत् प्रति
स ाध
अल म्
दे य/M</w>
ु ध</w>
असे म्ब
ाप ्यत/F</w>
अंध ाधु
अभिन ेत्र
अश फ्र
अनल पं
अंग ांग
भ ुक</w>
ह िणी</w>
ज र</w>
अर्द्ध ांग
v </w>
ंज क</w>
भ क्षी</w>
अल् क़
यो जित</w>
द् वार</w>
अधर -बि
अवैध ानु
स मय</w>
गु न</w>
अनर् जित</w>
कार क/sT</w>
ग ीय</w>
अष्ट को
अन ँग
आन ी
ु म</w>
अनव लम्ब
का ंत</w>
शय ्या</w>
/sTF ED</w>
अग् ना
अर्ग ल
अज् झ
अवगु म्
अवगुम् फ
फ िशाँ</w>
अभिनय- ज
आक् टै
व पु</w>
अनाश ंक
वर्ष ण</w>
ार् जित</w>
च तुर्दशी</w>
अक्ट ू
अंतः को
आद्य ोपा
आद्योपा ंत
अँग ीठ
AI GC</w>
अप स्त
अनंग ी
वेद ित</w>
मंग ल</w>
अभिश ंक
अधि निष
े चन</w>
अक़ ी
अन्तर् द्व
ष्ण /sT</w>
ग्रस्त /sT</w>
अर्ध ा
मा स/M</w>
म ा/JK</w>
ह द</w>
अप्र स्तु
अप्रस्तु त
अट कन
ट कन</w>
अग्नि धार
अर्थ ि
द ोह</w>
आनु ग्रह
अस बा
आँ य-
असो सी
आइना ब
न्द ी</w>
स् ट</w>
अनस ट
आई बी
अधीन स्थ
ंत ी</w>
अँगो छ
श् र्य</w>
विच्छ ंभ
विच्छंभ ु</w>
अभि वा
आत्र ेय
करण ीय/sT</w>
अष्ट ाह
अना वि
अति ध
ख ाद
का ण्ड</w>
अजग न्ध
अप्र ेर
ाद ी</w>
अधी श्वर
अजि ज्ञ
-श ा
अद्य तन
अन वा
अप नाय
वि भोर</w>
अपर म्
अच त
अनट ्र
अं ठ
वा ष्प</w>
अंध ाह
अभिस ्र
ल िया</w>
- झ
अंतर् ध
ँ का/G</w>
अश्व ल
अभियंत ाउ
ृत /sTM</w>
ह ॉ
ाव /D</w>
क्षि ण</w>
आनु पा
अननु शास
ू क</w>
ेय स</w>
अनघ ड़
अर्द्ध चन्द्र
अभि गु
आद्य ु
ग ोल
अंतर छिद्र
ेरण ा/JK</w>
अख ेट
अरु चि
िया वास/E0</w>
शिक्ष ा/IC</w>
दी प्ति</w>
अंध ेरा
अरण्य श्व
त ीत</w>
ं र
अब्ध िन
रा कार</w>
अलल ब
अललब छ
अललबछ ेड़
ै री</w>
य ायी</w>
का ट</w>
अंशु म
ृ थ
अभिस न्ध
अद्र ो
अन मो
ल पन</w>
अनव द्य
ां त/F</w>
यो न</w>
च ार्य</w>
शीर्ष /F</w>
अमरीक ी
ं स्त</w>
भाग ीय/M</w>
आई ड
आईड ्र
अमि ट
ित ापूर्ण</w>
गम ्य/sT</w>
भाष ण</w>
श ाला</w>
ाप्त त</w>
अन स्थ
आन ंत
वत्स र</w>
अंतर् य
अंतर्य ाम
ार ों</w>
अँ सु
अवमूल ्य
अंतग्र र्
अंतग्रर् ह
मुँ दा
मुँदा ई</w>
न ीत</w>
परा यण</w>
द्वेष /E</w>
अस ीस
अनवश्य ं
क्ष /F</w>
भू का</w>
व य</w>
आत्म गु
द्य ुति</w>
अवि खंड
अन प्र
रू ष</w>
अभि ष्
व ित्र
वित्र ा</w>
या ई</w>
ूठ ा</w>
अफ़ सु
ग णित</w>
अनौप चार
अल ाभ
ु क/M</w>
अपॉर चु
अन ूर्
त ान</w>
ा/JK G</w>
अकब का
-भ ार
-भार त
-भारत ीय/M</w>
अंतः क्ष
आइसो ट
ोप /M</w>
अलेक्ज ेंड
अनाह ूत
अन्ड र्
टे किंग</w>
मर् दन</w>
ांश िक</w>
द् द
द्द ीन</w>
ला ई</w>
अभि वृ
कार ा</w>
अत्य भि
को प
अय ात
त ्य/sT</w>
मे व</w>
कि रात</w>
अनवे क्ष
अष्ट लो
अंतस् सं
चित वन</w>
अक्ष ा
ुक् ल</w>
स न/E</w>
अब ाब
ट्‌ य</w>
अवगु ं
अवगुं फ
श ेर
अपद्र व्य
ाप ीय</w>
आज कल
अंत वि
मान /sT</w>
माइ श</w>
अभिस ंत
अलेक्ज़ ा
ए स</w>
अर्धप्र स्फ
आत्म पी
आत्मपी ड
अंतर् ग
अर्ध कु
अत द्
ेश्व र/EM</w>
ग ंड</w>
अड़ िय
तिक र</w>
याय िता</w>
आदि ष्ट
स्प ष्ट</w>
ोद्ध ार/M</w>
ं छित</w>
अस वा
ंड िक</w>
ाउ ंड</w>
अ च्
अत्य ान
जन /E</w>
मार् ज
थ ऊ</w>
अव पीड़
न शीलता</w>
कु टी</w>
अशर फ़
द्ध ान</w>
अभिलेख ाग
पे जी</w>
ष् कार्य
अच ै
॰ </w>
अवि व
ार न
रु ष</w>
अति प्र
अप ुरु
अराज कता
अज न्
ी- ग
क /D</w>
ीक ृत/M</w>
त्व िक</w>
अगड़ ध
कुसु म/M</w>
असु न्
अल र्
अंगुल ्या
जन् म/F</w>
अवटु च
अवटुच ून
अज मोद
ु निटी</w>
छ ि
असम ंज
ंश ित</w>
अनब ्या
अल ू
अर्ज ेंट
क ान्
र्य ता</w>
ष् प
ानुप्र ास</w>
अर्थ ाध
अठ न्न
प ट्ट
अनि वृ
अनिवृ त्
अनिवृत् ति
वाद र</w>
त /sTF</w>
भाग ी</w>
ाद ा/GC</w>
अल कन
अनुश ो
ड़ /M</w>
चर ण/M</w>
च य/ME</w>
अल फ
आच ूष
न ंदन</w>
असल ह
ख़ान ा/IC</w>
ी क/sT</w>
आँत क
आँतक ट्ट
अश्र े
अन ड्‌
अनु च्च
अन ं
ण् ठ</w>
अपर द
िक रण/M</w>
अल्पत ंत्र
आग त
प् त/F</w>
भौ </w>
पु ण</w>
थ /F</w>
अग ढ़
अने कर
अनेकर ू
आत्म ाह
ष् मान</w>
अनु रक्त
अश रण
ीत ा/G</w>
अड़ ब
ु /sT</w>
ग्री व</w>
अक़्क़ ल
अवाक् स
अपत ंत्र
छ ाप
आत्मव िक्र
आडंब र
- या
-या त्री</w>
अग्निक ु
ज ारा</w>
मि ति</w>
अब ख
कू ट</w>
ल् प</w>
अनिर् द
अन वाँ
अनवाँ स
अंग भू
अग्र ीम
सं भवा</w>
अना स्त
अट ाल
शा क</w>
अनंत -
अवि ग
अयस् कांत
आनंद क
ंग त/F</w>
-प्र द
र थ</w>
ग ोध
बा ब</w>
अंतर्वि वे
ना ल</w>
अभिसं स्
ंप ित</w>
अग्नि दी
आँ बाह
आँ </w>
अविच्छि न्न
पुत्र /EM</w>
ं ज</w>
अवप्र ा
श न/M</w>
आग्न ेय
आद ा
अतु ष्ट
रि न/LM</w>
स व</w>
अक्ष ौह
सा ज/E</w>
अरु न्ध
अल्प रक्त
इ या</w>
्र प्रदेश</w>
अड़ ह
अह ेत
आन े-
आने- जान
अव क्षेप
पर् क</w>
अन सी
अंग छेद
रु ष
ग ीर</w>
द्वं द्व</w>
िक रण</w>
-स ह
अधि ह
स् तित</w>
ता जन्य</w>
अप ड़
रा म/M</w>
ेन् ट</w>
अभि धान
अंग ाध
अंध ान
अधिग्रह ण
अध ूम
अधो घ
-क क्ष/M</w>
ज ामी</w>
क्र ामक</w>
अय ाल
ान /F</w>
अल्ट्रासोन ो
अल्ट्रासोनो ग्रा
अड़ ँग
ड़ ँग</w>
ण क</w>
पू ंज
म्पर ा</w>
अव का
अमृत ाश
अनु क्र
अनुक्र मानु
ंब ला</w>
अधर बि
च रण</w>
भ विष्य</w>
अवम -
आख िर
ऊ ँ</w>
क्र ै
/sT LM</w>
असंप ृ
अथ ार
अथार ि
अंतः श
िक /MF</w>
न ा/G</w>
ां क्ष
आप क
ष्ट /M</w>
अधित ंत्र
अर्वाच ीन
आध ी
अज क
अम्ल -
ॉ </w>
अनु बन्ध
अध पि
अल ाप
व ट/M</w>
अनुपा र्
युक् तता</w>
अग्र ग
ंथ न/M</w>
ज़ ाद
ोर ना</w>
अंतर् कल
अश्व य
तो स</w>
ला बद्ध</w>
अर्थाल ं
अँब ास
- को
प्र माण</w>
वय व/M</w>
भेद ी</w>
अल ाट
्य कारी</w>
म्बन्ध ी</w>
ी- न
अन्त ्या
अंतर् राष्ट्र
ण ीयत/F</w>
अग्र ह
अंग ि
अंगि रा
पू रण</w>
अनधिक ृत
न् ना</w>
- स्थल</w>
ूर् त्त</w>
मह ि
ंज ा</w>
आँवल ास
भ्र म</w>
भाष िक</w>
आत्म ोत्
पुष् प</w>
अध्याप न
अल् गो
अल्गो रि
द्‌ म</w>
अनु ष्ट
अनुष्ट ु
अफ़ वाह
अच्छ ि
अच्छि न्न
ा/JK IGC</w>
ो र/M</w>
ध /E</w>
अस् नि
अष्ट भु
आजी विक
आचार भ्र
-पु ष्प</w>
आईना ब
आज्ञ ाउ
ल ंघन</w>
ढ ्य</w>
स ्र</w>
अध ीर
अनभिव्य ंज
अवि स्त
गर् भ
अलो क
अश्व न
अभ ेर
अनु षंग
त ीत
अप्र च
िया वास/0E</w>
अंग संग
अपव ंच
क्त /M</w>
ख ा/G</w>
अह ीर
अब ध
अस्प ताल
त्व ज्ञ</w>
रि आ</w>
अवा ँ
अवाँ स
आं सू
फो ड़
आ न्ध
अश िष्ट
आइडियो ल
अलु झ
अनिश् चि
अव ्व
पु च्छ</w>
स्वी करण</w>
अध ज
ष /EM</w>
ार ित</w>
अना श्र
िर स</w>
अंभो ज
क्ष ्म</w>
अटल ां
-न ीति</w>
ढ ाल</w>
अभय -द
यात्र ा</w>
अघ ्य
अपेक्ष ित
प ूत
पूत ना
पूतना ग्रह</w>
व िक्षिप्त</w>
न ल</w>
भोग /E</w>
ान े
ाने _वाला</w>
असाव धान
स खा</w>
-न ्याय
-न्याय ालय</w>
व्य /sT</w>
क्रान् ति</w>
र्थ ी</w>
ध ायक</w>
अविस्म रण
ड कर
डकर नगर</w>
क्र ीड़
क्रीड़ ा/IC</w>
ज्ञान ीय</w>
अभिलेख -
वे तन</w>
ब ृ
अवतार ण
कु शल</w>
अल व
आग ब
आतश मि
अभ्यु च्च
भ ार/M</w>
अल ंघ
बाह ्य</w>
प दार्थ</w>
अज़ ाब
अज़ाब ुल्
ब ्र</w>
अंतर देश
शील /sTM</w>
ं यित</w>
ीम /EM</w>
अश ल
ास /LM</w>
ग्रं थि</w>
ति थ्य</w>
अध ख
जी कृत</w>
आकल न
् ‌
सर् वे
सर्वे क्षण</w>
ेर ित</w>
अनि ला
त्म ज</w>
अग्र गण
ट ंक</w>
आप ट
ार् जक</w>
त्य /M</w>
च ेष्ट
चेष्ट ा/JK</w>
अष्ट श
म िनियम</w>
आज्ञाप ाल
अपु रो
अपुरो द
अनजु ड़ा/G</w>
अगड़म बग
अगड़मबग ड़म</w>
अव्यवह ार्य्य</w>
अनिश्च ल</w>
अर् मनी</w>
अहं पूर्ण</w>
अम्ल िमा/JK</w>
अनीश /FDsTM</w>
आदी चक</w>
अन्तरिक्ष -विज्ञान/M</w>
अंतराव रोधित</w>
अभिजात तन्त्र</w>
अस्त रण</w>
अनद्यतन -
अनद्यतन- भूत</w>
अवम त</w>
अपिक ंठ</w>
अग्र ांतर</w>
असरंदा ज/E</w>
अह ुर</w>
अपशकुन ित</w>
अनवरू द्घ</w>
असुर सूदन</w>
अनुरेख क/M</w>
अंका ई</w>
अव व
अवव रक</w>
आँग ुल/M</w>
आधुनिक तावाद/E</w>
अंतर्प्र जनन</w>
अरि प्र
अरिप्र कृति</w>
अस्त्र मार्जन</w>
अस ूल
असूल /M</w>
अधिकार च्युत</w>
अनाम वास/E0</w>
अनुप्रास त</w>
अपसर्प ित</w>
अपमान पूर्ण</w>
अज्ञात पूर्व/sT</w>
अल्प मू
अल्पमू त्र
अल्पमूत्र ता</w>
अवट ियो</w>
अपूर्व ानु
अपूर्वानु मे
अपूर्वानुमे य</w>
अभिम र्षण</w>
अज्ञान ांध
अज्ञानांध कार</w>
अरार /F</w>
अखंड योनि</w>
आत्मद र्प
आत्मदर्प ी</w>
अंतर्भ ेद
अंतर्भेद /ME</w>
अभिनंद िका</w>
अमेर ीक
अमेरीक ा/G</w>
अनवरोध ्यत</w>
अवले पक</w>
अशोक स्तम्भ</w>
अभिप्र माणित</w>
अध्य र्ध
अध्यर्ध श
अध्यर्धश त</w>
आजमू दा
आजमूदा कार</w>
आंत्र व्य</w>
अनस ौर्
अनसौर् टिड</w>
अंजन म</w>
अपमार् जन/M</w>
अग्रपू ज्य</w>
अज़ ाब</w>
अंबु मती</w>
अनाज घर</w>
अलबे निया</w>
अंग डाई</w>
अभिनिष् क्रमण</w>
अवि गत</w>
अग्र थित</w>
अवशेष करण</w>
आत्मजिज्ञ ासा</w>
अवनि पाल</w>
अवलो न</w>
अमावस /LME</w>
अपवचन पूर्ण</w>
अंक ूष</w>
अननु सन्ध
अननुसन्ध ेय</w>
अधिश ेष/M</w>
अख ीर</w>
अध्ययना र्थ</w>
अच्छ ाइ
अच्छाइ यो
अच्छाइयो ं
अच्छाइयों वाला</w>
अमातृ ता</w>
अवा ई/O</w>
अपार म्पर
अपारम्पर िक</w>
अगरब त्त
अगरबत्त ी/NO</w>
आटोमै टिड</w>
अल्प भाग्य</w>
आतप वारण</w>
आउटसाइ डर</w>
अंडरस्ट ै
अंडरस्टै ंडि
अंडरस्टैंडि ंग</w>
अंचव ाना</w>
अधो कर्षण</w>
अवाच ्यत/F</w>
अंतरण /VM</w>
अब ड़</w>
अनट िकाऊ</w>
अभिष ुक</w>
अवमो चन/M</w>
अपोत्ते जित</w>
अंगसं रक्षी</w>
अस्थि रोग/M</w>
अह र/s8Tv
अहर/s8Tv LMFED</w>
असिपु त्रिका</w>
अन स्त</w>
अभियोग ाधीन</w>
अवनम नीय</w>
आत्मपीड़ ितता</w>
अव ंत
अवंत िका/JK</w>
अनुमान पत्रीय</w>
अन क्ष</w>
अका ले
अकाले र</w>
अविच यन</w>
आग ति</w>
अन्न /U
अन्न/U F
अन्न/UF M</w>
अतिशी त</w>
अलक्ष ्मी</w>
असिद्ध करण</w>
अचेष्ट ितत</w>
अग्निद मनी</w>
अवश ोषित</w>
अनुसू चित</w>
आदर्श नीय</w>
आच्छाद न/M</w>
अन्व वाय</w>
अनति रेक</w>
आनंद पूर्वक</w>
आधार युक्त/sT</w>
आक ूत
आकूत /FEM</w>
अंबु चर</w>
आगम सोची</w>
आकाश कल्प</w>
आँ जियो</w>
अजिनपत्र िका</w>
अग्र ासन/M</w>
अनुत्क ंठ
अनुत्कंठ ि</w>
अंग द्वी
अंगद्वी प/M</w>
अंतःप्ल ाव
अंतःप्लाव ्मा</w>
अभि चारक</w>
आनंद मय
आनंदमय /F</w>
अवकाश -शि
अवकाश-शि विर</w>
अप्र वाह
अप्रवाह /EsT</w>
अस्त्रश स्त्र</w>
आत्मनि रीक्षण</w>
अव क्षे
अवक्षे पन</w>
अनृत /EM</w>
अटैच मेंट</w>
अनुत्तर ितत</w>
अंतरसंस्कृत ीयत</w>
अध ालय</w>
अस्म द</w>
आना ..
आना.. .</w>
अनुप पन्न</w>
अष्ट खंड</w>
अस्व त्व
अस्वत्व /sT</w>
अमृतम ूरि</w>
अहि म</w>
अशोक स्तंभ/M</w>
अरविन्द सद</w>
अनुज्ञाप्र ाप्त</w>
अप मूल
अपमूल ्य
अपमूल्य न</w>
आज िक्रिया</w>
अप्रति चार</w>
अवाङ ्न
अवाङ्न रक</w>
अज प
अजप /MFD</w>
अपह ृति</w>
अभ्युत्थ ेय</w>
अंतर् जातीय</w>
अनंत पुर</w>
अड़ ड़प
अड़ड़प ोप
अड़ड़पोप ो</w>
अंकुश कृमि</w>
अकाल त्व</w>
अंतरप्र देशीय</w>
अग्र चारी</w>
अग्र लेख/M</w>
अनक्ष ु
अनक्षु ण्ण</w>
अक्षर ौटी</w>
अंतर् भौम</w>
अगोट /8ED34sTv</w>
अप्र वास/E</w>
अल्कैस्त ीस</w>
आत्त गर्
आत्तगर् व</w>
अधो लंब</w>
अनंत त/F</w>
अन् विच्छ
अन्विच्छ ा</w>
अभिन वन</w>
अगेह िनी</w>
आधार ति</w>
अच कन
अचकन /LM</w>
अंतर् धान/M</w>
अध न्न
अधन्न ा/IGC</w>
अभ्यु त
अभ्युत क्रो
अभ्युतक्रो शन
अभ्युतक्रोशन म
अभ्युतक्रोशनम ंत्र</w>
अनि ंद्रिय</w>
अजीर न</w>
अप चारक</w>
अगेह /FsT</w>
आँध /E</w>
अंतड़ ी/5
अंतड़ी/5 N
अंतड़ी/5N O4sTv</w>
अख य
अखय तीज</w>
अमरप्र ख्य</w>
अंग ेज</w>
अंतःप्र जन
अंतःप्रजन न/M</w>
अभिविन य</w>
अव /834sTv
अव/834sTv Y
अव/834sTvY FED</w>
आत्मक थन</w>
अर्द्धनार ाच</w>
अको ड
अकोड बद्ध</w>
असं से
असंसे चन</w>
अंगोला ई</w>
अनाग र/sT</w>
आत्मब ल/M</w>
अज़ीब ोग़रीब</w>
अवगुंठन वती</w>
अनुकूलन शील/sT</w>
अक्ष पा
अक्षपा टक</w>
अंड -ब
अंड-ब ंड</w>
आगामि /sT</w>
अंतर्व ै
अंतर्वै यक्तिक</w>
आचमन ीयक</w>
अम ेट
अमेट ्य/sT</w>
असिपत्र क</w>
अग ्यार</w>
अव्यय त/F</w>
असे स
असेस मेंट</w>
अर् वा/CI</w>
आध ीन/sT</w>
अलल ितत</w>
असैन्य ीक
असैन्यीक कृत</w>
अंड ाण
अंडाण ु
अंडाणु /R</w>
अति भोग
अतिभोग िता</w>
अनुवाद नीय</w>
अंत घ
अंतघ ाई</w>
अधी ष्ट</w>
अधिस्वामि त्व</w>
अपव ोड़ा</w>
अम ार/E</w>
आक्ष पट
आक्षपट लिक</w>
अन्तर् ज्योति</w>
अंति मेत्थम</w>
अधिश ्ल
अधिश्ल िष्ट</w>
अत्युच्च /sT</w>
अमनप ंस
अमनपंस द/E</w>
अतिथि -भवन</w>
अधिष्ठ ान
अधिष्ठान ं</w>
अध्यक्ष पद</w>
आज्ञा फलक</w>
अक्षि द</w>
अष्ट तार
अष्टतार िणी</w>
अभिश क्त</w>
अल्फ़ ाल
अल्फ़ाल ्
अल्फ़ाल् फ़
अल्फ़ाल्फ़ ा</w>
अन ती
अनती खी</w>
अभय चारी</w>
अक् ति</w>
अका ंड</w>
अँकुर ियो</w>
अमर ू</w>
आं जी</w>
अंगुलि मा
अंगुलिमा ल/M</w>
अंगव स्त्र</w>
अभिप ्ल
अभिप्ल व/M</w>
अनार्द्र ीकृत</w>
अत्या ग/E</w>
अजनब ीयत</w>
अंगूर िया</w>
अधरोत्थ ा</w>
अ इस</w>
अत्युत् सुक</w>
अधिक- दिन</w>
अनुत्स ेक</w>
आकार िकीविद</w>
अन्तर्ग्र थन</w>
अपाव त्त
अपावत्त र्
अपावत्तर् न</w>
अक ूट</w>
अर्थ ्य</w>
अध्य धीन</w>
अल्ज़ ेरी</w>
अछ </w>
अपव रीय</w>
अनभ रा
अनभरा पन</w>
आत्मानुशास ी</w>
अमुष्य पुत्र/ME</w>
अंतरा काश</w>
अटै क्
अटैक् सिया</w>
अध्य शन</w>
अपरा -एकादशी</w>
आत्म -सं
आत्म-सं भव</w>
अग्न्य गार</w>
अर्ह न/M</w>
अक़्ल कुल</w>
अभीष्ट द</w>
अर्द्ध- वृत्त</w>
अर्द्धप ोहल</w>
आतिश य
आतिशय ्य</w>
अनास् वादित</w>
अशि शु
अशिशु /R</w>
आंब िकेय</w>
अहिक ांत</w>
अस घ
असघ नन</w>
अंग्रेज़ /EM</w>
अश्र प</w>
अक्कल -बार</w>
अभ्या वेदन/M</w>
असु शील/sT</w>
अक्षर माल
अक्षरमाल ा/CI</w>
अनिष् छ
अनिष्छ नीय</w>
अल र्क
अलर्क ग्रस्त</w>
अविद्य /F</w>
अल्पतांत्र िक</w>
अयस ायक</w>
अधोर क्त</w>
आचार ला
आचारला ज</w>
अस क्षम</w>
अध्र ि</w>
अनभिभू त/sT</w>
अपान ा
अपाना थ</w>
आँह ाँ</w>
अपेंडिस ाइ
अपेंडिसाइ टि
अपेंडिसाइटि स/M</w>
अधि स्फोट</w>
आँध ीध
आँधीध ूल</w>
अधोकर्ष क</w>
अस्थिक ा/G</w>
अनमुरझ ाई</w>
अर्थात िक्र
अर्थातिक्र म/M</w>
अवद ंश</w>
असमा धान</w>
आकाश सेना</w>
अपन त्व/M</w>
अस को
असको ल</w>
अर्णव पति</w>
अरि मर्द</w>
अना ज़
अनाज़ माया</w>
अप लक्षण/M</w>
आदि शेष</w>
अनुभव सम
अनुभवसम ृ
अनुभवसमृ द्ध</w>
अवन ति</w>
अनिवार्य तापूर्वक</w>
अनभिलाष ्य</w>
अपेक्षाकृत त/F</w>
अंटी बाज</w>
अँजोर /8sTvLMFED</w>
अस्थ मा/IC</w>
अनार्तव /FsTM</w>
अदल ब
अदलब दल</w>
अन्तर् गति</w>
अगुण वादी</w>
अभिसं धानन</w>
अकाल ी-
अकाली- भा
अकाली-भा ज
अकाली-भाज पा</w>
अनाक स्म
अनाकस्म िक</w>
अष्टक ौशल</w>
आध ात
आधात /FM</w>
अतं श्चेतना</w>
अंड ोच्छेदन</w>
आत्य न्त
आत्यन्त िक</w>
अर ीकरण</w>
अल मु
अलमु नियम</w>
अग्र ांचल</w>
अस्थिध न्वा</w>
अमर बेल/LM</w>
अधिकार ना</w>
अस्त्र रोध/E</w>
असत् -पदार्थ</w>
अभिप िता</w>
अटक ा/7AIGCB34sTv</w>
अंतः शुद्धि</w>
आत्मप्रति ष्ठा</w>
अलक्ष ्य</w>
अस्थिश ोष</w>
अश्व विहीन</w>
आत्म भूति</w>
अलान िया</w>
अगवा डा</w>
अर्य मन</w>
अण्ड ाकार</w>
अढ ैया</w>
अरार ुट</w>
आख विक</w>
अवगुण्ठन मुद्रा</w>
आत्मसम र्पण/M</w>
अंबिक ासुत</w>
अध्ययन- अध्य
अध्ययन-अध्य ापन</w>
अल्पाव काश
अल्पावकाश /M</w>
आ करण</w>
अवलम्ब हीन</w>
आदेश पूर्वक</w>
आँक बाँ
आँकबाँ क</w>
आँसू रहित</w>
अड़ोस पड़
अड़ोसपड़ ोस</w>
अधिमान ित</w>
अंतरा वेश</w>
अमर ुत</w>
अंगी कार
अंगीकार ना</w>
अप्रस ाध
अप्रसाध न</w>
अध्य ीत</w>
आधार णीय</w>
अन्तर्व स्तु</w>
अन्यसं भोग
अन्यसंभोग दुःखिता</w>
अन्तर् घट</w>
अकाल प्र
अकालप्र ौ
अकालप्रौ ढ़</w>
अर्क मूल</w>
अमर ु</w>
अल ीम</w>
अक्षर- यो
अक्षर-यो जक</w>
अन क्षर/M</w>
अफ़ग़ न</w>
आधुनिक -प्राचीन</w>
आत्मनियंत्र ण
आत्मनियंत्रण हीनता</w>
अनिर्ण य/sTM</w>
अग्र कूप</w>
अंतर् जन
अंतर्जन स्तर</w>
आनंद प्रद
आनंदप्रद त/F</w>
अभ्य ुक्ति</w>
अनाद रित</w>
अन्तर् वती</w>
अचंभ ा/CI
अचंभा/CI B</w>
आँख- भौ
आँख-भौ ंह</w>
अभिय ान
अभियान /MEV</w>
आतंक न</w>
अनी ति</w>
अम्लरक्त ता</w>
अवष्ट ंभ
अवष्टंभ /M</w>
अषाढ़ ीय</w>
अम्बुक ेशी</w>
असंब ं
असंबं द्ध</w>
अंजर -पंजर</w>
अत्यंत िक/sT</w>
अध्ययन वृत्ति</w>
अक सरियत</w>
आगम वेदी</w>
अठल ा/734sTv</w>
अभियोग पूर्ण</w>
अधिग ण</w>
अप क्र
अपक्र ामी</w>
अभ्युच्छ ्र
अभ्युच्छ्र य</w>
अभ्य र्पण/M</w>
अध् वि
अध्वि स</w>
अन्डर टैकिंग</w>
अभि सूचना/JK</w>
आन्दोल नकारी</w>
अंबष्ठ /MFD</w>
अं नि
अंनि आ</w>
अभिला क्ष
अभिलाक्ष णिक</w>
अपत्र य</w>
अन्येद ्यु</w>
अंबु शायी</w>
अंतर कालीन</w>
अन्तः पुर</w>
अक्षि गोल</w>
अदेव /sT</w>
आजानु भुज</w>
अवरा ध
अवराध न/MF</w>
अंतःस्फ ुर
अंतःस्फुर ण/M</w>
अंतःपुर वास
अंतःपुरवास िनी</w>
अघ ा/734sTvG</w>
अर्धसम वृत्त/M</w>
अग्र जन्
अग्रजन् म
अग्रजन्म /FEsT</w>
अत्य न्त
अत्यन्त /sTM</w>
अनात र</w>
अज ंघ
अजंघ </w>
अक्षि गु
अक्षिगु हिका</w>
आत्मत त्त्व</w>
अश्व पथ</w>
अच भौ
अचभौ न</w>
अग्रता -क्रम</w>
अधिकर्म /FE</w>
अभिभूत /sT
अभिभूत/sT V</w>
अज़ र्</w>
अप खंड</w>
अछ न</w>
अनिर् वि
अनिर्वि ण</w>
आकर्ष ी
आकर्षी णी</w>
आइंस्ट ाइन</w>
अज ग़
अजग़ ैबी</w>
अवार्ताल ापनीय</w>
अपस र्पण/M</w>
अव कृ
अवकृ प
अवकृप ा/IC</w>
आधान वती</w>
अव छ
अवछ ंग</w>
अज़ र्
अज़र् दाश्त</w>
अपव्यय /ME</w>
अपकार क/sT</w>
आगार ध
आगारध ू
आगारधू म</w>
अध्यक्ष ा
अध्यक्षा -न
अध्यक्षा-न र्स</w>
अधि धारण</w>
आत्मकथ ्य/M</w>
असंब धित</w>
अवह ालिका</w>
अवलेह क</w>
अगर सार</w>
अध्वर्य ु
अध्वर्यु वेद</w>
अभिखंड न
अभिखंडन ीयता</w>
अवध्वंस नीय</w>
असृ ज
असृज नात्मक</w>
अर्धचाल क/M</w>
अविस्म रण</w>
अर्धतर ल
अर्धतरल ीकृत</w>
अक्काद ियन</w>
आनुषंगिकलब्ध ियाँ</w>
आत्मसं य
आत्मसंय म
आत्मसंयम /EM</w>
अंक मा
अंकमा ल</w>
अंज ुरी</w>
अंगर ंगी</w>
अक ीयन</w>
अंत डी</w>
अंतर् घट</w>
अक्ष पट
अक्षपट ल/M</w>
अधब ूढ़
अधबूढ़ ा</w>
अस्तित्व वाद/ME</w>
अधि बि
अधिबि ंता</w>
अने ला</w>
अंतर गोत्र</w>
अलम र</w>
अनुद्य म/E</w>
आत पा
आतपा भाव</w>
आनर्त्त नग
आनर्त्तनग री</w>
अम ाइयो</w>
अफ़सोस जनक</w>
अक़् वाल</w>
अधिक ा/734sTv</w>
अभिसं स्कार</w>
अनित /FsT</w>
अद ीर्घ</w>
अस् ने
अस्ने ह/E</w>
आद ूषित</w>
अन तो
अनतो ला</w>
अर गो
अरगो ट</w>
अठ मास
अठमास ा/IGC</w>
अनजा ँ
अनजाँ च
अनजाँच ा/C</w>
अभि जय</w>
आनृ शंस
आनृशंस ्य</w>
अस्त्र -विद्या</w>
आँवला -स
आँवला-स ार</w>
अमह र/M</w>
असमा ंगी</w>
अनुबंध ानुसारत</w>
अनस ां
अनसां इ
अनसांइ टि
अनसांइटि फ्र
अनसांइटिफ्र िक</w>
अल घ
अलघ ु
अलघु करणीय</w>
अनह ुई</w>
आँकु ड़ा/G</w>
अन्तर् देशी</w>
अर्ध ोन्
अर्धोन् मीलित</w>
अपरूप /sTE</w>
अंतर् नगरीय</w>
अल्पसु वि
अल्पसुवि धा</w>
अमल बे
अमलबे ंत</w>
अप्राप्त यौ
अप्राप्तयौ वन</w>
अपत्य वाचक</w>
अविक्र यण</w>
अँ भौरी</w>
अनुया चन/FM</w>
अफरीका -संबंधी</w>
अध् कि</w>
आइरि श</w>
अनैकांत िक
अनैकांतिक ह
अनैकांतिकह ेतु</w>
अंगु सा/G</w>
अल बाल</w>
अभिया च
अभियाच िका</w>
असंस द
असंसद ीय/sTM</w>
अनुष्ठान न</w>
अंतर् छेदन</w>
अवी ह</w>
आज्ञा भ
आज्ञाभ ंग/M</w>
अतीत वाद
अतीतवाद वि
अतीतवादवि रोधी</w>
अंग ड़</w>
अन्न -विकार</w>
अरर /8sTvFED</w>
आधि भौतिक/sT</w>
अक्र ान्त</w>
अमर ई</w>
अंज बार</w>
अनुभू य
अनुभूय मान</w>
अर्धव्या स/M</w>
आकाश- यान</w>
अड़ ार/EM</w>
अन्तर् भ
अन्तर्भ ासी</w>
अर्ध मात्रिक</w>
अर्ध- वृत्त</w>
अधो मंड
अधोमंड ल/M</w>
अदल ी-
अदली- ब
अदली-ब द
अदली-बद ली</w>
आज्ञा त/F</w>
अयस्क ान्त</w>
अहोर त्न</w>
अरक /8sTvLMED</w>
अध -पका</w>
अटेंड ंट</w>
अभिध ावक</w>
अंडरग्र ै
अंडरग्रै जु
अंडरग्रैजु ए
अंडरग्रैजुए ट</w>
अमन /MF</w>
आदर्श हीन/sT</w>
अनाबद्ध क</w>
अर्थात र</w>
अंतस् सार/M</w>
अध्ययन /MV</w>
अपंग घात</w>
अर्ज मा</w>
अन्तर्द ौह
अन्तर्दौह िक</w>
अंतर्नि रीक्षण</w>
अमीर ाना</w>
अछ िन्न</w>
अर ध</w>
आनंद ि</w>
अरु नाइयो</w>
अट ाइयो</w>
अनुनास िक
अनुनासिक वत</w>
अदृष्ट वाद/M</w>
अंग िया/JK</w>
अभिर तत/F</w>
अन्तर िक</w>
अभिव दन/M</w>
अभ्या धानन</w>
अध्यात्म योग
अध्यात्मयोग निलय</w>
अनव च्छिन्न</w>
अनिमेष लोचन</w>
अल्प ान्तर</w>
अह ाह
अहाह ा</w>
आग्न ेंद्र</w>
अँगरे जिन</w>
अप ूत
अपूत /FEsT</w>
अवद ोह</w>
अंतर् गम</w>
अंत वर्ण</w>
अघ ट
अघट नीयत/F</w>
अंतर्प्र वाहित</w>
अभ्युद् देश
अभ्युद्देश क</w>
अक्ष न
अक्षन ति</w>
अनुमान सिद्ध</w>
अको ना
अकोना इ</w>
अनि मा</w>
अनिम ंत्रण</w>
अस्प र्शित</w>
अमू त्तर</w>
अपव िक्र
अपविक्र य</w>
असत्य वाद/E</w>
अर्धव्या सीय</w>
असत /sTME</w>
अंतराल युक्त</w>
अभित ृप्त</w>
अकड कर</w>
अन्न- जल</w>
आक् र्षण</w>
अभ्य ुक्त</w>
आज ा-
आजा- ग
आजा-ग ुरु</w>
अधिक तिथि</w>
अपवित्र ित</w>
अनछिप ा</w>
अभिह र</w>
अघोर पन/F</w>
अभिनन्दन -पत्र/M</w>
अवहेलन ापूर्वक</w>
अरु स</w>
अपद्र वित</w>
आनंद कर</w>
अभिध ेय
अभिधेय ार्थ/M</w>
अक रण</w>
अवश ्यत/F</w>
आत ार</w>
आदित्य व्रत</w>
अजात ारि</w>
अबु भु
अबुभु क्षा</w>
आधार वर्ष/M</w>
अहिफ ेन
अहिफेन बीज</w>
अंचल ीय/sT</w>
अंजी र</w>
अनगढ़ /FEDsT</w>
अने ग</w>
आचार हीनतः</w>
अवघ र्ष</w>
अन् वे
अन्वे ष्टा</w>
अंगार ण</w>
अभिश ून्य
अभिशून्य न</w>
आंय ब
आंयब ांय</w>
आदि शक्ति/PQ</w>
अन्य व्रत</w>
अश्वग रु
अश्वगरु ड़</w>
अवरो प/M</w>
अच्छा- मह
अच्छा-मह ंगा</w>
अपार्ट म
अपार्टम न्ट</w>
अपराध त/F</w>
अनुद्ध त/sT</w>
अपूर्ण ेच्छ</w>
अनाब द्घ/sT</w>
अज़ीर् नामा</w>
अरिय ा/7B34sTv</w>
अंतर स्थ</w>
अधीक्षक हि
अधीक्षकहि ंदी</w>
अहमक़ पन/F</w>
अवित रित</w>
अंडख ोल</w>
आंतर िक/sTM</w>
आटो वाहन</w>
अर्थात /MFED</w>
अनुप द</w>
अयुग्म वाह</w>
अर् तन/M</w>
अम्ल ीय/sT</w>
आनंद -क्रीड़ा</w>
अभिव ता</w>
अग्र कर</w>
अलग /MF</w>
अरस ात
अरसात /FED</w>
अध्यार ोही</w>
अहं भावना/JK</w>
आदर्श ्य/sT</w>
असन् ना
असन्ना ध</w>
अघ ्रिप</w>
अंतर् मन
अंतर्मन /FM</w>
आइसो ब
आइसोब ्यू
आइसोब्यू टे
आइसोब्यूटे न</w>
आनंद ब
आनंदब ध
आनंदबध ाई</w>
अनिक ेत/M</w>
अठ ई
अठई ं</w>
अप विद्य
अपविद्य ु
अपविद्यु तन</w>
अमर कोश/M</w>
अधरो ष्ठ
अधरोष्ठ /M</w>
अव्यव धान</w>
अंतर् गमन</w>
अस्त्र ाल
अस्त्राल े
अस्त्राले ब</w>
अक्षि चेता</w>
आन्द ू</w>
अवरोह -आ
अवरोह-आ रोह</w>
अख ौ
अखौ ट
अखौट /FDM</w>
आद्यंत हीनतः</w>
अचेत त/F</w>
अनुन्न ति</w>
अनाप ्लुत</w>
अधिश ुल्
अधिशुल् क/M</w>
अपकेंद्र ितत</w>
अभिवि झप्त</w>
अधिक- अंग</w>
अव श्रयण</w>
अग मन
अगमन ीय/F</w>
अपरि र्व
अपरिर्व तनीय</w>
असं वर्त
असंवर्त मान</w>
आघ ्रा
आघ्रा ण/M</w>
अमर वल्ली</w>
अमर सर
अमरसर ित/F</w>
आंतरा ल</w>
अर्क सूनु</w>
अन् जु
अन्जु मन</w>
आत्मविश्वास पूर्वक</w>
अर्जुन रोग</w>
अनुपात हीन/sT</w>
अयान /FEsT</w>
असि लो
असिलो मा</w>
अल्पज्ञ ात/sT</w>
आछ ादित</w>
अप ांत
अपांत र/sT</w>
अंज ित</w>
अक्र िय
अक्रिय करण</w>
अँका इयो</w>
अमरक ंद</w>
अशोभन /sTM</w>
अपकार िता</w>
अध्ययन ेतर</w>
अभिनियो जन</w>
अलिंद नि
अलिंदनि ल
अलिंदनिल य-
अलिंदनिलय- अवरोध</w>
अम का
अमका -ध
अमका-ध म
अमका-धम का</w>
अनभ्य सित</w>
अवैधा चार</w>
आंतक पूर्ण</w>
अग् र्य</w>
अभिस्य न्द/E</w>
अँगुली- छाप</w>
अतिथि शाला/JK</w>
अल प्
अलप् पुझा</w>
अनभि भव</w>
आदेश -पत्र/M</w>
अहो ई/O</w>
अभो जन
अभोजन ीय/sT</w>
अनव ज्ञ/F</w>
अप्र ाग
अप्राग ि
अप्रागि तिहास
अप्रागितिहास िकता</w>
अग्न्या गार</w>
अध कर/E</w>
अग्निश र्
अग्निशर् मा</w>
अनंत धाम</w>
अमे ट</w>
अवगाह ्य</w>
अडिग त/F</w>
अभिप्र णयन</w>
अंबर चर/M</w>
आग्ने पु
आग्नेपु रा
आग्नेपुरा ण</w>
अणु -विद्य
अणु-विद्य ुत</w>
अन्ना हरी</w>
अवकु त्सित</w>
अनुनय -वि
अनुनय-वि न
अनुनय-विन य</w>
अधः चेत
अधःचेत क</w>
अंक- ज्योतिष</w>
अंच ति</w>
अन्ध -विश्वासी/O</w>
अभि नीय</w>
अध्या देश/M</w>
अड़ न
अड़न /LMF
अड़न/LMF D</w>
अ- सु
अ-सु प्र
अ-सुप्र भाव्य</w>
अनपभ्र ंश</w>
अडॉ ल्
अडॉल् फ</w>
अन् य़
अन्य़ </w>
अभि वृत्ति</w>
अवस क्त</w>
असंख्य क/sT</w>
अनाधिकार िक</w>
अभिस्वी करण</w>
अघोर पंथ
अघोरपंथ /ME</w>
अभिप्राय त</w>
अनाप -स
अनाप-स नाप</w>
अभिज्ञात /sTMF</w>
आक्षेपा र्थ</w>
अंतर् भाग</w>
अध्यात्म रा
अध्यात्मरा मायण</w>
अकु हक</w>
अयोध्य ाप
अयोध्याप ति</w>
अध् शि
अध्शि ष</w>
अकाम दिक</w>
अक्षद ेव
अक्षदेव ी</w>
अनिष्ट चिंतन</w>
अगल -बग
अगल-बग ल</w>
अंतर् छिद्रण</w>
आद ेस</w>
अनुद्वे लक</w>
अलंकार शास्त्र
अलंकारशास्त्र /ME</w>
अश्व जीवन</w>
अल्फ़ा ज़</w>
आदित्य पुष्पिका</w>
अंग दान
अंगदान िकी</w>
अपसं स्
अपसंस् कृति</w>
अभ ार्य</w>
अल्प श</w>
अक़ ीदतमन्द</w>
अद्र ींद्र</w>
अप्रति गृहीत</w>
अभि लो
अभिलो पन/M</w>
अभिख्य ा/IC</w>
आध वन/M</w>
अस्थ ीय</w>
अनुचित ्रक</w>
अन्त िक/sT</w>
अपराध िता</w>
अपवाच ा/G</w>
अक्ष हीन</w>
अदा कर्त्ता</w>
अमिश्र /sT</w>
अक्षम कृत</w>
अरि ल्ल
अरिल्ल /M</w>
अभि माद</w>
अज मोला</w>
अनन्य हृत</w>
अंगार क
अंगारक वार</w>
अज मानतीय</w>
अलेक्ज़ेन्ड ्रिया</w>
अलि बाग़</w>
अंगुल ीय</w>
अभाव -ग्रस्त</w>
अंतरंग तापूर्वक</w>
अवग म</w>
अनभिज्ञ ात</w>
अवक्र य/M</w>
अनू क
अनूक ूल</w>
अत्या कर्ष
अत्याकर्ष क</w>
अद्व य/M</w>
अनर स
अनरस /FDM</w>
अजाग रू
अजागरू क</w>
अभंग /EsT</w>
अभ्यु द्ध
अभ्युद्ध रंग</w>
अग्न्या यु
अग्न्यायु ध/M</w>
अरण्य चंद्र
अरण्यचंद्र िका/JK</w>
अनिषेक ज</w>
अनुराग /q
अनुराग/q 34sTv
अनुराग/q34sTv ME</w>
अव ज
अवज य
अवजय /LM</w>
अछ द्म</w>
अनरु चि</w>
अंतः स्वेद</w>
अव म/M</w>
अनुमोद नार्थ</w>
अनृत क</w>
आतंक शीलता</w>
आतश दान</w>
अधरा ह</w>
अस्म दीय</w>
अरि हीन</w>
अशौ र्य</w>
अंतरंग /sTME</w>
आक्षेप ित</w>
अभा य</w>
अंगार मंजरी</w>
अठवा ड़ा/C</w>
आखेट न</w>
अंध ौरी</w>
अर्ध मानव</w>
अवधाव न/M</w>
अधो चर्म
अधोचर्म ीय</w>
अंग राग
अंगराग व्य</w>
अधोप तन
अधोपतन कारी</w>
अनुपा तीय</w>
अयुक् तत्व</w>
अमरीका -विरोधी</w>
अंग्रेज़ वाद</w>
आनंद मास</w>
आँव /MFD</w>
अभिश ंकित</w>
अर्ज क/sTM</w>
अमनप स
अमनपस ंद/E</w>
आनंद ोद्
आनंदोद् गार</w>
अधिकार क</w>
अस्थि हार</w>
अज्ञात जन
अज्ञातजन -भ
अज्ञातजन-भ ीर
अज्ञातजन-भीर ु</w>
अतु ंग/sT</w>
अधि रु
अधिरु ढ़</w>
अग्निशिख /FDM</w>
अनुवातोमि र</w>
अठाइ सवाँ</w>
अधिय ार
अधियार िन</w>
अनन ूद
अननूद ित</w>
अफ ग़ानिस्तान</w>
अश्वप्र शिक्ष
अश्वप्रशिक्ष ण</w>
अंतर शिक्षालयी</w>
अधिकार -वि
अधिकार-वि रुद्ध</w>
अट ावे
अटावे उ</w>
अमन ै
अमनै क
अमनैक /ME</w>
आथो राइ
आथोराइ ज</w>
अरि ंद
अरिंद म</w>
आई साइ
आईसाइ ट</w>
अध फर</w>
अड़स ट्टा</w>
अरम्भ /834sTvED</w>
आकाशच मस</w>
अबोध त/F</w>
अवे चित</w>
आद ेव</w>
अवगुंठ ्य</w>
अत्याध ुन
अत्याधुन िक</w>
आघ ूर्ण</w>
आँव ड़
आँवड़ ना</w>
अंदा जन/F</w>
अन्धकार पन</w>
अभिसं श्रयण</w>
आने वाल
आनेवाल ा/GC</w>
अनु गत
अनुगत त</w>
अधिमा ंस</w>
अप्र युक्त/sT</w>
अनचि न्
अनचिन् हा</w>
असहाय पन</w>
अनल सित</w>
अपां पि
अपांपि त्त</w>
आजान -द
आजान-द ेव</w>
अणु ब
अणुब म/M</w>
अविद् वेष</w>
आत्मप ोषण/M</w>
अंतर्द ाह/M</w>
आनक-दु न्दुभि</w>
अख रोट/M</w>
अपन ान्तिक</w>
अन्तह् पुर</w>
अन् नि</w>
अभिनि श्
अभिनिश् चित/M</w>
अधिक- तिथि</w>
अमृत वा
अमृतवा का</w>
अर्धद ेव
अर्धदेव /sTM</w>
अन्दाज पट्टी</w>
अंग विद्या/JK</w>
अतीत /sTM</w>
अक्षरजीव ीय</w>
अर्ह ित/sTM</w>
आदि मान</w>
अज् जु
अज्जु का</w>
अक्षु द्र
अक्षुद्र /M</w>
अन श्रु</w>
अश्म गर्भ</w>
अरो ख</w>
अकौ वा</w>
अनिमिषा क्ष</w>
अभ्या सन</w>
अनादि निधन</w>
अधि दत्त</w>
अश क्ति</w>
अनिष्ट -इ
अनिष्ट-इ ष्ट</w>
आंदोल नशील</w>
अरु ज/M</w>
अपार दर्शक</w>
अंह ति</w>
अधो क्षेप</w>
आढ्य वात</w>
आचरण -पुस्तिका/K</w>
आनंद क</w>
असाक्ष र</w>
अंत्या क्ष
अंत्याक्ष र/ME</w>
अल्ज़ मै
अल्ज़मै र्स</w>
अज काव</w>
अब री
अबरी दार</w>
अलं कृति</w>
अक् सरियत</w>
आउटसाइ ड</w>
अभिव्यंजन शीलता</w>
अठ ो
अठो तर/E</w>
अरक्ष ितत/F</w>
अधिय ा/7JK34sTv</w>
अनाद ायाद</w>
अविरा म
अविराम ित/sT</w>
अपां निधि/PQ</w>
अंतस्थ ितता</w>
अधिकार ी/5
अधिकारी/5 O4sTv</w>
अवन तम
अवनतम स्तक</w>
अनभ रा/G</w>
आकार ांतरण</w>
अश र्म</w>
अच्छ ेद
अच्छेद ्य/sT</w>
अशक्त त्व</w>
अपत िक/sT</w>
अंतरी पा
अंतरीपा ग्र</w>
अवष्ट ब्ध</w>
अधि भोजन</w>
अठारह /H</w>
अप देश</w>
अभि पा
अभिपा चन</w>
अरस त/FED</w>
अट्ट न</w>
अनंत कालीन/sT</w>
अनिष्ट हीन</w>
अनाप ्त
अनाप्त /sT</w>
अधो वायु</w>
अधि ष्य
अधिष्य ंद</w>
अप श्री</w>
अनादि /sT</w>
आँ वर</w>
अप्र ति</w>
अर्धचन्द्र </w>
अन्धेर ियो</w>
अंतर् वाणि
अंतर्वाणि ज्य/M</w>
अपना मत</w>
अगर /MFE</w>
अक़ ान
अक़ान ीम</w>
अल- का
अल-का यदा</w>
आध /MFED</w>
अंधानु कर्ता</w>
अद द/M</w>
अड़क /FE</w>
अडल् ट</w>
अविघ टित</w>
अभीष्ट /sTMF</w>
असु धर</w>
अवै द्य</w>
अणु द्र
अणुद्र ुत</w>
अक्ष ला
अक्षला ग्र</w>
अंकुरा र्बुद</w>
अन फ़
अनफ़ ्र
अनफ़्र ाइड</w>
अंतस् सलिला/JK</w>
अति प्रिय</w>
आनु ग्राम
आनुग्राम िक</w>
अवा ंग
अवांग मुख</w>
आढ क/E</w>
आँवठ /E</w>
अमा ई
अमाई ताल</w>
अलंकार िक/sT</w>
अपेक्ष या</w>
अंख ड
अंखड नीय</w>
अभिनन्दन पत्र</w>
अंग विज्ञान</w>
अणुजैविक ी
अणुजैविकी विद</w>
अनसू खा</w>
अपास रण</w>
अर्द न/MFD</w>
अग्र ेज
अग्रेज ों</w>
अह्र ीक</w>
आईना दार</w>
अक्ल मंद/E</w>
अवदा ब/M</w>
अना च
अनाच रण
अनाचरण ीय/sT</w>
आकार हीन/sT</w>
आज ात
आजात शत्रु</w>
अहमक़ ाना</w>
अधिक ंडक्टर</w>
अष्ट पद/E</w>
अरग /F</w>
असं वादित</w>
अर्धसम कोण</w>
अरि वन</w>
अनुस्म ारक</w>
अक्षय ाल
अक्षयाल ोक</w>
अनंत नाथ</w>
अर्ध -कपाली</w>
आदेश ात्म
आदेशात्म क/sTM</w>
अफ़्रीक़ ी-देश</w>
अधि नि
अधिनि वेश</w>
अस्त य</w>
अशुभ बेला</w>
अभीप् स
अभीप्स ा/IJK
अभीप्सा/IJK GC</w>
अवप थन</w>
अरग वानी</w>
अहल्या भूत</w>
अंत कारी</w>
अंतोप चार</w>
अधिक्र िया
अधिक्रिया शील</w>
अहरि मन/M</w>
आँक ियो</w>
अभिनिर्धार ित</w>
अहुट ा/7
अहुटा/7 GCB34sTvA</w>
अंतरा यन</w>
असि स
असिस टे
असिसटे ंट</w>
अष्टक मल</w>
अवमानन ा/GJK</w>
अभिक्र ंदन</w>
अनध ्यास</w>
अल्बु रा
अल्बुरा क़</w>
अशा स्त्र
अशास्त्र ीय</w>
अरिथ मै
अरिथमै टिक</w>
अंध ीकृत</w>
अयु ध्य</w>
अर्थ ोत्कर्ष/M</w>
अरिष्ट लक्षण/M</w>
अनुपा सित</w>
अपर स्
अपरस् पर
अपरस्पर /FsT</w>
अंकि चन
अंकिचन ता</w>
आज्ञ ायी</w>
अन्त -लघु</w>
अंतर्ल ब</w>
आंतर ज्ञ</w>
अदृश्य करण</w>
अज़् हा</w>
अजाम ेध</w>
अप वार
अपवार ण/M</w>
अच्छ ाइयों</w>
अंड ्
अंड् गी
अंड्गी कार</w>
अक्षरा ली</w>
अन्न-क ण
अन्न-कण ों</w>
अम्ब ानी</w>
अम्ल नाशक</w>
अभिह ि
अभिहि ति</w>
अनर्थ कर/sT</w>
आग-बब ुला</w>
अपवर्त न/M</w>
अर्ध जन्मा</w>
अलट /FE</w>
अक्षर मुख</w>
अयुक् ति
अयुक्ति पूर्ण/M</w>
आदी कारी</w>
अल्प ानु
अल्पानु भूत</w>
अपु च्छ</w>
अध्येत ावृत्ति</w>
अवसेर ियो</w>
अरि त्व</w>
आँ चल
आँचल िकता</w>
आत्म ोन्माद</w>
आजान /F</w>
अव ात
अवात ो
अवातो ढ़</w>
अख चित</w>
अलै ह</w>
अनिषेक जनित</w>
अभिकर्त्त ा-पत्र/M</w>
अनुदार वादी</w>
अनवे क्षक</w>
अर्थाप त्ति</w>
आक ंठ
आकंठ न/F</w>
अक ण
अकण िकीय</w>
अभिसाध न/M</w>
अहल्या श्म</w>
असमीप /sT</w>
अंगड़ -ख
अंगड़-ख ंगड़</w>
अनूठ ा/GCI</w>
अंगार पुष्प/M</w>
अपार्ट ही
अपार्टही ड</w>
आइडे ंटिफ़िकेशन</w>
अनंत ाभि
अनंताभि धेय</w>
अच्छ ोटन</w>
अजि ह्व</w>
अछिद्र </w>
आईए म
आईएम ए
आईएमए फ़</w>
अशून्यशयन व्रत</w>
अपू ज
अपूज क/sT</w>
अध ऱ
अधऱ </w>
आगस्ट ा</w>
आधार- स्व
आधार-स्व रता</w>
अक ृष
अकृष िक</w>
अनबि ग
अनबिग ड़ा/G</w>
अंड श
अंडश ल्क</w>
अंत /f</w>
अन् वाच
अन्वाच य</w>
अनन्य मानस</w>
अनिमेष नयन</w>
असम्मि लन</w>
अंतरा लेखन</w>
अन्न भ
अन्नभ ंड
अन्नभंड ार/M</w>
अनुमान िक</w>
अँधेर िया/B</w>
आंध स</w>
आक्सी जन</w>
आचार्य्य कुल</w>
अभिया चित</w>
आंत्र ांत</w>
अना वेशित</w>
अंगार ीकृत</w>
अक्ष ांतर/M</w>
अवस्थ पित</w>
अपठ ितत</w>
अल्ल ाम
अल्लाम ह</w>
अमृत-बि न्दु</w>
अल्जेर ियाई</w>
अवद हन</w>
आग्र ीध्र</w>
अग्रद ू
अग्रदू त/M</w>
अंस भ
अंसभ ारिक</w>
अंकुश /MFE</w>
अफ़् सोस/M</w>
अंतर्स ांस्कृतिक</w>
अमुष्य कुल</w>
अंध सम
अंधसम र्थक</w>
अरबी- भाषा/K</w>
अव नायक</w>
अर्थ- व्य
अर्थ-व्य वस्था</w>
अतुल त/F</w>
अनिष्ण तता</w>
असत ाना</w>
आत क
आतक ंक
आतकंक वाद</w>
असीम /sTM</w>
अर्धक थित</w>
अर्द्ध -स
अर्द्ध-स म</w>
अनन्त मूल</w>
अबल ाव
अबलाव र्क</w>
अक्ष ांशीय</w>
अनन्त र
अनन्तर जात</w>
आधि दै
आधिदै व
आधिदैव िक/sT</w>
अमृत भोजी</w>
अग्रसर /sTM</w>
अनंतर ज</w>
असैंब ल/E</w>
अननु भूत</w>
अज़ हा</w>
अश ान्
अशान् तिपूर्ण</w>
अवधि वार</w>
अफ्रीका -संबंधी</w>
अलस ाइयो</w>
अलग कृत</w>
अर्थ -संबंधी</w>
अधभ ी
अधभी गा</w>
अहो क/M</w>
अमृत सम्
अमृतसम् भवा</w>
अमी कला</w>
आज्ञ ानुसार</w>
अर्धपरि माण</w>
अम्मा जी</w>
अपि वान
अपिवान र-
अपिवानर- मानव</w>
अल्प चाप</w>
अपच /ME</w>
अंगो -उ
अंगो-उ पा
अंगो-उपा ंग
अंगो-उपांग ों</w>
अभिमुख त/F</w>
अवसर -ग्रहण</w>
अमर ीकर</w>
अंगमर्द /E</w>
अस्फ ूर्
अस्फूर् तत</w>
अभ ्ष
अभ्ष क्ति</w>
अधिक ाश
अधिकाश ंत</w>
अनु लंब
अनुलंब खाता</w>
अत्रि ज</w>
असाध ्य
असाध्य /sTME</w>
अहि वल्ली</w>
अपाव न/sT</w>
अननब ीयम</w>
असैंब ल्ड</w>
अन्य गोत्र</w>
अर्ध धार</w>
अनुहर त/FED</w>
अना क्राम
अनाक्राम क/sT</w>
अधिश्र य</w>
अव जनित</w>
अट -स
अट-स ट</w>
अद ाँ
अदाँ त</w>
अनन्य तापूर्वक</w>
अवनी श्वर/M</w>
अथ कन</w>
आँ घ
आँघ ी</w>
अंट क
अंटक मय</w>
अभि ऊ</w>
अप्र दायक</w>
आकाश क
आकाशक क्षा</w>
अक ित
अकित व</w>
अज़ ीम
अज़ीम ुल
अज़ीमुल जु
अज़ीमुलजु स्
अज़ीमुलजुस् स</w>
आदम ी/OM</w>
अनन्योपा सक</w>
अमान वित</w>
अमै ंड़</w>
अक्षर /sTMFE</w>
अल्पप्र तिकर्म</w>
अप्रत्यक्ष तः</w>
अनभि रा
अनभिरा म/sT</w>
अप्र को
अप्रको पक</w>
अविप र्य
अविपर्य य</w>
अपर ब्रह्म</w>
अध ्म
अध्म ता</w>
अभिभाष ण/M</w>
अर्क पुष्पी</w>
अजह ू
अजहू ँ</w>
अभ्या य/M</w>
अल्लाह ू</w>
अनधिग्रह णीय</w>
अगिय ार/EM</w>
अंग-व िक्षेप</w>
अभि वृद्ध</w>
अंगी कारक</w>
अनल पक्ष</w>
अनवलंब नीय/sT</w>
अप्रभाव ित</w>
अमेरिका वास/0E</w>
अय जनीय</w>
अनुभूति गम्य</w>
अम लाक</w>
अच्छ ोद
अच्छोद /F</w>
अवार ि
अवारि जा</w>
अंध -विश्वासी/O</w>
अन्त स्नान</w>
अन्वा धेय</w>
अपराध ्
अपराध् /E</w>
अन्वी प</w>
अगस्त्य गी
अगस्त्यगी ता</w>
अभिल म्ब</w>
अयन स
अयनस न्
अयनसन् पात</w>
अह िपति</w>
अल्पा हार
अल्पाहार -गृह</w>
अफ़ यून/E</w>
अप्र माण</w>
अमी रू
अमीरू ल</w>
आकर्ण -ध
आकर्ण-ध नुरासन</w>
अव खंडन</w>
अस्त्रश स्त्र
अस्त्रशस्त्र जीवी</w>
आत र्द</w>
अधस्त न</w>
आइड िय
आइडिय लि
आइडियलि ज़्म</w>
आकुल /sT</w>
अशै थि
अशैथि ल्य</w>
अपूर्व त्व</w>
अशुचि त्व</w>
असं भेद</w>
अस्थिव क्र
अस्थिवक्र ता</w>
आँध ियों</w>
अनवश ोषित</w>
अंबु धि</w>
अलग -अल
अलग-अल ग</w>
आंद ो
आंदो शीलता</w>
अवकु ंचन</w>
अनूठ ापन/M</w>
अध शिरा</w>
आत्मसंतु ष्टि</w>
अनुप्र यु
अनुप्रयु त/M</w>
अभिनंद ितत/F</w>
अँडु आना</w>
अमृत द्र
अमृतद्र व</w>
अंका वत
अंकावत ार/M</w>
अछ रौटी</w>
अवच्छ े
अवच्छे प
अवच्छेप णी</w>
अग र्व</w>
आकाश गामी</w>
आधार- स्तम्भ</w>
अंतश्च र्म</w>
अप्रास ांग
अप्रासांग िक</w>
आँख /
आँख/ LMFED</w>
अरे ब
अरेब िक</w>
अध ुन
अधुन ा/
अधुना/ r
अधुना/r </w>
अन्तः क्षेप/M</w>
आधार पूर्णत/F</w>
आद ियोग
आदियोग ाच
आदियोगाच ार्य</w>
अनुदान मा
अनुदानमा ंग</w>
अनन्य योग्य</w>
अंतर् ग्राहिता</w>
अग्नि नि
अग्निनि रोधी</w>
आग्र मास</w>
अनाभूष ित/sT</w>
अमरीक ीकरण</w>
अविन म्य</w>
अवेद न</w>
अभिल ुप्त</w>
अलि न्द</w>
अपराध-वि ज्ञान/ME</w>
अंड जनन</w>
अस्तित्व ीय</w>
अनेका ंगी</w>
अनर् णीत</w>
अर िपु</w>
आकाश ेश</w>
आकर्षण पूर्ण</w>
अवभास ित</w>
आत्मरक्ष ावाद</w>
अनुप हत</w>
अनिर् धारण</w>
अनब रस
अनबरस े</w>
अजात श्
अजातश् म
अजातश्म श्र
अजातश्मश्र ू</w>
अनू रु</w>
अवना लिका</w>
अवश ैल</w>
अभिप्र पन्न</w>
अपाट वत</w>
आंय -ब
आंय-ब ांय</w>
अद ीब
अदीब /EM</w>
अष्ट ावक</w>
अनल दा/G</w>
अभिभावक त्व/M</w>
आग णन</w>
अबल ास
अबलास ेन</w>
आंग्ल -
आंग्ल- अमरीकी</w>
अयः पान</w>
अलाइ न
अलाइन मैंट</w>
अग्र दत्त</w>
अर्हत ाहीन/sT</w>
अधिवृक् कीय</w>
आज्ञ ापूर्ण</w>
अनी लन/M</w>
अति च
अतिच ंडा</w>
अखंड योनित्व</w>
अप िर
अपिर च्छन्न</w>
अधिरो पित</w>
अनुप गत</w>
आद्य श्राद्ध</w>
अहुरम ज़्
अहुरमज़् द/M</w>
अभ्युपा य</w>
अनपार्ल ियाम
अनपार्लियाम ेंट
अनपार्लियामेंट री</w>
अधिकारी प
अधिकारीप ेट
अधिकारीपेट ेंट</w>
अभिवि मान</w>
अभिलाष ्य/sT</w>
अव ऊ
अवऊ र्
अवऊर् ध्व
अवऊर्ध्व हन
अवऊर्ध्वहन ु
अवऊर्ध्वहनु ज</w>
अनिक ेतन</w>
अरण्य द
अरण्यद मन/M</w>
अन्तर् जातीय</w>
अंगुर ि</w>
अजी ज</w>
आकर्ष /834sTvED</w>
आधिकार िक/sTM</w>
अट्टहास पूर्वक</w>
अत्या कलन</w>
अहीन गु</w>
अभिक्र िया/JK</w>
अनुभूति योग</w>
अधिनाय िका/G</w>
अनैतिहास िक/M</w>
अल्फ़ िल
अल्फ़िल ार
अल्फ़िलार िया</w>
अस्तब ल-
अस्तबल- मार्ग</w>
अंगारका डी</w>
अहो -</w>
अब् जाद</w>
अर्ध चक्र</w>
अनु चक्र
अनुचक्र त</w>
अंतस्थ र्ता</w>
अभ्या मर्द</w>
आत्म तंत्र</w>
अधिकार गत</w>
असुर म
असुरम घ</w>
अंदर सा</w>
आंकु श
आंकुश िक</w>
अन्त वे
अन्तवे ला</w>
आत्मोप लब्धि</w>
अकैड मि
अकैडमि शन</w>
अर्णव ोद्
अर्णवोद् भव/F</w>
अजि ह्म</w>
अगदं कर/sT</w>
अनर् जन</w>
अक़्द /D</w>
अनख ोज
अनखोज ा/G</w>
अनिष्ण ात/sT</w>
अज्ञातपूर् वर्
अज्ञातपूर्वर् </w>
अनिद्र ितत</w>
आट्ट ो</w>
अम्बु चामर</w>
असम् मान
असम्मान नीय</w>
अनवलोक ्यत</w>
अतिशयो क्त</w>
अधियो क्ता</w>
अन्त्र ालजी</w>
आइडे ंटिटी</w>
आनुषंगिकलब्ध िया
आनुषंगिकलब्धिया ओं</w>
अंभो ज/M</w>
अत्यु ग्र
अत्युग्र /M</w>
अवि स्र
अविस्र णशील</w>
अन्त्र वृद्धि</w>
अनाह त/sTM</w>
अभिनय शाला/JK</w>
अना जीव
अनाजीव िका</w>
असि हे
असिहे ति</w>
अवेर /E</w>
अधि रा
अधिरा ज्य</w>
अलो म</w>
अबज़ र
अबज़र वे
अबज़रवे टरी</w>
अँगर ते</w>
आत्मानु भव/M</w>
अस्त्र फला</w>
अन्व ित
अन्वित ार्थ/M</w>
अज ित/sTM</w>
अंतर् देश
अंतर्देश िक/sT</w>
आत्मवि ज्ञान</w>
अस्र प
अस्रप /F</w>
अड ना</w>
अंतर् दर्शन/M</w>
आगर ५
आगर५ </w>
अहंकार पूर्ण/sT</w>
अन्यथ ास
अन्यथास ि
अन्यथासि द्धि</w>
अलरि प्
अलरिप् पु</w>
अपकर् तन/M</w>
अदि न/M</w>
अर्ह क/M</w>
अपकेंद्र िक</w>
अज्ञात जन</w>
अंश ल</w>
अवश ात
अवशात न</w>
अस्व भाविक</w>
अपो द्ध
अपोद्ध रण</w>
अधो कृ
अधोकृ ष्ट</w>
अंछ /ME</w>
अधिकतम करण</w>
अँतड़ ियाँ</w>
अंक ीय</w>
अन ोद
अनोद य
अनोदय ना
अनोदयना म</w>
आति शी
आतिशी -
आतिशी- शी
आतिशी-शी शा</w>
आत्मनिष्ठ त/F</w>
अनसू चित-
अनसूचित- जन
अनसूचित-जन जातियों</w>
अप्रभाव ितत</w>
अगा त्र</w>
असुख द</w>
आकाश म
आकाशम ध्य</w>
अग्नि /U
अग्नि/U QM</w>
अवरोध िक</w>
अभा जन</w>
अवैध नि
अवैधनि रोध</w>
अयोग व</w>
अवनत -उ
अवनत-उ न्नत</w>
अँकर ा/G</w>
अंगोछ /FED</w>
अध वारी</w>
अनुशंस ा-पत्र/M</w>
असं ख्या
असंख्या तत</w>
आनर्त्त क</w>
अन्योन ्य/sTM</w>
अहि मार</w>
अस् किनी</w>
अभ्यु ति</w>
अभियोग /ME</w>
अकाट य</w>
अमर-वल्ल ी</w>
अधि दर्शक</w>
अंबु राशि</w>
अधिव ानर</w>
अमु कुल</w>
अनाधिकार /ME</w>
अक्ष ी
अक्षी व/M</w>
अधिक ि
अधिकि रीट</w>
अनधिप्र वेश</w>
अज ीम</w>
अधिदै विक</w>
अंतर वस्त्र</w>
अंग िरा</w>
अस्त्र जीवियों</w>
अंतर्संबंध-विष यक</w>
अदाय ित्व</w>
अंतः कथा/JK</w>
आच /D</w>
आकि स्म
आकिस्म क/sT</w>
अंत गृ
अंतगृ र्
अंतगृर् ही</w>
अठ ासी
अठासी वाँ</w>
आदिम /F
आदिम/F sT
आदिम/FsT LM</w>
अव पर
अवपर मा
अवपरमा णु</w>
अरुण लोचन</w>
अस नान</w>
अथ -इ
अथ-इ ति</w>
अग व
अगव ान/ME</w>
अपाट ॉ
अपाटॉ व</w>
अम्बु द</w>
अघ िष्ठ
अघिष्ठ ापन</w>
अधर /sTMFE</w>
अज़ी मु
अज़ीमु श्
अज़ीमुश् शान</w>
असम् मिश्रण</w>
अश् शा
अश्शा म</w>
अंतरा भिमुखता</w>
अभिस्त्र ावण/E</w>
अंतोप योगी</w>
आट्ट ोप</w>
अग्री मेन्ट</w>
अपॉ इन्
अपॉइन् टमेन्ट</w>
अधिकारी- तंत्र</w>
अभि ता
अभिता भ</w>
अंतरीप /ME</w>
अर्थाप ति</w>
अनवश्य त</w>
अष्टपा द/M</w>
अंत्येष्टि गृह/M</w>
अधर िका</w>
अना ले
अनाले पित</w>
अभिमान -न
अभिमान-न म
अभिमान-नम ्र
अभिमान-नम्र ता</w>
आत्मसम्मान हीन</w>
अहोरा त्रि</w>
अमृत ाहरण</w>
अंग विच्छ
अंगविच्छ ेद</w>
अंत पाल</w>
असि द्धि</w>
अपरि स्कंद</w>
आत्मोप म</w>
अस तम
असतम फ़रो
असतमफ़रो शी</w>
आज ू</w>
अफ़सान ान
अफ़सानान वीस/EM</w>
अज़ीज़ /FEM</w>
अनुपात युक्त/sT</w>
अंशु ल</w>
अनन पे
अननपे ंट
अननपेंट ियम</w>
अंतर् वृत्ति</w>
अनभ ्या
अनभ्या स/E</w>
अलै कम</w>
अँज ाइयो</w>
अल्फ़ ज़</w>
अतर ौटा</w>
अरू रु</w>
अधिक र/M</w>
अभिक्र ामक</w>
अवक्ष यन/M</w>
अज्ञ ेय
अज्ञेय वाद/EM</w>
आगस्त ्य</w>
अवसन्न ीकरण</w>
आतिश यिक</w>
अभूत पूर्व
अभूतपूर्व त/F</w>
अ-न ति</w>
अधिकर्म चारित/F</w>
अलोन ापन</w>
अपकार पूर्ण</w>
अनस ैचुर
अनसैचुर े
अनसैचुरे टिड</w>
आंग िक/ME</w>
अभिभ ान</w>
अनि ल/M</w>
अलं कारक</w>
अरस -परस</w>
अग्नि प्र
अग्निप्र णयन</w>
अस्पष्ट ो
अस्पष्टो क्तिपूर्ण</w>
अल् थि
अल्थि ंग</w>
अर ंजित</w>
अकर म</w>
अहोरा -बह
अहोरा-बह ोरा</w>
अन्दा ज़
अन्दाज़ पट्टी</w>
अंतग्र े
अंतग्रे र्
अंतग्रेर् ह</w>
अनजान पन</w>
अनुवंश जनन</w>
अभिरक्ष ा/CI</w>
अप्र वेश</w>
अमिल ता
अमिलता स</w>
अन्ध बाई</w>
अवनि नाथ</w>
अवध ू</w>
अभा वात्मक</w>
अण्ड कोश</w>
अर कन
अरकन ाना</w>
अस्त्र -वै
अस्त्र-वै द्य</w>
अहेर न</w>
अनधिकार त/F</w>
अभित प्त</w>
अह न</w>
अनु तरंग</w>
अंक विद्या/JK</w>
अगर ा/GB</w>
आकाश मा
आकाशमा ंसी</w>
अनु श्र
अनुश्र वण
अनुश्रवण क/M</w>
अभिवन्द ्य</w>
अंत स</w>
अव ेष्ट
अवेष्ट न</w>
अनह क</w>
अपरा प
अपराप रण</w>
आघ ोर</w>
अल्ल म
अल्लम गल्लम</w>
अभिश ब्
अभिशब् दित</w>
अखिल देश
अखिलदेश स्तरीय</w>
अपो लो
अपोलो वाणी</w>
अयस स्
अयसस् कांत
अयसस्कांत मणि</w>
अस्थि -तंत्र</w>
अंफेटा माइ
अंफेटामाइ न</w>
अकठिन करण</w>
अंतर्वेद ना/JK</w>
अलिंद ित</w>
अभ्युद् गत</w>
अमंगल /qM</w>
अवि ंध्य</w>
अवंश ागत</w>
अतिशी घ
अतिशीघ ्र/sT</w>
आक्र ा</w>
अग्र यान</w>
अति दान</w>
अंडर कोट</w>
अनाध ृष्य</w>
अब् जन
अब्जन यन/FE</w>
असल तन</w>
अक्ष क</w>
अंतः स्थापित</w>
अजमेरशरी फ़</w>
अभाव ना</w>
अव मि
अवमि ज्ज
अवमिज्ज त</w>
अप्सरोन् मा
अप्सरोन्मा द
अप्सरोन्माद ग्रस्त</w>
अंत वे
अंतवे ला/IC</w>
अभ्यास िक/F</w>
अवगु णित</w>
अंश ात्मक</w>
आढ त</w>
अनुचित ार्थ/M</w>
अभि स्थिर</w>
अना गम</w>
अग्निशाम ित्र</w>
अदायग ियों</w>
अप थ
अपथ ्य/sT</w>
आकाश- च
आकाश-च ोटी</w>
अग्निम थ</w>
अल्पा कार</w>
अनुराग नीय</w>
अपव िक
अपविक ास</w>
अर्ज /E</w>
अव -</w>
आड ू/R</w>
अश्व हंता</w>
अणुक णिका</w>
अकार् डियन</w>
आग ज़
आगज़ न/E</w>
आंन द</w>
अंगविक ार</w>
अप कृति</w>
अड़ंगे बाज़/ME</w>
अमरकंट िका</w>
अनादिम ध्य
अनादिमध्य निधन</w>
अनखुल ा/G</w>
अनुबद्ध तापूर्वक</w>
अर ावक</w>
अक्र ीदतमंद</w>
अवध िकाल</w>
अप ार्थ
अपार्थ क</w>
असज ग</w>
अन्य द
अन्यद ीय/F</w>
अंगजा ई</w>
आत्मकथ ा/JK</w>
अक सर</w>
अनाहत नाद</w>
अभिज्ञ ापक</w>
अर्ध िद</w>
अपक्ष ीय</w>
अवध्वंस न</w>
अशरफ ियों</w>
अड्डे पर</w>
अंबु ताल</w>
अग्निसं केत</w>
अननुम त्य</w>
अनद्यतन भूत</w>
अल लाइयो</w>
अंकु ज़</w>
अवक्र ांत</w>
अनवरोध /M</w>
अना मुल</w>
अ- नि
अ-नि ख</w>
आद तन</w>
अलं पट</w>
अंतः ज</w>
अलेक्ज़ेन्ड र</w>
अकाल त</w>
अनु ले
अनुले पन/M</w>
अनभ ाया</w>
अत्य ध्
अत्यध् कि</w>
अलग़ र
अलग़र ज़/E</w>
अपर दन/M</w>
अधिकारी मान
अधिकारीमान चित्र</w>
अकाल ानुसार
अकालानुसार ता</w>
अनंत दृष्टि</w>
अवलोक न/MF</w>
अन शि
अनशि ला</w>
अनभिव्य क्तव्य</w>
अन करणीय</w>
अपरिण य</w>
अभिला भ</w>
अस्तमन न
अस्तमनन क्षत्र</w>
अलंकृत त/F</w>
अलल्ल ां</w>
अर्धांग -प
अर्धांग-प क्ष
अर्धांग-पक्ष ा
अर्धांग-पक्षा घात</w>
अनिय ुक्त</w>
आधि पाल</w>
अफ शाँ</w>
अन्न-क ूट</w>
आकाश बे
आकाशबे लि</w>
अम ुर</w>
अंबरी ष/M</w>
असं शोधन</w>
अमानुष /sTME</w>
अंतर्प्र देश</w>
अंधकार /ME</w>
अमेद स्क
अमेदस्क िनी</w>
अया चित/M</w>
अक्षरा ंक</w>
आँट /348sTvED</w>
अंकु सर
अंकुसर ट</w>
अवम न्दन</w>
आत्म-क ेंद्रित</w>
अर्क कां
अर्ककां ता</w>
अपवर् ग/ME</w>
अम्म रस</w>
अग्र णी</w>
अन्य र
अन्यर चित</w>
आटो मा
आटोमा बाइ
आटोमाबाइ लो
आटोमाबाइलो ं</w>
अल्पप्र ाण</w>
अध मु
अधमु आ</w>
अमेरि ंड</w>
अन्तर् वर्धित</w>
अत्या लो
अत्यालो ची</w>
अक ीदतमन्द</w>
अर्ध -न
अर्ध-न ग्न</w>
अक्षांश -देश
अक्षांश-देश ांश</w>
अपवाद स्व
अपवादस्व रुप</w>
आद्य ंग</w>
अक्षय पात्र/M</w>
अम ायिक</w>
अति स्वनगामी</w>
अयः शिरा</w>
आघ ट्टक</w>
अनु ग्राह्य</w>
असु श
असुश क्य</w>
अवच ूलक</w>
आत्मसंत ोष
आत्मसंतोष /ME</w>
अस फ़
असफ़ ार</w>
अँटिय ाइयो</w>
अनाद ार</w>
अभि शीर्ष</w>
अपसोस ियो</w>
आं ड़
आंड़ ज</w>
अमृत ीश
अमृतीश ु</w>
अन् ट
अन्ट ार्कटिक/F</w>
अँग ना
अँगना ई</w>
अर लो
अरलो न</w>
अयः शंकु</w>
अनुत्पाद क/sTM</w>
आन -ब
आन-ब ान</w>
अनाव ृत/M</w>
अंडोर न</w>
असंल ाप</w>
अघ र्म/sT</w>
आड ै
आडै ंटिफ़िकेशन</w>
आदि त्व</w>
अव्य वसायी</w>
आक बा
आकबा क</w>
आत्मक ेन्द्रित</w>
अहिर्बु ध्न</w>
अलकस लो
अलकसलो रा</w>
आं ठी</w>
अम्म य</w>
अध्याह रणीय</w>
अमज ोद</w>
अभिध ावन</w>
अश्वव दन</w>
अंग प्र
अंगप्र त्यंग</w>
असुख भोग</w>
अपरा द्धि</w>
आकार वाले</w>
अंध रो
अंधरो ष</w>
अपराधभ ीति</w>
अनुशिक्ष क</w>
अरस ियो</w>
अक ध
अकध क/LM</w>
अनुचर त/F</w>
अना ज्ञा</w>
अगु ता/734sTv</w>
अस्त्र-श िक्ष
अस्त्र-शिक्ष ा</w>
आखेटोप जीवी</w>
अधिप्र ा
अधिप्रा णी</w>
अंब क</w>
अल्प जीविता</w>
अमर दारु</w>
अभिनव /sTM</w>
अंतः शरीर</w>
अठखेल /E</w>
असग न्ध
असगन्ध /F</w>
अपरिभाष ा</w>
अद ंत
अदंत ्य/sT</w>
अफ ार्
अफार् स</w>
अरह ट</w>
अर्प ित
अर्पित /MF</w>
अनुल गम</w>
अंकुश- कृमि</w>
अरल ू</w>
अज़ ीक
अज़ीक ल</w>
आत्मस ापेक्ष</w>
अनल /MFE</w>
अंतर्विरोध पूर्ण</w>
अनुशास ना
अनुशासना ध
अनुशासनाध ीन
अनुशासनाधीन त</w>
अंतः पाल</w>
अंधकार हर</w>
अंगना ई/O</w>
अल्प तरत/F</w>
अंतर्व्य था</w>
अड ाब</w>
आकार -वि
आकार-वि शेष</w>
आद्यंत हीन/sT</w>
अरु ंतु
अरुंतु द/M</w>
अक्ष ीयम</w>
आदरा र्थक</w>
असृ ष्ट/sTF</w>
अल्प भो
अल्पभो ज
अल्पभोज िता</w>
आत्म -शक्ति/PQ</w>
अध्यर्थ ित</w>
अन्योन्या श्रित</w>
अन्तरिक्ष विज्ञान</w>
अधो म
अधोम ृ
अधोमृ दा</w>
अतिथि -गृह</w>
अनुश ियाना</w>
अकाल -सु
अकाल-सु काल/M</w>
अभिषंग /F</w>
अड़ ती
अड़ती स/H</w>
आई पा
आईपा ड</w>
अभी ष्टि</w>
आच ाम</w>
अनुस्त रण/E</w>
अधि दर्शन</w>
अघुल नशील</w>
अनंग शत्रु</w>
अवास /8FED34sTv</w>
अन्तः सुख</w>
अजु ष्टि</w>
अभ्युद य/M</w>
अति -ध
अति-ध ो
अति-धो खा
अति-धोखा -दायक</w>
अछ ि
अछि पा
अछिपा व</w>
अभै दिक</w>
अप्रा विधिक</w>
अप्रशंस नीय</w>
अकौ वन</w>
अतिसार की</w>
अत मा</w>
अम नाक</w>
अष्ट पाद
अष्टपाद ीय</w>
अस्व तः
अस्वतः कृतत</w>
अड़ ंग
अड़ंग ा/CI</w>
अजो त-
अजोत- भूमि</w>
अन स्क
अनस्क ि
अनस्कि ल्ड</w>
अमल ारा</w>
अब स</w>
अचान क/M</w>
अठ ेल</w>
अनंत गुण
अनंतगुण ता</w>
अग्रयो द्घ
अग्रयोद्घ ा</w>
आत्म शिक्ष
आत्मशिक्ष ा</w>
आग्न िक</w>
आत्म -विक
आत्म-विक ास</w>
अधिकार ाधीन</w>
अन्धकार /E</w>
असम् मो
असम्मो हित</w>
अन्द ोह</w>
अमरीश पुरी</w>
अनच खा</w>
अद ग्ध</w>
अना क्रम
अनाक्रम ्यत/F</w>
आत्मार ाम/M</w>
अवे घ
अवेघ ्यता</w>
अटार ियों</w>
आग्रह पूर्ण</w>
अविवाह जनन</w>
अमानुष ीकरण</w>
अक कल</w>
अकु ह</w>
आतुर सं
आतुरसं न्यास</w>
अंतराव धि</w>
अन्तर्ग्र थित</w>
अभ िक्ष
अभिक्ष मता</w>
अरूण /FsT</w>
अल ात
अलात चक्र/M</w>
अन्वा धान</w>
अरथ ा/7G34sTv</w>
अम्ल ीकरण</w>
अट विक</w>
अपने- आप</w>
आत्माध ीनत/F</w>
अमृत धार
अमृतधार ा/CI</w>
अव ॉ
अवॉ र्ड</w>
अनुभव हीनतः</w>
अप्र योग
अप्रयोग ित</w>
अप्रस व</w>
आत्मह ंता</w>
अयु द्ध</w>
अप क्रिया/JK</w>
अँग ौ
अँगौ ंग
अँगौंग ा/C</w>
अभ्यंत र
अभ्यंतर क/M</w>
अलह दगी</w>
अलिप ुर</w>
अधिक मान</w>
अँब ती</w>
अंगार मती</w>
अमित ्रा
अमित्रा क्षर/M</w>
अद्र व्य
अद्रव्य त</w>
अंतर्ज लन</w>
अवल ग्न</w>
अंबर ारंभ</w>
अम्ल पंच
अम्लपंच क/M</w>
अंतर पट
अंतरपट /M</w>
अपपा त्रित</w>
अनुकूल /sTMFD</w>
अलबे ट</w>
अनीश त्व</w>
अनहो ता</w>
अपहरण कर्त्ता</w>
अर्थ -म
अर्थ-म ंत्र
अर्थ-मंत्र ी</w>
अनस ँ
अनसँ व
अनसँव रे</w>
अग ह
अगह निया</w>
अँग ार
अँगार खा</w>
अजीब ोगरीब</w>
अनाज ीय</w>
अन्तर्राष्ट्र ीय/sTM</w>
असम न्त</w>
अगिन ब
अगिनब ोट</w>
अप ीर
अपीर िय
अपीरिय ड
अपीरियड िक</w>
अभियो जन
अभियोजन प्र
अभियोजनप्र ो
अभियोजनप्रो स
अभियोजनप्रोस िक
अभियोजनप्रोसिक ्यू
अभियोजनप्रोसिक्यू टर</w>
आकर िक/M</w>
अनुद्योग ीकरण</w>
अंतः सार/M</w>
आक स्मात</w>
अविरा म/sT</w>
अपरि सी
अपरिसी म</w>
अश ोध
अशोध नीय</w>
आत्मद या</w>
अँग डाई</w>
आंतर िक
आंतरिक तम</w>
अप स्नान</w>
अफ़ज़ ाही</w>
अंतःस ्रा
अंतःस्रा विद</w>
अशोक /FM</w>
अर्ध हि
अर्धहि मित</w>
आउट रि
आउटरि गर</w>
अपार त/F</w>
अप्रत्या वर्
अप्रत्यावर् तित</w>
अश्विन /ME</w>
अग्र क्षेत्र</w>
अर्घ ्य/M</w>
अट रिया</w>
अंगुल ियों</w>
अंश मे
अंशमे ख
अंशमेख ला</w>
अवलंब ितत/F</w>
अनुबंध कर्त्ता</w>
अनधि गम्य</w>
अन्त स</w>
अयुग्म नयन</w>
अनस करा/G</w>
अक्ष ारीय</w>
अमूर् त्ति</w>
अंशु /M</w>
अंज ि</w>
अहित हीन</w>
अधि भूमि</w>
अब्ज हस्त</w>
आत्म बंधु</w>
अकठ ोर
अकठोर /sT</w>
अन्त्य वर्ण</w>
अंधश्रद्ध ा/IC</w>
आइसोले टिंग</w>
अनुर तत/F</w>
अंध स</w>
अभ्यास /MEV</w>
अपरु तुक</w>
अंश कालीन</w>
अस द्ध
असद्ध र्म</w>
अनग ौरी</w>
आन ेव
आनेव ला</w>
आंग्रेज़ ियत</w>
अधिनायक त्व</w>
आत्म रूप</w>
अकु श</w>
अथ शेष</w>
अंत्य ोदय/M</w>
अंतर्वक्र ाकार</w>
आज्ञ ाप्ति</w>
अभित्य क्त/F</w>
अध्वा गा</w>
अंच /M</w>
अक च
अकच क
अकचक ाना</w>
अंतरा गम</w>
अंश द
अंशद ाता/K</w>
अभिम र्द
अभिमर्द ित</w>
आकाशन ीम</w>
अलो भ्य</w>
आत्म विक
आत्मविक ास/M</w>
अवस व्य</w>
अन्ध ाधु
अन्धाधु ंध</w>
अध ौर्
अधौर् द्ध</w>
अहम्मन ्यक</w>
अनात्म ज</w>
आदेश पूर्ण</w>
अल्पमूल ्य/sT</w>
अर्धस ाप्ताहिक</w>
आन्न द</w>
अँड ुआ
अँडुआ री</w>
अन्तिम सफर</w>
अवह त</w>
आत्म म्भ
आत्मम्भ रि</w>
अरविंद योनि</w>
अश्व घ्न</w>
अंतर् भो
अंतर्भो म/M</w>
अना देश
अनादेश ित</w>
अग्न ीध्र</w>
अजात /EM</w>
अभिजात -तंत्र</w>
अर् वाक
अर्वाक सुत</w>
अनरिकॉर् डिड</w>
अनास ाद
अनासाद ्य</w>
अंकु स/E</w>
आधारभू तत/F</w>
अहि /QM</w>
अधू रा
अधूरा पन/M</w>
अश्रु स्राव</w>
अप खंडन</w>
अवक्रम ीय</w>
अधि मूर्
अधिमूर् धा</w>
अतिथि -प
अतिथि-प ूजा</w>
अपमान ित</w>
अक्ष कर्
अक्षकर् ण/M</w>
अर्थ- १
अर्थ-१ </w>
अचम्भ ा/CB</w>
अविच्छि न</w>
अह स्त</w>
अरा ष्ट्र
अराष्ट्र िक</w>
अचिरा भा</w>
अंब राई</w>
अब् ख़
अब्ख़ ाज़
अब्ख़ाज़ ियन</w>
अब्ज ब
अब्जब ांधव</w>
अल्जेर ियन</w>
आत्मपरि चय</w>
अंकु रोस</w>
अमर शाही</w>
अद्रि ज/F</w>
अधब र</w>
अर्बुद ि</w>
अत त्त
अतत्त ाही</w>
आ काल
आकाल िक/E</w>
अन्व ीत</w>
अवल यित</w>
अनभ ेद
अनभेद ी</w>
आन र्त
आनर्त क</w>
आदिक र्म</w>
अह म/M</w>
अधिद श्र
अधिदश्र न</w>
अज्ञान हीन</w>
अस्थि निर्मित</w>
अग्नि रस</w>
अनाव लंबन</w>
अश्लाघ ्य</w>
अवलु म्पन</w>
आक्रमण ोप
आक्रमणोप योगी</w>
अर्धप्र देश</w>
अद्र्य लय</w>
अंतरिक्ष ाय
अंतरिक्षाय तन</w>
अनात ं
अनातं क/M</w>
अवलो चना</w>
अक्षर ज्ञान/M</w>
अशै क्ष
अशैक्ष िक</w>
अलल्ल ाँ</w>
आक्राम कतापूर्ण</w>
अनाम ीज़</w>
अना वेदक</w>
अगु ताइयो</w>
अन्न ू</w>
अनाम त्व</w>
अननहेक् ज़
अननहेक्ज़ ियम</w>
अनिर् वाय</w>
अप ूर
अपूर ित/M</w>
अड़ वा
अड़वा ड़</w>
अघ म</w>
अवधू पित</w>
अधिष्ठ ान/M</w>
अण्डाश यश
अण्डाशयश ोध</w>
अग्रजात /sTF</w>
अम द
अमद ोन्मत्त</w>
अपश ोक</w>
आत्मव ंद
आत्मवंद ना</w>
अंक -विद्या</w>
अरण्य -
अरण्य- षष्ठी</w>
अनिद्र /MFD</w>
अवस र्प
अवसर्प /ME</w>
अजवायन /LM</w>
अधित ंत
अधितंत ुरु
अधितंतुरु जा</w>
अर्द्ध-नार ीश्वर/ME</w>
अमृत गति</w>
अंधकू प
अंधकूप कार
अंधकूपकार ाग
अंधकूपकाराग ार</w>
अस्व प्
अस्वप् न</w>
अक्कल बार</w>
अड्डे बाज/E</w>
अठ क
अठक ौ
अठकौ सल</w>
अवमर्श संधि</w>
आधि रा
आधिरा ज्य/M</w>
अवरो पक</w>
अंत्य पद</w>
आं श्य</w>
अश्व क
अश्वक /MF</w>
अधिक ृति</w>
आधान ित/sT</w>
आदेश पत्र</w>
अपं ख</w>
अन्तर् जानु</w>
अव जित</w>
अस्त्रस ज्जित</w>
अव पूर्ण</w>
अज़ ीयत</w>
अधि वय
अधिवय स्क/sT</w>
अग ंड/M</w>
आगम निर
आगमनिर प
आगमनिरप ेक्ष</w>
अज ेन्
अजेन् डा</w>
आइ -शै
आइ-शै ड
आइ-शैड ो</w>
अनेकाग्रचित्त /sT</w>
अंस ब</w>
अंतर्परि धि</w>
अफरी द</w>
अंक /ME</w>
अट्ठाई सवाँ</w>
अधिकार िय/M</w>
अंध्र भ
अंध्रभ ृत्य</w>
असंघ नन</w>
अहंकार रहित/sT</w>
अनिच्छ ु
अनिच्छु क/sTM</w>
अधरा मृत</w>
अल् मान
अल्मान िया</w>
आकु ंचनीय</w>
अग मन</w>
अफरा -त
अफरा-त फरी</w>
अड़ ड़ाना</w>
आँवाह ल्दी</w>
अतिलो लु
अतिलोलु प</w>
अन्तर् धान</w>
आइडेंटी ट
आइडेंटीट ी
आइडेंटीटी फ़िकेशन</w>
आदम पूर्व</w>
अस्थ ाणु</w>
अंतराय ित्र</w>
अपरंपरा वाद</w>
अन्नपूर्ण ोपनिषद</w>
अह ज</w>
अधिक्र य/M</w>
आधिपत्य शील/sT</w>
आत्म-क ेन्द्रित</w>
अभय -पत्र/M</w>
अभिग्रह ण/M</w>
अग मार्
अगमार् क</w>
अवस्त ाई</w>
अंतर रा
अंतररा ष्ट्र</w>
अभ्यु पित</w>
अधप क
अधपक ा/GCI</w>
अंबाह लदी</w>
अक्ख ड़/sTM</w>
अगठ ित</w>
अजगंध ा</w>
अजान /FEDsTM</w>
आकार ीठ</w>
अतिक्र ांत
अतिक्रांत /sTF</w>
आनुगत िक</w>
अपसर त</w>
अलाय -ब
अलाय-ब ला
अलाय-बला य</w>
अभ्या हरण</w>
अनात्म वाद/M</w>
अग्र ेतर</w>
अनु वि
अनुवि न्यास</w>
अँठ ी</w>
अग्र ांश
अग्रांश ु</w>
अक्ष ध
अक्षध ुर/M</w>
अवलंब ांश</w>
अक् सरीयत</w>
अ ष्ठ</w>
अप गामी</w>
अनाक नी</w>
अम्ल ोप
अम्लोप चय</w>
अन्न- दा
अन्न-दा ता</w>
अन् जा
अन्जा म</w>
अर्थ व्य
अर्थव्य ज
अर्थव्यज ंक</w>
अयः श
अयःश ूल</w>
आचार यान</w>
अनंत र्हित</w>
अमर राज</w>
अंतर् क्षेत्र</w>
आदि स</w>
अनरिकार् डेड</w>
अप वाहन</w>
अनात्म -धर्म</w>
अंतर्स्र ावक</w>
अगूढ़ व्यंग
अगूढ़व्यंग ्य
अगूढ़व्यंग्य /FDM</w>
अवगाह न
अवगाहन क्षम</w>
अवरोह त</w>
अंतःस त्व
अंतःसत्व /MFD</w>
आकांक्ष ्य/sT</w>
अभिय ंत्र
अभियंत्र िकी</w>
अड़ ान
अड़ान /FEDM</w>
अरद ियो</w>
अभिह ति</w>
अहं कृति</w>
अविर त/sTM</w>
आदि देय</w>
अव न्
अवन् ति</w>
अन् दु
अन्दु आ</w>
अंताव री</w>
अदम प
अदमप ैर
अदमपैर वी</w>
आतंक ियों</w>
अभिर ियो</w>
अंक पत्रक</w>
अलंकार वाद/M</w>
अच ंच
अचंच ल/sT</w>
अज ज़ा</w>
अं ठानवे</w>
अन्यत्व भावना</w>
आधार ीय</w>
अवि ना</w>
अधियो जक/M</w>
आज्ञा कारी</w>
आटोरिक् शा
आटोरिक्शा -
आटोरिक्शा- चाल
आटोरिक्शा-चाल क</w>
अनिल घ्न
अनिलघ्न क</w>
अपोज़ िट</w>
आकाश वल्ली</w>
अनुनास िक/sTM</w>
अंक वृद्धि</w>
अरु वा/CI</w>
अफ सोस
अफसोस जनक</w>
अप्र कांड</w>
अमेठ ियो</w>
अन्त वर्ती</w>
अंतर् -</w>
अर्ध वर्षीय</w>
अनावृ +
अनावृ+ वृष्टि</w>
अमु ंडित</w>
अपत्य पथ</w>
अक्षु ण्
अक्षुण् ण
अक्षुण्ण त/F</w>
असं च
असंच य/E</w>
आछ न्न</w>
अभित्र ासक/M</w>
असूय क/sT</w>
अभियोग मुक्त</w>
अभिलेख पा
अभिलेखपा ल/M</w>
आंध सिक</w>
अड़ द
अड़द ब</w>
अल् स
अल्स ेशन</w>
अनक माई</w>
अनज ला/G</w>
अपकर्ष ित</w>
अबाइ या
अबाइया ंग</w>
अक्त ू
अक्तू बर</w>
असुरद्र ुह</w>
अवर ित</w>
अस्थ ूल</w>
आत्म -स
आत्म-स म
आत्म-सम र्थन</w>
अतर्क बुद्ध
अतर्कबुद्ध ि
अतर्कबुद्धि वाद</w>
अभिलेख न/M</w>
अविक्र ेता</w>
आदिम कालीन/sT</w>
अस्व तंत्र</w>
अनु योग
अनुयोग /E</w>
आइ क्रीम</w>
अजै व
अजैव ्मा</w>
अक ण्
अकण् र्य</w>
अपरा त्र</w>
अभिला व</w>
आत्मवि द्य
आत्मविद्य ा/JK</w>
अर्ध ोन्मत्त</w>
अपेक्षा एं</w>
अब्ज भू</w>
अचेत ावस्था</w>
अंत ि</w>
अनध्य ीत</w>
अपत ाप</w>
अवलम्ब नीय</w>
अवबा धा</w>
अभि रोध</w>
आत्म करु
आत्मकरु णा</w>
अज् ज
अज्ज का</w>
अभिक लन/M</w>
अवि सर्
अविसर् जनशील</w>
अनुप स्थिति</w>
अर्द्धपार ावत</w>
अस्थ ्या
अस्थ्या भ</w>
अक्षर ं</w>
अर्ध शिक्षितत</w>
अप ेल</w>
अल्पि ंजी</w>
अगल ्म
अगल्म ा/IC</w>
अवि डीन</w>
अलगाव वाद/ME</w>
अयन -काल/M</w>
अंध ा/IGCB</w>
अर्धश ताब्दी</w>
आत्मस्वी कृति</w>
अंतर- सरकारी</w>
अतिपा तक</w>
अल्पम ध्य
अल्पमध्य म/F</w>
अनुग्र त/F</w>
अक्ष र्य</w>
अच ित्र</w>
अननु भाव
अननुभाव कता</w>
अर्धन ग्न/sT</w>
आठ ौ
आठौ गाँ
आठौगाँ ठ</w>
आंग ार</w>
अम्ल स
अम्लस ह</w>
अरविन्द दलप्रभ</w>
अनुद्वे ग</w>
अवशिष्ट /sTM</w>
अंग ांक</w>
अश्मकु ट्ट</w>
अभिलेखाध ्य
अभिलेखाध्य क्ष/M</w>
अपो त्साहित</w>
अंतर ीन</w>
अपा श्रय</w>
अग्र ु</w>
अधो भाग/M</w>
अंबर मणि</w>
अतिथि भवन</w>
अश्व वाहक</w>
अश्म -
अश्म- मुद्रीय</w>
अँठ ई</w>
अनुल्लेख /M</w>
अण्ड ोत्सर्ग</w>
अर्ध शासकीय</w>
अंकुड़ ेदार</w>
अन्या र्थ</w>
अवरेब /ME</w>
अभौ तिक
अभौतिक वाद</w>
अन्न जल</w>
अपरा करणीय</w>
अप्र भूत</w>
आती- पाती</w>
अपराध ीय</w>
आदान ्य/sT</w>
अभिवाद यिता</w>
अनर्ह /sT</w>
आका द</w>
अंधका सुर
अंधकासुर मर्
अंधकासुरमर् दी</w>
अभिनंदन -पत्र/M</w>
अनन्य भव</w>
अधोमुख ्यत</w>
अस्थि बन्ध</w>
अनर्घ /sT</w>
अग्र गमन/M</w>
आच्छ क</w>
अन्न सं
अन्नसं स्कार</w>
अमर द्वि
अमरद्वि ज</w>
आघ ाट</w>
अस्थिध न्या</w>
अनुल म्ब
अनुलम्ब खाता</w>
अंगार क/M</w>
आनु मान</w>
अपर्य ाय
अपर्याय /M</w>
आद्य न्त</w>
अर्ध रात्रि</w>
अधिक तः</w>
अंगम र्ष/M</w>
आंती यो
आंतीयो पी</w>
अपास ित</w>
अर्ज ीनवीस/M</w>
अमां स
अमांस ल
अमांसल काय</w>
अकीद ा/CI</w>
अनुलिप ित्र
अनुलिपित्र ित</w>
अज्ञान वश</w>
अभिजात ्य/sT</w>
आड ेन
आडेन -आ
आडेन-आ ब
आडेन-आब ियान</w>
अभिकेंद्र ीय</w>
अंबाल ा/JK</w>
आख ुर
आखुर थ</w>
अप्र माण
अप्रमाण िक</w>
अंतस् </w>
आकाश द
आकाशद ीया</w>
अननुम त्य
अननुमत्य त</w>
अरण्य नि
अरण्यनि नाद/M</w>
आंतरा ल
आंतराल िक/sT</w>
आदरस त्
आदरसत् कार/M</w>
अंबा झ
अंबाझ ोर</w>
आत्मान ुरूप</w>
आतश गाह</w>
अकाराद िका</w>
अल स्का</w>
अंतर्भौ मीय</w>
अपस ौन</w>
अर्ना स्त
अर्नास्त त्व</w>
अंड -कोष</w>
अवस्क न्दित</w>
अह ंकृत
अहंकृत त</w>
अविक ृत/sT</w>
अशौच पूर्ण</w>
अव -
अव- आकल
अव-आकल न</w>
अन्न ोत्पादक</w>
आतिर श्च
आतिरश्च ीन</w>
आत्मचर ित्र</w>
अभिन यन</w>
अनुपस्थ ितत/F</w>
अनेका ंग
अनेकांग ीयता</w>
अभंग ुर
अभंगुर त/F</w>
अदृश्य दर्शन/M</w>
अकाउंट ंट</w>
आनंद ितत</w>
अतिसार /E</w>
अपो त्स
अपोत्स ाह</w>
अनिर् देश</w>
अध ृतत</w>
अटकल प
अटकलप च्चू</w>
अंग ेज़
अंगेज़ /M</w>
अंच ती</w>
असु त्याग</w>
अरा बा</w>
अन्दा जन/FD</w>
आधूम ्रक</w>
आदि- अनाद
आदि-अनाद ि</w>
अनादिकाल िक</w>
अभिर ंजित</w>
अप्रत ीय
अप्रतीय मान</w>
अपव्य ापन</w>
अल्प बुद्धि</w>
अल्प हार/E</w>
अभिनियो ग</w>
अठ ाई
अठाई स/H</w>
अपवाद िक</w>
अक़ल /f</w>
अधि वाचक</w>
अंतर भिमुखी</w>
अग्निम ृत्यु</w>
अव रूप</w>
अंतयो ष्टि</w>
अश्रद्ध त</w>
आचार्य जी</w>
अंतः भू
अंतःभू त/sT</w>
अन्त सद</w>
अंतर् स्थित</w>
अक़द त</w>
अनवे क्षण/M</w>
आक्रोश क</w>
अंग दर्शी</w>
अनमि लत/F</w>
अँट वाइयो</w>
अध्ययन रत</w>
अंत ग</w>
अननु कृति</w>
अर्ध कुसु
अर्धकुसु मित</w>
अहं त्व</w>
अवश्य म</w>
अन्तर् गत/M</w>
आदर युक्त</w>
अनानु वंश
अनानुवंश िक/sT</w>
आत्मोद् भूति</w>
आइसलैंड वास/0E</w>
आचार ित
आचारित द
आचारितद व्य</w>
अनुसन्ध ेय</w>
अंकु ड़ा</w>
अप्र म
अप्रम द/F</w>
अंतर- अय
अंतर-अय न</w>
अंबिकाप ति</w>
अंदाज /f</w>
अंत्या कार</w>
अग्रे सर
अग्रेसर िक</w>
अवक् वण</w>
अह् र्य</w>
अंघ स</w>
अभि ग्रह</w>
अह िक्षे
अहिक्षे त्र</w>
अस्व जात</w>
अधर ज</w>
आज्य लेप</w>
अना श्च
अनाश्च र्य</w>
अभू त/sT</w>
आच्छा जन</w>
अनीर्ष ितत</w>
अंबु ग</w>
आचरण मूलक</w>
अवन ितल</w>
अपार दर्
अपारदर् शी
अपारदर्शी -वस्तु</w>
आइज़ क</w>
अगु आई
अगुआई /O</w>
अनबो या/C</w>
अमृत धु
अमृतधु नि</w>
अव भाष
अवभाष िका</w>
अह द/E</w>
आनुषंग िक</w>
अलग ौ
अलगौ झ
अलगौझ ा/IC</w>
अवे स्त
अवेस्त न</w>
अनु ृ
अनुृ णी</w>
अभिजात -भवन</w>
अधम रा/G</w>
अपरि मेयत/F</w>
अकल्याण कर</w>
अंतर्सं स्कृत
अंतर्संस्कृत ीय</w>
अल् म
अल्म ष</w>
अदृष्ट लिपि</w>
अभिभाव िका</w>
अग्नि प
अग्निप रीक्ष
अग्निपरीक्ष ा/IC</w>
अस्वास्थ कर</w>
अँठ ुली</w>
अद्य नि</w>
अध ाना</w>
अखिल त/F</w>
अटका या/C</w>
अंतर वाणिज्य</w>
अयथ ापूर्
अयथापूर् वत</w>
आंद ू</w>
अभिनंद ित/sT</w>
अलक तर
अलकतर ा/IC</w>
आदेश ितत</w>
अटवा टी</w>
आदान पत्र</w>
अर्ध वयस्क</w>
आज्या स्थाली</w>
अपरा भव
अपराभव नीय</w>
अनंत राशि</w>
अन्तर्राष्ट्र वादी</w>
अवना सिक</w>
अभिस्त्र ावक</w>
अर दंड</w>
अ उ
अउ न्नत</w>
अंतर् वर्ती</w>
अना गामी</w>
अमिश्र णीय</w>
अपरि मार्जन</w>
अशास न
अशासन वादी</w>
अनि रूपण</w>
असंवेद नशील</w>
अफ़ वाहन</w>
अटक ियो</w>
अँट ा/7AGCB34sTv</w>
अप च्छ
अपच्छ ाय
अपच्छाय /F</w>
आदिन ारी</w>
अबि ंध्य</w>
अंधकार ात
अंधकारात ंक</w>
अप ान/M</w>
आदि वास/0E</w>
अच्छिद्र चंद्र
अच्छिद्रचंद्र क/F</w>
अनुप पाद
अनुपपाद ्य/sT</w>
अवै राग
अवैराग ्य</w>
अक्षद ण्ड</w>
अग्नि भू</w>
अंतर िम
अंतरिम /sTM</w>
अद्रि भि
अद्रिभि द</w>
आधूम ्र</w>
अक्ष ोन्मुख</w>
अप ण
अपण ्या
अपण्या र्थ</w>
अनन्ना सा
अनन्नासा कार</w>
आदिप र्व</w>
अभ्यार ण्य</w>
अट ट
अटट ोल</w>
अवरू ढ</w>
अनन्याधिकार ात्मक</w>
अभिव्यक्ति यों</w>
अंधकार ावृत्त</w>
अपभ ीति</w>
अलूमीन म</w>
अर् म</w>
अपरि ज्ञ
अपरिज्ञ ात
अपरिज्ञात त</w>
आकार न
आकारन ष्ट</w>
अलक्ष रों
अलक्षरों मे
अलक्षरोंमे ं</w>
आदि रूप</w>
अंगज /FDM</w>
अज्ञात लोक</w>
अवैध स
अवैधस मू
अवैधसमू ह/M</w>
अफल /sTMFD</w>
अरुण सार</w>
अर् च
अर्च ा/GCI</w>
अनिर्ण यग्रस्तता</w>
अप्र ज/F</w>
अंतर पंथ
अंतरपंथ ी</w>
अताल ी
अताली क़</w>
अश ीश</w>
अधिप्रमाण िकता</w>
अंगार पर्ण</w>
आचि ंत</w>
अँग िरा</w>
अधिकार तः</w>
अक़ ीर</w>
अभि रा
अभिरा मत/F</w>
अमिताभ जी</w>
अक्ष ुर</w>
अहर् नि
अहर्नि श</w>
अश्लील /sTM</w>
अणुव त्त</w>
अधः शयन</w>
अष्ट वंश</w>
अढ ै</w>
अवर-स ेवा</w>
अश्म ीय</w>
आन र</w>
अष्ट ाव
अष्टाव क्र
अष्टावक्र /sTM</w>
अस ाइन</w>
अधः पुष्पी</w>
अग़ ल
अग़ल -ब
अग़ल-ब ग़ल</w>
अन्य पुरुष/M</w>
अधि चित्र</w>
अध्याह र्त
अध्याहर्त व्य</w>
अध्याह रण</w>
अमाव /8ED34sTv</w>
अर ग्र
अरग्र गामी</w>
अद् म
अद्म नि</w>
आनंद दायी</w>
असां स
असांस द
असांसद िक/sT</w>
अज बंधु</w>
अनछि दा/G</w>
अमर माला</w>
अयस्क म</w>
अवि शा
अविशा ल</w>
अट कृमि</w>
आज तक</w>
अचल द्वेष
अचलद्वेष ी</w>
अयज्ञ िप</w>
अभिह ितत</w>
आज्य भुक्</w>
असक त
असकत ा/7G34sTv</w>
असिस्ट ेड</w>
अम्ल िका</w>
अटाट ्या</w>
अवल ीन</w>
अपोह /M</w>
अंचित भ्र
अंचितभ्र ू</w>
आकर्ष ितत/F</w>
आंतर िक्ष</w>
अपश िष्ट</w>
अधिप त्य</w>
अग ज
अगज ग</w>
अनुर्व री
अनुर्वरी करण/M</w>
अग्निद ूत</w>
अंग्रेज -रा
अंग्रेज-रा जन
अंग्रेज-राजन ी
अंग्रेज-राजनी ति
अंग्रेज-राजनीति ज्ञ/M</w>
अनय स</w>
अभि ग्राह्य</w>
अरण्य रो
अरण्यरो दन/M</w>
अन िक</w>
अर्जै ंसी</w>
अमि त्र्य</w>
अरस यान</w>
अनहं कृति</w>
अछ ल</w>
अपवाह /E</w>
अर्प यिता</w>
अनात्मक दुः
अनात्मकदुः ख</w>
अज ाप
अजाप ्रिया</w>
अमेरिका ज़</w>
अनुद्वे ग
अनुद्वेग कर</w>
अवरोप णीय</w>
अभिहस्त ांतर</w>
अंतः ज्ञानी</w>
अर्ज ितत</w>
अनंत कुमार</w>
अधिमान ्य/sT</w>
अवग ूहन</w>
अक्ष ीण</w>
अभिस मय/M</w>
अफग ान/ME</w>
अवै कल्पिक</w>
अज तन</w>
अधे सि
अधेसि व</w>
अंतर् स्थापन/F</w>
अपां व
अपांव त्
अपांवत् स</w>
आत्मच तु
आत्मचतु र्थ</w>
अजा जी
अजाजी व</w>
अच ीर</w>
अल्पायुष ी</w>
अधिकरण -सिद्धांत</w>
अनख /834sTvLMFED</w>
अपेक्षा बुद्धि</w>
अंतर् द्वं
अंतर्द्वं द्
अंतर्द्वंद् व/M</w>
अर्कच ंदन</w>
अनिवार ितत</w>
अधरा ंग
अधरांग घात</w>
अच्युता ंग
अच्युतांग ज/M</w>
अक्षर वाला</w>
अभिम न्
अभिमन् त्रित</w>
अंद री
अंदरी पन</w>
अस्र फला</w>
अना कर्ष
अनाकर्ष क/sT</w>
अंकुर ीय</w>
अरि -
अरि- मेद</w>
आगमन वादी</w>
आकर्ष ियो</w>
अन्तर् भौम</w>
अना त्य
अनात्य ंत
अनात्यंत िक</w>
अध्यव सि
अध्यवसि ति</w>
अंगुलि चालन</w>
असुर के/M</w>
अंत परिधान</w>
अमल को
अमलको ची</w>
अजीव /sTM</w>
अश् क</w>
अनुपयोग /EM</w>
अप्रगाढ़ न</w>
अहिल ्या
अहिल्या बाई</w>
अस्थिर ंध्र</w>
अंध ुल</w>
अभिस्य ंद/E</w>
अवलोक ्यत/F</w>
अधोप तन</w>
अजिनपत्र ी</w>
अक्षरपाठ ित्र</w>
अय था</w>
आंड ज</w>
अनिवार्य तः</w>
अफ्रीक ियों</w>
अज़ीज़ ाना</w>
अधर म
अधरम ध
अधरमध ु</w>
अति घ</w>
अल् ना</w>
अधिवास ियों</w>
अमु कुल
अमुकुल ित/sT</w>
अंबु राज</w>
अर्द्ध -पारदर्शी</w>
अनस जा/G</w>
अर्थ मिति
अर्थमिति परक</w>
अधिश यन</w>
अध्वा ति</w>
अंतर्वेश ्म</w>
अरल ुक</w>
अनंग श
अनंगश ेखर</w>
अभिद्र ोह
अभिद्रोह /M</w>
आका ड</w>
अब्र म</w>
अर कला</w>
अद राइयो</w>
अवक्रम /M</w>
अननु मेय
अननुमेय /sT</w>
अनधि ग्रहीत</w>
अपधर्म िता</w>
अश्व दल</w>
अत ंद्र
अतंद्र /FEsT</w>
अभ्य ंजन/M</w>
अभि ज्ञान/ME</w>
अर्णव नेमि</w>
अनुद् भव</w>
आड वाणी</w>
अमह ैरिक</w>
अन -ए
अन-ए ई</w>
अनवश िष्ट
अनवशिष्ट त/F</w>
अचेतन क/M</w>
अर्थो द्घ
अर्थोद्घ ाट
अर्थोद्घाट न/M</w>
अभिक ेन्द्र
अभिकेन्द्र ी</w>
अनप का/G</w>
अगिन बान</w>
अंत्य विपुला</w>
अर्जेन्ट ीना</w>
अट्ठ ाइ
अट्ठाइ स/H</w>
अनु गुण
अनुगुण त</w>
असिपु च्छ</w>
अवग ण</w>
अभिश ास
अभिशास ित</w>
अंग मुद्रा</w>
अर्थ िक/ME</w>
आगाम िक</w>
अन्तर्प्र ांतीय</w>
अभ्या हार/M</w>
अनुमानातीत /sT</w>
अप्रकट /sT</w>
आतत ायी</w>
अनाच्छ ाद
अनाच्छाद न/M</w>
अँत र्ग
अँतर्ग डु</w>
अनपाय /FE</w>
अंश ीय/sT</w>
अख ेट</w>
अन्तर जाल</w>
अभ्र ं
अभ्रं लिह</w>
अख र्व</w>
अति- आधुन
अति-आधुन िक</w>
अंतर /q
अंतर/q FED
अंतर/qFED sTM</w>
अभ्य क्त</w>
अपग त/sT</w>
अक्का दी</w>
अक्ष ांत</w>
अनगढ पन</w>
अर्ध चेतन/F</w>
अकड़ ाहट</w>
अनजान -
अनजान- जान
अनजान-जान ा-प
अनजान-जाना-प हच
अनजान-जाना-पहच ाना</w>
अंबु निधि/PQ</w>
अभिद त्त/M</w>
अनि ग्रह
अनिग्रह त</w>
अद्वै त
अद्वैत ब्रह्म</w>
अग्र श</w>
आनन्द मत्ता</w>
अनंत पार</w>
अनम ँ
अनमँ जा/G</w>
अतुल ितत/F</w>
आदिअंत युक्त/sT</w>
आचार्य्य त्व</w>
अंश धर/M</w>
अनै स
अनैस /8FED34sTv</w>
अधिकांश तया</w>
अष्ट कृष्ण</w>
अभि वास/M</w>
अर्शो ज</w>
अंग -प्रतिरोपण</w>
आं व</w>
अमी रा
अमीरा त/M</w>
अहम ह
अहमह मिका</w>
अंगुश्तनु मा</w>
अधि त्वचा</w>
आत्म त/F</w>
अनावास ित/sTF</w>
आइ ल</w>
अलं कृत</w>
आत्मस्वी कृत</w>
अपभाष ण/M</w>
अथ व
अथव /MFD</w>
अंश -वि
अंश-वि भाजन</w>
अन चित</w>
आजान ुल
आजानुल ंबी</w>
अस्थि -
अस्थि- कुंड</w>
अनप करण</w>
अनग ला/G</w>
अपम ृषित</w>
आन ियो</w>
अत्याव श्
अत्यावश् कता</w>
अंतः स्र
अंतःस्र वण</w>
आकर -
आकर- भाषा/K</w>
अभ्यंत र/M</w>
अंतरा गत</w>
अयु द्ध
अयुद्ध क</w>
अंतरछेद क</w>
अन्ह ा/734sTv</w>
असं स्म
असंस्म ृतत</w>
अक्ष मित</w>
अमि /QsTM</w>
अमृत महल</w>
अनप र</w>
अपॉ इंटमेंट/M</w>
अवर-स ेवक</w>
अंत कर्
अंतकर् म/F</w>
आँधी-तू फान</w>
अंगरे जिन</w>
अमु क/sTM</w>
अंतर् वाह</w>
आक्षेप कारी</w>
अनु वर्ष</w>
अर्णव ीय</w>
अलब्ध ाभ
अलब्धाभ ी
अलब्धाभी प्सित</w>
अवर -प्र
अवर-प्र वर</w>
अनिर् वाह</w>
आकार -विज्ञान/M</w>
अमार् मिक</w>
अन्तरा ल</w>
अपट ी
अपटी क्षेप</w>
अवभ ास/M</w>
आत्म ंभ
आत्मंभ रि</w>
अपरि पूर्ण</w>
अंग ोरा</w>
अवल िप्त</w>
अंका व</w>
अत्यल्प त/F</w>
अमर ेश/M</w>
आत्मक ृतत</w>
अयु ग</w>
अव जाति</w>
अश्लाघ नीय</w>
अभिक्र ांत
अभिक्रांत /E</w>
अंत म</w>
अतिस ह
अतिसह जित</w>
अपु ष्टि</w>
अप सरण/M</w>
आइसलैंड िक</w>
अल्पम त/M</w>
असन्तोष /E</w>
अंत गत</w>
अफ्र ीक़
अफ्रीक़ ी</w>
अनह ुआ</w>
अभ्य सू
अभ्यसू य/F</w>
अवघोष क/M</w>
अनन क्व
अननक्व ॉ
अननक्वॉ ड
अननक्वॉड ियम</w>
अधि प/M</w>
अंतर धर्म</w>
अनाध ीन/sT</w>
आं धर</w>
अर्ध भाज</w>
अंत्य विदारण</w>
अरक ंटक</w>
अश ुल्क</w>
अल्प ज्वर</w>
अव ार्यत/F</w>
अक्ष ीय
अक्षीय मीय</w>
अणु ल</w>
अज़ र
अज़र बे
अज़रबे जान</w>
अवि रह
अविरह /E</w>
अप्रा थ
अप्राथ म
अप्राथम िकता</w>
अंग ्य</w>
अपद स्थ</w>
अर्द्ध-नार ाच</w>
अविवाह ्य</w>
अभिनिष् पत्ति</w>
आक्षेपा त्मक</w>
अप्र सिद्ध
अप्रसिद्ध /M</w>
आत ा-
आता- जा
आता-जा ता</w>
अधि वर्ष/M</w>
अध ेड</w>
अप ेत</w>
आत्माभिव्य क्ति</w>
अंक ट
अंकट ा
अंकटा ड</w>
अग्र ंथ</w>
अनुमोद नात्मक</w>
अधिम त/M</w>
आतप स्
आतपस् नान/M</w>
अभ ूषित</w>
अज़ ा
अज़ा ख़ाना</w>
आकृति य
आकृतिय ां</w>
अंबु क्रिया</w>
अनु जन्मा</w>
अलप बुद्धि</w>
अक्षर-सं योजक/M</w>
अवक्र ीत</w>
अंध गति</w>
अभ्याप त्ति</w>
अनुकरण ज</w>
अप ुरूप</w>
आत्म /FDsTM</w>
अनेक ेश्वर/ME</w>
अनप ढ</w>
अंदर ख़ान
अंदरख़ान े</w>
अनार -द
अनार-द ाना</w>
आ ऩ
आऩ ा</w>
अपो जी
अपोजी शन</w>
आधिक ्य/M</w>
अवलम्ब न/F</w>
अमृतल ता</w>
आठ ै
आठै ं</w>
अन्यत्व वाद</w>
आक िल
आकिल ख
आकिलख ानी</w>
अधिय ाइयो</w>
अपर दिशा</w>
अनाद िक</w>
अन्तरा व
अन्तराव लोकन</w>
आठ वां</w>
अंड ाशी</w>
आत्म रुप</w>
असाह च
असाहच र्य</w>
आग वन</w>
अश्म न्त
अश्मन्त क</w>
अंड ुल</w>
अनप वाद</w>
अड चन</w>
आद ृष्टि</w>
अक्ष े
अक्षे म
अक्षेम कर</w>
अनथ ी
अनथी नाशन</w>
अभिखंड ित</w>
अल्प ेक्षा</w>
अनन्त तीर्थकृत</w>
अश्वम क्षी</w>
अवबोधक ीय
अवबोधकीय /LM</w>
अविचार शील</w>
अमरा व</w>
अकु त्सित</w>
अशर्त त/F</w>
अस्वा भविक</w>
अंधकार ण</w>
अंबु धर/M</w>
अतिरिक् ताय
अतिरिक्ताय ामी</w>
अड़ बल</w>
आध् मात</w>
अविन ्यस्त</w>
अवस्फ ुरित</w>
अपह रक</w>
अड़स /ED</w>
अम रोप
अमरोप म</w>
आत ुरा
आतुरा लय</w>
अनिम िया</w>
अजी मत</w>
अट्ठाई स</w>
अनेका क्षर</w>
आकाश फ
आकाशफ ल</w>
अवनी ध</w>
अज मुख/M</w>
अनुयाय िनी</w>
अप्र मे
अप्रमे यात्मा</w>
अंग रुह</w>
अनीर् ष्य</w>
अंकुश धारी</w>
अंश युक्त/sT</w>
आजीव निक</w>
अर्ध-म त्स
अर्ध-मत्स ्य
अर्ध-मत्स्य ेन्द्र
अर्ध-मत्स्येन्द्र ासन</w>
अनसूय /MFD</w>
अंगिर स/M</w>
अर्द्ध ीकरण</w>
अध्यात्म िक/sT</w>
अनाश क</w>
आघ्र ांत</w>
आत्मानुशास न/M</w>
अर्ह ता
अर्हता संप
अर्हतासंप न्न/sT</w>
अवरोध हीन/sT</w>
अग्र िणी</w>
अवदार ण/M</w>
आत्म ्य</w>
अवाक् /sT</w>
अमौ आ</w>
अग्र वर्ति
अग्रवर्ति ता</w>
अना गमन</w>
अनाद ान</w>
अन्ना द्य</w>
अधि स्फोट
अधिस्फोट ित</w>
अंड ीय</w>
अभिमंत्र ितत</w>
अंदर -बाहर</w>
अकर्तृ भाव</w>
अत्ताब िया</w>
अपरा र्ध</w>
अवि धित</w>
अमर ित</w>
आदि लक्ष्मी</w>
अस्ति वाचक</w>
अविक्ष ु
अविक्षु ब्ध</w>
अन्ध िय
अन्धिय ारा</w>
अँब ारी</w>
अंतर्विल यन</w>
अधो वर्ती</w>
अग्निमन् थन</w>
अधो न्
अधोन् मुख</w>
अनाथ -स
अनाथ-स नाथ</w>
अच्छिद्र िल
अच्छिद्रिल /sT</w>
अंग -भंग</w>
अडि शन
अडिशन ल</w>
अक्ष नि
अक्षनि रीक्षक</w>
अन्तर्वेश ्मिक</w>
असिक् नी</w>
अधबु ध</w>
अभ्यव स्कंद</w>
अलक्ष ्यत</w>
अमृत ांश
अमृतांश ू
अमृतांशू द्
अमृतांशूद् भव</w>
अभिसि ंच
अभिसिंच ्य</w>
अकर्म ठ
अकर्मठ त</w>
अम्ल -प
अम्ल-प रीक्षण</w>
अनीश्वर त्व</w>
अहार ियो</w>
अह मन्य/sT</w>
अवम ज्जित</w>
अनेक श</w>
अंजलि ब
अंजलिब द्घत/F</w>
अरि ह
अरिह ा/CI</w>
असृक् प</w>
अभिक र्म/sT</w>
असाइ न
असाइन मेंट/M</w>
अन्वय /sTME</w>
अरु गण</w>
अर्धयंत्र ीकृत</w>
असुरा घ
असुराघ िप</w>
अंड क
अंडक व
अंडकव च</w>
अनुज्ञाप्र द</w>
आंत र्शारीरिक</w>
अमर स्त्र
अमरस्त्र ी</w>
अग ह</w>
अनन्याधिकार ीय</w>
अन्यथ ा/IC</w>
असं वि
असंवि धानिक</w>
आड /E</w>
अनिच्छ /F</w>
अभिश ापन/M</w>
असं पादित</w>
अरिय ल</w>
अपत ानक</w>
आग्रहाय णिक</w>
अवा क
अवाक /EsTM</w>
अकालोत् पन्न</w>
अत्यंत /sTM</w>
अमृत-बि ंदु</w>
आकाश ेर</w>
अपह ार्य</w>
अग्निश ाल
अग्निशाल ा/JK</w>
अग ाल</w>
अक़ ीम
अक़ीम /F</w>
अर्मे निया</w>
अष्ट रूप</w>
अव ाप्ति</w>
अमन च
अमनच ै
अमनचै न/M</w>
अश्व तर/M</w>
अपरा स्त</w>
अंग ध</w>
अर्ध- गोलाकार</w>
अवकाश -केंद्र</w>
अम्ल क
अम्लक ेशर</w>
अम घौत</w>
असमा विष्ट/sT</w>
अर राया</w>
अर्ध न</w>
अना ज़</w>
अवलोक नकारी</w>
अवप ्य
अवप्य ाप्ति</w>
अतिथि गृह/M</w>
आत्मद मन/M</w>
आँकड़ ा/GCI</w>
आघ ोन</w>
अलख धारी</w>
अयोज ित/sTM</w>
अद ह</w>
अव ग्राह
अवग्राह </w>
आदित्य भ
आदित्यभ क्त/F</w>
अपलाभ ार्जन</w>
अस्थिक्ष रण</w>
अठ रीय</w>
अनुकरण शील</w>
अवर कालीन</w>
अपप्र चार</w>
अव ावट</w>
अंतर्दु ग</w>
अभिचार /ME</w>
अशास ाव
अशासाव ेद
अशासावेद नीय</w>
अरे स्ट
अरेस्ट /M</w>
आत्मनि ग्रह/E</w>
अक् लांत
अक्लांत /sT</w>
अनभी ष्ठ</w>
अतिरेक /ME</w>
अदब कार</w>
आगार ीय</w>
अल मास</w>
अपघट ्य</w>
अंगू री</w>
अब्ज िन
अब्जिन ी
अब्जिनी पति</w>
अन्ध -विश्वास
अन्ध-विश्वास /E</w>
अवन े
अवने जन/M</w>
अथ कान</w>
अवन ीत</w>
अरो च</w>
अस्ताचल -
अस्ताचल- गामी</w>
अंतर् मुख
अंतर्मुख /sTE</w>
अन्त्य योनि</w>
अभिनंदन पूर्ण</w>
अन्यो अन
अन्योअन ्य</w>
अदबद ाइयो</w>
अध सू
अधसू खा</w>
अर्धसह स
अर्धसहस ्रा
अर्धसहस्रा ब्
अर्धसहस्राब् दीय</w>
अस िक्रीड़ा</w>
अनव ान
अनवान ता</w>
आत्मतु ष्ट/sT</w>
आकांक्ष त</w>
अटै न
अटैन ड
अटैनड ैंट</w>
अरू कन</w>
अपकेंद्र ण</w>
अंतराव स्था</w>
असि म्मत</w>
अंज हा/G</w>
अंर्त गत/M</w>
अनभि ग्रह/E</w>
अप क्षेपण/M</w>
अरु प/sT</w>
अन्वेषण कर्त्ता</w>
असंतोष ्य</w>
अख ्य
अख्य ति</w>
अनबिँध ा/G</w>
अधोरेख न</w>
अननु वाद्य</w>
अंग दान/M</w>
अग्र वा
अग्रवा ल/M</w>
अंभ स</w>
अंभी त्र
अंभीत्र ाइ
अंभीत्राइ ती</w>
आँजन ेय</w>
आचार्य कुल</w>
अरका ट/E</w>
अर्ध मूल्य</w>
आंदोलन कारियों</w>
अथॉ र
अथॉर टी</w>
अक म्
अकम् पाय
अकम्पाय मान</w>
अन्या श्रित</w>
अर्धश त/E</w>
अँगु ठी</w>
अंगुल ास्थि</w>
आगे पीछ
आगेपीछ े</w>
अस्थिर तापूर्वक</w>
अरत् नि</w>
अँगू रों</w>
अविष म</w>
अकंप ित/sT</w>
अवद लित</w>
अत्म ोप
अत्मोप जीवी</w>
अशक्त त/F</w>
अह इ</w>
अब द
अबद ुल्ला</w>
अंक ोड़ा</w>
अभिषे णन</w>
अविरू ढ़</w>
अकू त/sT</w>
अप्रा चु
अप्राचु र्य</w>
अपकाष्ठ ात्मक</w>
अप र्ध
अपर्ध म</w>
असम् पूर्ण</w>
अश्वा यु
अश्वायु र्वे
अश्वायुर्वे द/M</w>
अभि पत्र/M</w>
अंगुलि निर्देश</w>
आकाश /EM</w>
अपा कृत</w>
अहःसं वर्तक</w>
अवच ू
अवचू री</w>
आद्र -प्रदेश</w>
अरु चि</w>
अधो नयन</w>
अभ्र ष्ट</w>
आका प</w>
अध ः</w>
अन ीनी</w>
अर ट</w>
अचकच ाया</w>
अध ार/E</w>
अरमे नियाई</w>
अयन-सं क्रम</w>
अंतस्त प्त</w>
अप्रस न्न/sT</w>
अभिल क्ष्य</w>
अँगूठ ाछाप</w>
आइ स/M</w>
अधिक्ष मता</w>
अवकाश युक्त</w>
अवस्थ ीय</w>
अवज्ञ ाध
अवज्ञाध ीनता</w>
अन्वाहार्य -
अन्वाहार्य- श्राद्ध</w>
आं य</w>
अजीब तर
अजीबतर ीन</w>
अद ाह
अदाह ्य</w>
अमृतम ति</w>
अप्रति संह
अप्रतिसंह रणीय</w>
अवस ्य</w>
अधिकार ीर
अधिकारीर जि
अधिकारीरजि स्ट
अधिकारीरजिस्ट ्र
अधिकारीरजिस्ट्र ी</w>
अतं रह
अतंरह ी
अतंरही न/M</w>
अश्वम ारक</w>
अधि गुण</w>
अणु त्व</w>
अधुना तन
अधुनातन -पुरा
अधुनातन-पुरा तन</w>
अधिक तापूर्ण</w>
अंतर महा
अंतरमहा द्वी
अंतरमहाद्वी प
अंतरमहाद्वीप ीय</w>
अहम क्र
अहमक्र पना</w>
अग्निस ात</w>
अधो स्थापित</w>
अंड प</w>
अत्यंत ा
अत्यंता भाव/M</w>
आत्मवि ष
आत्मविष ायन</w>
अर ंगे
अरंगे त्र
अरंगेत्र म</w>
अग्न ित्र
अग्नित्र य</w>
अट े
अटे स्ट
अटेस्ट ेड</w>
अच्छ ा
अच्छा -ब
अच्छा-ब ुरा</w>
आंतर्वेश िक</w>
अवहेल न/F</w>
अँच वा/7
अँचवा/7 GCB34sTvA</w>
आत्मीय करण</w>
अनुशंस ा/ICJK</w>
अभ्या गमन</w>
अग्रक ेश</w>
अभा षण</w>
अवन त्य</w>
अपश ुकन</w>
आज ुर</w>
अलूम िनियम</w>
अरर ा/7AGCB34sTv</w>
आत्म क्रीड़ा</w>
आंद रा</w>
अंतर् मृत</w>
आधार िड</w>
अतिरंजना वाद</w>
अना क्रां
अनाक्रां त/F</w>
आजू बाज़
आजूबाज़ ू</w>
अंगपा लिका</w>
अल ापनीय</w>
अकल् प</w>
अद ालय</w>
अनादि त्व/M</w>
अनीश्व रोप
अनीश्वरोप दिष्ट</w>
अघ िया/734sTv</w>
अटक /34
अटक/34 s8Tv
अटक/34s8Tv LMFED</w>
अत्य ू
अत्यू ह/M</w>
अव्य ाप्य</w>
अँड राया</w>
अप्र युक्
अप्रयुक् तत्व</w>
अनुरा गो</w>
अतिक्र ामी</w>
अस्त कालीन</w>
अधोभु वन</w>
अनुभ ार</w>
अक्कल कोट</w>
अन ए
अनए ई</w>
अकैड मी</w>
अय ाशी</w>
अपमिश्र क</w>
अना शय
अनाशय ित</w>
अन्न- रस</w>
अंतर् योग/M</w>
अट ॉर्
अटॉर् नी</w>
अंतरिक्षविज्ञान ियों</w>
अकल दा
अकलदा ढ़
अकलदाढ़ /LM</w>
अलग़ ो
अलग़ो ज़ा</w>
अंबिक ावन</w>
अप ि</w>
अचल सुता</w>
अंतर् धानन</w>
अविघ टन</w>
अनव स्थिति</w>
अधिक /F
अधिक/F rsT</w>
असमा ध्य
असमाध्य ेय</w>
अश्व बन्धन</w>
अस्स ी/H</w>
अरुंध ती</w>
अंजना वती</w>
अठ भु
अठभु ज/F</w>
अभियो जनीय</w>
अभिभाष क/M</w>
अधि- दिवस</w>
अंगवि च्छेदन</w>
अर्जुन देव</w>
आद िया
आदिया स</w>
अर्ध- वर्ष</w>
अंतरण पत्र/M</w>
अभी मोद</w>
अव्य व/M</w>
अंतःप्ल ै
अंतःप्लै ज़्म</w>
अंतरा वर्त</w>
अर् ना</w>
अर्धनरनार ी</w>
अभिनय कर्ता/K</w>
अबल ग</w>
अभिनंद नीयत/F</w>
अंग घात
अंगघात /M</w>
अपर -
अपर- लोक</w>
अवैध लाभ</w>
अनसूय त</w>
अनाधिक ृत</w>
अपघट न/ME</w>
अट न/MFED</w>
अंट ी-
अंटी- गु
अंटी-गु ंट
अंटी-गुंट ी</w>
अल्प -बि
अल्प-बि ंबा
अल्प-बिंबा णु</w>
अपर्य ाप्य</w>
अपक्ष िप्त</w>
अधमुँ दा/G</w>
आईऐस डी</w>
अपचय ीय</w>
अक्षम ापक/M</w>
अठ ई</w>
अष्ट मक</w>
अनुरागि ए</w>
अमिश्र ेय</w>
अंत ध्
अंतध् र्व
अंतध्र्व स/E</w>
असौ ष्ठ
असौष्ठ व</w>
अनाद रण/M</w>
आक्ट ंट</w>
अवश /sTE</w>
असत् कार</w>
अड क</w>
अचपल /FEsT</w>
अली गढ़</w>
आकाश स्प
आकाशस्प र्श
आकाशस्पर्श ी</w>
अनंग -क्रीड़ा</w>
अगू ढ</w>
अपर त्व</w>
अंज र</w>
अर्ध ज्ञान/M</w>
आत्म त्व</w>
अनुलग्न म</w>
अभिस ंग/M</w>
अर्धनि शा</w>
आकार -प्र
आकार-प्र कार</w>
अंट ीम
अंटीम ार</w>
अन रण
अनरण ्य</w>
अपाह रक</w>
अभिक ाम
अभिकाम ना</w>
अर्ध -व्यास</w>
अविन य/ME</w>
अग्निसं भव</w>
अटै च्
अटैच् ड</w>
अपवाद ानु
अपवादानु दान</w>
अग्नि जीवी</w>
अक्षर ेख
अक्षरेख ा/JK</w>
अधिकारी वर्ग</w>
अशु क्र
अशुक्र जनन</w>
अक्षर -वि
अक्षर-वि न्यास</w>
अनिय त्रित</w>
अभिलाष ीना</w>
असिपु च्छक</w>
अल्प दृष्टि</w>
अहि गंध</w>
अभ्युप पत्ति</w>
अवलंब क</w>
अँग्रेज़ ियत/LM</w>
अधो गत
अधोगत /E</w>
आत्मरक्ष ा/GCI</w>
अलबे त्ता</w>
अधः वाचक</w>
अमृत माल
अमृतमाल िनी</w>
अब ो
अबो मास
अबोमास म</w>
अनेक शः</w>
अनुष त्कि</w>
अधरा त</w>
अग्निद हन</w>
अन्न दान</w>
अजायब खाना</w>
अँगुल ियों</w>
अर्थ कोश</w>
आनुकूल िक</w>
अपन यन/M</w>
अम र्ष
अमर्ष ज</w>
आत्म नीन</w>
अस्तर कारी</w>
अप्रो त्साह
अप्रोत्साह न</w>
अध्यास ीन</w>
अराल /FM</w>
अवि मुक्त</w>
असं पूर्
असंपूर् तत/F</w>
असे वन</w>
अस्त गिरि</w>
आत्मवि रोध
आत्मविरोध पूर्ण</w>
अब्द प</w>
असु प्तत</w>
आच्छे त्ता</w>
अहो भाव/M</w>
अप्रयो जन
अप्रयोजन ता</w>
अकल -स
अकल-स ुरा</w>
आनुवांश िक
आनुवांशिक /sTE</w>
अभिल ंघन</w>
अभिप्र ेत
अभिप्रेत /sTM</w>
आंड िक</w>
अधि नाथ</w>
असो क/E</w>
अवस भ</w>
अज ल/M</w>
अव ा/
अवा/ KS
अवा/KS AGCB</w>
असं क्षेप</w>
आत्म मु
आत्ममु ग्ध</w>
अपी च</w>
आधार त</w>
आद्या ंत</w>
अर्ह ्यत</w>
अमे धा</w>
अधो त्वक</w>
अभिसाध क/M</w>
अनभिल ासी</w>
अफ़सू ँ
अफ़सूँ गर</w>
अग्रसार ी</w>
आत्महित वाद</w>
अकर् मान
अकर्मान ्व
अकर्मान्व ित</w>
अत्या कलित</w>
आंग ्विला</w>
अनैकांत िक</w>
आनुश्र विक</w>
अनूढ़ ा
अनूढ़ा गमन</w>
अह त/M</w>
अंक मुख/M</w>
अना वृत्ति</w>
अंश ापन/M</w>
आनुयूष िकीय</w>
अन्धेर गर्
अन्धेरगर् दी</w>
अर भ
अरभ क</w>
असम वाण</w>
अफ्रीका -वासी/O</w>
अवस्थ ान/M</w>
अग्नि- वृष्टि</w>
अहं वाद/ME</w>
आई ॰
आई॰ आर
आई॰आर ॰
आई॰आर॰ सी</w>
आध र्य</w>
अपारदर्शक -वस्तु</w>
अद ातव्य</w>
अनावास ीय</w>
अनुदिश गामी</w>
अस फल
असफल ता/K</w>
अर्जेन्टिना ई</w>
अवधि -
अवधि- दर्शन</w>
अनभिल षित</w>
आज्ञ ार्थ
आज्ञार्थ क/M</w>
असंख ्यत/F</w>
अति श्र
अतिश्र ान्त</w>
आधार दान</w>
अनब दला/G</w>
अल्पव्यय ीय</w>
अम र्षण</w>
अंधकू प/M</w>
अर्जेन्ट ाइन</w>
अप विद्ध</w>
अतिशय /sTME</w>
अपंग त/F</w>
आउट डे
आउटडे टिड</w>
अप् पू</w>
अर्ध क्रो
अर्धक्रो मो
अर्धक्रोमो सोम</w>
अंतर ौटा</w>
अधश्च र्म
अधश्चर्म ीय</w>
अकब र
अकबर ज़
अकबरज़ ो
अकबरज़ो ला</w>
अक्षम /sTMF</w>
आनंद प्राप्त</w>
अर्धेंद ु</w>
अपद ेवता</w>
अंतरात्म ा/IC</w>
अपत्य /M</w>
अनुत् पन्न</w>
अपुरुष ार्थ/E</w>
अघ िक</w>
अवकीर्ण /F</w>
अवम र्ष/M</w>
अपितृ क/sT</w>
अन्त्य भ</w>
अर्द्ध िक</w>
असां ज
असांज े</w>
अंतः सूत्री</w>
असं रक्षित</w>
आत्मगौर व
आत्मगौरव पूर्ण</w>
असिध ाव</w>
अंतः ग्रहण</w>
अभिषे चनीय</w>
अनियम वाद</w>
अध्व नि</w>
अलक ेश्वर/ME</w>
अभिष य</w>
अग्न्याशय /EM</w>
अनेक ान्त
अनेकान्त वाद</w>
अधो दिशा</w>
अताल िया</w>
अफ़ ज
अफ़ज ाही</w>
अर्द्ध ेन्दु</w>
अफ़रा -त
अफ़रा-त फ़री</w>
अन ठानवेवाँ</w>
अँधेरा -उजाला</w>
अंतःस ्यंदन</w>
अभ्र क-
अभ्रक- खान
अभ्रक-खान -
अभ्रक-खान- श्र
अभ्रक-खान-श्र म-
अभ्रक-खान-श्रम- कल
अभ्रक-खान-श्रम-कल ्याण
अभ्रक-खान-श्रम-कल्याण -
अभ्रक-खान-श्रम-कल्याण- निधि/PQ</w>
अप ांश</w>
अतर ंग
अतरंग ित</w>
आध ूरा</w>
अमेर ी-
अमेरी- इ
अमेरी-इ ंड
अमेरी-इंड ियन</w>
अंतः वस्त्र</w>
अर्द्धपार दर्शी</w>
अवक्र ांति</w>
अल- मै
अल-मै ग्री
अल-मैग्री ब</w>
आकाश वचन</w>
अँब िया/JK</w>
अंतर्ज रा
अंतर्जरा यु</w>
अह वाल</w>
अल् कली</w>
आंक िक</w>
अग्रान ीत/M</w>
अपा ठ</w>
अधिश ायी</w>
आं स/E</w>
अगोट ियो</w>
अंतर्दु र्ग</w>
अट हर</w>
अभिस ्राव</w>
अश्राव ्य/sTM</w>
अर्धाग िनी/OM</w>
अन्तर् रोध</w>
अन्तर् बोध</w>
अवध ार्य</w>
अपमान योग्य</w>
अल्पसं ज्ञ
अल्पसंज्ञ ात/sT</w>
अद ीम</w>
असि पाणि</w>
अनम रा/G</w>
अरुणचू ड़</w>
अक्षित ारा</w>
अनस हन</w>
अंत िक
अंतिक /sTMF</w>
अप त्र</w>
अनुलग्न ित</w>
अद्य पूर्व</w>
अस्थि मंज
अस्थिमंज ूष
अस्थिमंजूष ा</w>
अद्वै तिक</w>
अम्पाय र/M</w>
आइसलैंड /E</w>
आत्म मान/E</w>
असं लिप
असंलिप नशील</w>
अँधेरा फ़
अँधेराफ़ ाख़
अँधेराफ़ाख़ ्
अँधेराफ़ाख़् ता</w>
अधिस्थ गन</w>
आत्म व्यंग
आत्मव्यंग ्य/M</w>
अंग-व िक्ष
अंग-विक्ष ीप</w>
अज़ ्रा</w>
अवैध कार
अवैधकार ानि
अवैधकारानि रोध</w>
अक ज</w>
अक्षो भ</w>
अम्ब ार/E</w>
अव्यथ त</w>
अव्य ण्ड
अव्यण्ड ा</w>
अरह र/M</w>
अवि स्फ़
अविस्फ़ ोटन</w>
अधिकार -पत्र/M</w>
अनील बाजी</w>
अग्र गामी</w>
अँड़ िय
अँड़िय ाइयो</w>
अम्लाध ्य
अम्लाध्य ुषित</w>
अग्र स्थान</w>
अश्व पत्रक</w>
अर्ध बुद्धि</w>
अपाय त</w>
अंत्य वर्ण</w>
अभिवर्ध ी</w>
अपर व/M</w>
अन्य धर्म</w>
अभो ख
अभोख ण</w>
अनुभव पूर्ण/sT</w>
अनस्ति व</w>
अन्वेषण -
अन्वेषण- अधिकारी</w>
अडिग पन</w>
अली शान</w>
अमी निधि/PQ</w>
असुर से
असुरसे न</w>
अच ित</w>
अपपा ठ</w>
अक़् स/F</w>
आकाश जननी</w>
आदर्श वाद/EM</w>
अफ्रीक न</w>
आँ य
आँय बाँय</w>
अठ ाइयो</w>
अयना ंश/M</w>
आध ेय/M</w>
अपराध- क्ष
अपराध-क्ष मा</w>
अवग ं
अवगं ण</w>
अमा वास
अमावास ्या</w>
अंतर्नि ष्ठ</w>
अकड ू</w>
अल्ह ड</w>
अँड ुआ</w>
अंधक हंता</w>
असंग लित</w>
अमर र
अमरर त्न</w>
अम्लवे त</w>
असैन्य ीकरण/M</w>
आधू पन</w>
अर नि</w>
असत्य ित</w>
अंबर ड
अंबरड ंबर</w>
अनाग रिक/sT</w>
अनंत वत</w>
अनुरूप /834sTvED</w>
अस्त म
अस्तम स्तक</w>
अनाश ु</w>
अश रण/M</w>
अठवा डे</w>
अपस व
अपसव /8ED34sTv</w>
अलौ क
अलौक िक-स
अलौकिक-स ा</w>
अनाच्छ ादित</w>
अधर्म पना</w>
अल ोह
अलोह ा/G</w>
अतीत गत</w>
असूय ु</w>
अश्व नि
अश्वनि बंध
अश्वनिबंध िक</w>
अदी खा</w>
अभ्यर्प ित/E</w>
अलप कालीन</w>
अर्धवि स्म
अर्धविस्म ृत</w>
अव रण</w>
अनाउंस मेंट</w>
अंताव शायिनी</w>
अर्द्धपार दर्शक</w>
अभिवंद ित/sT</w>
अपार्ट मेन्ट</w>
अतिथि त्व/M</w>
अभिधार्थ त</w>
अग्र ाशन/M</w>
आँधी मय</w>
अजाम ृ
अजामृ ग</w>
असम य/sTM</w>
अज्ञान पन</w>
अरल ौन</w>
अर गत</w>
अं ठानबेवाँ</w>
अवस्थ ापित</w>
अभिध र्म/M</w>
अंगारपा तन</w>
अंज ाम/M</w>
अरग ज
अरगज ा/GCI</w>
अर्द्धस म</w>
अर्द्धगु च्छ</w>
अश ित्र</w>
अव ॉर्
अवॉर् ड्स</w>
आथ लि
आथलि अ
आथलिअ </w>
अंतर्व स्तु
अंतर्वस्तु /R</w>
अनै यायिक</w>
आन्त्र ेर</w>
अधिकरण मण्ड
अधिकरणमण्ड प</w>
आग ात
आगात ाग
आगाताग ा</w>
आका य</w>
आंत स्
आंतस् सलि
आंतस्सलि ला</w>
अनु मिति
अनुमिति वाद/M</w>
अभि रो
अभिरो ग
अभिरोग /ED</w>
अन्त त</w>
अस ाय
असाय त</w>
अग्रसार क</w>
अंतर् मंडल</w>
अनुगाम ीहीन</w>
असामंजस ्यपूर्ण</w>
अनबि धा</w>
अंतरि ंद्रीय</w>
आधि वेद
आधिवेद निक</w>
अयत ेंद्र
अयतेंद्र िय</w>
अनिष् पक्ष</w>
आत्म निषेध</w>
अय्य व
अय्यव झी</w>
अम्ब िका/JK</w>
अनबिँध ापन</w>
अग्रसर ित</w>
अपद ोह
अपदोह न</w>
अवै तन
अवैतन िक/M</w>
अँकुर ा/734sTv
अँकुरा/734sTv AGCB</w>
आचि ज्ज</w>
अपप्र योग</w>
अपील ार्थी</w>
अशि व/M</w>
अभिवंद ्य</w>
अना कर्षण</w>
अभिध ृत</w>
अंतः क्षेत्र
अंतःक्षेत्र क</w>
आदिल व</w>
अधिकतम /sTM</w>
अड़ताल ीस
अड़तालीस /H</w>
अप्र ू
अप्रू वल</w>
अष्ट ग
अष्टग ोप
अष्टगोप ी</w>
अविश्वास /EsTM</w>
अबर ख</w>
अकृत -</w>
अविचार णीय/sT</w>
अकल ुष
अकलुष -
अकलुष- कलुष</w>
आत ंचक</w>
अम ंत्र</w>
अबंध ुत</w>
अम त्
अमत् सर/M</w>
अकु ंचित</w>
अग ुर
अगुर ू</w>
आठखंड ा/G</w>
अपने- अपन
अपने-अपन े</w>
अभिया जक</w>
अरग लीय</w>
अलं करणीय</w>
अंगार ीकरण</w>
अर्धो शा</w>
अध्याह ुत</w>
अना र्ष</w>
आईसी ई</w>
अव चार/M</w>
अवसरानु कूल
अवसरानुकूल /sT</w>
आनु ष</w>
अश्वरक्ष </w>
अग्नि -</w>
अनंत -चतुर्दशी</w>
आन ड
आनड ुह</w>
अक़्ल मंद/E</w>
अंतर्प्र ादेशिक</w>
अटका व/MD</w>
अपेक्ष क</w>
अंतस्त ाप/M</w>
अंतर् तरंग</w>
अल्पाभिन य</w>
अछत ान
अछतान ा-प
अछताना-प छ
अछताना-पछ त
अछताना-पछत ाना</w>
अनाद ृत</w>
अन म्भ</w>
अलिपर् णी</w>
अक् ता
अक्ता उ</w>
अंजना ध
अंजनाध िका</w>
अग्निबा व</w>
अवलो भ
अवलोभ न</w>
अनेकार्थ क/sT</w>
अछूत /FEDsTM</w>
असं पुष्ट</w>
अवरो चितता</w>
अवकल /8ED34sTv</w>
अना वर्तक</w>
अन्न ब्रह्म</w>
अवम दिन</w>
अंत ाक्ष
अंताक्ष र/E</w>
अवै मन
अवैमन स्य</w>
आँधी-तू फ़ान</w>
अर्ध ातु</w>
अमन ोह
अमनोह र</w>
अष्ट कली</w>
असां सद</w>
अश्व ारि</w>
अभ्यव स्क
अभ्यवस्क ंदन</w>
अघ ौड़ी</w>
अँकु सी</w>
अनानु पू
अनानुपू व
अनानुपूव ्र्य</w>
अंबु प्रवाह</w>
अपवहन -क्षेत्र/M</w>
अभा षित</w>
अँदा ज
अँदाज /834sTvED</w>
असं स्थ
असंस्थ ितत/F</w>
अग्नि भ
अग्निभ ीति</w>
अर्धनार ाच</w>
अरु नार
अरुनार /F</w>
अनन्त कालिक</w>
अन्तर ित/E</w>
अग्रस ृत</w>
अमल ियो</w>
अफ़सर शाही</w>
अधि चिह्न</w>
अद वात</w>
अप परि
अपपरि वर्तन</w>
अनभिज्ञ --
अनभिज्ञ-- भि
अनभिज्ञ--भि ज्ञ</w>
अवन्त िका</w>
अप्र चार</w>
अंतरप्र ादेशिक</w>
अय /MD</w>
अंतर् भूत</w>
अँकवा ई/O</w>
अदै ह
अदैह िक/sT</w>
अवि ख्यात</w>
आगम विद्या</w>
अपहृत -</w>
अवरोध नीय</w>
अग्रसं केत</w>
आइस ट
आइसट ोप</w>
अष्ट स्वन</w>
अमृतकु ंभ</w>
अंतर्प री
अंतर्परी क्षा</w>
अजनब ियों</w>
अभय दान/M</w>
आँ डे
आँडे बाँ
आँडेबाँ डे</w>
असुर कुमार</w>
अकसीर /LM</w>
अर्ज न/M</w>
अमृत बंधु</w>
अश्र ोत
अश्रोत व्य</w>
अभिमंड नीय</w>
आकस्मिक- अवकाश
आकस्मिक-अवकाश </w>
अल्पविक सित</w>
अल्प ष्ठी</w>
अछिद्र ित</w>
अटपट ा/G
अटपटा/G 7
अटपटा/G7 34sTv</w>
अंस ख
अंसख ्यता</w>
आकर्ष ित/sTM</w>
अलंकार हीनतः</w>
अग ोप
अगोप ्य</w>
आं ब</w>
अक्र र्</w>
आनि श्र
आनिश्र त
आनिश्रत वत्स
आनिश्रतवत्स ल</w>
अनन्त र</w>
अप्त ो
अप्तो र्य
अप्तोर्य ाम</w>
अभुक् तम
अभुक्तम ूल</w>
अनुष्ठ ाता</w>
अनछ ुई</w>
अनेक कृत</w>
अनुबंध -पत्र/M</w>
अति निद्र</w>
अनि ग
अनिग दन</w>
अहस ि</w>
अँट ाइयो</w>
अमृत स
अमृतस ह
अमृतसह ोदर</w>
अध्यय ेत
अध्ययेत ावृत्ति</w>
अंध धी</w>
आत न</w>
अनोख ापन/M</w>
अकाट ्यत/F</w>
अनाप ्य</w>
अंधकार ि</w>
अल कोहल/M</w>
अभ्युद् दिष्ट</w>
अवह ास्य</w>
अयत्न कृतत</w>
अयस् कांड</w>
अनभि रूप
अनभिरूप /sT</w>
अँग राइयो</w>
आउट लाइ
आउटलाइ न/M</w>
अनिमि र्त</w>
अह्र य</w>
अभिमत हीन</w>
अध्यु ष्ट्र</w>
अस ात्म
असात्म ्य</w>
आचार शास्त्र
आचारशास्त्र /E</w>
अनुकंप /MFED</w>
अधोर ध</w>
अकै त
अकैत व</w>
अभय परि
अभयपरि ग्रह/M</w>
अनख ाया</w>
अतिदु ष्ट</w>
अक्ष लिक</w>
अपात्र ीकरण</w>
अरौ क
अरौक ान
अरौकान ो</w>
अंतनिर् हित</w>
आँख -म
आँख-म ूँ
आँख-मूँ द</w>
अमर त्व/M</w>
अनभिव्य क्त</w>
अण्ड ा
अण्डा भ</w>
अमन ज
अमनज ोत</w>
अभ्या हत</w>
अधि वृत्ति</w>
अभिल ंघ
अभिलंघ क</w>
अनति शय</w>
असंज्ञ ेय</w>
आधि धारी</w>
अक्षर चारी</w>
अघ ायापन</w>
अधोहस्ताक्ष री</w>
आत्मनिष्ठ /sTMFD</w>
अनवसर ानु
अनवसरानु कूलता</w>
अजित प्रिय</w>
असम् प्राप्य</w>
अच ाल
अचाल क</w>
अद ण्ड
अदण्ड नीय</w>
अमोघ पतन</w>
असंलक्ष ्य
असंलक्ष्य क्रम
असंलक्ष्यक्रम /LM</w>
आकस्मिक- छ
आकस्मिक-छ ु
आकस्मिक-छु ट्ट
आकस्मिक-छुट्ट ी/NO</w>
अजीत गढ़</w>
अरसन -पर
अरसन-पर सन</w>
अस्वस्थ पना</w>
अप गति</w>
आन्तर् राष्ट्र
आन्तर्राष्ट्र ीय/sT</w>
अनग न</w>
अन र्व
अनर्व रीकरण</w>
अंध पर
अंधपर ंपर
अंधपरंपर ा/IC</w>
अम्ल जन</w>
अवप्रण ोदन</w>
अभिप्र ाण
अभिप्राण न/M</w>
अँ ख</w>
अनपभ्र ष्ट</w>
अंधानु पालन</w>
अणु क्रमा
अणुक्रमा ंक</w>
अनुसूचित- जन
अनुसूचित-जन जाति</w>
अर्ध बिंदु</w>
अमानत दार/M</w>
असुर -व
असुर-व ध</w>
अमुष ्य</w>
आगम ीय</w>
अस ेवा</w>
अंतरिक्ष यात्र
अंतरिक्षयात्र ी/54sTv</w>
अनियत /sTMF</w>
अच पं
अचपं ली</w>
अन्तर् राष्ट्रीय
अन्तर्राष्ट्रीय तावादी</w>
आत्म -विश्
आत्म-विश् वास</w>
आत्मघ ोषित</w>
अमृत दान</w>
अभि वेदक</w>
अत्युप लब्धि</w>
अन्त पुर</w>
अयज्ञ िय</w>
अपिपा सु</w>
असंब ै
असंबै धानिक</w>
अनंत नाथ
अनंतनाथ जी</w>
आच्छ ेद
आच्छेद न/M</w>
अस्मित ाहीन/sT</w>
अशि श्न</w>
अर्ध स्वर</w>
अंदाज़ न/F</w>
अविलम्ब नीय</w>
अना युक्त/M</w>
अभ्युप ेत</w>
अकठिन /sT</w>
आधिपत्य ीय</w>
अस्थिसं चय</w>
आकल न/M</w>
आधार व्य
आधारव्य िन</w>
अहिच्छ त्र</w>
आदि स्थान</w>
अम्ब री
अम्बरी ष</w>
अभ्र पि
अभ्रपि शा
अभ्रपिशा च</w>
अन्ध कूप</w>
अगिय ावे
अगियावे ताल</w>
अन्तय ेष्टि
अन्तयेष्टि -व्यापार</w>
अनिष्का सित</w>
आनृ शंस</w>
अभिप्राय ानुसार</w>
अँध ला</w>
अशर् फ़ी</w>
अनासक्त त/F</w>
अयो च्छ
अयोच्छ िष्ट</w>
अचान चक</w>
आध र्षित</w>
अशरीर त्व</w>
आत्मावलंब िनी</w>
अनुद् भ
अनुद्भ ट/sT</w>
अंतराव रोध</w>
अवै व
अवैव श्य
अवैवश्य क</w>
अलख ित</w>
अंतर् ग्रस्त</w>
अग्नि -उ
अग्नि-उ ल्
अग्नि-उल् का</w>
आत्मव श</w>
अनीश्वर ीयता</w>
अधिर ंत
अधिरंत न</w>
अंडर पे
अंडरपे ड</w>
अर्द्ध चंद्र
अर्द्धचंद्र िका</w>
अब ाद
अबाद ान/E</w>
अयनसं क्रम</w>
अर्धनार ी</w>
आई लाइनर</w>
अप्रति भूत</w>
अवकाश पूर्ण</w>
अभिनिर् माण</w>
अनियत कालिक</w>
आचार्य करण</w>
अनुक्रमण ी
अनुक्रमणी कार/M</w>
अवस्कर /ME</w>
अभिम र्दन/M</w>
अरूण ि</w>
अलम बर
अलमबर दार
अलमबरदार /ME</w>
असम चक्र
असमचक्र ता</w>
अन्तः कालीन</w>
आत्मस मु
आत्मसमु द्
आत्मसमुद् भव/F</w>
अपराध- कर्ता/K</w>
अद्रि सान
अद्रिसान ु</w>
अविवाहित ा/K</w>
आंग्ल ीकृत</w>
आट मो
आटमो बील</w>
अंतर् जानु</w>
अंड ोत्
अंडोत् प
अंडोत्प त्त
अंडोत्पत्त िकी</w>
अग्निका ण्ड</w>
अयथो च
अयथोच ितत</w>
आंड ू</w>
अब ज
अबज द</w>
अभिवे चक</w>
अमन ृत</w>
अध्येत व्य</w>
आनन्द गान</w>
अज ांब
अजांब िका</w>
अभिद्र ुत</w>
अधिकार ण</w>
आंत /LM</w>
अनिर्ण ेय</w>
अजात रि
अजातरि पु</w>
अद्रिक न्या</w>
अपस ाम
अपसाम ान्य/sTM</w>
अना दर्श
अनादर्श /sT</w>
अवच य/M</w>
अधब टाई</w>
अग वाँ
अगवाँ सी</w>
अधिकार -प्र
अधिकार-प्र दत्त</w>
अंस त्र</w>
अक्षर पूजा</w>
आज्ञा- अवज्ञ
आज्ञा-अवज्ञ ा</w>
अंतस्त म</w>
अद्या वधिक</w>
आकाश शीर्ष</w>
अचं भव</w>
अफ़री क़
अफ़रीक़ ी-देश</w>
अकै य
अकैय ा/CI</w>
अद ग</w>
अनुष्ण रुधिर
अनुष्णरुधिर /F</w>
अम्र ातक</w>
अज़ दहा</w>
अंग कर्म</w>
अगा ऊपन</w>
अमु त्र</w>
अभिकर् ता
अभिकर्ता -पत्र/M</w>
अवस रो
अवसरो चित/sT</w>
अवरोध ्य/sT</w>
अगरू ब
अगरूब त्ती</w>
आँ कर</w>
अनुत्तेज ना</w>
अभिव्यंज क/sT</w>
अग्नि वर्ण</w>
अप्य यन</w>
अनचे ताई</w>
आनन्द -सम्मोहिता</w>
अणुक था</w>
अंग स्ट
अंगस्ट ्रा
अंगस्ट्रा म</w>
अख ित</w>
अर्ज़ नामा</w>
अन्त गर्भा
अन्तगर्भा शयी</w>
अपहरण -
अपहरण- कर्ता/K</w>
अंध -</w>
अधि वर्ण</w>
अनाकार त/F</w>
अज पथ</w>
अभ्यास िका/JK</w>
अरू ग्
अरूग् ण</w>
अंतरा संगत</w>
अप्रा मा
अप्रामा ण्य</w>
अनुत्त म/sT</w>
आत्मौ पम</w>
अभि पु
अभिपु ष्टि</w>
असब ीयत</w>
अंग ानुभूति</w>
अप गर</w>
अवगुण्ठ िका</w>
अकाल वृद्ध</w>
अनार ाध
अनाराध नीय</w>
आज्ञानु कूलता</w>
आटोमै ट
आटोमैट ाइ
आटोमैटाइ ज़्ड</w>
अंतर् हित</w>
अंतर्ध्व स्त/M</w>
अथर्व-शिख ोपनिषद्</w>
अभिक ाम</w>
असत् कृत</w>
अप्सरा ध
अप्सराध िपति</w>
अंबुवाह िका</w>
आज्ञ ोल
आज्ञोल ्ल
आज्ञोल्ल ंघन</w>
अवभास िनी</w>
अस्मित ापूर्ण</w>
अंतर्ह ास</w>
अधोर थ</w>
अनभिसं धान</w>
अकल् क/sT</w>
आतिथ ेय/M</w>
अंबु मात्र
अंबुमात्र ज</w>
अंकगणित ज्ञ</w>
आतंक वाद
आतंकवाद ियो</w>
असिताचि र</w>
अब्राह ्म</w>
अवसाय /E</w>
अंतः स्थ/sT</w>
अभ्या ंतर</w>
आत्माभिव्य ंजन/M</w>
अवद मन/M</w>
अमृत-नाद ोपनिषद्</w>
आत्मीय /sTMF</w>
अग्रम स्ति
अग्रमस्ति ष्क</w>
अल्ज़ ाइमर</w>
अष्ट कल
अष्टकल श
अष्टकलश म</w>
अक े
अके लेपन</w>
अव ीर
अवीर /F</w>
अन्त ोन</w>
अपराधभ ंजन</w>
आग े-
आगे- आग
आगे-आग े</w>
अलबे ला/G</w>
अंश हीन/sT</w>
अंधक घाती</w>
अतु क
अतुक ान्त
अतुकान्त -त
अतुकान्त-त ुक
अतुकान्त-तुक ान्त</w>
अधिकार योग्य</w>
अंबु वाहिनी</w>
अच्छ ापन/M</w>
अंड़ ग
अंड़ग ेबाज़
अंड़गेबाज़ ी</w>
अब ाक
अबाक स</w>
अनुग्रह ांक/M</w>
अम ाइ
अमाइ ताल</w>
अहि च्छन्न</w>
अना वर्तित/F</w>
असो स</w>
अय सा
अयसा कर्षण</w>
आक्रीड़ /E</w>
अह ूजा</w>
अगु णशील</w>
आज्ञाप ्र
आज्ञाप्र ति
आज्ञाप्रति घात</w>
अधो बिंदु</w>
आदित्य शयन</w>
अधिक श्र
अधिकश्र म</w>
अभिर मणीय</w>
अकड ाना</w>
अण्डनिक्षे पक</w>
आछ े
आछे प</w>
अभि वासन</w>
अवघोष ण
अवघोषण ा/IC</w>
अंतर ग्नि</w>
अत्या ल
अत्याल ं
अत्यालं कृत</w>
अंडरलाइ न</w>
आट े-
आटे- दा
आटे-दा ल</w>
आक्स ै
आक्सै लिक</w>
अधोरेख ित</w>
अवच ूषित</w>
अकाल -ग्रस्त</w>
अन्योन्य भेद</w>
अक्षर ज्ञ</w>
अंगुष्ठ ांक</w>
अदि व्य
अदिव्य /F</w>
असुर नाशन</w>
अरब -इ
अरब-इ ज़
अरब-इज़ राइ
अरब-इज़राइ ल</w>
अन स्
अनस् क्र
अनस्क्र ु
अनस्क्रु इ
अनस्क्रुइ ंग</w>
अक सरीयत</w>
अंतर्व्य ाप्ति</w>
अधि गर्भ</w>
अनाकल नीय/sT</w>
आखेट ्य</w>
अन्तर् जात</w>
अनुत ेजना</w>
अट लै
अटलै ंट
अटलैंट िक</w>
अभ्यास ित्र</w>
अवम ंथ</w>
अंतःस्राव /E</w>
अल्प दर्शन</w>
आग्र भो
आग्रभो जन
आग्रभोजन िक</w>
अंतावस ाय
अंतावसाय िनी</w>
आकर्षण -विक
आकर्षण-विक र्षण</w>
असमंजस पूर्ण</w>
अह /MFD</w>
अवशेष हीन/sT</w>
अवी क्षण</w>
अनवरू द्धता</w>
अर्ध ज्यो
अर्धज्यो तिका</w>
अफरी क
अफरीक ी-देश</w>
अन्त विदारण</w>
अगि आना</w>
अप मर्श</w>
अवसर ानुसारत</w>
अवा गी</w>
अन्ध ार/E</w>
अग्र त
अग्रत ट</w>
अमे ंड
अमेंड मेंट/M</w>
अवस ानक</w>
अम्बुक ण्टक</w>
अरक टी</w>
अशर्फ ियों</w>
आदि पा
आदिपा षा
आदिपाषा ण</w>
अनुवंश िकीय</w>
अवस्त रता</w>
अक्ष /sTM</w>
अल्पभाष ण</w>
आठ गु
आठगु ना</w>
अप्रयो जनीय</w>
अधिनिय म
अधिनियम ित/M</w>
अनु भोग
अनुभोग ित/F</w>
अह र्द
अहर्द लीय</w>
अक ीदतमंद</w>
अभिसं धि
अभिसंधि /sT</w>
अंते उ
अंतेउ र</w>
अरोह /8ED34sTv</w>
अंच ित/sT</w>
आधार तत्व</w>
अनुत्तेज ित/sT</w>
अन्या य/ME</w>
अजा भक्ष</w>
अभिकर्त ापत्र</w>
अंश ाधिकार/E</w>
अनसि झा</w>
अधीक्षक यंत्र</w>
आग्ने यो
आग्नेयो द्
आग्नेयोद् गार</w>
अज वीथी</w>
अस्व द</w>
अष्ट गंध</w>
अपचय /EM</w>
अनजु त
अनजुत ा/G</w>
अर्ग जा</w>
अर्ध मंडल</w>
अच्युत पुत्र/ME</w>
अप गु
अपगु ण/E</w>
अमन स</w>
अहि -क्षेत्र/M</w>
असृ ग
असृग ्व
असृग्व हा</w>
अंतरा लिका</w>
आत्महित युक्त</w>
अग ोह
अगोह ्य</w>
आखेट बा
आखेटबा ड़ा</w>
अद् वार</w>
अफरा व/MD</w>
अभय प्र
अभयप्र दत्त</w>
अपुन रा
अपुनरा वर्तन</w>
अधिनायक तंत्र/M</w>
अंग द्वार/M</w>
आधार युक्तत/F</w>
अमी बा
अमीबा णु</w>
अंतर क/M</w>
अगि आ</w>
अधो स्थ</w>
असर अंदाज़
असरअंदाज़ /E</w>
अत ोल</w>
आदि ज</w>
अव्य ु
अव्यु त्
अव्युत् पन्न</w>
अवलम्ब ित/M</w>
अर्थव ान/M</w>
अपराध म
अपराधम ुक्ति</w>
आइ ड़
आइड़ ियल</w>
अस्त्र वै
अस्त्रवै द्य</w>
अड़ सी-पड़ोसी</w>
अविनय त</w>
अक ेल
अकेल ापन/M</w>
असं क्रमित</w>
आटोरिक् शा</w>
आनु ऊ
आनुऊ स</w>
अंधेर /MFED</w>
अहंकार हीन/sT</w>
अग्न ीधर</w>
अभिवन्द ित</w>
आक्रम ्यत/F</w>
अच ित
अचित वन</w>
आतिश ख़ाना</w>
अकृ ष्ण</w>
अवहेल ित</w>
अनुद्ध ृत</w>
अस्थान स्थ</w>
अंतःसं बंध/M</w>
अवगुंठ िका/JK</w>
आकाश- पा
आकाश-पा ताल</w>
अधमा -
अधमा- नाय
अधमा-नाय िका</w>
अन्न कोष्ठ</w>
अल्बान ियन</w>
अति-उ त्स
अति-उत्स ाही</w>
अभि पूर्ति</w>
अधर सु
अधरसु धा</w>
अनच ाहा/GC</w>
अरको छ
अरकोछ </w>
असम यो
असमयो चित</w>
अमर सिंह</w>
असाम प्यता</w>
आगा ध</w>
अनुमान .</w>
अंग ग्रह</w>
अंतर युक्त</w>
अनामिक बन्धन</w>
अंग ्विला</w>
अप्रभाव शील</w>
असुर -ग
असुर-ग ुरु</w>
अप्रयो जक</w>
अनुयाय िता</w>
असूची बद्ध</w>
अनिवार्य ेतर</w>
अवत त</w>
अंगुश्त ान
अंगुश्तान /MFD</w>
अँतर िया</w>
अग्न्या लय</w>
अरु न्तु
अरुन्तु द</w>
अविन ियोज
अविनियोज ्य/sT</w>
अपू प्य</w>
अंद मान</w>
आइसोले टन</w>
अमरीका -संबंधी</w>
आगा ज</w>
अचकच ाइयो</w>
आन ील</w>
अड ंड</w>
अनाउ ं
अनाउं सर/M</w>
अनुग्रह कारी</w>
अन्ना हारी</w>
अँच वाइयो</w>
अंतर ितक/M</w>
अंतर्वक्र ण</w>
अनाम ीस</w>
अज ाब
अजाब लि</w>
अन्तर्वेश िक</w>
अल्ह ड़पन/MF</w>
अभि निषेध</w>
अदूर दर्शक</w>
अंश ाक</w>
अद्ध ाख
अद्धाख ल
अद्धाखल ासी</w>
अब्धि शयन</w>
अतित रा
अतितरा भावी</w>
अधिलाभ ांश
अधिलाभांश /M</w>
अहमक ाना</w>
अविन यन</w>
अशु ष्क</w>
आदेश ावली</w>
अधि गृहीत</w>
अभिमान रहित</w>
अनंत गति</w>
अलि ंजर/M</w>
अन्त भाव
अन्तभाव ितता</w>
अँक राया</w>
आई -लाइनर</w>
अंगुलि मुद्रा/JK</w>
अघ नाशन</w>
अयनसं क्रां
अयनसंक्रां ति</w>
अंत्य ानुप्र
अंत्यानुप्र ास/M</w>
अभिल ास
अभिलास /F</w>
अरसौंह ाँ</w>
अनीश्वर वाद/EM</w>
अव िकार
अविकार शील</w>
अस्तित्व दत्त</w>
अग ीठ
अगीठ ा</w>
आदर योग्य</w>
अध्या व
अध्याव रण/E</w>
अन्न त्याग</w>
अंतर्धान भूति</w>
अंट ्रा</w>
अश्वयु ज</w>
आध र</w>
अतंर् मुखी</w>
अवैध /sTM</w>
अग्र जाति</w>
अपकर्ष क/sT</w>
अकठ िक
अकठिक ठ
अकठिकठ िन</w>
अश्रु पूर्णत/F</w>
अध्यारोप /M</w>
अणो र्द</w>
आत्म परक</w>
अंशु मती</w>
अढ़ िया/JK</w>
आदिसिद्ध ांतीय</w>
अष्ट ाप
अष्टाप द</w>
अक्षांश वृत्त/M</w>
अवटु ज</w>
अनभु वना</w>
आत्मद्र ावी</w>
अरविंद नाभि</w>
अर्ध क्षमता</w>
अवतंस क</w>
अयाज्य त्व</w>
अभिकथ ित/M</w>
अग्रक ियता</w>
अप क्ष</w>
अंशुमाल ी/OM</w>
अबु द्धि</w>
अश्रु वि
अश्रुवि ग
अश्रुविग लित</w>
अंतर्द ष्टि</w>
अंटी गर/E</w>
अरूपा व
अरूपाव चर</w>
अंध वायु</w>
अर्धचन्द्र ाकार</w>
अना वेष्ट
अनावेष्ट ित</w>
आज ुल</w>
अस्थि ज</w>
अनदेख ा/IGC</w>
आनुगत ्य</w>
अंध ा
अंधा कु
अंधाकु प्
अंधाकुप् प/M</w>
अकाउनटै न्ट</w>
अफ़रा ब</w>
अधिवास न/M</w>
अनि पात/M</w>
अनुपात तः</w>
अधः स्वस्त
अधःस्वस्त िक/M</w>
अँगरे खा</w>
अनार्य त्व</w>
अनियम ्यत</w>
आग- रो
आग-रो क</w>
अफलात ून
अफलातून वाद</w>
अधि दंड</w>
अस्म ित/F</w>
अर्ध-त ार
अर्ध-तार कीय</w>
अभिन ीति</w>
अग्नि मुख</w>
अनुद्ध र्ष</w>
अधिकरण िक</w>
अटल त/F</w>
अरुणा श्व
अरुणाश्व /M</w>
अशुद्ध ियां</w>
अक्र ीदत</w>
अस्वार्थ त</w>
असमन यन</w>
अधिम ंथ</w>
अजिर /FM</w>
अधि भौतिक/sT</w>
अक्षर शीर्ष</w>
अप्र ोषित</w>
अभिध ृति</w>
अनुसार िता</w>
अंग लिपि</w>
आंग्ल ेज़</w>
अना चक</w>
अपोज़ ी
अपोज़ी शन</w>
अंतर् सेव
अंतर्सेव ी</w>
अग्र पंक्ति</w>
अन्न- गो
अन्न-गो दा
अन्न-गोदा म</w>
अधिग ल</w>
आतिथ ्य/M</w>
अर्थ ेतर</w>
अबहु धा</w>
अग्रम ंच</w>
अंतर मार्ग
अंतरमार्ग ीय</w>
अग्नि रोधक</w>
अधिप्र चार</w>
अंतरा लित</w>
अप देखा</w>
अनाव लंब
अनावलंब /E</w>
आदि विपुला</w>
अपवचन /ME</w>
अलका यदा</w>
आँ कन
आँकन /FD</w>
अनन्य त्व</w>
अरंग /E</w>
आत्म ज्ञान/ME</w>
अल्पा कलन</w>
आनु तोष
आनुतोष िक/M</w>
अशोक वा
अशोकवा टिका</w>
अंत प्र
अंतप्र र्
अंतप्रर् स्थपन</w>
अह ृद
अहृद य/sT</w>
अवधि ज्ञान</w>
अनु काल</w>
अवि वाह</w>
आकांक्ष ाहीनतः</w>
अल् मा
अल्मा टी</w>
अंकुर ण/M</w>
अवि ह्वल</w>
अंबु वहन</w>
अस्त्र ाख
अस्त्राख ान</w>
अर मणीय</w>
अपू न</w>
अन्तर् लीन</w>
अज़रबैजान ी-भाषा/K</w>
अध्यक्ष ाधीन</w>
अन्वया गत/sT</w>
अलब त्ता</w>
अटर ंड
अटरंड म</w>
अविध्व स्त/sT</w>
अज्ञ त/F</w>
अस्तित्व मत्ता</w>
अनाउ ंस</w>
अस मार्
असमार् धित</w>
अड़ोस -पड़
अड़ोस-पड़ ोस</w>
अबज़ र्वे
अबज़र्वे टरी</w>
असं पादन</w>
अंजि ष्णु</w>
आग ाह
आगाह /
आगाह/ j
आगाह/j </w>
आन्त र
आन्तर िक-सज्जाकार</w>
आचार नीति</w>
अरे -प
अरे-प रे</w>
अकर्तृ त्व</w>
अंध म
अंधम ीन</w>
अकार त</w>
अनान ंदित</w>
अनव स्थान</w>
अर्थाप कर्ष</w>
अख़् तिय
अख़्तिय ार
अख़्तियार /f</w>
आत्म -संबंधी</w>
अगर ाना</w>
अक्रम तः</w>
अंतःसत् त्वा</w>
आत्म- ह
आत्म-ह त्या</w>
अल्प स्थ
अल्पस्थ ाय
अल्पस्थाय ित्व</w>
अपद ान/M</w>
अपकल ंक</w>
अमु ची</w>
अनभिप्र ेय/sT</w>
अर्था गम/M</w>
अंतर्वक्र /sT</w>
अकड़ त
अकड़त कड़</w>
आदेश िकीविद</w>
आदित्य क
आदित्यक ेतु</w>
अच्छ ाख
अच्छाख ासा</w>
अव ो
अवो क्षण</w>
असक न्द
असकन्द रिया</w>
अंतः क्षेत्र/M</w>
अँकर ौरी</w>
आत्मरक्ष ात्म
आत्मरक्षात्म कता</w>
अमृत ेश
अमृतेश य</w>
अंगच्छेद क/M</w>
अहिंस ामय</w>
आगे -पीछ
आगे-पीछ े</w>
अशो कन
अशोकन गर</w>
अमर- बेल</w>
आत्म -त
आत्म-त त्त्व</w>
अनावास िक</w>
अनुल्लंघ नीय/sT</w>
अन्तर् भूमि</w>
आट े
आटे को
आटेको इ
आटेकोइ ड</w>
असंपर्क वाद/E</w>
अक्षांश /M</w>
अननु कता</w>
अटार ी/54sTv</w>
अर्ज े
अर्जे ंटि
अर्जेंटि ना</w>
अत ं</w>
असै ट्
असैट् स</w>
अंज लिका</w>
अनंग ास
अनंगास ु
अनंगासु ह
अनंगासुह ृ
अनंगासुहृ द</w>
अतिक्रमण पूर्ण</w>
अनेक त्रण</w>
अतिरेक पूर्ण</w>
अनह ं</w>
अनभिक ल्
अनभिकल् पन</w>
अभ्यस्त /sTM</w>
आदि दै
आदिदै त्य</w>
अनुत्त रित</w>
अंबर द</w>
अन्तर् वाणिज्य</w>
अंतर्व्य ूह</w>
आनुश्र ाव
आनुश्राव िक</w>
अग ढ़</w>
अकुल /FE</w>
असं श्ल
असंश्ल िष्ट</w>
अल ार
अलार म</w>
अधिय ान/FD</w>
अर्थ कृ
अर्थकृ छ
अर्थकृछ ्र</w>
अंग ाक
अंगाक ड़ी</w>
अर्धस म/M</w>
अविद ितत/F</w>
अभ्युप ेय</w>
अंग ्र
अंग्र मै
अंग्रमै न्य
अंग्रमैन्य ू</w>
अनिवार्य रूप</w>
अनुदाह रणीय</w>
आइस -
आइस- पा
आइस-पा इस</w>
अपमान ्य/sT</w>
अष्ट शीर्ष</w>
अफ वाज</w>
अन्न वाहिनी</w>
आइस ोल
आइसोल ेशन</w>
अनघ ड़</w>
अंतरसंस्कृत ीय</w>
अनुक्रमण /ME</w>
अकाउंट ेंट/M</w>
अभिनय पूर्ण</w>
अग ुरु</w>
अग्रस क्र
अग्रसक्र िय/sT</w>
अंशु क/M</w>
अत्म नि</w>
अमज द</w>
आग ौन</w>
आइसो लाइ
आइसोलाइ सि
आइसोलाइसि न</w>
आतश ख़ाना</w>
अँकुड़ /MFED</w>
अभ्र ना
अभ्रना मक</w>
अणुव ्र
अणुव्र ी
अणुव्री ह
अणुव्रीह ि</w>
अंगद देव</w>
आज्य मुक</w>
अस्तित्व मय/sT</w>
आंतर तम
आंतरतम ्य</w>
अथ ाप
अथाप ा
अथापा स्
अथापास् काव</w>
असुन ीत</w>
अभि जि
अभिजि ति</w>
अंगुलि /PQ</w>
अर्धेंद ु
अर्धेंदु भूष
अर्धेंदुभूष ण</w>
अन्त ाराष्ट्रीय</w>
आधार- स्त
आधार-स्त ंभ</w>
अभि स्थित/sT</w>
अनव य/M</w>
आंश का</w>
आत्म सिद्ध</w>
आदिक वि</w>
अथ /M</w>
अंतर्भ ुक्तत</w>
आडम्बर /sTE</w>
अल्बान ियाई</w>
अन्तर् ग्रह</w>
अस हन</w>
अर्कपत्र /FE</w>
अन िया
अनिया उ</w>
अवसं रचना</w>
अब्ज वाह
अब्जवाह न/F</w>
अल्प मे
अल्पमे धा</w>
अक्षर योजन/M</w>
अज्ञात क</w>
अप्रश म्य/sT</w>
अग्नि चक्र/M</w>
अवसन्न /sTF</w>
अधो परिधान</w>
आकाश -क
आकाश-क क्षा</w>
अंबु पात</w>
अगाड़ ीपन</w>
अकंप ्य</w>
आदर्श स्वरूप</w>
आं द्
आंद् वाइ
आंद्वाइ ल</w>
अधो लोक/M</w>
अंत्य कर्म/M</w>
अनुदिश त</w>
अंब ुरु
अंबुरु ह</w>
अक्ष जनीय</w>
अग्न यु
अग्नयु त्
अग्नयुत् पात</w>
अनागत -
अनागत- आग
अनागत-आग त</w>
अधिनिर् णय/M</w>
अंतर् जात/sT</w>
अनुभव मूलक</w>
अंभो -</w>
असाइ त</w>
अछ नि</w>
अमरा द्रि</w>
अर् जनीय</w>
आत्मद्र ोह/E</w>
अध्व /F</w>
अर म</w>
अत िकाल</w>
अविन ीश</w>
अनत ः
अनतः पुर</w>
अना त्मक</w>
अँकड़ ियो</w>
अध्यात्म ज्ञाता</w>
अवरो क्त</w>
अप योजन/M</w>
आत्माभि मान
आत्माभिमान /ME</w>
अंकुर ना</w>
अस्वा त
अस्वात ं
अस्वातं त्र्य</w>
आज्ञा चक्र</w>
अकृच्छ ्र
अकृच्छ्र /E</w>
अपक िरण</w>
अनुभूति त्र</w>
अदम ताम
अदमताम ील/LM</w>
अकैप् निया</w>
अथ ाई/O</w>
अवध ीय</w>
आचर जित</w>
आइसोले टित</w>
अपयश स्क</w>
अपर द</w>
अनघ ढ़</w>
अम्ल न</w>
आटो स्
आटोस् लै
आटोस्लै ज</w>
अवि धान
अविधान /sT</w>
अनाप हारी</w>
आतश बाज़/E</w>
अनेक वृत्ति</w>
अंग- रक्षा</w>
अलि ंग
अलिंग जनन</w>
आउटप ेश
आउटपेश ैंट</w>
अव्यथ क</w>
अनुपयोग ित/sTF</w>
अरूप लोक</w>
असम् भावी</w>
अमर पुष्पिका</w>
आत्मल ीन/sT</w>
अपर धियों</w>
अन्दर /yxM</w>
अर्धपार ावत</w>
आकल ै
आकलै ंड</w>
अप्रति बद्घ</w>
अभिलाष िका</w>
अभिवर्ध न/M</w>
अविध वा</w>
आन ी-
आनी- जानी</w>
अपशकुन त</w>
अनातुर -
अनातुर- आत
अनातुर-आत ुर</w>
अद्य प
अद्यप ि</w>
अपकीर् तित</w>
अंदरू न/E</w>
अंकु आ</w>
अवस क्
अवसक् थ
अवसक्थ िका</w>
अंब ोज/M</w>
अमोघ दंड</w>
अन्य जात</w>
अल्पस ादृश्य</w>
अधिकरण मंडप</w>
अगू टी</w>
अलेक्जा ंडर</w>
अजरा ल</w>
अप लि
अपलि ंक</w>
अवि स्फोट
अविस्फोट शील</w>
अलब र्
अलबर् क़</w>
अष्टश्र वण</w>
आदिक रणी</w>
अनन्य चित्त
अनन्यचित्त /sT</w>
अतुंद /sT</w>
आकाश मूल
आकाशमूल ी</w>
अज हा</w>
अधिष्ठाप न/MF</w>
अस्व चालित</w>
अड्ड न</w>
अति वानी</w>
अम ीत</w>
अलह रि
अलहरि ल</w>
अधरा स्त
अधरास्त ा/C</w>
अध रीय</w>
अल्जेर िया-वासी/O</w>
अदाव तन</w>
अन्तह् करण</w>
आंजन /FE</w>
अट ्या</w>
अंतर ानु
अंतरानु भागीय</w>
आंर प्रदेश</w>
अधर् मि
अधर्मि ष्ट</w>
आद ेवन</w>
अनपै कित</w>
अमृत रस
अमृतरस /MF</w>
अप ंक
अपंक िल</w>
अधिकार र</w>
अभिष ंजन/M</w>
अक्ख /FE</w>
अदृश्य मान</w>
अनुपाल ित/sT</w>
अमरप्र भ</w>
असम् भाष
असम्भाष ्य</w>
अभि च
अभिच ूषित</w>
अप र्
अपर् स्प
अपर्स्प श</w>
अल ास्य</w>
आत्मप राग
आत्मपराग ण</w>
असाम ीप
असामीप ्य</w>
अजमेरशरी फ</w>
अभिनि विष्ट/sT</w>
अवध बि
अवधबि हारी</w>
अप्र बंध</w>
अफ़ श
अफ़श ान/E</w>
अम ाद
अमाद क</w>
अनुग्रह -वि
अनुग्रह-वि ग्रह</w>
अंतरा लक</w>
अपूर्व /sTMF</w>
अभिज्ञ ापन/M</w>
अभिम ंचन</w>
अव्याकृत धर्म</w>
अर्द ली</w>
अतीन्द्र ियवाद</w>
अरस /834sTvLMFED</w>
अन्तर्प्र ादेशिक</w>
अद ंत/M</w>
आत ो
आतो द्य
आतोद्य क</w>
अश्वव ह</w>
अक्षर ारंभ
अक्षरारंभ /ME</w>
अनुबंध क</w>
अल्प -न
अल्प-न ूतन</w>
अपवाद त</w>
आदेश िका/JK</w>
अश्व शक्ति/PQ</w>
अकिंचन त/F</w>
अरथ /FE</w>
आद्यंत /sT</w>
अंतर्वेध क/sT</w>
अकृत बुद्धि</w>
अभिश ोषित</w>
अनाह द
अनाहद -
अनाहद- वाणी</w>
आतश /ED</w>
अविशोध ित</w>
अयुग ि
अयुगि षु</w>
अमृत फल
अमृतफल /MF</w>
अहक /8sTvED</w>
अंधकार वन</w>
अन्द रू
अन्दरू नी</w>
अना वाह
अनावाह ित/sT</w>
आदेश ित/E</w>
अस ीर/E</w>
अल्पकाल िक
अल्पकालिक चर्चा</w>
अफ़ ि
अफ़ि लि
अफ़िलि ए
अफ़िलिए टेड</w>
अऊ ठ
अऊठ ा</w>
अज़ीर् </w>
अक्षर पठ
अक्षरपठ न</w>
अनक म्
अनकम् प</w>
अंकेक्ष क/M</w>
अभ ूरि</w>
अनौ द्घ
अनौद्घ त्य</w>
अश्वस ाद
अश्वसाद /E</w>
अनवसर वादिता</w>
आद्य ून</w>
अंतःप्रज्ञ /FM</w>
अज ब</w>
अव ियुक्त</w>
अंस पूर्ति</w>
अपकल ्म
अपकल्म ष</w>
अढ़ ौ
अढ़ौ ना</w>
अग्र िका</w>
अम द्य
अमद्य प</w>
अननहेक् ज
अननहेक्ज ियम</w>
अनि जत्व</w>
अक्षर पंक्ति</w>
अभिन्न पु
अभिन्नपु ट</w>
अशु द्घ
अशुद्घ चित्त</w>
अहि द
अहिद ंष्ट्र
अहिदंष्ट्र ि</w>
अड़ ियल</w>
अपामार् ग/M</w>
अर्थान र्थ
अर्थानर्थ ापद/M</w>
अनात्म भाव/M</w>
अचार ु</w>
अंत्य योनि</w>
आज्ञ ाव
आज्ञाव ह</w>
अंतर जाल</w>
असि डि
असिडि टी</w>
आन्त रिक</w>
अविघ ्न
अविघ्न /sT</w>
अंतः सारवान</w>
अवलु ं
अवलुं पन</w>
अव त्त
अवत्त ीर्ण</w>
अड़ त
अड़त ल
अड़तल /LM</w>
आनन्द स्वरूप</w>
अव्य ाप्त</w>
आनंद हीनतः</w>
आक्ष की</w>
अंतः साक्ष्य/M</w>
असुन सिओन</w>
अलि मक</w>
अन् करी
अन्करी ब</w>
अभिय ांत्र
अभियांत्र िकीविद</w>
अलाव /FEDM</w>
अट ख
अटख ट</w>
असम ापन</w>
अदी स</w>
आईप ॉ
आईपॉ ड</w>
आँवलाप त्ती</w>
अवधार ियो</w>
आ एँ</w>
अभिध ा/CI</w>
अँठ ुल
अँठुल ी
अँठुली दार</w>
अस्त गमन</w>
अस्थि भ</w>
आज ु
आजु र्दगी</w>
अरुणाचल /E</w>
अह ह</w>
अंगवि भ्र
अंगविभ्र म/M</w>
असर्प िल</w>
अनुप द
अनुपद ीना</w>
अरदा बा</w>
अभ्य ूढ़</w>
अवि खंडन</w>
अभि वाचित</w>
आतुर ताई</w>
अपमान- जनक</w>
अंतर् भूमि</w>
अग ेन्
अगेन् स
अगेन्स ट</w>
अर ित्र
अरित्र ीय</w>
अमृत वल्लरी</w>
आत्मनिंद ापूर्ण</w>
अन्नस त्र/M</w>
अस्थ ियों</w>
अहसान फ़रामोश</w>
अम च
अमच ुर</w>
अलंकार /sTM
अलंकार/sTM yx
अलंकार/sTMyx E</w>
अंडर श
अंडरश ूट</w>
अधोरेख ा/JK</w>
अक्षर त
अक्षरत ूल
अक्षरतूल िक/F</w>
आदिक र</w>
आनंद पुर</w>
अलो भ
अलोभ /E</w>
अपा ंग</w>
अराग ज</w>
अर्ध-स ाप्ताहिक</w>
अधो निलय</w>
अभिह त</w>
अलब्ध निद्र</w>
अले उ
अलेउ त</w>
अक्लि ष्ट</w>
अगस्त /M</w>
अतं रीप</w>
असम रस</w>
अँधियार ा/GCI
अँधियारा/GCI A</w>
अप्रग तिशील</w>
अक्षरक्रम /M</w>
अंग श
अंगश ोष</w>
अंश त/F</w>
अतिक्रमण कारी</w>
अजा श्व</w>
अतलांत िक
अतलांतिक पार
अतलांतिकपार ीय</w>
असुन सियान</w>
अनुभव -
अनुभव- गम्य</w>
अत्त वार</w>
अभ च
अभच ्यता</w>
अवरसेव क/M</w>
अरु ं
अरुं षिका</w>
अनिष्ट का
अनिष्टका मी</w>
अवलु ंचन</w>
अपील /V
अपील/V E
अपील/VE LM</w>
आनन्द -क्रीड़ा</w>
अन्ध बिन्दु</w>
अनू रू
अनूरू </w>
अहम्मन ्यत/F</w>
अद् न</w>
अना र्द
अनार्द ता</w>
अंतर र्थ</w>
अवत ापी</w>
अंगद /FM</w>
आखु बि
आखुबि ष
आखुबिष हा</w>
अरण्य राज/M</w>
असं व
असंव रण</w>
अत ीति</w>
अनुपजा ऊ
अनुपजाऊ /M</w>
अम पारा</w>
अभिविश्र ुत</w>
अरण्य मु
अरण्यमु द्‌
अरण्यमुद्‌ ग</w>
आदम /MED</w>
अन्वा लो
अन्वालो पी</w>
अस्वीकार -
अस्वीकार- अंगीकार</w>
अंग ति</w>
अप्र थ
अप्रथ म/sT</w>
अरु झ
अरुझ /F</w>
अभ्यर्प क</w>
आनंद वाद/EM</w>
अभ व</w>
आनंद दान</w>
अन ंबर</w>
अनुबंध ानुसार</w>
अंधक मुनि</w>
आद ृत/sT</w>
अंक ुल
अंकुल ास्थि</w>
अंगी कार्य/sT</w>
अधो कथ
अधोकथ ितत</w>
अंतर कलन</w>
अध्यात्म -रा
अध्यात्म-रा मायण</w>
अह्र िम
अह्रिम न</w>
अभ ीत/sT</w>
अमूर् ति</w>
अतं स्</w>
अनुदिश त्व</w>
अंतर यण</w>
अंतर्द श
अंतर्दश ाह/M</w>
अना ंश
अनांश िकता</w>
अस्थि भोजी</w>
अपर ित्या
अपरित्या ज्य</w>
अश्व हृदय</w>
अमर -ब
अमर-ब ौंर</w>
असुर ंजित</w>
अणु भा</w>
अंध नंग
अंधनंग ापन</w>
अम ाह
अमाह /E</w>
अन ंजन</w>
अजु ड़ा</w>
अस य
असय ाना</w>
अपक्ष य/ME</w>
असु प्त</w>
अद् ‌
अद्‌ भ
अद्‌भ ुत</w>
अचर म</w>
अब्द /EM</w>
अपान ्य</w>
अभिघ ार</w>
अत्र स्त</w>
अशु द्
अशुद् ब</w>
आगम /348sTv
आगम/348sTv LMED</w>
अंतर् मनस्क/sT</w>
अन स्थ</w>
अरविंद बंधु</w>
अवर् त्त
अवर्त्त मान</w>
आगम ज्ञानी</w>
अविचार /ME</w>
अक्षु ब्ध</w>
अति ह
अतिह स
अतिहस ित/M</w>
असमान /sT</w>
अर्धांग ग्रस्त</w>
अनुप्र स्थ
अनुप्रस्थ त/F</w>
अर् राइयो</w>
अपूठ ियो</w>
आंत ं
आंतं रिक</w>
अंत हीन/sT</w>
आइसब र्ग
आइसबर्ग /LM</w>
अल् मास</w>
अँ ला</w>
अफ़ जूँ</w>
अन्याय ्य</w>
अवच ूष
अवचूष क</w>
अन स्थित</w>
अवर्ण ितत</w>
अचल कीला</w>
अलका पति</w>
आदि त्सा</w>
अकाद मिक</w>
अवस्थ ांतर/M</w>
अकालोत् पत्ति</w>
अँगन ैया</w>
अपू जा</w>
अकिंचन त्व</w>
अँतर ाना</w>
अंध क/M</w>
अना भाव</w>
अपशब्द युक्त</w>
अनर्थ भाव</w>
अनुष्ठ ान/M</w>
अल ाल</w>
आत्महत्य ार
आत्महत्यार ा/C</w>
आँग नवाड़ी</w>
अभिध रण</w>
अधिक ाल</w>
अधोक्ष िप्त</w>
अश्वग ंध
अश्वगंध ा</w>
अनबु सा/G</w>
अली बाग़</w>
अस्फ ु
अस्फु टक</w>
अंभो धर</w>
अवज्ञ ा
अवज्ञा कृत</w>
अप्रत्य य/E</w>
अवि प्र
अविप्र माणित</w>
आज्ञाप त्र/M</w>
अनुप लब्ध
अनुपलब्ध /sT</w>
आनंद वर्धक</w>
आत्म रत</w>
अविवे क
अविवेक िता</w>
अम्बाह लदी</w>
आदिकाल ीन</w>
अनुबंध ाधीन</w>
अंध ताम
अंधताम िस
अंधतामिस ्र</w>
अपव ो
अपवो ढ़ा</w>
आ नि</w>
अर्मे नियन</w>
अक हानी</w>
अपश ना</w>
अधक च्च
अधकच्च ा/G</w>
अख सत</w>
आधार /U
आधार/U EM</w>
अश्मकु ट्टक</w>
अकैप् निया
अकैप्निया -संबंधी</w>
अपो मय</w>
अम्बे र</w>
अम त
अमत /M
अमत/M U</w>
आंदोलन /MV</w>
अप्र ज्ञ</w>
अंग तुक</w>
अस् वि
अस्वि न/E</w>
अष्टपा र्श
अष्टपार्श ्व
अष्टपार्श्व ीय</w>
अम् बाड़ी</w>
अर्ध उ
अर्धउ ष्
अर्धउष् ण/M</w>
अनंत मूल
अनंतमूल /M</w>
अभिकथ नीय</w>
अस्पृह णीय</w>
अंशुमाल ा/IGC</w>
अलवा ई</w>
अनुभव हीन/sT</w>
अबन्ध ु</w>
आनन्द म
आनन्दम ग्न</w>
अघ ्रा
अघ्रा ण/sT</w>
अद ार</w>
आदित्य दर्शन</w>
अव ंति
अवंति सु
अवंतिसु न्द
अवंतिसुन्द री</w>
आनद्ध व
आनद्धव स्ति
आनद्धवस्ति ता</w>
अधिसं कु
अधिसंकु चन</w>
अभिमुख /sTM</w>
अंबु त
अंबुत स्कर</w>
अब लो
अबलो न्
अबलोन् मत्त</w>
अंगूरश फा</w>
असं को
असंको च/E</w>
अनेक लोचन</w>
अथर्व वेद
अथर्ववेद ीय</w>
अज़ ्म
अज़्म त</w>
अक्षर जी
अक्षरजी वक</w>
अचिंत नीय/sT</w>
आगम जानी</w>
आत्त दंड</w>
अधि सूच
अधिसूच ना
अधिसूचना एं</w>
अहिव ति
अहिवति न</w>
अंगना जन</w>
अना गम्य</w>
अहसान मंद</w>
अनार क्षित</w>
अपस्फीत िकारी</w>
अभिमान ित/F</w>
अवत ंस/M</w>
अपराध पूर्ण/sT</w>
अरद ल/E</w>
अग ्या
अग्या त</w>
अप्रक टन</w>
आचार -वि
आचार-वि चार/M</w>
अन्ध तमस</w>
असं प्राप्य</w>
आन ुरक्ति</w>
अगु वाइयो</w>
अत्र दान</w>
अयस् </w>
आई मै
आईमै क्स</w>
आज्ञा एँ</w>
अदेह /sTM</w>
असंचल ित</w>
अव्या हत</w>
अँग्रेज़ वाद</w>
आक्र ांत
आक्रांत रहित</w>
अंतर ज्ञ</w>
अह स्पति</w>
अन्तर्वि वाह</w>
अक्ष दर्श
अक्षदर्श क/M</w>
अपूर्ण ांक</w>
अकर्म क/sTM</w>
अश्र ान्त</w>
अधिलंघ क</w>
अंतःप्र ादेशिक</w>
अर्धपरि धानित</w>
अग्र ेष
अग्रेष क</w>
अभिनय योग्य</w>
अधि स्त्र
अधिस्त्र ाव</w>
अंडकोश ीय</w>
अन्ति म/M</w>
आनु प्र
आनुप्र ास
आनुप्रास िक</w>
अचल द्विट</w>
अलखन ंद
अलखनंद ा</w>
अधिकार ीब
अधिकारीब ंद
अधिकारीबंद र
अधिकारीबंदर गाह</w>
अल्प भार
अल्पभार /sT</w>
अर्द्धनार ीश्वर/ME</w>
अल्यू ट</w>
आइ य
आइय ा/CB</w>
अंतर् वास
अंतर्वास क</w>
अविद ूषण</w>
अन्तर -</w>
अप्र ख्यात</w>
अताप /EsT</w>
अधी वास</w>
अनभि ग्रहण</w>
अनो ना</w>
अनुप पत्ति</w>
अर्ध विधिक</w>
अनुर्ती ण/M</w>
अधो का
अधोका ष्ठ/F</w>
अत्याचार प्रिय/sT</w>
अध्यु र्व
अध्युर्व रण</w>
अंदाज़ ा/M
अंदाज़ा/M IGC</w>
अत ाब
अताब ख़
अताबख़ ्
अताबख़् श</w>
आदर्श हीनतः</w>
अन्तर् लेखन</w>
आत्मनिंद ात्मक</w>
अरमेनियाई- लिपि</w>
अध मर्
अधमर् ण</w>
अवकर् त/M</w>
अय ापनीय</w>
अनाकांक्ष ित</w>
अनुनाद ितत</w>
अवलोक नार्थ</w>
अवन ीप
अवनीप ति/QM</w>
असं शोधित</w>
आदि सर्ग</w>
अदृष्ट /M</w>
अभिवाद नपूर्ण</w>
असहम त/M</w>
अबु जा</w>
अव्यक्त -ग
अव्यक्त-ग णित</w>
अभि जीत</w>
आकाश वर्
आकाशवर् त्म</w>
अन यन</w>
अन्य स्त</w>
आत्म मोह
आत्ममोह ग्रस्त</w>
अमृत बिंदु</w>
अम्लाध िक्य</w>
अभियो क्ता</w>
आत्महत्य ा/CI</w>
अनुभूति प्र
अनुभूतिप्र व
अनुभूतिप्रव ण/sT</w>
अंस ल</w>
अड़ ाइयो</w>
अभिप्र णीत</w>
अब्धि द्वी
अब्धिद्वी पा</w>
अभिनंद /E</w>
अद ेख
अदेख ा/G</w>
अवरोध ग्रस्त</w>
अग्र निर्माण</w>
अधिन ाप</w>
अश्मा ज
अश्माज त
अश्माजत ु</w>
आग निक</w>
अर्धनि मीलित</w>
अनस म
अनसम झ/FED</w>
अजाग रु
अजागरु क</w>
अनिर् बन्ध</w>
अद्रि सार</w>
अभिवे ग</w>
अर्क कर</w>
अफ़्रीक़ ी</w>
अधिक र्
अधिकर् णिक</w>
आधार निलय</w>
आखु भोजी</w>
अनुभव ियो</w>
अस्र कंठ</w>
असंस ृष्ट</w>
अम ूलक</w>
अन्योन्याश्र य
अन्योन्याश्रय वाद</w>
अस्त्र घ
अस्त्रघ ला</w>
अग ड</w>
अविना भाव</w>
अभिव्य िक्त</w>
अर ीत
अरीत िक</w>
अंतः कक्ष</w>
अल ाब
अलाब ामा</w>
अंध धुंध</w>
अवि वश</w>
अश्म ीकृत</w>
अप्रग ाध</w>
अंगौ ंगा</w>
अन्वेष ा/G</w>
अल्प स्थायी</w>
आख्याय िक/F</w>
आन्दोल ित</w>
अभिन म
अभिनम ्र</w>
अनच ुन
अनचुन ा/G</w>
आध ो
आधो -
आधो- आध
आधो-आध </w>
अनुज -
अनुज- अग्र
अनुज-अग्र ज</w>
अस्थ ाना</w>
अश्रु मुख</w>
अग्र -</w>
अध ातु</w>
अर्गो मीटर</w>
अंतर् गु
अंतर्गु ट/M</w>
अस्ता द्रि</w>
अवलोक क</w>
अराग /E</w>
अहिवा ति
अहिवाति न/LM</w>
अब ंड</w>
अध्व ग/F</w>
अधि वाचन</w>
अनभिसं बंध</w>
अटकल -प
अटकल-प च्चू</w>
आकृ ष्
आकृष् </w>
आत्य ंत
आत्यंत िक/sTM</w>
अल्प भोजी</w>
अंतर् गुण</w>
अताप रूपण</w>
अपि च</w>
अण्ड मान/E</w>
अंधेर -खाता</w>
अण्ड को
अण्डको श
अण्डकोश युक्त</w>
अस्थिक ृत</w>
अधो कर्ष</w>
अविद ू
अविदू र</w>
असंग त/sTM</w>
अंगसं को
अंगसंको च</w>
आत्मप ोषी</w>
अपात्र दायी</w>
अनर् जक</w>
अम्म ौ
अम्मौ ं</w>
अलिफ़ /M</w>
अवि हीन</w>
अभिविन ीत/sT</w>
आत्म ान्व
आत्मान्व ेषण/M</w>
अवच ाल
अवचाल ित</w>
अग्री मेंट</w>
अंग दर्शक</w>
अंत -लघु</w>
अधिशीत लन</w>
अव ाल
अवाल ांच</w>
अनू क्त</w>
अरे स्टिड</w>
आदर्शवाद -सम्
आदर्शवाद-सम् बंधी</w>
अधीक्ष क/M</w>
अर्थ- भावना</w>
अन्त री
अन्तरी क</w>
अनव लम्ब</w>
अन्योद र्य</w>
अट् ठानवे</w>
अना बि
अनाबि द्ध</w>
अनुप मित</w>
अबीसीन िया</w>
अलका धिप</w>
आध ृत
आधृत ०
आधृत० </w>
अनान ास/M</w>
अंतःप्र विष्ट</w>
आत्मीय कृत</w>
अफ ीमची</w>
अल ंकित</w>
अस ेव
असेव नीय/sT</w>
आधि मोचन</w>
अग्निश ेखर</w>
असमन ेत्र</w>
अति -दु
अति-दु ष्ट</w>
अत्याहार /ME</w>
अँक रास</w>
अजीर्ण हर</w>
अरूणा चल</w>
अमन ीषी</w>
अभिश ोक</w>
आज नि</w>
अंध त्व/M</w>
अमल ीकरण</w>
अल ोप
अलोप /FM</w>
आप ण</w>
अल्ट्रावाय लैट</w>
अग्रक्र य</w>
असिक् निका</w>
अर्ध -पारदर्शी</w>
अन्ह ाइयो</w>
अभिनंदन ग्रंथ
अभिनंदनग्रंथ /M</w>
अधिप्र माणन</w>
आत्मद ाह/M</w>
अघ घ्न</w>
अनास ीन</w>
आए ँ
आएँ गी</w>
अम ीन
अमीन दी
अमीनदी वी</w>
अग्र गत</w>
अस्त्र कारक</w>
अरस ौहां</w>
अजर्य त/F</w>
अमर -ध
अमर-ध ाम</w>
अंध कृत</w>
आगा /sT
आगा/sT IGC</w>
अंगड़ ख
अंगड़ख ंगड़</w>
अबे ध्य</w>
अभ णित</w>
अज थ्या</w>
अंतश् छिद्रण</w>
आदित्य पर्णी</w>
अप्र स्
अप्रस् न्न</w>
अंश ांक/M</w>
अवधि वर्धित</w>
अपरि धान</w>
अवमंद क</w>
आक्रु ष्टत</w>
आदि मत/F</w>
अंतर स्थायी</w>
अन्यभ ृ
अन्यभृ त/F</w>
आं म
आंम त्रित</w>
अल्प ीकरण/M</w>
अट ला
अटला ण्
अटलाण् टिक</w>
अन्ध खोपड़ी</w>
अंत वाक्य/M</w>
अनह ित
अनहित ू</w>
अन्तः स्थापन</w>
अप्रभ ान्वित</w>
अम ंड</w>
अल्ल ा/7
अल्ला/7 CI34sTv</w>
अंगार िका/JK</w>
अम न्द</w>
अनुभव शून्य</w>
अग्नि गार</w>
अज ग</w>
अवरे व
अवरेव /834sTvED</w>
अरिष्ट िका</w>
आकाश प
आकाशप थिक</w>
अपरिभाष ेय</w>
अंतः कु
अंतःकु टि
अंतःकुटि ल</w>
अय श्च
अयश्च ूर्ण</w>
अलकस ाहट</w>
अंकुश- निर
अंकुश-निर ंकुश</w>
अबि ंध
अबिंध न</w>
अनुदार त/F</w>
अल्बे निया-वासी/O</w>
अनुत् क्रमित</w>
अभि दिश
अभिदिश ा/IC</w>
अड ग</w>
अधि धार
अधिधार ित</w>
अरि द
अरिद मन</w>
अकार ान्त</w>
अंतर कलह</w>
अप्रभाव करत</w>
अट्ट स
अट्टस ट्ट/M</w>
अनेका ंत</w>
अधिश्र य
अधिश्रय ण/E</w>
अपत /E</w>
अध्यक्ष लाइ
अध्यक्षलाइ ब्र
अध्यक्षलाइब्र ेर
अध्यक्षलाइब्रेर ियन</w>
अबि चार</w>
अनभि ष
अनभिष क्त</w>
अनुर ंजित</w>
अनिर् माता</w>
अमृत सार/M</w>
अनुसो चक</w>
अंत चिर्
अंतचिर् त्र</w>
अनिच्छ त</w>
आदत्त क</w>
आत्मविश्वास /ME</w>
अग्नि ज</w>
अश्व मुख</w>
अवघ र्षण/M</w>
अंधानु करण/M</w>
अनंत रित</w>
अंतर महल</w>
अरथ ी
अरथी वाहक</w>
अ- देश
अ-देश भ
अ-देशभ क्त</w>
अवस ंड
अवसंड ीन</w>
अक्षि दोलन</w>
आद ग्ध</w>
अप्रो च/M</w>
अपेंडिस ायटिस</w>
अब ोल
अबोल /FEDM</w>
अभिर मण</w>
अबल त/F</w>
अशृंख लित</w>
आक ्यू
आक्यू पाई</w>
अवशिष्ट त/F</w>
अस्थित ेज</w>
अप मा
अपमा जिर्त</w>
अजड़ /sTF</w>
अगम्या गामी</w>
अच्छ र/FE</w>
अल्बे नियन</w>
अप ठ</w>
अक्षर-सं योजन/M</w>
अधि पुरुष</w>
अंतःप्र ति
अंतःप्रति रोध
अंतःप्रतिरोध /M</w>
अवधि दर्शन</w>
अतींद्र िय/M</w>
अर्धस ेतु</w>
अर्ध -विरा
अर्ध-विरा म</w>
अम्ब क</w>
आत्मानु भू
आत्मानुभू तीय</w>
अपघ र
अपघर नी</w>
आदि नाथ/M</w>
असंगल नीय</w>
अपास म</w>
आत्मब ल
आत्मबल पूर्वक</w>
अध ह्
अधह् पतन</w>
अप्सर स्पति</w>
अब ी
अबी ज/F</w>
अनैश्वर्य प्रद</w>
अद्वेष पूर्ण</w>
अनधिकार /EsTM</w>
अघ शंस</w>
अकार ाणु</w>
आकाश वृत</w>
अँड र/8EDsTv</w>
अंभो राशि</w>
अभिवन्द नीय</w>
अधिक ाल
अधिकाल ीन</w>
अन्तःपुर प्रचार</w>
अभार िष्ट</w>
अर्य्य मा</w>
अपह र्ता</w>
अनंतर /sTM</w>
अस्तित्व हीन/sT</w>
अमर लोक
अमरलोक /sTM</w>
असंय मित</w>
अंतर जै
अंतरजै व</w>
अब ांध
अबांध वत</w>
अंक शायी</w>
अप न्
अपन् हुति</w>
आठ व
आठव ी/O</w>
अवरोध हीनतः</w>
अवले पित</w>
अफ़् ज़ा</w>
अभेद /M</w>
अरस ठ</w>
अंतराव हन</w>
अश्व पति</w>
अननुरू पत/F</w>
अभिनि वेशित</w>
अनीर्ष ्यत</w>
आकस्मिक ता
आकस्मिकता वाद/M</w>
अद् ल
अद्ल पर
अद्लपर वर</w>
अश्रु पूर्ण/sT</w>
अयु ध</w>
अंश पूर्ण</w>
अद् र्ध
अद्र्ध यायावर</w>
अवकाश पूर्वक</w>
अनुदान ों
अनुदानों विन
अनुदानोंविन ियो
अनुदानोंविनियो गो
अनुदानोंविनियोगो ं</w>
अनु लेप</w>
आदि शरीर</w>
अंक बद्धन</w>
अबूझ /F</w>
अरिष्ट सूदन</w>
अस ानी</w>
अव्यक्त ानुकरण</w>
अर्थच्छ ाया</w>
अक ोर/E</w>
अप्रिय कर</w>
अवशिष्ट ांशीय</w>
अपव रण/M</w>
आते- आते</w>
अध्यव कलन</w>
अबल /sTMFD</w>
अल ाद
अलाद ीन</w>
अंतराय ण/M</w>
अफ़ ीमची</w>
अर्घ ीश</w>
आटो म
आटोम ेशन</w>
अंत ह
अंतह ार्
अंतहार् दिक</w>
आकर भाषा</w>
अंगार पे
अंगारपे टी</w>
अध्याप क-
अध्यापक- अध्याप
अध्यापक-अध्याप िका/K</w>
अन् ठानबेवाँ</w>
अहिवा त/ME</w>
अपह सित</w>
अभिक्र िया
अभिक्रिया -
अभिक्रिया- कारक</w>
अनुच्चर ितत</w>
अभि स्थ
अभिस्थ ैतिक</w>
अनुल ाप/M</w>
अर्द्ध वार्षिक</w>
अका ट</w>
अभिव्यंजन /F</w>
अधीक्षक मुद्रण</w>
अपव हित</w>
अंतर्वे धन</w>
अम्माँ ें</w>
अश्विन ीकुम
अश्विनीकुम ार/M</w>
आढ्य ंभ
आढ्यंभ विष्णु</w>
अपट ापन</w>
अतिशयोक्ति याँ</w>
अत नु</w>
अल्प न
अल्पन ूतन</w>
अकाल मूर्ति</w>
अकौ मा
अकौमा र्य</w>
अवगाह /834sTv
अवगाह/834sTv LMED</w>
अनुदार मनस्क/sT</w>
अप्र मा</w>
अंदर कोट</w>
अर्ध ोत्
अर्धोत् थित</w>
आदर्श मंदिर</w>
अप्र दर्शन</w>
अफ्रीक ी-
अफ्रीकी- अमरीकी</w>
अवस ान
अवसान ीय</w>
अयस् क/M</w>
आदिक ेश
आदिकेश व</w>
अंजन ियार
अंजनियार ी</w>
अनिर्ण ित/M</w>
अंगार ोस</w>
अभिकेंद्र त</w>
अना गार</w>
अँग ेजना</w>
अपका जी</w>
अन्य ज/sT</w>
असि धार
असिधार ा/IGC</w>
अपना लय</w>
आद र्य</w>
आनंद ानुभूति</w>
अल ाल
अलाल ित्य</w>
अव्र ण</w>
अनब सा/G</w>
अंतः ग्रहीत</w>
अं क/M</w>
आज -त
आज-त क</w>
अभिनिष् कम</w>
अव र्ष
अवर्ष ितत</w>
अस त्व</w>
अक्षत वी
अक्षतवी र्य/M</w>
अरूण सारथी</w>
अपध्वंस ज</w>
अन करण</w>
आनंद ोत्कर्ष/M</w>
अनन्त विजय</w>
अनढ का/CI</w>
अग्र तम</w>
अजि औ
अजिऔ रा</w>
अप स</w>
अयुग् बाण</w>
अपध्वंस /EM</w>
आदम क़
आदमक़ द</w>
आघोष ण
आघोषण ाप
आघोषणाप ट
आघोषणापट ह</w>
अश्व ख
अश्वख ुर</w>
अपव ंचन/M</w>
अधियो ध/M</w>
आँधी -पानी</w>
अभ्युद्घ ातित</w>
अमौ वा</w>
अर्धांग /EM</w>
अन्न कूट/M</w>
अघ िक्षिप्त</w>
अनप रि
अनपरि चय</w>
अप्र द
अप्रद ूषित</w>
अभय दान
अभयदान दत्त</w>
अलखन न्दा</w>
आं का/G</w>
अप्र बुद्ध</w>
अक्ष सू
अक्षसू त्र</w>
अंगार /MFED</w>
अल्ज ीय
अल्जीय र्स</w>
आत्मसं ज्ञा</w>
अति जीव
अतिजीव ित/F</w>
अपन ेपन</w>
अप लब्ध</w>
अधि चालित</w>
अनु दात्त
अनुदात्त /sTM</w>
अशा श्व
अशाश्व त/sT</w>
अज्ञान ावस्था</w>
अमृत कामना</w>
आक्षेप पूर्ण</w>
आदित्य पत्र</w>
अवग लित</w>
अनुर्ती ण
अनुर्तीण -उ
अनुर्तीण-उ र्ती
अनुर्तीण-उर्ती ण</w>
अर्पण /MF</w>
अग्निबा ण/M</w>
अमेठ /8ED34sTv</w>
अकुल ाइयो</w>
अवश ै
अवशै ष
अवशैष िकी</w>
अँको र
अँकोर /8sTvLMED</w>
अवगुंठ न/M</w>
अश्व क्रान्
अश्वक्रान् ता</w>
अभिवाद नीय</w>
अंडर वी
अंडरवी अर</w>
अंतर्व ्या
अंतर्व्या सीय</w>
अघ विष</w>
अवकर्ष ण/M</w>
अद ूषण</w>
अंक पत्र/M</w>
अंतरस ांस्कृतिक</w>
अर्क प्रिया</w>
अत ट</w>
अन विद्ध</w>
आग ान</w>
अश्वरक्ष क</w>
अय ादि</w>
अपि जनन</w>
अवसाद पूर्ण/sT</w>
अकाद म
अकादम ी/NO</w>
अनुमति हीनतः</w>
अफ़ग़ ान/ME</w>
अर्धस त्य</w>
असाम न
असामन ता</w>
अधार िया/JK</w>
अनुहार ियो</w>
अनुत्त मो
अनुत्तमो </w>
अभिरुच ियुक्त</w>
आत्मवि द्</w>
अंग्रेज वाद</w>
अग्र दीप/M</w>
आँ द
आँद ू</w>
अवस ान/M</w>
अन्ध बक</w>
अष्ट ाश्र
अष्टाश्र ि</w>
अंतः क्षेप/M</w>
आंतरा यिक</w>
अवृ द्ध
अवृद्ध िक/M</w>
अर्ध ांध
अर्धांध /sT</w>
अनुग्रह -ट
अनुग्रह-ट िप
अनुग्रह-टिप ्प
अनुग्रह-टिप्प णी</w>
अमल -प
अमल-प ट्
अमल-पट् टी</w>
अभ िकारक</w>
अध -</w>
आखेट पाश</w>
अवध ारक</w>
आनु क्रम
आनुक्रम िक/sTM</w>
अपघ न</w>
अरब वाँ</w>
अलक प्रभा</w>
अनि नी</w>
अर ीढ़</w>
अवयव -तंत्र</w>
अमृत- रश्मि</w>
अर्धस म्मत</w>
अनू दित</w>
अप पात्र/M</w>
अंग दर्शन</w>
अनब स
अनबस ापन</w>
अंतरिक्ष -विज्ञान/M</w>
अधिकार ांत
अधिकारांत र्गत</w>
अड़तालिस वीं</w>
आत्त प्रति
आत्तप्रति दान</w>
अधिकारी- तन्त्र</w>
अग्निम ंथ
अग्निमंथ /F</w>
अष्ट वर्ग/M</w>
अपाव रण</w>
अन्तर् ह
अन्तर्ह ास</w>
अचल ध
अचलध ृ
अचलधृ ष</w>
अर्जुन ोपदेश</w>
आट ि</w>
अट वाइयो</w>
अंक ित/sTMF</w>
आउ झ</w>
अंब /MFED</w>
अन्न ग्रहण</w>
अश्व सू
अश्वसू क्त</w>
आँवला गट्टा</w>
अपध्व स्त/sT</w>
आकृति युक्त</w>
अचव /348sTvFED</w>
आद िक्रम</w>
अध स्
अधस् स्वस्तिक</w>
अठपहल ा/GC</w>
अंग शास्त्र</w>
अंतर्स्र ुति</w>
अपू र</w>
अधम जन</w>
आद्या शक्ति/PQ</w>
अभ्युप गम/M</w>
अंट ार्कटिक/F</w>
आखु ग</w>
अंगड़ ाना</w>
अरको ल</w>
अंतर्व िकार/M</w>
अज़रबैजान वास/0E</w>
आत मक</w>
अविशोध नीय</w>
अंकि श्त</w>
अटेंड ेंस</w>
अरण्य वास
अरण्यवास /EM</w>
अपवृ क्त</w>
अमीर उ
अमीरउ मरा</w>
अर्वाच ीनत/F</w>
अभिव्य ाप्त</w>
अठान बे</w>
अनव धान
अनवधान /sTM</w>
अप्र विध
अप्रविध िक/M</w>
अधिकार दान</w>
आ ः</w>
अंतर्भ ुक्त</w>
अह त्या</w>
अका य
अकाय त/F</w>
अश्रु हीन</w>
आंख ो</w>
अंबु वे
अंबुवे तस</w>
अंकुश ग्रह</w>
अमेध्य त्व</w>
अनतिक्र मणीय</w>
अंग ीय</w>
अंबे डकर</w>
अमृत ेष्ट
अमृतेष्ट का</w>
अरक्त /sT</w>
अवै घात
अवैघात ्य</w>
अंश भाग
अंशभाग /E</w>
अग्र वन</w>
अंबु र</w>
आनुषंग िक/sTM</w>
अर्धश ब्द</w>
आकाश-ध ्रुव</w>
अवह ृत</w>
अश्व श्
अश्वश् थ</w>
अंतड़ ियां</w>
आत्म चित्र</w>
अर्थच्छ ट
अर्थच्छट ाएँ</w>
अन्य पर</w>
अहसान फ
अहसानफ रामो
अहसानफरामो श/E</w>
असं वाद</w>
अंधानु सरण/M</w>
अवग ार
अवगार ियो</w>
अवक्र ीतक</w>
अनेकाग्रचित्त त/F</w>
अस्वाद िष्ठ
अस्वादिष्ठ त/F</w>
आत्म धार
आत्मधार ण
आत्मधारण भूमि</w>
अमू र</w>
अज्ञान तावश</w>
अर्प णीय</w>
अटेंड /M</w>
असिस्ट न्ट</w>
आघातवर्ध ्य/sT</w>
अश्वम ीन</w>
आंग क</w>
अधिग्रह णीय</w>
आंद ांत
आंदांत े</w>
अमनो ज्ञ
अमनोज्ञ त</w>
अस्त मन/M</w>
आदि जिन</w>
अद्घ म</w>
आती- जात
आती-जात ी</w>
अनु र्य
अनुर्य ायी</w>
अवकीर्ण न/M</w>
अना मित</w>
अछूत ापन</w>
अवसाद ित/F</w>
अंब रीय</w>
अब्ब ू</w>
अध्या कलन</w>
आ कर्
आकर् णित</w>
अधिग णन</w>
अर्ध-नार ाच</w>
अर् ल
अर्ल /EM</w>
अंग्रेज़ ियत/LM</w>
अर ोष</w>
अधि तिथि</w>
असम िया/JK</w>
आकबतअं देश/E</w>
अर्द्धनार ीश</w>
अनुकरण पूर्ण</w>
अवरोध ित्र</w>
आईएस ओ</w>
अनाह ति</w>
आत्मब लि</w>
अनुद्वि ग्न/sT</w>
अक्षम ता
अक्षमता ग्रस्त</w>
अग्नि -द
अग्नि-द ाह</w>
अम्बाह ल्दी</w>
अग्रिम तम</w>
अद ाल
अदाल त
अदालत /MED</w>
अपरिपक्व /sTM</w>
अनर्थ ापद/M</w>
आत्मल यन</w>
अर क़</w>
आत्मवि रोधी</w>
अनास ादित</w>
अरि बेल
अरिबेल स/M</w>
अनू क्ति</w>
अट िक
अटिक ो
अटिको कान</w>
असम ्य</w>
अफ़सर प
अफ़सरप र्य
अफ़सरपर्य वेक्षक</w>
अभिषे ध/M</w>
आत्म श्ल
आत्मश्ल ाघ
आत्मश्लाघ ा/GCI</w>
अंशु मान/M</w>
अब ध</w>
अहसान -
अहसान- फ़रामोश</w>
अपोत्ते जक</w>
अन्तर्नि ष्ठ</w>
अभिक्र ाम
अभिक्राम ित</w>
अप वर्धन</w>
आचार वि
आचारवि चार</w>
अफसर ाना</w>
अंक िल</w>
अधरोत्थ क</w>
अनाम क</w>
अभिश प्त/sT</w>
अधो ंश
अधोंश ुक</w>
अंबुक ेशी</w>
अहमद नगर</w>
अधि बच
अधिबच त</w>
अफ़स ंतीन</w>
अह ात
अहात ाब
अहाताब ंद/E</w>
अपन ीत</w>
अवस ण्ड
अवसण्ड ीन</w>
आछ ौ</w>
अधिवास /ME</w>
अपवल् कन</w>
अहि टा</w>
अलंकार हीन/sT</w>
अवस्फ ीत
अवस्फीत िकारक</w>
असं भव
असंभव -स
असंभव-स ा</w>
अन जन
अनजन मा</w>
अकर्तृ क/sT</w>
असम ाप्त
असमाप्त ांशीय</w>
अश्म विज्ञान</w>
अचल राज</w>
अच्छ त</w>
आकाश वाण
आकाशवाण ी/NO</w>
अविलम्ब त</w>
आगो श/M</w>
अपमान ात्मक</w>
अंड स</w>
अर लि</w>
अभिस म्मत</w>
अत ाना</w>
अश्वा ंतक</w>
असंतुल न
असंतुलन ीयम</w>
अधोरेखां कन</w>
अनिरु द्घ</w>
आँच का</w>
अधिनिर् ण
अधिनिर्ण ायक</w>
अंते वास
अंतेवास ियों</w>
अंडर वा
अंडरवा टर</w>
अडल् ट
अडल्ट र
अडल्टर ेशन</w>
अंबाप ोल
अंबापोल ी</w>
अध ेंदु</w>
आक सि
आकसि जन</w>
अन्धकार पूर्ण/sT</w>
अन्तय ेष्टि</w>
अवेक्ष ाहीन/sT</w>
अनंत जीव
अनंतजीव न/M</w>
अकड ना</w>
अम्ल वारक</w>
अभि देश/M</w>
अग्र िय</w>
अठ वाली</w>
अभुक् त
अभुक्त पूर्व</w>
अनत ौ
अनतौ ला</w>
अस म्बन्ध</w>
अस्तित्व क्षम</w>
अनमील ियो</w>
अधि वेद</w>
अनुलोम -विवाह</w>
आक्र्षण -शक्ति/PQ</w>
अर्धक ेतु</w>
अवगुंठ ित/sT</w>
असंग ति</w>
अधिस्थ ग
अधिस्थग ित</w>
अर्ध गोल</w>
अन्तर् वाह</w>
अधब य
अधबय सू</w>
असिपत्र वन</w>
आनि ल/F</w>
अनार्तव त/F</w>
अभिरु दन</w>
अंध रा/G</w>
अफ़ वाज</w>
अत ेव</w>
अपस्म ार/ME</w>
आँ ए
आँए ंगी</w>
अड ो
अडो बी</w>
अवबोधक त्व</w>
अनवर ति</w>
आख ा-
आखा- तीज</w>
आदान /EM</w>
अवध रण</w>
आंश िक/sTM</w>
अग्र संग
अग्रसंग त/sT</w>
अक्षर शः</w>
अंगूर र
अंगूरर व्य</w>
अंध करिपु</w>
अनुवातोमि र्</w>
अक्ष ांत
अक्षांत रीय</w>
आइरि स</w>
अति थ</w>
अशोक- चक्र</w>
अतःपर म</w>
अनुभूति शून्य/sT</w>
आंग न
आंगन बाड़ी</w>
अवशेष ित</w>
अर्द्ध वृत्ताकार</w>
अट्ट क/M</w>
अविलम्ब तः</w>
आइस -क्रीम</w>
अश ां
अशां तिपूर्ण</w>
आज्ञानु सारत</w>
अन्य सुर
अन्यसुर ति
अन्यसुरति दुःखिता</w>
अथ र्थ
अथर्थ वेद</w>
अर्घ दान</w>
अंतर्नि मेय
अंतर्निमेय ता</w>
अचल राशि</w>
अन्वेष णशील</w>
अनम द</w>
अनालो चक</w>
अफ़ग़ ानिस्त
अफ़ग़ानिस्त ान/E</w>
अत्या ग्रह</w>
अविर क्ति</w>
आनु भविक</w>
अरू ंतु
अरूंतु द</w>
अन्तः पूजा</w>
अले ग्
अलेग् ज़ा
अलेग्ज़ा ंडर</w>
अनुष्ठान पूर्वक</w>
अनाश /FE</w>
अक्ष क
अक्षक ीलक</w>
आदित्य पाक</w>
अच्छिद्र कर
अच्छिद्रकर ोट
अच्छिद्रकरोट ि</w>
आदिल वक</w>
अप जय</w>
अप्रे मय</w>
अग्नि सा
अग्निसा त्</w>
अप्रकट ्य/sT</w>
अष्ट मिका</w>
अभिवंद न/FM</w>
अकलख ुरा</w>
अपंग न</w>
अंगी कार/M</w>
अगेत ी</w>
अन्नमय -कोष</w>
अपेन्ड िस
अपेन्डिस ायटिस</w>
अनुज्ञ ा
अनुज्ञा -प्राप्त</w>
अनु रोध</w>
आनंद -दायक</w>
आकाश चर
आकाशचर /E</w>
अवेर -स
अवेर-स वे
अवेर-सवे र</w>
अध्यात्म वाद/ME</w>
अन्तः स
अन्तःस त्वा</w>
अंतराल वर्ती</w>
अंक पल
अंकपल ई</w>
अंड श्वेत</w>
अमर का
अमरका ष्ठ</w>
अस्तंग मन</w>
अर्ध सूत्रण</w>
अंबा ज़</w>
अप करु
अपकरु ण</w>
अं ज़</w>
अवकाश कालीन</w>
अधा मार्ग</w>
अननुकूल /sTM</w>
अंतर् पत्रित</w>
अंतः पत्रित</w>
आन् द्र
आन्द्र ा</w>
अग्निश स्त्र</w>
अनु त्साह
अनुत्साह /ME</w>
अज ार</w>
अध्या त</w>
अंतर्राज्य िक</w>
अरो क</w>
अभिद ्यान</w>
अंधियार /FEDM</w>
अनभिल ष
अनभिलष णीय</w>
आइसब ोट</w>
असुर व
असुरव ध</w>
अम ंत्र
अमंत्र णा</w>
अज ेश</w>
आँख च
आँखच ुरा
आँखचुरा ई</w>
अदी ना
अदीना त्मा</w>
अश मन</w>
अरका सार</w>
अर ड
अरड ी
अरडी ंग</w>
अक्षय लोक/M</w>
अपूर्व तया</w>
अनघ टा</w>
अल ाई/O</w>
अल्पतांत्र िक-
अल्पतांत्रिक- अधिकारी</w>
अभिमंत्र क/sT</w>
अष्ट कीय</w>
अप घातक</w>
अर् या
अर्या णी</w>
अभि पुत्र
अभिपुत्र /E</w>
अर्क /EM</w>
अन्य देशीय</w>
अललट प</w>
आँ दोलन</w>
अर्ध ावृत्त</w>
अग र्
अगर् हा</w>
अपरंप ार</w>
अल्जेरिआ वास/E0</w>
अखिल ेश/M</w>
अतर्क संगत</w>
अंगिर /MFD</w>
अभिर चना</w>
आदत हीन</w>
अधस ाला</w>
आंग दी</w>
अगौ र
अगौर व/sT</w>
अन्न -पानी</w>
अमा त्स
अमात्स र्य</w>
अक्षिक ोट
अक्षिकोट र</w>
आदि हीन/sT</w>
अद् ल</w>
अन्याय त</w>
अलार् म
अलार्म बेल/LM</w>
आन् वय
आन्वय िक</w>
अवशोष ण/M</w>
अजि पाद</w>
अवकाश ग्रहण/M</w>
अत्य ुल्ल
अत्युल्ल ास</w>
अन्तर् जात
अन्तर्जात ीय
अन्तर्जातीय -विवाह</w>
अस्थि बंधन</w>
अनज ो
अनजो खा</w>
आत्मवि श्ल
आत्मविश्ल ेषण/M</w>
अंत्य ज/F</w>
अँडु आते</w>
अंश ोद्ध
अंशोद्ध रण</w>
अघ ्र्य</w>
अधि स्वन</w>
अग्न िय
अग्निय ह</w>
अंतर् द्वार/M</w>
अंबु प/M</w>
अनैकांत ्य</w>
अध्य ापन/M</w>
आत्ममो हित</w>
अनुवास न
अनुवासन -व
अनुवासन-व स्ति</w>
अविलंब ्य</w>
अनुकरण ीय/sTM</w>
अर्थ ों
अर्थों पार्
अर्थोंपार् जन</w>
अनाह ूति</w>
अप ुष
अपुष ्य</w>
अस्त रीय</w>
अपक्ष रणीय</w>
अष्ट रुप</w>
अंबरी सक</w>
आदित ेय</w>
आत्मौ चित
आत्मौचित ्य/M</w>
अरु क्ष</w>
अन्य तः</w>
आत्मनियंत्र ण/M</w>
अन अदायगी</w>
अमृत गर्भ</w>
असम बाण</w>
अंतर् चिंतन</w>
आचार -व्यवहार/M</w>
अंकु रात
अंकुरात ा/G</w>
अख ं
अखं ड़
अखंड़ न</w>
अधिम ित्र</w>
आच्छा ज</w>
अलगाव वादपूर्ण</w>
अपमान -सम्मान</w>
अंट ा
अंटा गु
अंटागु ड़
अंटागुड़ गुड़</w>
असे ंश
असेंश न</w>
अन्य राष्ट्रीय</w>
अननृ रुप</w>
अमान व
अमानव ो
अमानवो चित
अमानवोचित त/F</w>
अधि स्थित</w>
अज्ञात वास
अज्ञातवास /ME</w>
असंल िप्त</w>
अ ई
अई मु
अईमु ई</w>
अन्न- च
अन्न-च ोर</w>
अजग र/EM</w>
अस ्राव</w>
अर्द्ध ेंदु</w>
अपेक्ष ितत/F</w>
अम ध
अमध ुर</w>
आकर्षण कारी</w>
अपत टीय</w>
अंब ासा</w>
अव ांतर
अवांतर भेद</w>
अंश धारी</w>
अभीष्ट दायक</w>
आइलै ंड</w>
अल्ट्रा माइ
अल्ट्रामाइ क्र
अल्ट्रामाइक्र ो</w>
आडियो ग्रा
आडियोग्रा फ</w>
अंजुमन े
अंजुमने इ
अंजुमनेइ स्
अंजुमनेइस् ला
अंजुमनेइस्ला म</w>
अभिल म्ब
अभिलम्ब ीय</w>
अन ऑ
अनऑ थ
अनऑथ राइज़्ड</w>
अकूट कृत</w>
अण्ड व
अण्डव क्र</w>
आन र्स</w>
अनाया चन</w>
अभिम द्य
अभिमद्य त</w>
अप विद्या/JK</w>
अहं पूर्व
अहंपूर्व िका</w>
अक्षय पुर
अक्षयपुर ू
अक्षयपुरू ह
अक्षयपुरूह ूत</w>
अनन्य /sTM</w>
अक्र ियात्म
अक्रियात्म क/sT</w>
आड मान</w>
अख य-
अखय- तीज</w>
अंतरा धि
अंतराधि देश</w>
अभिह ूत</w>
अंब िर
अंबिर था</w>
अमित विक्रम</w>
अंतर् वृत्त/M</w>
अवत ल/sT</w>
आँखफो ड
आँखफोड टिड्डा</w>
अकार /M</w>
अभिसि ंचनीय</w>
अंत ब्र
अंतब्र र्
अंतब्रर् ह्म</w>
अधोहस्ताक्ष र
अधोहस्ताक्षर कर्ता</w>
अस बर
असबर ग</w>
अल्पप्र युक्त</w>
अध्याप नीय</w>
अवर् जित</w>
अकाराद िक्रम</w>
अनर ँग
अनरँग ा/G</w>
अमेरिक ी-इन्डियन</w>
अंतःप्र ा
अंतःप्रा कृत
अंतःप्राकृत िक</w>
अनसि ल
अनसिल ा/GC</w>
अक ोल
अकोल ाह
अकोलाह ल</w>
अधि ध्व
अधिध्व न
अधिध्वन िक/E</w>
अंतर् नाद/M</w>
अय त/E</w>
अख़ब ार/ME</w>
आकृत ीय</w>
अर्थोप क्षेप
अर्थोपक्षेप क/M</w>
अट्ट म</w>
अवधूत वेश</w>
अवैध साक्ष्य/M</w>
अँद ा/734sTv</w>
अंग वाची</w>
अँक व
अँकव ैया</w>
आँग ल</w>
अननु पा
अननुपा लन/M</w>
अरूचि /QM</w>
आँसू /R</w>
अप रोधक</w>
अनक माया</w>
आघातवर्ध नीय/sT</w>
अरम्भ ियो</w>
अवल ून</w>
अधू म</w>
अना शोधन</w>
आदि ग्र
आदिग्र ंथ</w>
अं सार
अंसार /ME</w>
अक ृति</w>
अस्त भाग्य</w>
अप स्नात</w>
अविध्व ंस</w>
अम ीकी</w>
अठह त्त
अठहत्त र
अठहत्तर /H</w>
आँख ि</w>
अभिक्र ांति</w>
अप्ल ाय
अप्लाय ड</w>
अंत्य /MF</w>
अनहोन ा/G</w>
अनमि ल
अनमिल /sTFE</w>
अती ब</w>
अज टा</w>
अनत ला/G</w>
अंक लोप</w>
अलंकृत /sTM</w>
अभिन ीत
अभिनीत त/F</w>
अति -श
अति-श ोषण</w>
अम्ल हर</w>
अनधि सू
अनधिसू चित</w>
अब क
अबक ा/GC</w>
