'
+
-
--
-</w>
-अमेर
-अल
-आ
-इ
-उ
-उज
-उजाला</w>
-उप
-ए
-एकादशी</w>
-क
-कक्ष/M</w>
-कपाली</w>
-काल/M</w>
-केंद्र</w>
-को
-कोष</w>
-क्र
-क्रम</w>
-क्रीम</w>
-क्रीड़ा</w>
-क्षेत्र/M</w>
-ख
-खाता</w>
-ग
-गृह</w>
-ग्रस्त</w>
-ग्रहण</w>
-च
-चतुर्दशी</w>
-ज्ञान</w>
-ज्वर</w>
-झ
-ट
-त
-तंत्र</w>
-द
-दायक</w>
-दीर्घ
-दु
-देश
-ध
-धर्म</w>
-न
-नार
-नीति</w>
-न्याय
-न्यायालय</w>
-प
-पंजर</w>
-पका</w>
-पट
-पट्ट</w>
-पत्र/M</w>
-पदार्थ</w>
-पर
-परस</w>
-पानी</w>
-पार
-पारदर्शी</w>
-पि
-पिछ
-पी
-पीछ
-पु
-पुरा
-पुष्प</w>
-पुस्त
-पुस्तिका/K</w>
-प्र
-प्रति
-प्रतिरोपण</w>
-प्रद
-प्रदेश</w>
-प्राच
-प्राचीन</w>
-प्राप्त</w>
-पड़
-ब
-बग
-बह
-बहिर
-बहिरंग</w>
-बार</w>
-बाहर</w>
-बि
-भ
-भंग</w>
-भवन</w>
-भार
-भारत
-भारतीय/M</w>
-म
-मुद्रा</w>
-या
-यात्री</w>
-रा
-लघु</w>
-लाइनर</w>
-व
-वचन</w>
-वस्तु</w>
-वासी/O</w>
-वि
-विक
-विकार</w>
-विजय</w>
-विज्ञान/M</w>
-विद्य
-विद्या</w>
-विरा
-विरोधी</w>
-विवाह</w>
-विश्
-विश्वास
-विश्वासी/O</w>
-विष
-वै
-व्य
-व्यव
-व्यवहार/M</w>
-व्यापार</w>
-व्यास</w>
-श
-शक्ति/PQ</w>
-शा
-शि
-शै
-स
-सं
-संबंधी</w>
-सम्
-सम्मान</w>
-सम्मोहिता</w>
-सह
-सि
-सिद्ध
-सिद्धांत</w>
-सु
-स्थल</w>
.
..
.</w>
/
/0
/3
/34
/348
/348sTv
/348sTvED</w>
/348sTvFED</w>
/8
/834sTv
/834sTvED</w>
/834sTvLMFED</w>
/8ED
/8ED34sTv</w>
/8ED34sTvLM</w>
/8EDsTv</w>
/8FED
/8FED34sTv</w>
/8sTv
/8sTvED</w>
/8sTvFED</w>
/8sTvLMED</w>
/8sTvLMFED</w>
/D</w>
/E
/E</w>
/ED</w>
/EM</w>
/EsT</w>
/EsTM</w>
/F
/F8
/F8ED
/F</w>
/FD
/FD</w>
/FDLM</w>
/FDM</w>
/FDsTM</w>
/FE
/FE</w>
/FED
/FED</w>
/FEDM</w>
/FEDsT</w>
/FEDsTM</w>
/FEM</w>
/FEsT</w>
/FEsTM</w>
/FM</w>
/FsT</w>
/FsTM</w>
/H</w>
/L
/LM</w>
/LME</w>
/LMF
/M
/M</w>
/MD</w>
/ME
/ME</w>
/MED</w>
/MEV</w>
/MF
/MF</w>
/MFD</w>
/MFE</w>
/MFED</w>
/MV</w>
/O</w>
/P
/PQ
/PQ</w>
/Q
/QM</w>
/QsTM</w>
/R
/R</w>
/U
/Uq
/V
/V</w>
/VM</w>
/VME</w>
/f
/f</w>
/q
/qM</w>
/rsT</w>
/s8Tv
/sT
/sT</w>
/sTE</w>
/sTF
/sTF</w>
/sTFE</w>
/sTFED</w>
/sTLM</w>
/sTM
/sTM</w>
/sTME</w>
/sTMF
/sTMF</w>
/sTMFD</w>
/sTMFE</w>
/v
/x
/xy
/yx
/yxM</w>
0
3
34sTv
34sTv</w>
34sTvLM</w>
4
4sTv
4sTv</w>
5
7
8
</w>
A
A</w>
AGCB34sTv</w>
AGCB</w>
AI
AIGC</w>
B
B</w>
C
C</w>
CB</w>
CI
CI34sTv</w>
CI</w>
D
D</w>
E
E</w>
ED
ED</w>
EM</w>
F
FED
FED</w>
G
G34sTv</w>
G</w>
GC
GC</w>
GCB
GCB34sTv
GCB34sTv</w>
GCB34sTvA</w>
GCB</w>
H
H</w>
I
IC</w>
IGC</w>
IGCB</w>
J
JK
JK</w>
K
K</w>
KS
L
LM
LM</w>
LMED
LMED</w>
LMF
LMFED</w>
M
M</w>
ME</w>
MF
N
O
O4sTv</w>
O</w>
P
Q
QM</w>
R
S
T
U
U</w>
Uq
V
V</w>
Y
_
_वाला</w>
f
g
j
q
q</w>
r
rsT</w>
s
s8
s8T
s8Tv
sT
sT</w>
sTM</w>
sTv
sTv</w>
v
v</w>
x
y
y</w>
yx
ँ
ँ</w>
ँका/G</w>
ँग
ँग</w>
ँद
ँध
ं
ं</w>
ंक
ंक/sTE</w>
ंक</w>
ंकन</w>
ंकित</w>
ंकु
ंकुश</w>
ंकृत
ंग
ंग/M</w>
ंग/sT</w>
ंग</w>
ंगत/F</w>
ंगम</w>
ंगा</w>
ंगिक</w>
ंगी</w>
ंगे
ंगड़</w>
ंघ
ंघन</w>
ंच
ंच</w>
ंचक</w>
ंचन
ंचन/M</w>
ंचन</w>
ंचनीय</w>
ंचित</w>
ंछित</w>
ंज
ंज</w>
ंजक</w>
ंजन
ंजन/M</w>
ंजन</w>
ंजनीय</w>
ंजर/M</w>
ंजर</w>
ंजस
ंजा</w>
ंजित</w>
ंजी</w>
ंट
ंट/M</w>
ंट</w>
ंटक</w>
ंटि
ंटिटी</w>
ंटिफ़िकेशन</w>
ंटी
ंठ
ंठ</w>
ंठन/M</w>
ंठित</w>
ंड
ंड/M</w>
ंड</w>
ंडक्
ंडक्टर</w>
ंडर</w>
ंडा</w>
ंडि
ंडिक</w>
ंडित</w>
ंड्रिया</w>
ंत
ंत/M</w>
ंत</w>
ंतक</w>
ंतर</w>
ंतव्य</w>
ंता</w>
ंति
ंती</w>
ंतीन</w>
ंतु
ंतु</w>
ंत्र
ंत्र/M</w>
ंत्र</w>
ंत्रण</w>
ंथ
ंथ</w>
ंथन/M</w>
ंथन</w>
ंथित/sT</w>
ंद
ंद/E</w>
ंद</w>
ंदन</w>
ंदित</w>
ंदिर</w>
ंदी</w>
ंदु</w>
ंदेश</w>
ंद्र
ंद्र</w>
ंद्रिय</w>
ंद्रीय</w>
ंध
ंध</w>
ंध्य</w>
ंध्र</w>
ंप
ंप</w>
ंपर
ंपित</w>
ंब
ंब</w>
ंबर</w>
ंबला</w>
ंबा
ंबी</w>
ंभ
ंभ</w>
ंयित</w>
ंर
ंश
ंश/M</w>
ंश</w>
ंशित</w>
ंष्ट्र
ंस
ंस/M</w>
ंस</w>
ंसी</w>
ंस्त</w>
ंह</w>
ंड़</w>
ः
ः</w>
अ
अ-
अ-देश
अ-देशभ
अ-देशभक्त</w>
अ-न
अ-नति</w>
अ-नि
अ-निख</w>
अ-सु
अ-सुप्र
अ-सुप्रभाव्य</w>
अँ
अँक
अँकर
अँकरा/G</w>
अँकराया</w>
अँकरास</w>
अँकरौरी</w>
अँकव
अँकवा
अँकवाई/O</w>
अँकवार
अँकवैया</w>
अँका
अँकाइयो</w>
अँकु
अँकुर
अँकुरा/734sTv
अँकुरा/734sTvAGCB</w>
अँकुरियो</w>
अँकुसी</w>
अँकुड़
अँकुड़/MFED</w>
अँको
अँकोर
अँकोर/8sTvLMED</w>
अँकड़
अँकड़ियो</w>
अँख
अँख</w>
अँखु
अँग
अँगडाई</w>
अँगन
अँगना
अँगनाई</w>
अँगनैया</w>
अँगर
अँगरते</w>
अँगराइयो</w>
अँगरे
अँगरेखा</w>
अँगरेजिन</w>
अँगार
अँगारखा</w>
अँगिरा</w>
अँगीठ
अँगु
अँगुठी</w>
अँगुल
अँगुलियों</w>
अँगुली-
अँगुली-छाप</w>
अँगू
अँगूठ
अँगूठाछाप</w>
अँगूरों</w>
अँगे
अँगेजना</w>
अँगो
अँगोछ
अँगौ
अँगौंग
अँगौंगा/C</w>
अँग्र
अँग्रेज
अँग्रेज़
अँग्रेज़वाद</w>
अँग्रेज़ियत/LM</w>
अँग्रेज़ीदा
अँगड़
अँच
अँचवा/7
अँचवा/7GCB34sTvA</w>
अँचवाइयो</w>
अँज
अँजाइयो</w>
अँजोर
अँजोर/8sTvLMFED</w>
अँट
अँटवाइयो</w>
अँटा/7AGCB34sTv</w>
अँटाइयो</w>
अँटिय
अँटियाइयो</w>
अँठ
अँठई</w>
अँठी</w>
अँठुल
अँठुली
अँठुली</w>
अँठुलीदार</w>
अँड
अँडर/8EDsTv</w>
अँडराया</w>
अँडु
अँडुआ
अँडुआ</w>
अँडुआते</w>
अँडुआना</w>
अँडुआरी</w>
अँत
अँतर
अँतराना</w>
अँतरिया</w>
अँतर्ग
अँतर्गडु</w>
अँतड़
अँतड़ियाँ</w>
अँद
अँदा
अँदा/734sTv</w>
अँदाज
अँदाज/834sTvED</w>
अँध
अँधला</w>
अँधियार
अँधियारा/GCI
अँधियारा/GCIA</w>
अँधेर
अँधेरा
अँधेरा-उजाला</w>
अँधेराफ़
अँधेराफ़ाख़
अँधेराफ़ाख़्
अँधेराफ़ाख़्ता</w>
अँधेरिया/B</w>
अँब
अँबती</w>
अँबारी</w>
अँबास
अँबिया/JK</w>
अँभौरी</w>
अँला</w>
अँसु
अँड़
अँड़िय
अँड़ियाइयो</w>
अं
अंक
अंक-
अंक-ज्योतिष</w>
अंक-विद्या</w>
अंक/M</w>
अंक/ME</w>
अंकगण
अंकगणित
अंकगणितज्ञ</w>
अंकट
अंकटा
अंकटाड</w>
अंकपत्र/M</w>
अंकपत्रक</w>
अंकपल
अंकपलई</w>
अंकपा
अंकबद्धन</w>
अंकमा
अंकमाल</w>
अंकमुख/M</w>
अंकलोप</w>
अंकविद्या/JK</w>
अंकवृद्धि</w>
अंकशायी</w>
अंका
अंकाई</w>
अंकाव</w>
अंकावत
अंकावतार/M</w>
अंकि
अंकिचन
अंकिचनता</w>
अंकित/sTMF</w>
अंकिल</w>
अंकिश्त</w>
अंकीय</w>
अंकु
अंकुआ</w>
अंकुर
अंकुरण/M</w>
अंकुरना</w>
अंकुरा
अंकुरात
अंकुराता/G</w>
अंकुरार्बुद</w>
अंकुरीय</w>
अंकुरोस</w>
अंकुल
अंकुलास्थि</w>
अंकुश
अंकुश-
अंकुश-कृमि</w>
अंकुश-निर
अंकुश-निरंकुश</w>
अंकुश/MFE</w>
अंकुशकृमि</w>
अंकुशग्रह</w>
अंकुशधारी</w>
अंकुस/E</w>
अंकुसर
अंकुसरट</w>
अंकुज़</w>
अंकुड़
अंकुड़ा</w>
अंकुड़ेदार</w>
अंकूष</w>
अंकेक्ष
अंकेक्षक/M</w>
अंकोड़ा</w>
अंख
अंखड
अंखडनीय</w>
अंखुआ
अंग
अंग-
अंग-प्रतिरोपण</w>
अंग-भंग</w>
अंग-रक्षा</w>
अंग-व
अंग-विक्ष
अंग-विक्षीप</w>
अंग-विक्षेप</w>
अंग</w>
अंगकर्म</w>
अंगग्रह</w>
अंगघात
अंगघात/M</w>
अंगच्छेद
अंगच्छेदक/M</w>
अंगछेद
अंगज
अंगज/FDM</w>
अंगजा
अंगजाई</w>
अंगडाई</w>
अंगति</w>
अंगतुक</w>
अंगद
अंगद/FM</w>
अंगददेव</w>
अंगदर्शक</w>
अंगदर्शन</w>
अंगदर्शी</w>
अंगदान
अंगदान/M</w>
अंगदानिकी</w>
अंगद्वार/M</w>
अंगद्वी
अंगद्वीप/M</w>
अंगध</w>
अंगन
अंगना
अंगनाई/O</w>
अंगनाजन</w>
अंगपा
अंगपालिका</w>
अंगप्र
अंगप्रत्यंग</w>
अंगभ
अंगभंग
अंगभू
अंगम
अंगमर्द
अंगमर्द/E</w>
अंगमर्ष/M</w>
अंगमुद्रा</w>
अंगर
अंगरंगी</w>
अंगरक्ष
अंगराग
अंगरागव्य</w>
अंगरुह</w>
अंगरे
अंगरेजिन</w>
अंगलिपि</w>
अंगव
अंगवस्त्र</w>
अंगवाची</w>
अंगवि
अंगविक
अंगविकार</w>
अंगविच्छ
अंगविच्छेद</w>
अंगविच्छेदन</w>
अंगविज्ञान</w>
अंगविद्या/JK</w>
अंगविभ्र
अंगविभ्रम/M</w>
अंगश
अंगशास्त्र</w>
अंगशोष</w>
अंगस
अंगसं
अंगसंको
अंगसंकोच</w>
अंगसंग
अंगसंरक्षी</w>
अंगस्ट
अंगस्ट्रा
अंगस्ट्राम</w>
अंगांक</w>
अंगांग
अंगाक
अंगाकड़ी</w>
अंगाध
अंगानुभूति</w>
अंगार
अंगार/MFED</w>
अंगारक
अंगारक/M</w>
अंगारकवार</w>
अंगारका
अंगारकाडी</w>
अंगारण</w>
अंगारपर्ण</w>
अंगारपा
अंगारपातन</w>
अंगारपुष्प/M</w>
अंगारपे
अंगारपेटी</w>
अंगारमंजरी</w>
अंगारमती</w>
अंगारिका/JK</w>
अंगारीकरण</w>
अंगारीकृत</w>
अंगारोस</w>
अंगि
अंगिया/JK</w>
अंगिर
अंगिर/MFD</w>
अंगिरस/M</w>
अंगिरा
अंगिरा</w>
अंगी
अंगीकार
अंगीकार/M</w>
अंगीकार</w>
अंगीकारक</w>
अंगीकारना</w>
अंगीकार्य/sT</w>
अंगीय</w>
अंगु
अंगुर
अंगुरि</w>
अंगुल
अंगुलास्थि</w>
अंगुलि
अंगुलि/PQ</w>
अंगुलिचालन</w>
अंगुलिनिर्देश</w>
अंगुलिमा
अंगुलिमाल/M</w>
अंगुलिमुद्रा/JK</w>
अंगुलियों</w>
अंगुलीय</w>
अंगुल्या
अंगुश्
अंगुश्त
अंगुश्तन
अंगुश्तनु
अंगुश्तनुमा</w>
अंगुश्तान
अंगुश्तान/MFD</w>
अंगुष्ठ
अंगुष्ठांक</w>
अंगुसा/G</w>
अंगू
अंगूठ
अंगूर
अंगूरर
अंगूररव्य</w>
अंगूरश
अंगूरशफा</w>
अंगूरिया</w>
अंगूरी</w>
अंगेज</w>
अंगेज़
अंगेज़/M</w>
अंगो
अंगो-उ
अंगो-उपा
अंगो-उपांग
अंगो-उपांगों</w>
अंगोछ
अंगोछ/FED</w>
अंगोरा</w>
अंगोला
अंगोलाई</w>
अंगौ
अंगौंगा</w>
अंग्य</w>
अंग्र
अंग्रमै
अंग्रमैन्य
अंग्रमैन्यू</w>
अंग्रे
अंग्रेज
अंग्रेज-रा
अंग्रेज-राजन
अंग्रेज-राजनी
अंग्रेज-राजनीति
अंग्रेज-राजनीतिज्ञ/M</w>
अंग्रेजवाद</w>
अंग्रेज़
अंग्रेज़/EM</w>
अंग्रेज़वाद</w>
अंग्रेज़ियत/LM</w>
अंग्विला</w>
अंगड़
अंगड़-ख
अंगड़-खंगड़</w>
अंगड़</w>
अंगड़ख
अंगड़खंगड़</w>
अंगड़ाना</w>
अंघ
अंघस</w>
अंच
अंच/M</w>
अंचति</w>
अंचती</w>
अंचल
अंचलीय/sT</w>
अंचव
अंचवाना</w>
अंचित
अंचित/sT</w>
अंचितभ्र
अंचितभ्रू</w>
अंछ
अंछ/ME</w>
अंज
अंजन
अंजनम</w>
अंजना
अंजनाध
अंजनाधिका</w>
अंजनावती</w>
अंजनियार
अंजनियारी</w>
अंजबार</w>
अंजर
अंजर-पंजर</w>
अंजर</w>
अंजलि
अंजलिका</w>
अंजलिब
अंजलिबद्घत/F</w>
अंजहा/G</w>
अंजाम/M</w>
अंजि
अंजि</w>
अंजित</w>
अंजिष्णु</w>
अंजी
अंजीर</w>
अंजु
अंजुमन
अंजुमने
अंजुमनेइ
अंजुमनेइस्
अंजुमनेइस्ला
अंजुमनेइस्लाम</w>
अंजुरी</w>
अंजुल
अंट
अंटक
अंटकमय</w>
अंटा
अंटागु
अंटागुड़
अंटागुड़गुड़</w>
अंटार्कटिक/F</w>
अंटी
अंटी-
अंटी-गु
अंटी-गुंट
अंटी-गुंटी</w>
अंटीगर/E</w>
अंटीबाज</w>
अंटीम
अंटीमार</w>
अंट्रा</w>
अंठ
अंठानबेवाँ</w>
अंठानवे</w>
अंड
अंड-कोष</w>
अंड-ब
अंड-बंड</w>
अंडक
अंडकव
अंडकवच</w>
अंडको
अंडकोश
अंडकोशीय</w>
अंडख
अंडखोल</w>
अंडजनन</w>
अंडप</w>
अंडर
अंडरकोट</w>
अंडरग्र
अंडरग्रै
अंडरग्रैजु
अंडरग्रैजुए
अंडरग्रैजुएट</w>
अंडरपे
अंडरपेड</w>
अंडरलाइ
अंडरलाइन</w>
अंडरवा
अंडरवाटर</w>
अंडरवी
अंडरवीअर</w>
अंडरश
अंडरशूट</w>
अंडरस्ट
अंडरस्टै
अंडरस्टैंडि
अंडरस्टैंडिंग</w>
अंडश
अंडशल्क</w>
अंडश्वेत</w>
अंडस</w>
अंडाण
अंडाणु
अंडाणु/R</w>
अंडाशी</w>
अंडीय</w>
अंडुल</w>
अंडोच्छेदन</w>
अंडोत्
अंडोत्प
अंडोत्पत्त
अंडोत्पत्तिकी</w>
अंडोर
अंडोरन</w>
अंड्
अंड्गी
अंड्गीकार</w>
अंत
अंत-लघु</w>
अंत/f</w>
अंत</w>
अंतः
अंतःकक्ष</w>
अंतःकथा/JK</w>
अंतःकु
अंतःकुटि
अंतःकुटिल</w>
अंतःको
अंतःक्ष
अंतःक्षेत्र
अंतःक्षेत्र/M</w>
अंतःक्षेत्रक</w>
अंतःक्षेप/M</w>
अंतःग्रहण</w>
अंतःग्रहीत</w>
अंतःज</w>
अंतःज्ञानी</w>
अंतःप
अंतःपत्रित</w>
अंतःपाल</w>
अंतःपुर
अंतःपुरवास
अंतःपुरवासिनी</w>
अंतःप्र
अंतःप्रजन
अंतःप्रजनन/M</w>
अंतःप्रज्ञ
अंतःप्रज्ञ/FM</w>
अंतःप्रति
अंतःप्रतिरोध
अंतःप्रतिरोध/M</w>
अंतःप्रविष्ट</w>
अंतःप्रा
अंतःप्राकृत
अंतःप्राकृतिक</w>
अंतःप्रादेशिक</w>
अंतःप्ल
अंतःप्लाव
अंतःप्लाव्मा</w>
अंतःप्लै
अंतःप्लैज़्म</w>
अंतःभू
अंतःभूत/sT</w>
अंतःवस्त्र</w>
अंतःश
अंतःशरीर</w>
अंतःशुद्धि</w>
अंतःस
अंतःसं
अंतःसंबंध/M</w>
अंतःसत्
अंतःसत्त्वा</w>
अंतःसत्व
अंतःसत्व/MFD</w>
अंतःसाक्ष्य/M</w>
अंतःसार/M</w>
अंतःसारवान</w>
अंतःसूत्री</w>
अंतःस्थ/sT</w>
अंतःस्थापित</w>
अंतःस्फ
अंतःस्फुर
अंतःस्फुरण/M</w>
अंतःस्यंदन</w>
अंतःस्र
अंतःस्रवण</w>
अंतःस्रा
अंतःस्राव
अंतःस्राव/E</w>
अंतःस्राविद</w>
अंतःस्वेद</w>
अंतकर्
अंतकर्म/F</w>
अंतकारी</w>
अंतग</w>
अंतगत</w>
अंतगृ
अंतगृर्
अंतगृर्ही</w>
अंतग्र
अंतग्रर्
अंतग्रर्ह
अंतग्रे
अंतग्रेर्
अंतग्रेर्ह</w>
अंतघ
अंतघाई</w>
अंतचिर्
अंतचिर्त्र</w>
अंतडी</w>
अंतध्
अंतध्र्व
अंतध्र्वस/E</w>
अंतनिर्
अंतनिर्हित</w>
अंतपरिधान</w>
अंतपाल</w>
अंतप्र
अंतप्रर्
अंतप्रर्स्थपन</w>
अंतब्र
अंतब्रर्
अंतब्रर्ह्म</w>
अंतम</w>
अंतयो
अंतयोष्टि</w>
अंतर
अंतर-
अंतर-अय
अंतर-अयन</w>
अंतर-सरकारी</w>
अंतर/q
अंतर/qFED
अंतर/qFEDsTM</w>
अंतरंग
अंतरंग/sTME</w>
अंतरंगतापूर्वक</w>
अंतरक/M</w>
अंतरकलन</w>
अंतरकलह</w>
अंतरकालीन</w>
अंतरगोत्र</w>
अंतरग्नि</w>
अंतरछिद्र
अंतरछेद
अंतरछेदक</w>
अंतरजाल</w>
अंतरजै
अंतरजैव</w>
अंतरज्ञ</w>
अंतरण
अंतरण/VM</w>
अंतरणपत्र/M</w>
अंतरदेश
अंतरधर्म</w>
अंतरपंथ
अंतरपंथी</w>
अंतरपट
अंतरपट/M</w>
अंतरप्र
अंतरप्रदेशीय</w>
अंतरप्रादेशिक</w>
अंतरभिमुखी</w>
अंतरम
अंतरमहल</w>
अंतरमहा
अंतरमहाद्वी
अंतरमहाद्वीप
अंतरमहाद्वीपीय</w>
अंतरमार्ग
अंतरमार्गीय</w>
अंतरयण</w>
अंतरयुक्त</w>
अंतररा
अंतरराष्ट्र
अंतरराष्ट्र</w>
अंतरराष्ट्रीय
अंतरर्थ</w>
अंतरवस्त्र</w>
अंतरवाणिज्य</w>
अंतरशिक्षालयी</w>
अंतरस
अंतरसं
अंतरसंस्कृत
अंतरसंस्कृतीय</w>
अंतरसंस्कृतीयत</w>
अंतरसांस्कृतिक</w>
अंतरस्थ</w>
अंतरस्थायी</w>
अंतरा
अंतराकाश</w>
अंतरागत</w>
अंतरागम</w>
अंतरात्म
अंतरात्मा/IC</w>
अंतराधि
अंतराधिदेश</w>
अंतरानु
अंतरानुभागीय</w>
अंतराभिमुखता</w>
अंतराय
अंतरायण/M</w>
अंतरायन</w>
अंतरायित्र</w>
अंतराल
अंतराल/M</w>
अंतरालक</w>
अंतरालयुक्त</w>
अंतरालवर्ती</w>
अंतरालिका</w>
अंतरालित</w>
अंतरालेखन</w>
अंतराव
अंतरावधि</w>
अंतरावरोध</w>
अंतरावरोधित</w>
अंतरावर्त</w>
अंतरावस्था</w>
अंतरावहन</w>
अंतरावेश</w>
अंतरासंगत</w>
अंतरि
अंतरिंद्रीय</w>
अंतरिक्ष
अंतरिक्ष-विज्ञान/M</w>
अंतरिक्षयात्र
अंतरिक्षयात्री/54sTv</w>
अंतरिक्षविज्ञान
अंतरिक्षविज्ञानियों</w>
अंतरिक्षाय
अंतरिक्षायतन</w>
अंतरितक/M</w>
अंतरिम
अंतरिम/sTM</w>
अंतरी
अंतरीन</w>
अंतरीप
अंतरीप/ME</w>
अंतरीपा
अंतरीपाग्र</w>
अंतरौटा</w>
अंतर्
अंतर्-</w>
अंतर्कल
अंतर्क्षे
अंतर्क्षेत्र</w>
अंतर्ग
अंतर्गम</w>
अंतर्गमन</w>
अंतर्गु
अंतर्गुट/M</w>
अंतर्गुण</w>
अंतर्ग्रस्त</w>
अंतर्ग्राहिता</w>
अंतर्घट</w>
अंतर्चिंतन</w>
अंतर्छिद्रण</w>
अंतर्छेदन</w>
अंतर्ज
अंतर्जन
अंतर्जनस्तर</w>
अंतर्जरा
अंतर्जरायु</w>
अंतर्जलन</w>
अंतर्जात/sT</w>
अंतर्जातीय</w>
अंतर्जानु</w>
अंतर्तरंग</w>
अंतर्द
अंतर्दर्शन/M</w>
अंतर्दश
अंतर्दशाह/M</w>
अंतर्दष्टि</w>
अंतर्दाह/M</w>
अंतर्दु
अंतर्दुग</w>
अंतर्दुर्ग</w>
अंतर्देश
अंतर्देशिक/sT</w>
अंतर्द्वं
अंतर्द्वंद्
अंतर्द्वंद्व/M</w>
अंतर्द्वार/M</w>
अंतर्ध
अंतर्धान
अंतर्धान/M</w>
अंतर्धानन</w>
अंतर्धानभूति</w>
अंतर्ध्व
अंतर्ध्वस्त/M</w>
अंतर्नगरीय</w>
अंतर्नाद/M</w>
अंतर्नि
अंतर्निमेय
अंतर्निमेयता</w>
अंतर्निरीक्षण</w>
अंतर्निष्ठ</w>
अंतर्प
अंतर्पत्रित</w>
अंतर्परि
अंतर्परिधि</w>
अंतर्परी
अंतर्परीक्षा</w>
अंतर्प्र
अंतर्प्रजनन</w>
अंतर्प्रदेश</w>
अंतर्प्रवाहित</w>
अंतर्प्रादेशिक</w>
अंतर्भ
अंतर्भाग</w>
अंतर्भुक्त</w>
अंतर्भुक्तत</w>
अंतर्भूत</w>
अंतर्भूमि</w>
अंतर्भेद
अंतर्भेद/ME</w>
अंतर्भो
अंतर्भोम/M</w>
अंतर्भौ
अंतर्भौम</w>
अंतर्भौमीय</w>
अंतर्मंडल</w>
अंतर्मन
अंतर्मन/FM</w>
अंतर्मनस्क/sT</w>
अंतर्मुख
अंतर्मुख/sTE</w>
अंतर्मृत</w>
अंतर्य
अंतर्याम
अंतर्योग/M</w>
अंतर्राज्य
अंतर्राज्यिक</w>
अंतर्राष्ट्र
अंतर्ल
अंतर्लब</w>
अंतर्व
अंतर्वक्र
अंतर्वक्र/sT</w>
अंतर्वक्रण</w>
अंतर्वक्राकार</w>
अंतर्वर्ती</w>
अंतर्वस्तु
अंतर्वस्तु/R</w>
अंतर्वाणि
अंतर्वाणिज्य/M</w>
अंतर्वास
अंतर्वासक</w>
अंतर्वाह</w>
अंतर्वि
अंतर्विकार/M</w>
अंतर्विरोध
अंतर्विरोधपूर्ण</w>
अंतर्विल
अंतर्विलयन</w>
अंतर्विवे
अंतर्वृत्त/M</w>
अंतर्वृत्ति</w>
अंतर्वे
अंतर्वेद
अंतर्वेदना/JK</w>
अंतर्वेध
अंतर्वेधक/sT</w>
अंतर्वेधन</w>
अंतर्वेश
अंतर्वेश्म</w>
अंतर्वै
अंतर्वैयक्तिक</w>
अंतर्व्य
अंतर्व्यथा</w>
अंतर्व्या
अंतर्व्याप्ति</w>
अंतर्व्यासीय</w>
अंतर्व्यूह</w>
अंतर्स
अंतर्सं
अंतर्संबंध
अंतर्संबंध-विष
अंतर्संबंध-विषयक</w>
अंतर्संस्कृत
अंतर्संस्कृतीय</w>
अंतर्सांस्कृतिक</w>
अंतर्सेव
अंतर्सेवी</w>
अंतर्स्थापन/F</w>
अंतर्स्थित</w>
अंतर्स्र
अंतर्स्रावक</w>
अंतर्स्रुति</w>
अंतर्ह
अंतर्हास</w>
अंतर्हित</w>
अंतव
अंतवर्ण</w>
अंतवाक्य/M</w>
अंतवि
अंतवे
अंतवेला/IC</w>
अंतव्
अंतव्र्य
अंतश्
अंतश्च
अंतश्चर्म</w>
अंतश्छिद्रण</w>
अंतस</w>
अंतस्
अंतस्</w>
अंतस्त
अंतस्तप्त</w>
अंतस्तम</w>
अंतस्ताप/M</w>
अंतस्थ
अंतस्थर्ता</w>
अंतस्थितता</w>
अंतस्सं
अंतस्सलिला/JK</w>
अंतस्सार/M</w>
अंतह
अंतहार्
अंतहार्दिक</w>
अंतहीन/sT</w>
अंतह्
अंताक्ष
अंताक्षर/E</w>
अंताव
अंतावरी</w>
अंतावशायिनी</w>
अंतावस
अंतावसाय
अंतावसायिनी</w>
अंति
अंति</w>
अंतिक
अंतिक/sTMF</w>
अंतिम
अंतिमा
अंतिमेत्थम</w>
अंते
अंतेउ
अंतेउर</w>
अंतेवास
अंतेवासियों</w>
अंतोप
अंतोपचार</w>
अंतोपयोगी</w>
अंत्य
अंत्य/MF</w>
अंत्यकर्म/M</w>
अंत्यज/F</w>
अंत्यपद</w>
अंत्ययोनि</w>
अंत्यवर्ण</w>
अंत्यविदारण</w>
अंत्यविपुला</w>
अंत्या
अंत्याकार</w>
अंत्याक्ष
अंत्याक्षर/ME</w>
अंत्यानुप्र
अंत्यानुप्रास/M</w>
अंत्येष्टि
अंत्येष्टिगृह/M</w>
अंत्योदय/M</w>
अंत्र
अंत्रद
अंत्रा
अंतड़
अंतड़ियां</w>
अंतड़ी/5
अंतड़ी/5N
अंतड़ी/5NO4sTv</w>
अंद
अंदमान</w>
अंदर
अंदर-बाहर</w>
अंदरकोट</w>
अंदरसा</w>
अंदरी
अंदरीपन</w>
अंदरु
अंदरू
अंदरून/E</w>
अंदरख़ान
अंदरख़ाने</w>
अंदा
अंदाज
अंदाज/f</w>
अंदाजन/F</w>
अंदाज़
अंदाज़न/F</w>
अंदाज़ा/M
अंदाज़ा/MIGC</w>
अंदाज़े
अंदाज़ेब
अंदोह
अंध
अंध-</w>
अंध-विश्वासी/O</w>
अंधक
अंधक/M</w>
अंधकघाती</w>
अंधकमुनि</w>
अंधकरिपु</w>
अंधकहंता</w>
अंधका
अंधकार
अंधकार/ME</w>
अंधकारण</w>
अंधकारवन</w>
अंधकारहर</w>
अंधकारात
अंधकारातंक</w>
अंधकारावृत्त</w>
अंधकारि</w>
अंधकासुर
अंधकासुरमर्
अंधकासुरमर्दी</w>
अंधकू
अंधकूप
अंधकूप/M</w>
अंधकूपकार
अंधकूपकाराग
अंधकूपकारागार</w>
अंधकृत</w>
अंधगति</w>
अंधताम
अंधतामिस
अंधतामिस्र</w>
अंधत्व/M</w>
अंधधी</w>
अंधधुंध</w>
अंधनंग
अंधनंगापन</w>
अंधपर
अंधपरंपर
अंधपरंपरा/IC</w>
अंधभ
अंधम
अंधमीन</w>
अंधरा/G</w>
अंधरो
अंधरोष</w>
अंधवायु</w>
अंधविश्वास
अंधश्र
अंधश्रद्ध
अंधश्रद्धा/IC</w>
अंधस</w>
अंधसम
अंधसमर्थक</w>
अंधा
अंधा/IGCB</w>
अंधाकु
अंधाकुप्
अंधाकुप्प/M</w>
अंधाधु
अंधान
अंधानु
अंधानुकरण/M</w>
अंधानुकर्ता</w>
अंधानुपालन</w>
अंधानुसरण/M</w>
अंधाह
अंधियार
अंधियार/FEDM</w>
अंधिर
अंधीकृत</w>
अंधुल</w>
अंधेर
अंधेर-खाता</w>
अंधेर/MFED</w>
अंधेरा
अंधौरी</w>
अंध्र
अंध्रभ
अंध्रभृत्य</w>
अंधड़
अंनि
अंनिआ</w>
अंपाय
अंफ
अंफेट
अंफेटा
अंफेटामाइ
अंफेटामाइन</w>
अंब
अंब/MFED</w>
अंबक</w>
अंबर
अंबरचर/M</w>
अंबरड
अंबरडंबर</w>
अंबरद</w>
अंबरमणि</w>
अंबरा
अंबराई</w>
अंबरारंभ</w>
अंबरी
अंबरीय</w>
अंबरीष/M</w>
अंबरीसक</w>
अंबष्ठ
अंबष्ठ/MFD</w>
अंबा
अंबाझ
अंबाझोर</w>
अंबाप
अंबापोल
अंबापोली</w>
अंबाल
अंबाला/JK</w>
अंबासा</w>
अंबाह
अंबाहलदी</w>
अंबाज़</w>
अंबिक
अंबिकाप
अंबिकापति</w>
अंबिकावन</w>
अंबिकासुत</w>
अंबिर
अंबिरथा</w>
अंबु
अंबुक
अंबुकेशी</w>
अंबुक्रिया</w>
अंबुग</w>
अंबुचर</w>
अंबुज
अंबुत
अंबुतस्कर</w>
अंबुताल</w>
अंबुधर/M</w>
अंबुधि</w>
अंबुनिधि/PQ</w>
अंबुप/M</w>
अंबुपात</w>
अंबुप्रवाह</w>
अंबुमती</w>
अंबुमात्र
अंबुमात्रज</w>
अंबुर</w>
अंबुराज</w>
अंबुराशि</w>
अंबुरु
अंबुरुह</w>
अंबुवहन</w>
अंबुवाह
अंबुवाहिका</w>
अंबुवाहिनी</w>
अंबुवे
अंबुवेतस</w>
अंबुशायी</w>
अंबे
अंबेडकर</w>
अंबोज/M</w>
अंभ
अंभस</w>
अंभी
अंभीत्र
अंभीत्राइ
अंभीत्राइती</w>
अंभो
अंभो-</w>
अंभोज
अंभोज/M</w>
अंभोधर</w>
अंभोराशि</w>
अंर्त
अंर्तगत/M</w>
अंश
अंश-वि
अंश-विभाजन</w>
अंशकालीन</w>
अंशत/F</w>
अंशतः
अंशद
अंशदाता/K</w>
अंशधर/M</w>
अंशधारी</w>
अंशपूर्ण</w>
अंशभाग
अंशभाग/E</w>
अंशमे
अंशमेख
अंशमेखला</w>
अंशयुक्त/sT</w>
अंशल</w>
अंशहीन/sT</w>
अंशां
अंशांक/M</w>
अंशाक</w>
अंशात्मक</w>
अंशाधिकार/E</w>
अंशापन/M</w>
अंशीय/sT</w>
अंशु
अंशु/M</w>
अंशुक/M</w>
अंशुम
अंशुमती</w>
अंशुमान/M</w>
अंशुमाल
अंशुमाला/IGC</w>
अंशुमाली/OM</w>
अंशुल</w>
अंशोद्ध
अंशोद्धरण</w>
अंस
अंसख
अंसख्यता</w>
अंसत्र</w>
अंसपूर्ति</w>
अंसब</w>
अंसभ
अंसभारिक</w>
अंसल</w>
अंसार
अंसार/ME</w>
अंह
अंहति</w>
अंज़</w>
अंड़
अंड़ग
अंड़गेबाज़
अंड़गेबाज़ी</w>
अइस</w>
अई
अईमु
अईमुई</w>
अउ
अउन्नत</w>
अऊ
अऊठ
अऊठा</w>
अक
अकंप
अकंपित/sT</w>
अकंप्य</w>
अककल</w>
अकच
अकचक
अकचकाना</w>
अकज</w>
अकठ
अकठिक
अकठिकठ
अकठिकठिन</w>
अकठिन
अकठिन/sT</w>
अकठिनकरण</w>
अकठोर
अकठोर/sT</w>
अकड
अकडकर</w>
अकडना</w>
अकडाना</w>
अकडू</w>
अकण
अकणिकीय</w>
अकण्
अकण्र्य</w>
अकध
अकधक/LM</w>
अकब
अकबक
अकबका
अकबर
अकबरज़
अकबरज़ो
अकबरज़ोला</w>
अकम्
अकम्पाय
अकम्पायमान</w>
अकर
अकरण</w>
अकरम</w>
अकरा
अकर्
अकर्त
अकर्तृ
अकर्तृक/sT</w>
अकर्तृत्व</w>
अकर्तृभाव</w>
अकर्म
अकर्मक/sTM</w>
अकर्मठ
अकर्मठत</w>
अकर्मान
अकर्मान्व
अकर्मान्वित</w>
अकल
अकल-स
अकल-सुरा</w>
अकलख
अकलखुरा</w>
अकलदा
अकलदाढ़
अकलदाढ़/LM</w>
अकलुष
अकलुष-
अकलुष-कलुष</w>
अकल्
अकल्क/sT</w>
अकल्प</w>
अकल्याण
अकल्याणकर</w>
अकसर</w>
अकसरियत</w>
अकसरीयत</w>
अकसी
अकसीर
अकसीर/LM</w>
अकहानी</w>
अका
अकांड
अकांड</w>
अकाउ
अकाउंट
अकाउंटंट</w>
अकाउंटेंट/M</w>
अकाउन
अकाउनटै
अकाउनटैन्ट</w>
अकाट
अकाट</w>
अकाटय</w>
अकाट्यत/F</w>
अकाद
अकादम
अकादमिक</w>
अकादमी/NO</w>
अकाम
अकामदिक</w>
अकाय
अकायत/F</w>
अकार
अकार/M</w>
अकारत</w>
अकाराणु</w>
अकाराद
अकारादिका</w>
अकारादिक्रम</w>
अकारान्त</w>
अकार्
अकार्डियन</w>
अकार्य
अकाल
अकाल-ग्रस्त</w>
अकाल-सु
अकाल-सुकाल/M</w>
अकालत</w>
अकालत्व</w>
अकालप्र
अकालप्रौ
अकालप्रौढ़</w>
अकालमूर्ति</w>
अकालवृद्ध</w>
अकालानुसार
अकालानुसारता</w>
अकाली-
अकाली-भा
अकाली-भाज
अकाली-भाजपा</w>
अकाले
अकालेर</w>
अकालो
अकालोत्
अकालोत्पत्ति</w>
अकालोत्पन्न</w>
अकि
अकिंचन
अकिंचनत/F</w>
अकिंचनत्व</w>
अकित
अकितव</w>
अकीद
अकीदतमंद</w>
अकीदतमन्द</w>
अकीदा/CI</w>
अकीयन</w>
अकीर्
अकु
अकुंचित</w>
अकुत्सित</w>
अकुल
अकुल/FE</w>
अकुलाइयो</w>
अकुश</w>
अकुह</w>
अकुहक</w>
अकू
अकूट
अकूट</w>
अकूटकृत</w>
अकूत/sT</w>
अकृ
अकृच्छ
अकृच्छ्र
अकृच्छ्र/E</w>
अकृत
अकृत-</w>
अकृतबुद्धि</w>
अकृति</w>
अकृष
अकृषिक</w>
अकृष्ण</w>
अके
अकेल
अकेलापन/M</w>
अकेलेपन</w>
अकै
अकैड
अकैडमि
अकैडमिशन</w>
अकैडमी</w>
अकैत
अकैतव</w>
अकैप्
अकैप्निया
अकैप्निया-संबंधी</w>
अकैप्निया</w>
अकैय
अकैया/CI</w>
अको
अकोड
अकोडबद्ध</w>
अकोना
अकोनाइ</w>
अकोर/E</w>
अकोल
अकोलाह
अकोलाहल</w>
अकौ
अकौमा
अकौमार्य</w>
अकौवन</w>
अकौवा</w>
अक्
अक्कल
अक्कल-बार</w>
अक्कलकोट</w>
अक्कलबार</w>
अक्का
अक्काद
अक्कादियन</w>
अक्कादी</w>
अक्ख
अक्ख/FE</w>
अक्खड़/sTM</w>
अक्ट
अक्टू
अक्त
अक्ता
अक्ताउ</w>
अक्ति</w>
अक्तू
अक्तूबर</w>
अक्र
अक्रम
अक्रमतः</w>
अक्रर्</w>
अक्रान्त</w>
अक्रिय
अक्रियकरण</w>
अक्रियात्म
अक्रियात्मक/sT</w>
अक्रीदत</w>
अक्रीदतमंद</w>
अक्ल
अक्लमंद/E</w>
अक्लांत
अक्लांत/sT</w>
अक्लि
अक्लिष्ट</w>
अक्ष
अक्ष/sTM</w>
अक्षक
अक्षक</w>
अक्षकर्
अक्षकर्ण/M</w>
अक्षकीलक</w>
अक्षजनीय</w>
अक्षत
अक्षतवी
अक्षतवीर्य/M</w>
अक्षद
अक्षदण्ड</w>
अक्षदर्श
अक्षदर्शक/M</w>
अक्षदेव
अक्षदेवी</w>
अक्षध
अक्षधुर/M</w>
अक्षन
अक्षनति</w>
अक्षनि
अक्षनिरीक्षक</w>
अक्षपट
अक्षपटल/M</w>
अक्षपा
अक्षपाटक</w>
अक्षम
अक्षम/sTMF</w>
अक्षमकृत</w>
अक्षमता
अक्षमताग्रस्त</w>
अक्षमा
अक्षमापक/M</w>
अक्षमाल
अक्षमित</w>
अक्षय
अक्षयपात्र/M</w>
अक्षयपुर
अक्षयपुरू
अक्षयपुरूह
अक्षयपुरूहूत</w>
अक्षयलोक/M</w>
अक्षयाल
अक्षयालोक</w>
अक्षर
अक्षर-
अक्षर-यो
अक्षर-योजक</w>
अक्षर-वि
अक्षर-विन्यास</w>
अक्षर-सं
अक्षर-संयोजक/M</w>
अक्षर-संयोजन/M</w>
अक्षर/sTMFE</w>
अक्षरं</w>
अक्षरक्रम
अक्षरक्रम/M</w>
अक्षरचारी</w>
अक्षरजी
अक्षरजीव
अक्षरजीवक</w>
अक्षरजीवीय</w>
अक्षरज्ञ</w>
अक्षरज्ञान/M</w>
अक्षरत
अक्षरतूल
अक्षरतूलिक/F</w>
अक्षरपंक्ति</w>
अक्षरपठ
अक्षरपठन</w>
अक्षरपाठ
अक्षरपाठित्र</w>
अक्षरपूजा</w>
अक्षरमाल
अक्षरमाला/CI</w>
अक्षरमुख</w>
अक्षरयोजन/M</w>
अक्षरवाला</w>
अक्षरशः</w>
अक्षरशीर्ष</w>
अक्षरा
अक्षरांक</w>
अक्षरारंभ
अक्षरारंभ/ME</w>
अक्षराली</w>
अक्षरेख
अक्षरेखा/JK</w>
अक्षरौटी</w>
अक्षर्य</w>
अक्षला
अक्षलाग्र</w>
अक्षलिक</w>
अक्षसू
अक्षसूत्र</w>
अक्षहीन</w>
अक्षा
अक्षांत
अक्षांत</w>
अक्षांतर/M</w>
अक्षांतरीय</w>
अक्षांश
अक्षांश-देश
अक्षांश-देशांश</w>
अक्षांश/M</w>
अक्षांशवृत्त/M</w>
अक्षांशीय</w>
अक्षारीय</w>
अक्षि
अक्षिक
अक्षिकोट
अक्षिकोटर</w>
अक्षिगु
अक्षिगुहिका</w>
अक्षिगोल</w>
अक्षिचेता</w>
अक्षित
अक्षितारा</w>
अक्षिद</w>
अक्षिदोलन</w>
अक्षिप
अक्षी
अक्षीण</w>
अक्षीय
अक्षीयम</w>
अक्षीयमीय</w>
अक्षीव/M</w>
अक्षु
अक्षुण्
अक्षुण्ण
अक्षुण्णत/F</w>
अक्षुद्र
अक्षुद्र/M</w>
अक्षुब्ध</w>
अक्षुर</w>
अक्षे
अक्षेम
अक्षेमकर</w>
अक्षो
अक्षोन्मुख</w>
अक्षोभ</w>
अक्षौह
अक्सरियत</w>
अक्सरीयत</w>
अकड़
अकड़त
अकड़तकड़</w>
अकड़ाहट</w>
अख
अखं
अखंड
अखंडयोनि</w>
अखंडयोनित्व</w>
अखंड़
अखंड़न</w>
अखचित</w>
अखण्ड
अखय
अखय-
अखय-तीज</w>
अखयतीज</w>
अखरोट/M</w>
अखर्व</w>
अखसत</w>
अखाड़
अखित</w>
अखिल
अखिलत/F</w>
अखिलदेश
अखिलदेशस्तरीय</w>
अखिलेश/M</w>
अखीर</w>
अखुट
अखेट
अखेट</w>
अखौ
अखौट
अखौट/FDM</w>
अख्त
अख्य
अख्यति</w>
अखड़
अग
अगंड/M</w>
अगज
अगजग</w>
अगट
अगठ
अगठित</w>
अगड</w>
अगण
अगती
अगद
अगदं
अगदंकर/sT</w>
अगम
अगमन
अगमन</w>
अगमनीय/F</w>
अगमार्
अगमार्क</w>
अगम्य
अगम्या
अगम्यागामी</w>
अगर
अगर/MFE</w>
अगरब
अगरबत्त
अगरबत्ती/NO</w>
अगरसार</w>
अगरा/GB</w>
अगराना</w>
अगरू
अगरूब
अगरूबत्ती</w>
अगर्
अगर्व</w>
अगर्हा</w>
अगल
अगल-बग
अगल-बगल</w>
अगल्म
अगल्मा/IC</w>
अगव
अगवा
अगवाँ
अगवाँसी</w>
अगवाडा</w>
अगवान/ME</w>
अगस्त
अगस्त/M</w>
अगस्त्य
अगस्त्यगी
अगस्त्यगीता</w>
अगह
अगह</w>
अगहनिया</w>
अगा
अगाऊपन</w>
अगात्र</w>
अगाध
अगाल</w>
अगाड़
अगाड़ीपन</w>
अगि
अगिआ</w>
अगिआना</w>
अगिन
अगिनब
अगिनबान</w>
अगिनबोट</w>
अगिय
अगिया
अगियार/EM</w>
अगियावे
अगियावेताल</w>
अगिर
अगीठ
अगीठा</w>
अगु
अगुआई
अगुआई/O</w>
अगुण
अगुणवादी</w>
अगुणशील</w>
अगुता/734sTv</w>
अगुताइयो</w>
अगुर
अगुरु</w>
अगुरू</w>
अगुवाइयो</w>
अगू
अगूटी</w>
अगूढ</w>
अगूढ़
अगूढ़व्यंग
अगूढ़व्यंग्य
अगूढ़व्यंग्य/FDM</w>
अगेत
अगेती</w>
अगेन्
अगेन्स
अगेन्सट</w>
अगेह
अगेह/FsT</w>
अगेहिनी</w>
अगो
अगोट
अगोट/8ED34sTv</w>
अगोटियो</w>
अगोप
अगोप्य</w>
अगोर
अगोह
अगोह्य</w>
अगौ
अगौर
अगौरव/sT</w>
अग्
अग्न
अग्नय
अग्नयु
अग्नयुत्
अग्नयुत्पात</w>
अग्ना
अग्नि
अग्नि-
अग्नि-</w>
अग्नि-उ
अग्नि-उल्
अग्नि-उल्का</w>
अग्नि-द
अग्नि-दाह</w>
अग्नि-वृष्टि</w>
अग्नि/U
अग्नि/UQM</w>
अग्निक
अग्निका
अग्निकाण्ड</w>
अग्निकु
अग्निको
अग्निगार</w>
अग्निचक्र/M</w>
अग्निज</w>
अग्निजीवी</w>
अग्नित्र
अग्नित्रय</w>
अग्निद
अग्निदमनी</w>
अग्निदहन</w>
अग्निदी
अग्निदूत</w>
अग्निधार
अग्निनि
अग्निनिरोधी</w>
अग्निप
अग्निपरीक्ष
अग्निपरीक्षा/IC</w>
अग्निप्र
अग्निप्रणयन</w>
अग्निबा
अग्निबाण/M</w>
अग्निबाव</w>
अग्निभ
अग्निभीति</w>
अग्निभू</w>
अग्निम
अग्निमंथ
अग्निमंथ/F</w>
अग्निमथ</w>
अग्निमन्
अग्निमन्थन</w>
अग्निमुख</w>
अग्निमृत्यु</w>
अग्निय
अग्नियह</w>
अग्निरस</w>
अग्निरोधक</w>
अग्निवर्ण</w>
अग्निश
अग्निशर्
अग्निशर्मा</w>
अग्निशस्त्र</w>
अग्निशाम
अग्निशामित्र</w>
अग्निशाल
अग्निशाला/JK</w>
अग्निशिख
अग्निशिख/FDM</w>
अग्निशेखर</w>
अग्निष्ट
अग्निस
अग्निसं
अग्निसंकेत</w>
अग्निसंभव</w>
अग्निसा
अग्निसात</w>
अग्निसात्</w>
अग्नीधर</w>
अग्नीध्र</w>
अग्न्य
अग्न्यगार</w>
अग्न्या
अग्न्यागार</w>
अग्न्यायु
अग्न्यायुध/M</w>
अग्न्यालय</w>
अग्न्याशय
अग्न्याशय/EM</w>
अग्या
अग्यात</w>
अग्यार</w>
अग्र
अग्र-</w>
अग्रंथ</w>
अग्रक
अग्रकर</w>
अग्रकियता</w>
अग्रकूप</w>
अग्रकेश</w>
अग्रक्र
अग्रक्रय</w>
अग्रक्षेत्र</w>
अग्रग
अग्रगण
अग्रगत</w>
अग्रगमन/M</w>
अग्रगामी</w>
अग्रचारी</w>
अग्रजन्
अग्रजन्म
अग्रजन्म/FEsT</w>
अग्रजात
अग्रजात/sTF</w>
अग्रजाति</w>
अग्रणी</w>
अग्रत
अग्रतट</w>
अग्रतम</w>
अग्रता
अग्रता-क्रम</w>
अग्रथित</w>
अग्रद
अग्रदत्त</w>
अग्रदीप/M</w>
अग्रदू
अग्रदूत/M</w>
अग्रनिर्माण</w>
अग्रपंक्ति</w>
अग्रपू
अग्रपूज्य</w>
अग्रप्र
अग्रप्रेष
अग्रभू
अग्रम
अग्रमंच</w>
अग्रमस्ति
अग्रमस्तिष्क</w>
अग्रयान</w>
अग्रयो
अग्रयोद्घ
अग्रयोद्घा</w>
अग्रलेख/M</w>
अग्रवन</w>
अग्रवर्ति
अग्रवर्तिता</w>
अग्रवा
अग्रवाल/M</w>
अग्रश</w>
अग्रस
अग्रसं
अग्रसंकेत</w>
अग्रसंग
अग्रसंगत/sT</w>
अग्रसक्र
अग्रसक्रिय/sT</w>
अग्रसर
अग्रसर/sTM</w>
अग्रसरित</w>
अग्रसार
अग्रसारक</w>
अग्रसारी</w>
अग्रसृत</w>
अग्रस्थान</w>
अग्रह
अग्रांचल</w>
अग्रांतर</w>
अग्रांश
अग्रांशु</w>
अग्रान
अग्रानीत/M</w>
अग्राशन/M</w>
अग्रासन/M</w>
अग्राह
अग्रिका</w>
अग्रिणी</w>
अग्रिम
अग्रिमतम</w>
अग्रिय</w>
अग्री
अग्रीम
अग्रीमेंट</w>
अग्रीमेन्ट</w>
अग्रु</w>
अग्रे
अग्रेज
अग्रेजों</w>
अग्रेतर</w>
अग्रेष
अग्रेषक</w>
अग्रेसर
अग्रेसरिक</w>
अग्र्य</w>
अगड़
अगड़ध
अगड़म
अगड़मबग
अगड़मबगड़म</w>
अगढ़
अगढ़</w>
अघ
अघघ्न</w>
अघट
अघटनीयत/F</w>
अघनाशन</w>
अघम</w>
अघर्म/sT</w>
अघविष</w>
अघशंस</w>
अघा/734sTvG</w>
अघायापन</w>
अघिक</w>
अघिक्षिप्त</w>
अघिया/734sTv</w>
अघिष्ठ
अघिष्ठापन</w>
अघुल
अघुलनशील</w>
अघोर
अघोरपंथ
अघोरपंथ/ME</w>
अघोरपन/F</w>
अघौड़ी</w>
अघ्य
अघ्रा
अघ्राण/sT</w>
अघ्रिप</w>
अघ्र्य</w>
अच
अचं
अचंच
अचंचल/sT</w>
अचंभ
अचंभव</w>
अचंभा/CI
अचंभा/CIB</w>
अचक
अचकच
अचकचाइयो</w>
अचकचाया</w>
अचकन
अचकन/LM</w>
अचत
अचपं
अचपंली</w>
अचपल
अचपल/FEsT</w>
अचभौ
अचभौन</w>
अचम्
अचम्भ
अचम्भा/CB</w>
अचर
अचरज
अचरम</w>
अचल
अचलकीला</w>
अचलद्विट</w>
अचलद्वेष
अचलद्वेषी</w>
अचलध
अचलधृ
अचलधृष</w>
अचलराज</w>
अचलराशि</w>
अचलसुता</w>
अचव
अचव/348sTvFED</w>
अचान
अचानक/M</w>
अचानचक</w>
अचार
अचारु</w>
अचाल
अचालक</w>
अचि
अचिंत
अचिंतनीय/sT</w>
अचित
अचित</w>
अचितवन</w>
अचित्र</w>
अचिर
अचिरा
अचिराभा</w>
अचीर</w>
अचु
अचुंब
अचेत
अचेतत/F</w>
अचेतन
अचेतनक/M</w>
अचेतावस्था</w>
अचेष्ट
अचेष्टितत</w>
अचै
अच्
अच्छ
अच्छत</w>
अच्छर/FE</w>
अच्छा
अच्छा-
अच्छा-ब
अच्छा-बुरा</w>
अच्छा-मह
अच्छा-महंगा</w>
अच्छाइ
अच्छाइयो
अच्छाइयों
अच्छाइयों</w>
अच्छाइयोंवाला</w>
अच्छाख
अच्छाखासा</w>
अच्छापन/M</w>
अच्छि
अच्छिद्र
अच्छिद्रकर
अच्छिद्रकरोट
अच्छिद्रकरोटि</w>
अच्छिद्रचंद्र
अच्छिद्रचंद्रक/F</w>
अच्छिद्रिल
अच्छिद्रिल/sT</w>
अच्छिन्न
अच्छे-
अच्छे-अच्छ
अच्छेद
अच्छेद्य/sT</w>
अच्छोटन</w>
अच्छोद
अच्छोद/F</w>
अच्यु
अच्युत
अच्युतपुत्र/ME</w>
अच्युता
अच्युतांग
अच्युतांगज/M</w>
अछ
अछ</w>
अछत
अछतान
अछताना-प
अछताना-पछ
अछताना-पछत
अछताना-पछताना</w>
अछद्म</w>
अछन</w>
अछनि</w>
अछरौटी</w>
अछल</w>
अछि
अछिद्र
अछिद्र</w>
अछिद्रित</w>
अछिन्न</w>
अछिपा
अछिपाव</w>
अछूत
अछूत/FEDsTM</w>
अछूतापन</w>
अज
अजंघ
अजंघ</w>
अजक
अजकाव</w>
अजग
अजग</w>
अजगंध
अजगंधा</w>
अजगन्ध
अजगर/EM</w>
अजटा</w>
अजतन</w>
अजथ्या</w>
अजन
अजनब
अजनबियों</w>
अजनबीयत</w>
अजन्
अजप
अजप/MFD</w>
अजपथ</w>
अजब</w>
अजबंधु</w>
अजम
अजमानतीय</w>
अजमुख/M</w>
अजमेर
अजमेरशरी
अजमेरशरीफ</w>
अजमेरशरीफ़</w>
अजमोद
अजमोला</w>
अजरबैजान
अजरा
अजराल</w>
अजर्य
अजर्यत/F</w>
अजल/M</w>
अजवा
अजवायन
अजवायन/LM</w>
अजवीथी</w>
अजह
अजहा</w>
अजहू
अजहूँ</w>
अजा
अजांब
अजांबिका</w>
अजाग
अजागरु
अजागरुक</w>
अजागरू
अजागरूक</w>
अजाजी
अजाजीव</w>
अजात
अजात/EM</w>
अजातरि
अजातरिपु</w>
अजातश्
अजातश्म
अजातश्मश्र
अजातश्मश्रू</w>
अजातारि</w>
अजान
अजान/FEDsTM</w>
अजाप
अजाप्रिया</w>
अजाब
अजाबलि</w>
अजाभक्ष</w>
अजाम
अजामृ
अजामृग</w>
अजामेध</w>
अजायब
अजायबखाना</w>
अजार</w>
अजाश्व</w>
अजि
अजिऔ
अजिऔरा</w>
अजिज्ञ
अजित
अजित/sTM</w>
अजितप्रिय</w>
अजिन
अजिनपत्र
अजिनपत्रिका</w>
अजिनपत्री</w>
अजिपाद</w>
अजिर
अजिर/FM</w>
अजिह्म</w>
अजिह्व</w>
अजी
अजीज</w>
अजीत
अजीतगढ़</w>
अजीब
अजीबतर
अजीबतरीन</w>
अजीबोगरीब</w>
अजीम</w>
अजीमत</w>
अजीर
अजीरन</w>
अजीर्ण
अजीर्णहर</w>
अजीव
अजीव/sTM</w>
अजु
अजुष्टि</w>
अजुड़ा</w>
अजेन्
अजेन्डा</w>
अजेश</w>
अजै
अजैव
अजैव्मा</w>
अजो
अजोत-
अजोत-भूमि</w>
अज्
अज्ज
अज्जका</w>
अज्जु
अज्जुका</w>
अज्झ
अज्ञ
अज्ञत/F</w>
अज्ञात
अज्ञातक</w>
अज्ञातजन
अज्ञातजन-भ
अज्ञातजन-भीर
अज्ञातजन-भीरु</w>
अज्ञातजन</w>
अज्ञातना
अज्ञातपूर्
अज्ञातपूर्व/sT</w>
अज्ञातपूर्वर्
अज्ञातपूर्वर्</w>
अज्ञातलोक</w>
अज्ञातवास
अज्ञातवास/ME</w>
अज्ञान
अज्ञानतावश</w>
अज्ञानपन</w>
अज्ञानवश</w>
अज्ञानहीन</w>
अज्ञानांध
अज्ञानांधकार</w>
अज्ञानावस्था</w>
अज्ञेय
अज्ञेयवाद/EM</w>
अजग़
अजग़ैबी</w>
अजज़ा</w>
अजड़
अजड़/sTF</w>
अट
अट-स
अट-सट</w>
अटक
अटक/34
अटक/34s8Tv
अटक/34s8TvLMFED</w>
अटकन
अटकल
अटकल-प
अटकल-पच्चू</w>
अटकलप
अटकलपच्चू</w>
अटका
अटका/7AIGCB34sTv</w>
अटकाया/C</w>
अटकाव/MD</w>
अटकियो</w>
अटकृमि</w>
अटख
अटखट</w>
अटट
अटटोल</w>
अटन/MFED</w>
अटपट
अटपटा/G
अटपटा/G7
अटपटा/G734sTv</w>
अटर
अटरंड
अटरंडम</w>
अटरिया</w>
अटल
अटलत/F</w>
अटला
अटलां
अटलाण्
अटलाण्टिक</w>
अटलै
अटलैंट
अटलैंटिक</w>
अटवा
अटवाइयो</w>
अटवाटी</w>
अटविक</w>
अटहर</w>
अटाइयो</w>
अटाट
अटाट्या</w>
अटार
अटारियों</w>
अटारी/54sTv</w>
अटाल
अटावे
अटावेउ</w>
अटिक
अटिको
अटिकोकान</w>
अटूट
अटे
अटेंड
अटेंड/M</w>
अटेंडंट</w>
अटेंडेंस</w>
अटेस्ट
अटेस्टेड</w>
अटै
अटैक्
अटैक्सिया</w>
अटैच
अटैचमेंट</w>
अटैच्
अटैच्ड</w>
अटैन
अटैनड
अटैनडैंट</w>
अटॉर्
अटॉर्नी</w>
अट्
अट्ट
अट्टक/M</w>
अट्टन</w>
अट्टम</w>
अट्टस
अट्टसट्ट/M</w>
अट्टहास
अट्टहासपूर्वक</w>
अट्टाल
अट्ठ
अट्ठाइ
अट्ठाइस/H</w>
अट्ठाई
अट्ठाईस</w>
अट्ठाईसवाँ</w>
अट्ठानवे</w>
अट्या</w>
अठ
अठई
अठई</w>
अठईं</w>
अठक
अठकौ
अठकौसल</w>
अठख
अठखेल
अठखेल/E</w>
अठन्न
अठप
अठपह
अठपहल
अठपहला/GC</w>
अठभु
अठभुज/F</w>
अठमास
अठमासा/IGC</w>
अठरीय</w>
अठल
अठला/734sTv</w>
अठवा
अठवाडे</w>
अठवाली</w>
अठवाड़ा/C</w>
अठह
अठहत्त
अठहत्तर
अठहत्तर/H</w>
अठाइ
अठाइयो</w>
अठाइसवाँ</w>
अठाई
अठाईस/H</w>
अठान
अठानबे</w>
अठारह
अठारह/H</w>
अठासी
अठासीवाँ</w>
अठेल</w>
अठो
अठोतर/E</w>
अड
अडंगे
अडंड</w>
अडक</w>
अडग</w>
अडचन</w>
अडना</w>
अडल्
अडल्ट
अडल्ट</w>
अडल्टर
अडल्टरेशन</w>
अडाब</w>
अडि
अडिग
अडिगत/F</w>
अडिगपन</w>
अडिशन
अडिशनल</w>
अडॉ
अडॉल्
अडॉल्फ</w>
अडो
अडोबी</w>
अड्
अड्ड
अड्डन</w>
अड्डे
अड्डेपर</w>
अड्डेबाज/E</w>
अढ
अढै</w>
अढैया</w>
अण
अणु
अणु-विद्य
अणु-विद्युत</w>
अणुक
अणुकणिका</w>
अणुकथा</w>
अणुक्रमा
अणुक्रमांक</w>
अणुजीव
अणुजै
अणुजैविक
अणुजैविकी
अणुजैविकीविद</w>
अणुत्व</w>
अणुद्र
अणुद्रुत</w>
अणुब
अणुबम/M</w>
अणुभा</w>
अणुल</w>
अणुव
अणुवत्त</w>
अणुव्र
अणुव्री
अणुव्रीह
अणुव्रीहि</w>
अणो
अणोर्द</w>
अण्ड
अण्डको
अण्डकोश
अण्डकोश</w>
अण्डकोशयुक्त</w>
अण्डन
अण्डनिक्षे
अण्डनिक्षेपक</w>
अण्डमान/E</w>
अण्डव
अण्डवक्र</w>
अण्डा
अण्डाकार</w>
अण्डाभ</w>
अण्डाश
अण्डाशयश
अण्डाशयशोध</w>
अण्डोत्सर्ग</w>
अत
अतं
अतं</w>
अतंद्र
अतंद्र/FEsT</w>
अतंरह
अतंरही
अतंरहीन/M</w>
अतंरीप</w>
अतंर्
अतंर्मुखी</w>
अतंश्चेतना</w>
अतंस्</w>
अतः
अतःपर
अतःपरम</w>
अतट</w>
अतत्त
अतत्ताही</w>
अतथ
अतद्
अतनु</w>
अतमा</w>
अतर
अतरंग
अतरंगित</w>
अतरौटा</w>
अतर्क
अतर्कबुद्ध
अतर्कबुद्धि
अतर्कबुद्धिवाद</w>
अतर्कसंगत</w>
अतल
अतलांत
अतलांतिक
अतलांतिकपार
अतलांतिकपारीय</w>
अताना</w>
अताप
अताप/EsT</w>
अतापरूपण</w>
अताब
अताबख़
अताबख़्
अताबख़्श</w>
अताल
अतालिया</w>
अताली
अतालीक़</w>
अति
अति-
अति-आधुन
अति-आधुनिक</w>
अति-उ
अति-उत्स
अति-उत्साही</w>
अति-दु
अति-दुष्ट</w>
अति-ध
अति-धो
अति-धोखा
अति-धोखा-दायक</w>
अति-श
अति-शोषण</w>
अतिकाल</w>
अतिक्र
अतिक्रमण
अतिक्रमणकारी</w>
अतिक्रमणपूर्ण</w>
अतिक्रांत
अतिक्रांत/sTF</w>
अतिक्रामी</w>
अतिग
अतिघ</w>
अतिच
अतिचंडा</w>
अतिजीव
अतिजीवित/F</w>
अतित
अतितरा
अतितराभावी</w>
अतिथ</w>
अतिथि
अतिथि-गृह</w>
अतिथि-प
अतिथि-पूजा</w>
अतिथि-भवन</w>
अतिथि-स
अतिथिगृह/M</w>
अतिथित्व/M</w>
अतिथिभवन</w>
अतिथिशाला/JK</w>
अतिदान</w>
अतिदु
अतिदुष्ट</w>
अतिध
अतिनिद्र</w>
अतिपा
अतिपातक</w>
अतिप्र
अतिप्रिय</w>
अतिभोग
अतिभोगिता</w>
अतिर
अतिरंज
अतिरंजना
अतिरंजनावाद</w>
अतिरिक्
अतिरिक्ताय
अतिरिक्तायामी</w>
अतिरे
अतिरेक
अतिरेक/ME</w>
अतिरेकपूर्ण</w>
अतिलो
अतिलोलु
अतिलोलुप</w>
अतिवानी</w>
अतिशय
अतिशय/sTME</w>
अतिशयो
अतिशयोक्त</w>
अतिशयोक्ति
अतिशयोक्तियाँ</w>
अतिशी
अतिशीघ
अतिशीघ्र/sT</w>
अतिशीत</w>
अतिश्र
अतिश्रान्त</w>
अतिस
अतिसह
अतिसहजित</w>
अतिसार
अतिसार/E</w>
अतिसारकी</w>
अतिस्वनगामी</w>
अतिह
अतिहस
अतिहसित/M</w>
अती
अतींद्र
अतींद्रिय/M</w>
अतीत
अतीत/sTM</w>
अतीतगत</w>
अतीतवाद
अतीतवादवि
अतीतवादविरोधी</w>
अतीति</w>
अतीन्द्र
अतीन्द्रियवाद</w>
अतीब</w>
अतु
अतुंग/sT</w>
अतुंद
अतुंद/sT</w>
अतुक
अतुकान्त
अतुकान्त-त
अतुकान्त-तुक
अतुकान्त-तुकान्त</w>
अतुल
अतुलत/F</w>
अतुलितत/F</w>
अतुष्ट
अतृ
अतेव</w>
अतोल</w>
अत्
अत्त
अत्तवार</w>
अत्ताब
अत्ताबिया</w>
अत्म
अत्मनि</w>
अत्मोप
अत्मोपजीवी</w>
अत्य
अत्यंत
अत्यंत/sTM</w>
अत्यंता
अत्यंताभाव/M</w>
अत्यंतिक/sT</w>
अत्यध्
अत्यध्कि</w>
अत्यन्त
अत्यन्त/sTM</w>
अत्यभि
अत्यल्प
अत्यल्पत/F</w>
अत्या
अत्याकर्ष
अत्याकर्षक</w>
अत्याकलन</w>
अत्याकलित</w>
अत्याग/E</w>
अत्याग्रह</w>
अत्याचार
अत्याचारप्रिय/sT</w>
अत्याध
अत्याधुन
अत्याधुनिक</w>
अत्यान
अत्याल
अत्यालं
अत्यालंकृत</w>
अत्यालो
अत्यालोची</w>
अत्याव
अत्यावश्
अत्यावश्कता</w>
अत्याहार
अत्याहार/ME</w>
अत्यु
अत्युग्र
अत्युग्र/M</w>
अत्युच्च
अत्युच्च/sT</w>
अत्युत्
अत्युत्सुक</w>
अत्युप
अत्युपलब्धि</w>
अत्युल्ल
अत्युल्लास</w>
अत्यू
अत्यूह/M</w>
अत्र
अत्रदान</w>
अत्रस्त</w>
अत्रि
अत्रिज</w>
अथ
अथ-इ
अथ-इति</w>
अथ/M</w>
अथकन</w>
अथकान</w>
अथर्थ
अथर्थवेद</w>
अथर्व
अथर्व-शि
अथर्व-शिख
अथर्व-शिखोपनिषद्</w>
अथर्व-शिरोप
अथर्व-शिरोपनिष
अथर्ववेद
अथर्ववेदीय</w>
अथव
अथव/MFD</w>
अथशेष</w>
अथाई/O</w>
अथाप
अथापा
अथापास्
अथापास्काव</w>
अथार
अथारि
अथॉ
अथॉर
अथॉरटी</w>
अद
अदंत
अदंत/M</w>
अदंत्य/sT</w>
अदग</w>
अदग्ध</w>
अदण्ड
अदण्डनीय</w>
अदत्त
अदद/M</w>
अदब
अदबकार</w>
अदबद
अदबदाइयो</w>
अदम
अदमताम
अदमतामील/LM</w>
अदमप
अदमपैर
अदमपैरवी</w>
अदर
अदराइयो</w>
अदल
अदलब
अदलबदल</w>
अदली-
अदली-ब
अदली-बद
अदली-बदली</w>
अदवात</w>
अदह</w>
अदा
अदाँ
अदाँत</w>
अदाकर्त्ता</w>
अदातव्य</w>
अदाय
अदायग
अदायगियों</w>
अदायगी</w>
अदायित्व</w>
अदार</w>
अदाल
अदालत
अदालत/MED</w>
अदालय</w>
अदाव
अदावतन</w>
अदाह
अदाह्य</w>
अदि
अदिन/M</w>
अदिव्य
अदिव्य/F</w>
अदी
अदीखा</w>
अदीना
अदीनात्मा</w>
अदीब
अदीब/EM</w>
अदीम</w>
अदीर्घ</w>
अदीस</w>
अदूर
अदूरदर्शक</w>
अदूषण</w>
अदृ
अदृश्य
अदृश्यकरण</w>
अदृश्यदर्शन/M</w>
अदृश्यमान</w>
अदृष्ट
अदृष्ट/M</w>
अदृष्टलिपि</w>
अदृष्टवाद/M</w>
अदेख
अदेखा/G</w>
अदेव
अदेव/sT</w>
अदेह
अदेह/sTM</w>
अदै
अदैह
अदैहिक/sT</w>
अदोष
अद्
अद्घ
अद्घम</w>
अद्ध
अद्धाख
अद्धाखल
अद्धाखलासी</w>
अद्न</w>
अद्भु
अद्भुत
अद्म
अद्मनि</w>
अद्य
अद्यतन
अद्यनि</w>
अद्यप
अद्यपि</w>
अद्यपूर्व</w>
अद्या
अद्यावधिक</w>
अद्र
अद्रव्य
अद्रव्यत</w>
अद्रि
अद्रिक
अद्रिकन्या</w>
अद्रिज/F</w>
अद्रिभि
अद्रिभिद</w>
अद्रिसान
अद्रिसानु</w>
अद्रिसार</w>
अद्रींद्र</w>
अद्रो
अद्र्ध
अद्र्धयायावर</w>
अद्र्य
अद्र्यलय</w>
अद्ल
अद्ल</w>
अद्लपर
अद्लपरवर</w>
अद्व
अद्वय
अद्वय/M</w>
अद्वार</w>
अद्वि
अद्वेष
अद्वेषपूर्ण</w>
अद्वै
अद्वैत
अद्वैतब्रह्म</w>
अद्वैतिक</w>
अद्‌
अद्‌भ
अद्‌भुत</w>
अध
अध-</w>
अध-पका</w>
अधः
अधः</w>
अधःचेत
अधःचेतक</w>
अधःपुष्पी</w>
अधःवाचक</w>
अधःशयन</w>
अधःस्वस्त
अधःस्वस्तिक/M</w>
अधक
अधकच्च
अधकच्चा/G</w>
अधकर/E</w>
अधख
अधग
अधज
अधन्न
अधन्ना/IGC</w>
अधप
अधपक
अधपका/GCI</w>
अधपि
अधफर</w>
अधब
अधबटाई</w>
अधबय
अधबयसू</w>
अधबर</w>
अधबु
अधबुध</w>
अधबूढ़
अधबूढ़ा</w>
अधभ
अधभी
अधभीगा</w>
अधम
अधमजन</w>
अधमरा/G</w>
अधमर्
अधमर्ण</w>
अधमा
अधमा-
अधमा-नाय
अधमा-नायिका</w>
अधमु
अधमुँ
अधमुँदा/G</w>
अधमुआ</w>
अधर
अधर-बि
अधर/sTMFE</w>
अधरज</w>
अधरबि
अधरम
अधरमध
अधरमधु</w>
अधरसु
अधरसुधा</w>
अधरा
अधरांग
अधरांगघात</w>
अधरात</w>
अधरामृत</w>
अधरास्त
अधरास्ता/C</w>
अधराह</w>
अधरिका</w>
अधरीय</w>
अधरो
अधरोत्थ
अधरोत्थक</w>
अधरोत्था</w>
अधरोष्ठ
अधरोष्ठ/M</w>
अधर्
अधर्म
अधर्मपना</w>
अधर्मि
अधर्मिष्ट</w>
अधऱ
अधऱ</w>
अधवारी</w>
अधशिरा</w>
अधश्च
अधश्चर्म
अधश्चर्मीय</w>
अधस
अधसाला</w>
अधसू
अधसूखा</w>
अधस्
अधस्त
अधस्तन</w>
अधस्स्वस्तिक</w>
अधह्
अधह्पतन</w>
अधा
अधातु</w>
अधाना</w>
अधामार्ग</w>
अधार
अधार/E</w>
अधारिया/JK</w>
अधालय</w>
अधि
अधि-
अधि-दिवस</w>
अधिक
अधिक-
अधिक-अंग</w>
अधिक-तिथि</w>
अधिक-दिन</w>
अधिक/F
अधिक/FrsT</w>
अधिकंडक्टर</w>
अधिकतः</w>
अधिकतम
अधिकतम/sTM</w>
अधिकतमकरण</w>
अधिकतापूर्ण</w>
अधिकतिथि</w>
अधिकमान</w>
अधिकर/M</w>
अधिकरण
अधिकरण-सिद्धांत</w>
अधिकरणमंडप</w>
अधिकरणमण्ड
अधिकरणमण्डप</w>
अधिकरणिक</w>
अधिकर्
अधिकर्णिक</w>
अधिकर्म
अधिकर्म/FE</w>
अधिकर्मचारित/F</w>
अधिकश्र
अधिकश्रम</w>
अधिका/734sTv</w>
अधिकांश
अधिकांशतया</w>
अधिकार
अधिकार-
अधिकार-पत्र/M</w>
अधिकार-प्र
अधिकार-प्रदत्त</w>
अधिकार-वि
अधिकार-विरुद्ध</w>
अधिकारक</w>
अधिकारगत</w>
अधिकारच्युत</w>
अधिकारण</w>
अधिकारतः</w>
अधिकारदान</w>
अधिकारना</w>
अधिकारयोग्य</w>
अधिकारर</w>
अधिकारांत
अधिकारांतर्गत</w>
अधिकाराधीन</w>
अधिकारिय/M</w>
अधिकारी
अधिकारी-
अधिकारी-तंत्र</w>
अधिकारी-तन्त्र</w>
अधिकारी/5
अधिकारी/5O4sTv</w>
अधिकारी</w>
अधिकारीप
अधिकारीपेट
अधिकारीपेटेंट</w>
अधिकारीब
अधिकारीबंद
अधिकारीबंदर
अधिकारीबंदरगाह</w>
अधिकारीमान
अधिकारीमानचित्र</w>
अधिकारीर
अधिकारीरजि
अधिकारीरजिस्ट
अधिकारीरजिस्ट्र
अधिकारीरजिस्ट्री</w>
अधिकारीवर्ग</w>
अधिकाल
अधिकाल</w>
अधिकालीन</w>
अधिकाश
अधिकाशंत</w>
अधिकि
अधिकिरीट</w>
अधिकृति</w>
अधिक्र
अधिक्रय/M</w>
अधिक्रिया
अधिक्रियाशील</w>
अधिक्ष
अधिक्षमता</w>
अधिग
अधिगण</w>
अधिगणन</w>
अधिगर्भ</w>
अधिगल</w>
अधिगुण</w>
अधिगृहीत</w>
अधिग्रह
अधिग्रहण
अधिग्रहणीय</w>
अधिचालित</w>
अधिचित्र</w>
अधिचिह्न</w>
अधित
अधितंत
अधितंतुरु
अधितंतुरुजा</w>
अधितंत्र
अधितिथि</w>
अधित्या
अधित्वचा</w>
अधिद
अधिदंड</w>
अधिदत्त</w>
अधिदर्शक</w>
अधिदर्शन</w>
अधिदश्र
अधिदश्रन</w>
अधिदै
अधिदैविक</w>
अधिधार
अधिधारण</w>
अधिधारित</w>
अधिध्व
अधिध्वन
अधिध्वनिक/E</w>
अधिन
अधिनाथ</w>
अधिनाप</w>
अधिनाय
अधिनायक
अधिनायकतंत्र/M</w>
अधिनायकत्व</w>
अधिनायिका/G</w>
अधिनि
अधिनिय
अधिनियम
अधिनियमित/M</w>
अधिनिर्
अधिनिर्ण
अधिनिर्णय/M</w>
अधिनिर्णायक</w>
अधिनिवेश</w>
अधिनिष
अधिप
अधिप/M</w>
अधिपत्य</w>
अधिपुरुष</w>
अधिप्र
अधिप्रचार</w>
अधिप्रमाण
अधिप्रमाणन</w>
अधिप्रमाणिकता</w>
अधिप्रा
अधिप्राणी</w>
अधिबच
अधिबचत</w>
अधिबि
अधिबिंता</w>
अधिभूमि</w>
अधिभोग
अधिभोजन</w>
अधिभौतिक/sT</w>
अधिम
अधिमंथ</w>
अधिमत/M</w>
अधिमा
अधिमांस</w>
अधिमान
अधिमानित</w>
अधिमानुष
अधिमान्य/sT</w>
अधिमित्र</w>
अधिमूर्
अधिमूर्धा</w>
अधिमूल
अधिय
अधिया/7JK34sTv</w>
अधियाइयो</w>
अधियान/FD</w>
अधियार
अधियारिन</w>
अधियो
अधियोक्ता</w>
अधियोजक/M</w>
अधियोध/M</w>
अधिर
अधिरंत
अधिरंतन</w>
अधिरथ
अधिरा
अधिराज्य</w>
अधिरु
अधिरुढ़</w>
अधिरो
अधिरोपित</w>
अधिरोह
अधिल
अधिलंघ
अधिलंघक</w>
अधिलाभ
अधिलाभांश
अधिलाभांश/M</w>
अधिव
अधिवय
अधिवयस्क/sT</w>
अधिवर्ण</w>
अधिवर्ष/M</w>
अधिवाचक</w>
अधिवाचन</w>
अधिवानर</w>
अधिवास
अधिवास/ME</w>
अधिवासन/M</w>
अधिवासियों</w>
अधिवी
अधिवृक्
अधिवृक्कीय</w>
अधिवृत्ति</w>
अधिवेद</w>
अधिवेश
अधिश
अधिशयन</w>
अधिशायी</w>
अधिशीत
अधिशीतलन</w>
अधिशुल्
अधिशुल्क/M</w>
अधिशेष/M</w>
अधिश्र
अधिश्रय
अधिश्रय</w>
अधिश्रयण/E</w>
अधिश्ल
अधिश्लिष्ट</w>
अधिष्ठ
अधिष्ठान
अधिष्ठान/M</w>
अधिष्ठानं</w>
अधिष्ठाप
अधिष्ठापन/MF</w>
अधिष्य
अधिष्यंद</w>
अधिसं
अधिसंकु
अधिसंकुचन</w>
अधिसूच
अधिसूचना
अधिसूचनाएं</w>
अधिस्त्र
अधिस्त्राव</w>
अधिस्थ
अधिस्थग
अधिस्थगन</w>
अधिस्थगित</w>
अधिस्थित</w>
अधिस्फोट
अधिस्फोट</w>
अधिस्फोटित</w>
अधिस्वन</w>
अधिस्वा
अधिस्वामि
अधिस्वामित्व</w>
अधिह
अधी
अधीक्ष
अधीक्षक
अधीक्षक/M</w>
अधीक्षकमुद्रण</w>
अधीक्षकयंत्र</w>
अधीक्षकहि
अधीक्षकहिंदी</w>
अधीन
अधीनस्थ
अधीर
अधीवास</w>
अधीश्वर
अधीष्ट</w>
अधु
अधुन
अधुना
अधुना/
अधुना/r
अधुना/r</w>
अधुनातन
अधुनातन-पुरा
अधुनातन-पुरातन</w>
अधू
अधूम
अधूम</w>
अधूरा
अधूरापन/M</w>
अधृतत</w>
अधे
अधेंदु</w>
अधेड</w>
अधेसि
अधेसिव</w>
अधेड़
अधो
अधोंश
अधोंशुक</w>
अधोकथ
अधोकथितत</w>
अधोकर्ष
अधोकर्ष</w>
अधोकर्षक</w>
अधोकर्षण</w>
अधोका
अधोकाष्ठ/F</w>
अधोकृ
अधोकृष्ट</w>
अधोक्ष
अधोक्षिप्त</w>
अधोक्षेप</w>
अधोगत
अधोगत/E</w>
अधोघ
अधोचर्म
अधोचर्मीय</w>
अधोत्वक</w>
अधोदिशा</w>
अधोनयन</w>
अधोनिलय</w>
अधोन्
अधोन्मुख</w>
अधोप
अधोपतन
अधोपतन</w>
अधोपतनकारी</w>
अधोपरिधान</w>
अधोपा
अधोबिंदु</w>
अधोभाग/M</w>
अधोभु
अधोभुवन</w>
अधोम
अधोमंड
अधोमंडल/M</w>
अधोमुख
अधोमुख्यत</w>
अधोमृ
अधोमृदा</w>
अधोर
अधोरक्त</w>
अधोरथ</w>
अधोरध</w>
अधोरेख
अधोरेखन</w>
अधोरेखा/JK</w>
अधोरेखां
अधोरेखांकन</w>
अधोरेखित</w>
अधोलंब</w>
अधोलिख
अधोलोक/M</w>
अधोवर्ती</w>
अधोवायु</w>
अधोस्थ</w>
अधोस्थापित</w>
अधोह
अधोहस्त
अधोहस्ताक्ष
अधोहस्ताक्षर
अधोहस्ताक्षरकर्ता</w>
अधोहस्ताक्षरी</w>
अधौर्
अधौर्द्ध</w>
अध्
अध्कि
अध्कि</w>
अध्म
अध्मता</w>
अध्य
अध्यक्ष
अध्यक्षपद</w>
अध्यक्षलाइ
अध्यक्षलाइब्र
अध्यक्षलाइब्रेर
अध्यक्षलाइब्रेरियन</w>
अध्यक्षा
अध्यक्षा-न
अध्यक्षा-नर्स</w>
अध्यक्षाधीन</w>
अध्यधीन</w>
अध्यय
अध्ययन
अध्ययन-
अध्ययन-अध्य
अध्ययन-अध्यापन</w>
अध्ययन/MV</w>
अध्ययनरत</w>
अध्ययनवृत्ति</w>
अध्ययना
अध्ययनार्थ</w>
अध्ययनेतर</w>
अध्ययेत
अध्ययेतावृत्ति</w>
अध्यर्थ
अध्यर्थित</w>
अध्यर्ध
अध्यर्धश
अध्यर्धशत</w>
अध्यव
अध्यवकलन</w>
अध्यवसाय
अध्यवसि
अध्यवसिति</w>
अध्यशन</w>
अध्या
अध्याकलन</w>
अध्यात</w>
अध्यात्म
अध्यात्म-रा
अध्यात्म-रामायण</w>
अध्यात्मज्ञाता</w>
अध्यात्मयोग
अध्यात्मयोगनिलय</w>
अध्यात्मरा
अध्यात्मरामायण</w>
अध्यात्मवाद/ME</w>
अध्यात्मिक/sT</w>
अध्यादेश/M</w>
अध्याप
अध्यापक
अध्यापक-
अध्यापक-अध्याप
अध्यापक-अध्यापिका/K</w>
अध्यापन
अध्यापन/M</w>
अध्यापनीय</w>
अध्यार
अध्यारोप
अध्यारोप/M</w>
अध्यारोही</w>
अध्याव
अध्यावरण/E</w>
अध्यास
अध्यासीन</w>
अध्याह
अध्याहरण</w>
अध्याहरणीय</w>
अध्याहर्त
अध्याहर्तव्य</w>
अध्याहुत</w>
अध्यीत</w>
अध्यु
अध्युर्व
अध्युर्वरण</w>
अध्युष्ट्र</w>
अध्येत
अध्येतव्य</w>
अध्येतावृत्ति</w>
अध्र
अध्रि</w>
अध्व
अध्व/F</w>
अध्वग/F</w>
अध्वनि</w>
अध्वर्य
अध्वर्यु
अध्वर्युवेद</w>
अध्वा
अध्वागा</w>
अध्वाति</w>
अध्वि
अध्विस</w>
अध्शि
अध्शिष</w>
अन
अन-ए
अन-एई</w>
अनँग
अनं
अनंग
अनंग-क्रीड़ा</w>
अनंगश
अनंगशत्रु</w>
अनंगशेखर</w>
अनंगास
अनंगासु
अनंगासुह
अनंगासुहृ
अनंगासुहृद</w>
अनंगी
अनंजन</w>
अनंत
अनंत-
अनंत-चतुर्दशी</w>
अनंतकालीन/sT</w>
अनंतकुमार</w>
अनंतगति</w>
अनंतगुण
अनंतगुणता</w>
अनंतजीव
अनंतजीवन/M</w>
अनंतत/F</w>
अनंतदृष्टि</w>
अनंतधाम</w>
अनंतनाथ
अनंतनाथ</w>
अनंतनाथजी</w>
अनंतपार</w>
अनंतपुर</w>
अनंतमूल
अनंतमूल/M</w>
अनंतर
अनंतर/sTM</w>
अनंतरज</w>
अनंतराशि</w>
अनंतरित</w>
अनंतर्हित</w>
अनंतवत</w>
अनंताभि
अनंताभिधेय</w>
अनंति
अनंबर</w>
अनअदायगी</w>
अनए
अनएई</w>
अनऑ
अनऑथ
अनऑथराइज़्ड</w>
अनक
अनकमाई</w>
अनकमाया</w>
अनकम्
अनकम्प</w>
अनकरण</w>
अनकरणीय</w>
अनक्ष
अनक्ष</w>
अनक्षर/M</w>
अनक्षु
अनक्षुण्ण</w>
अनख
अनख/834sTvLMFED</w>
अनखाया</w>
अनखुल
अनखुला/G</w>
अनखोज
अनखोजा/G</w>
अनग
अनगढ
अनगढपन</w>
अनगन</w>
अनगला/G</w>
अनगिन
अनगौरी</w>
अनगढ़
अनगढ़/FEDsT</w>
अनघ
अनघटा</w>
अनघड़
अनघड़</w>
अनघढ़</w>
अनच
अनचखा</w>
अनचाहा/GC</w>
अनचि
अनचित</w>
अनचिन्
अनचिन्हा</w>
अनचु
अनचुन
अनचुना/G</w>
अनचे
अनचेताई</w>
अनछ
अनछि
अनछिदा/G</w>
अनछिप
अनछिपा</w>
अनछुई</w>
अनज
अनजन
अनजनमा</w>
अनजला/G</w>
अनजा
अनजाँ
अनजाँच
अनजाँचा/C</w>
अनजान
अनजान-
अनजान-जान
अनजान-जाना-प
अनजान-जाना-पहच
अनजान-जाना-पहचाना</w>
अनजानपन</w>
अनजु
अनजुत
अनजुता/G</w>
अनजुड़ा/G</w>
अनजो
अनजोखा</w>
अनट
अनटिकाऊ</w>
अनट्र
अनठ
अनठानवेवाँ</w>
अनठाव
अनड
अनड्‌
अनढ
अनढका/CI</w>
अनत
अनतः
अनतःपुर</w>
अनतला/G</w>
अनति
अनतिक्र
अनतिक्रमणीय</w>
अनतिरेक</w>
अनतिशय</w>
अनती
अनतीखी</w>
अनतो
अनतोला</w>
अनतौ
अनतौला</w>
अनथ
अनथी
अनथीनाशन</w>
अनद
अनदे
अनदेख
अनदेखा/IGC</w>
अनद्य
अनद्यतन
अनद्यतन-
अनद्यतन-भूत</w>
अनद्यतनभूत</w>
अनध
अनधि
अनधिक
अनधिकार
अनधिकार/EsTM</w>
अनधिकारत/F</w>
अनधिकृत
अनधिगम्य</w>
अनधिग्रह
अनधिग्रहणीय</w>
अनधिग्रहीत</w>
अनधिप्र
अनधिप्रवेश</w>
अनधिसू
अनधिसूचित</w>
अनध्य
अनध्यास</w>
अनध्यीत</w>
अनन
अननक्व
अननक्वॉ
अननक्वॉड
अननक्वॉडियम</w>
अननपे
अननपेंट
अननपेंटियम</w>
अननब
अननबीयम</w>
अननहे
अननहेक्
अननहेक्ज
अननहेक्जियम</w>
अननहेक्ज़
अननहेक्ज़ियम</w>
अननु
अननुकता</w>
अननुकूल
अननुकूल/sTM</w>
अननुकृति</w>
अननुपा
अननुपालन/M</w>
अननुभाव
अननुभावकता</w>
अननुभूत</w>
अननुम
अननुमत्य
अननुमत्य</w>
अननुमत्यत</w>
अननुमेय
अननुमेय/sT</w>
अननुरू
अननुरूपत/F</w>
अननुवाद्य</w>
अननुशास
अननुसन्ध
अननुसन्धेय</w>
अननूद
अननूदित</w>
अननृ
अननृरुप</w>
अनन्
अनन्त
अनन्त-
अनन्तकालिक</w>
अनन्ततीर्थकृत</w>
अनन्तमूल</w>
अनन्तर
अनन्तर</w>
अनन्तरजात</w>
अनन्तविजय</w>
अनन्ना
अनन्नासा
अनन्नासाकार</w>
अनन्य
अनन्य/sTM</w>
अनन्यचित्त
अनन्यचित्त/sT</w>
अनन्यतापूर्वक</w>
अनन्यत्व</w>
अनन्यभव</w>
अनन्यमानस</w>
अनन्ययोग्य</w>
अनन्यहृत</w>
अनन्या
अनन्याधिकार
अनन्याधिकारात्मक</w>
अनन्याधिकारीय</w>
अनन्योपा
अनन्योपासक</w>
अनप
अनपकरण</w>
अनपका/G</w>
अनपढ</w>
अनपभ्र
अनपभ्रंश</w>
अनपभ्रष्ट</w>
अनपर</w>
अनपरि
अनपरिचय</w>
अनपवाद</w>
अनपा
अनपाय
अनपाय/FE</w>
अनपार्
अनपार्ल
अनपार्लियाम
अनपार्लियामेंट
अनपार्लियामेंटरी</w>
अनपेक्ष
अनपै
अनपैकित</w>
अनप्र
अनब
अनबदला/G</w>
अनबरस
अनबरसे</w>
अनबस
अनबसा/G</w>
अनबसापन</w>
अनबि
अनबिँध
अनबिँधा/G</w>
अनबिँधापन</w>
अनबिग
अनबिगड़ा/G</w>
अनबिधा</w>
अनबु
अनबुल
अनबुसा/G</w>
अनबो
अनबोया/C</w>
अनब्या
अनभ
अनभरा
अनभरा/G</w>
अनभरापन</w>
अनभाया</w>
अनभि
अनभिक
अनभिकल्
अनभिकल्पन</w>
अनभिग्रह/E</w>
अनभिग्रहण</w>
अनभिज्ञ
अनभिज्ञ--
अनभिज्ञ--भि
अनभिज्ञ--भिज्ञ</w>
अनभिज्ञात</w>
अनभिप्र
अनभिप्रेय/sT</w>
अनभिभव</w>
अनभिभू
अनभिभूत/sT</w>
अनभिरा
अनभिराम/sT</w>
अनभिरूप
अनभिरूप/sT</w>
अनभिल
अनभिलष
अनभिलषणीय</w>
अनभिलषित</w>
अनभिलाष
अनभिलाष्य</w>
अनभिलासी</w>
अनभिव्य
अनभिव्यंज
अनभिव्यक्त</w>
अनभिव्यक्तव्य</w>
अनभिष
अनभिषक्त</w>
अनभिसं
अनभिसंधान</w>
अनभिसंबंध</w>
अनभी
अनभीष्ठ</w>
अनभु
अनभुवना</w>
अनभेद
अनभेदी</w>
अनभ्य
अनभ्यसित</w>
अनभ्या
अनभ्यास/E</w>
अनम
अनमँ
अनमँजा/G</w>
अनमद</w>
अनमरा/G</w>
अनमा
अनमि
अनमिल
अनमिल/sTFE</w>
अनमिलत/F</w>
अनमील
अनमीलियो</w>
अनमुर
अनमुरझ
अनमुरझाई</w>
अनमो
अनम्भ</w>
अनय
अनयन</w>
अनयस</w>
अनर
अनरँग
अनरँगा/G</w>
अनरण
अनरण्य</w>
अनरस
अनरस/FDM</w>
अनरिक
अनरिकार्
अनरिकार्डेड</w>
अनरिकॉर्
अनरिकॉर्डिड</w>
अनरु
अनरुचि</w>
अनर्
अनर्ग
अनर्घ
अनर्घ/sT</w>
अनर्जक</w>
अनर्जन</w>
अनर्जित</w>
अनर्णीत</w>
अनर्थ
अनर्थकर/sT</w>
अनर्थभाव</w>
अनर्थापद/M</w>
अनर्व
अनर्वरीकरण</w>
अनर्ह
अनर्ह/sT</w>
अनल
अनल/MFE</w>
अनलंकृत
अनलदा/G</w>
अनलपं
अनलपक्ष</w>
अनलसित</w>
अनलह
अनव
अनवकाश
अनवच्छिन्न</w>
अनवज्ञ/F</w>
अनवद्य
अनवधान
अनवधान/sTM</w>
अनवय/M</w>
अनवर
अनवरति</w>
अनवरुद्ध
अनवरू
अनवरूद्घ</w>
अनवरूद्धता</w>
अनवरोध
अनवरोध/M</w>
अनवरोध्यत</w>
अनवलंब
अनवलंबनीय/sT</w>
अनवलम्ब
अनवलम्ब</w>
अनवलोक
अनवलोक्यत</w>
अनवश
अनवशिष्ट
अनवशिष्टत/F</w>
अनवशोषित</w>
अनवश्य
अनवश्यं
अनवश्यत</w>
अनवसर
अनवसरवादिता</w>
अनवसरानु
अनवसरानुकूलता</w>
अनवस्थान</w>
अनवस्थिति</w>
अनवा
अनवाँ
अनवाँस
अनवान
अनवानता</w>
अनविद्ध</w>
अनवे
अनवेक्ष
अनवेक्षक</w>
अनवेक्षण/M</w>
अनशि
अनशिला</w>
अनश्रु</w>
अनस
अनसँ
अनसँव
अनसँवरे</w>
अनसकरा/G</w>
अनसजा/G</w>
अनसट
अनसम
अनसमझ/FED</w>
अनसहन</w>
अनसां
अनसांइ
अनसांइटि
अनसांइटिफ्र
अनसांइटिफ्रिक</w>
अनसि
अनसिझा</w>
अनसिल
अनसिला/GC</w>
अनसी
अनसु
अनसुन
अनसू
अनसूखा</w>
अनसूचित-
अनसूचित-जन
अनसूचित-जनजातियों</w>
अनसूय
अनसूय/MFD</w>
अनसूयत</w>
अनसैचुर
अनसैचुरे
अनसैचुरेटिड</w>
अनसो
अनसौर्
अनसौर्टिड</w>
अनस्
अनस्क
अनस्कि
अनस्किल्ड</w>
अनस्क्र
अनस्क्रु
अनस्क्रुइ
अनस्क्रुइंग</w>
अनस्त</w>
अनस्ति
अनस्तिव</w>
अनस्थ
अनस्थ</w>
अनस्थित</w>
अनह
अनहं
अनहं</w>
अनहंकार
अनहंकृति</w>
अनहक</w>
अनहित
अनहितू</w>
अनहुआ</w>
अनहुई</w>
अनहो
अनहोता</w>
अनहोन
अनहोना/G</w>
अना
अनांद
अनांश
अनांशिकता</w>
अनाउ
अनाउं
अनाउंस
अनाउंस</w>
अनाउंसमेंट</w>
अनाउंसर/M</w>
अनाक
अनाकनी</w>
अनाकर्ष
अनाकर्षक/sT</w>
अनाकर्षण</w>
अनाकल
अनाकलनीय/sT</w>
अनाकस्म
अनाकस्मिक</w>
अनाकांक्ष
अनाकांक्षित</w>
अनाकार
अनाकारत/F</w>
अनाक्रम
अनाक्रम्यत/F</w>
अनाक्रां
अनाक्रांत/F</w>
अनाक्राम
अनाक्रामक/sT</w>
अनाग
अनागत
अनागत-
अनागत-आग
अनागत-आगत</w>
अनागताव
अनागम</w>
अनागमन</w>
अनागम्य</w>
अनागर/sT</w>
अनागरिक/sT</w>
अनागामी</w>
अनागार</w>
अनाच
अनाचक</w>
अनाचरण
अनाचरणीय/sT</w>
अनाचार
अनाच्छ
अनाच्छाद
अनाच्छादन/M</w>
अनाच्छादित</w>
अनाज
अनाजघर</w>
अनाजीय</w>
अनाजीव
अनाजीविका</w>
अनाज्ञ
अनाज्ञा</w>
अनाड
अनात
अनातं
अनातंक/M</w>
अनातर</w>
अनातुर
अनातुर-
अनातुर-आत
अनातुर-आतुर</w>
अनातोल
अनात्म
अनात्म-धर्म</w>
अनात्मक
अनात्मक</w>
अनात्मकदुः
अनात्मकदुःख</w>
अनात्मज</w>
अनात्मभाव/M</w>
अनात्मवाद/M</w>
अनात्य
अनात्यंत
अनात्यंतिक</w>
अनाथ
अनाथ-स
अनाथ-सनाथ</w>
अनाद
अनादर
अनादरण/M</w>
अनादरित</w>
अनादर्श
अनादर्श/sT</w>
अनादान</w>
अनादायाद</w>
अनादार</w>
अनादि
अनादि/sT</w>
अनादिक
अनादिक</w>
अनादिकाल
अनादिकालिक</w>
अनादित्व/M</w>
अनादिनिधन</w>
अनादिम
अनादिमध्य
अनादिमध्यनिधन</w>
अनादृत</w>
अनादेश
अनादेशित</w>
अनाध
अनाधिक
अनाधिकार
अनाधिकार/ME</w>
अनाधिकारिक</w>
अनाधिकृत</w>
अनाधीन/sT</w>
अनाधृष्य</w>
अनान
अनानंदित</w>
अनानास/M</w>
अनानु
अनानुपू
अनानुपूव
अनानुपूव्र्य</w>
अनानुवंश
अनानुवंशिक/sT</w>
अनाप
अनाप-स
अनाप-सनाप</w>
अनापहारी</w>
अनाप्त
अनाप्त/sT</w>
अनाप्य</w>
अनाप्लुत</w>
अनाब
अनाबद्घ/sT</w>
अनाबद्ध
अनाबद्धक</w>
अनाबि
अनाबिद्ध</w>
अनाभाव</w>
अनाभूष
अनाभूषित/sT</w>
अनाम
अनामक</w>
अनामत्व</w>
अनामवास/E0</w>
अनामिक
अनामिकबन्धन</w>
अनामित</w>
अनामीस</w>
अनामीज़</w>
अनामुल</w>
अनाया
अनायाचन</w>
अनायास
अनायुक्त/M</w>
अनार
अनार-द
अनार-दाना</w>
अनारक्षित</w>
अनाराध
अनाराधनीय</w>
अनार्
अनार्त
अनार्तव
अनार्तव/FsTM</w>
अनार्तवत/F</w>
अनार्द
अनार्दता</w>
अनार्द्र
अनार्द्रीकृत</w>
अनार्य
अनार्यत्व</w>
अनार्ष</w>
अनाले
अनालेपित</w>
अनालो
अनालोचक</w>
अनाव
अनावर्तक</w>
अनावर्तित/F</w>
अनावलंब
अनावलंब/E</w>
अनावलंबन</w>
अनावास
अनावासिक</w>
अनावासित/sTF</w>
अनावासीय</w>
अनावाह
अनावाहित/sT</w>
अनावि
अनावृ
अनावृ+
अनावृ+वृष्टि</w>
अनावृत/M</w>
अनावृत्ति</w>
अनावेदक</w>
अनावेशित</w>
अनावेष्ट
अनावेष्टित</w>
अनाश
अनाश/FE</w>
अनाशंक
अनाशक</w>
अनाशय
अनाशयित</w>
अनाशु</w>
अनाशोधन</w>
अनाश्च
अनाश्चर्य</w>
अनाश्र
अनास
अनासक्त
अनासक्तत/F</w>
अनासाद
अनासादित</w>
अनासाद्य</w>
अनासीन</w>
अनास्
अनास्त
अनास्वादित</w>
अनाह
अनाहत
अनाहत/sTM</w>
अनाहतनाद</w>
अनाहति</w>
अनाहद
अनाहद-
अनाहद-वाणी</w>
अनाहूत
अनाहूति</w>
अनाज़
अनाज़</w>
अनाज़माया</w>
अनि
अनिंद्रिय</w>
अनिक
अनिक</w>
अनिकेत/M</w>
अनिकेतन</w>
अनिग
अनिगदन</w>
अनिग्रह
अनिग्रहत</w>
अनिच्छ
अनिच्छ/F</w>
अनिच्छत</w>
अनिच्छु
अनिच्छुक/sTM</w>
अनिजत्व</w>
अनित
अनित/FsT</w>
अनिद्र
अनिद्र/MFD</w>
अनिद्रितत</w>
अनिनी</w>
अनिपात/M</w>
अनिम
अनिमंत्रण</w>
अनिमा</w>
अनिमि
अनिमिया</w>
अनिमिर्त</w>
अनिमिषा
अनिमिषाक्ष</w>
अनिमे
अनिमेष
अनिमेषनयन</w>
अनिमेषलोचन</w>
अनिय
अनियत
अनियत/sTMF</w>
अनियतकालिक</w>
अनियत्रित</w>
अनियम
अनियमवाद</w>
अनियमित
अनियम्यत</w>
अनिया
अनियाउ</w>
अनियुक्त</w>
अनिर
अनिरा
अनिरु
अनिरुद्घ</w>
अनिरूपण</w>
अनिर्
अनिर्ण
अनिर्णय/sTM</w>
अनिर्णयग्रस्तता</w>
अनिर्णित/M</w>
अनिर्णेय</w>
अनिर्द
अनिर्देश</w>
अनिर्धारण</w>
अनिर्बन्ध</w>
अनिर्माता</w>
अनिर्वाय</w>
अनिर्वाह</w>
अनिर्वि
अनिर्विण</w>
अनिल
अनिल/M</w>
अनिलघ्न
अनिलघ्नक</w>
अनिला
अनिवार
अनिवारितत</w>
अनिवार्य
अनिवार्यतः</w>
अनिवार्यतापूर्वक</w>
अनिवार्यरूप</w>
अनिवार्येतर</w>
अनिवृ
अनिवृत्
अनिवृत्ति
अनिश्
अनिश्च
अनिश्चल</w>
अनिश्चि
अनिश्चित
अनिष
अनिषे
अनिषेक
अनिषेकज</w>
अनिषेकजनित</w>
अनिष्
अनिष्का
अनिष्कासित</w>
अनिष्छ
अनिष्छनीय</w>
अनिष्ट
अनिष्ट-इ
अनिष्ट-इष्ट</w>
अनिष्टकर
अनिष्टका
अनिष्टकामी</w>
अनिष्टचिंतन</w>
अनिष्टहीन</w>
अनिष्ण
अनिष्णतता</w>
अनिष्णात/sT</w>
अनिष्पक्ष</w>
अनी
अनीक
अनीति</w>
अनीनी</w>
अनीम
अनीर्
अनीर्ष
अनीर्षितत</w>
अनीर्ष्य</w>
अनीर्ष्यत</w>
अनील
अनीलन/M</w>
अनीलबाजी</w>
अनीश
अनीश/FDsTM</w>
अनीशत्व</w>
अनीश्व
अनीश्वर
अनीश्वरत्व</w>
अनीश्वरवाद/EM</w>
अनीश्वरीयता</w>
अनीश्वरोप
अनीश्वरोपदिष्ट</w>
अनु
अनुक
अनुकंप
अनुकंप/MFED</w>
अनुकरण
अनुकरणज</w>
अनुकरणपूर्ण</w>
अनुकरणशील</w>
अनुकरणीय/sTM</w>
अनुकाल</w>
अनुकूल
अनुकूल/sTMFD</w>
अनुकूलन
अनुकूलनशील/sT</w>
अनुक्र
अनुक्रम
अनुक्रमण
अनुक्रमण/ME</w>
अनुक्रमणी
अनुक्रमणीकार/M</w>
अनुक्रमानु
अनुग
अनुगत
अनुगतत</w>
अनुगाम
अनुगामीहीन</w>
अनुगुण
अनुगुणत</w>
अनुग्र
अनुग्रत/F</w>
अनुग्रह
अनुग्रह-ट
अनुग्रह-टिप
अनुग्रह-टिप्प
अनुग्रह-टिप्पणी</w>
अनुग्रह-वि
अनुग्रह-विग्रह</w>
अनुग्रहकारी</w>
अनुग्रहांक/M</w>
अनुग्राह्य</w>
अनुचक्र
अनुचक्रत</w>
अनुचर
अनुचरत/F</w>
अनुचित
अनुचितार्थ/M</w>
अनुचित्रक</w>
अनुच्
अनुच्च
अनुच्चर
अनुच्चरितत</w>
अनुच्चार
अनुच्छेद
अनुज
अनुज-
अनुज-अग्र
अनुज-अग्रज</w>
अनुजन्मा</w>
अनुज्ञ
अनुज्ञा
अनुज्ञा-प्राप्त</w>
अनुज्ञाप
अनुज्ञाप्र
अनुज्ञाप्रद</w>
अनुज्ञाप्राप्त</w>
अनुत
अनुतरंग</w>
अनुतेजना</w>
अनुत्
अनुत्क
अनुत्कंठ
अनुत्कंठि</w>
अनुत्क्रमित</w>
अनुत्त
अनुत्तम/sT</w>
अनुत्तमो
अनुत्तमो</w>
अनुत्तर
अनुत्तरित</w>
अनुत्तरितत</w>
अनुत्तेज
अनुत्तेजना</w>
अनुत्तेजित/sT</w>
अनुत्पन्न</w>
अनुत्पाद
अनुत्पादक/sTM</w>
अनुत्स
अनुत्साह
अनुत्साह/ME</w>
अनुत्सेक</w>
अनुद
अनुदात्त
अनुदात्त/sTM</w>
अनुदान
अनुदानमा
अनुदानमांग</w>
अनुदानों
अनुदानोंविन
अनुदानोंविनियो
अनुदानोंविनियोगो
अनुदानोंविनियोगों</w>
अनुदार
अनुदारत/F</w>
अनुदारमनस्क/sT</w>
अनुदारवादी</w>
अनुदाह
अनुदाहरणीय</w>
अनुदिश
अनुदिशगामी</w>
अनुदिशत</w>
अनुदिशत्व</w>
अनुद्
अनुद्घ
अनुद्ध
अनुद्धत/sT</w>
अनुद्धर्ष</w>
अनुद्धृत</w>
अनुद्भ
अनुद्भट/sT</w>
अनुद्भव</w>
अनुद्य
अनुद्यम/E</w>
अनुद्योग
अनुद्योगीकरण</w>
अनुद्वि
अनुद्विग्न/sT</w>
अनुद्वे
अनुद्वेग
अनुद्वेग</w>
अनुद्वेगकर</w>
अनुद्वेलक</w>
अनुन
अनुनय
अनुनय-वि
अनुनय-विन
अनुनय-विनय</w>
अनुना
अनुनाद
अनुनादितत</w>
अनुनास
अनुनासिक
अनुनासिक/sTM</w>
अनुनासिकवत</w>
अनुन्
अनुन्न
अनुन्नति</w>
अनुप
अनुपगत</w>
अनुपजा
अनुपजाऊ
अनुपजाऊ/M</w>
अनुपद
अनुपद</w>
अनुपदीना</w>
अनुपपत्ति</w>
अनुपपन्न</w>
अनुपपाद
अनुपपाद्य/sT</w>
अनुपभोग
अनुपमित</w>
अनुपयोग
अनुपयोग/EM</w>
अनुपयोगित/sTF</w>
अनुपलब्ध
अनुपलब्ध/sT</w>
अनुपस्थ
अनुपस्थितत/F</w>
अनुपस्थिति</w>
अनुपहत</w>
अनुपा
अनुपात
अनुपाततः</w>
अनुपातयुक्त/sT</w>
अनुपातहीन/sT</w>
अनुपातीय</w>
अनुपार्
अनुपाल
अनुपालित/sT</w>
अनुपासित</w>
अनुपूर
अनुपेक्ष
अनुप्र
अनुप्रयु
अनुप्रयुत/M</w>
अनुप्रस्थ
अनुप्रस्थत/F</w>
अनुप्रास
अनुप्रासत</w>
अनुबंध
अनुबंध-पत्र/M</w>
अनुबंधक</w>
अनुबंधकर्त्ता</w>
अनुबंधाधीन</w>
अनुबंधानुसार</w>
अनुबंधानुसारत</w>
अनुबद्ध
अनुबद्धतापूर्वक</w>
अनुबन्ध
अनुभ
अनुभव
अनुभव-
अनुभव-गम्य</w>
अनुभवपूर्ण/sT</w>
अनुभवमूलक</w>
अनुभवशून्य</w>
अनुभवसम
अनुभवसमृ
अनुभवसमृद्ध</w>
अनुभवहीन/sT</w>
अनुभवहीनतः</w>
अनुभवियो</w>
अनुभार</w>
अनुभू
अनुभूति
अनुभूतिगम्य</w>
अनुभूतित्र</w>
अनुभूतिप्र
अनुभूतिप्रव
अनुभूतिप्रवण/sT</w>
अनुभूतियोग</w>
अनुभूतिशून्य/sT</w>
अनुभूय
अनुभूयमान</w>
अनुभोग
अनुभोगित/F</w>
अनुम
अनुमति
अनुमतिहीनतः</w>
अनुमान
अनुमान.</w>
अनुमानपत्रीय</w>
अनुमानसिद्ध</w>
अनुमानातीत
अनुमानातीत/sT</w>
अनुमानिक</w>
अनुमिति
अनुमितिवाद/M</w>
अनुमोद
अनुमोदनात्मक</w>
अनुमोदनार्थ</w>
अनुया
अनुयाचन/FM</w>
अनुयाय
अनुयायिता</w>
अनुयायिनी</w>
अनुयोग
अनुयोग/E</w>
अनुर
अनुरंजित</w>
अनुरक्त
अनुरतत/F</w>
अनुरा
अनुराग
अनुराग/q
अनुराग/q34sTv
अनुराग/q34sTvME</w>
अनुरागनीय</w>
अनुरागि
अनुरागिए</w>
अनुरागो</w>
अनुरूप
अनुरूप/834sTvED</w>
अनुरेख
अनुरेखक/M</w>
अनुरोध
अनुरोध</w>
अनुर्ती
अनुर्तीण
अनुर्तीण-उ
अनुर्तीण-उर्ती
अनुर्तीण-उर्तीण</w>
अनुर्तीण/M</w>
अनुर्य
अनुर्यायी</w>
अनुर्व
अनुर्वरी
अनुर्वरीकरण/M</w>
अनुल
अनुलंब
अनुलंबखाता</w>
अनुलगम</w>
अनुलग्न
अनुलग्नम</w>
अनुलग्नित</w>
अनुलम्ब
अनुलम्बखाता</w>
अनुलाप/M</w>
अनुलिप
अनुलिपित्र
अनुलिपित्रित</w>
अनुले
अनुलेप</w>
अनुलेपन/M</w>
अनुलो
अनुलोम
अनुलोम-विवाह</w>
अनुल्ल
अनुल्लंघ
अनुल्लंघनीय/sT</w>
अनुल्लेख
अनुल्लेख/M</w>
अनुवंश
अनुवंशजनन</w>
अनुवंशिकीय</w>
अनुवर्ष</w>
अनुवा
अनुवातो
अनुवातोमि
अनुवातोमिर</w>
अनुवातोमिर्</w>
अनुवाद
अनुवादनीय</w>
अनुवास
अनुवासन
अनुवासन-व
अनुवासन-वस्ति</w>
अनुवि
अनुविन्यास</w>
अनुश
अनुशंस
अनुशंसा-पत्र/M</w>
अनुशंसा/ICJK</w>
अनुशास
अनुशासन
अनुशासना
अनुशासनाध
अनुशासनाधीन
अनुशासनाधीनत</w>
अनुशिक्ष
अनुशिक्षक</w>
अनुशियाना</w>
अनुशो
अनुश्र
अनुश्रवण
अनुश्रवणक/M</w>
अनुष
अनुषंग
अनुषत्कि</w>
अनुष्ट
अनुष्टु
अनुष्ठ
अनुष्ठाता</w>
अनुष्ठान
अनुष्ठान/M</w>
अनुष्ठानन</w>
अनुष्ठानपूर्वक</w>
अनुष्ण
अनुष्णरुधिर
अनुष्णरुधिर/F</w>
अनुसं
अनुसंधान
अनुसन्ध
अनुसन्धान
अनुसन्धेय</w>
अनुसार
अनुसारिता</w>
अनुसू
अनुसूचित-
अनुसूचित-जन
अनुसूचित-जनजाति</w>
अनुसूचित</w>
अनुसो
अनुसोचक</w>
अनुस्त
अनुस्तरण/E</w>
अनुस्म
अनुस्मारक</w>
अनुह
अनुहर
अनुहरत/FED</w>
अनुहार
अनुहारियो</w>
अनुृ
अनुृणी</w>
अनू
अनूक
अनूकूल</w>
अनूक्त</w>
अनूक्ति</w>
अनूठ
अनूठा/GCI</w>
अनूठापन/M</w>
अनूदित</w>
अनूरु</w>
अनूरू
अनूरू</w>
अनूर्
अनूढ़
अनूढ़ा
अनूढ़ागमन</w>
अनृ
अनृत
अनृत/EM</w>
अनृतक</w>
अने
अनेक
अनेककृत</w>
अनेकत्रण</w>
अनेकर
अनेकरू
अनेकलोचन</w>
अनेकवृत्ति</w>
अनेकश</w>
अनेकशः</w>
अनेका
अनेकांग
अनेकांगी</w>
अनेकांगीयता</w>
अनेकांत</w>
अनेकाक्षर</w>
अनेकाग्र
अनेकाग्रचित्त
अनेकाग्रचित्त/sT</w>
अनेकाग्रचित्तत/F</w>
अनेकान्त
अनेकान्तवाद</w>
अनेकार्थ
अनेकार्थक/sT</w>
अनेकेश्वर/ME</w>
अनेग</w>
अनेला</w>
अनै
अनैकांत
अनैकांतिक
अनैकांतिक</w>
अनैकांतिकह
अनैकांतिकहेतु</w>
अनैकांत्य</w>
अनैतिहास
अनैतिहासिक/M</w>
अनैयायिक</w>
अनैरो
अनैश्व
अनैश्वर्य
अनैश्वर्यप्रद</w>
अनैस
अनैस/8FED34sTv</w>
अनो
अनोक
अनोख
अनोखापन/M</w>
अनोद
अनोदय
अनोदयना
अनोदयनाम</w>
अनोना</w>
अनौ
अनौद्घ
अनौद्घत्य</w>
अनौप
अनौपचार
अन्
अन्करी
अन्करीब</w>
अन्जा
अन्जाम</w>
अन्जु
अन्जुमन</w>
अन्ट
अन्टार्कटिक/F</w>
अन्ठानबेवाँ</w>
अन्ड
अन्डर
अन्डरटैकिंग</w>
अन्डर्
अन्त
अन्त-लघु</w>
अन्तः
अन्तःकालीन</w>
अन्तःक्षेप/M</w>
अन्तःपुर
अन्तःपुर</w>
अन्तःपुरप्रचार</w>
अन्तःपूजा</w>
अन्तःप्र
अन्तःस
अन्तःसत्वा</w>
अन्तःसुख</w>
अन्तःस्थापन</w>
अन्तगर्भा
अन्तगर्भाशयी</w>
अन्तत</w>
अन्तपुर</w>
अन्तभाव
अन्तभावितता</w>
अन्तय
अन्तयेष्टि
अन्तयेष्टि-व्यापार</w>
अन्तयेष्टि</w>
अन्तर
अन्तर-</w>
अन्तरंग
अन्तरजाल</w>
अन्तरा
अन्तराल</w>
अन्तराव
अन्तरावलोकन</w>
अन्तरिक</w>
अन्तरिक्ष
अन्तरिक्ष-विज्ञान/M</w>
अन्तरिक्षविज्ञान</w>
अन्तरित/E</w>
अन्तरी
अन्तरीक</w>
अन्तर्
अन्तर्गत/M</w>
अन्तर्गति</w>
अन्तर्ग्र
अन्तर्ग्रथन</w>
अन्तर्ग्रथित</w>
अन्तर्ग्रह</w>
अन्तर्घट</w>
अन्तर्जात
अन्तर्जात</w>
अन्तर्जातीय
अन्तर्जातीय-विवाह</w>
अन्तर्जातीय</w>
अन्तर्जानु</w>
अन्तर्ज्योति</w>
अन्तर्द
अन्तर्देशी</w>
अन्तर्दौह
अन्तर्दौहिक</w>
अन्तर्द्व
अन्तर्धान</w>
अन्तर्नि
अन्तर्निष्ठ</w>
अन्तर्प्र
अन्तर्प्रांतीय</w>
अन्तर्प्रादेशिक</w>
अन्तर्बोध</w>
अन्तर्भ
अन्तर्भासी</w>
अन्तर्भूमि</w>
अन्तर्भौम</w>
अन्तर्राज्य
अन्तर्राष्ट्र
अन्तर्राष्ट्रवादी</w>
अन्तर्राष्ट्रीय
अन्तर्राष्ट्रीय/sTM</w>
अन्तर्राष्ट्रीयतावादी</w>
अन्तर्रोध</w>
अन्तर्लीन</w>
अन्तर्लेखन</w>
अन्तर्व
अन्तर्वती</w>
अन्तर्वर्धित</w>
अन्तर्वस्तु</w>
अन्तर्वाणिज्य</w>
अन्तर्वाह</w>
अन्तर्वि
अन्तर्विवाह</w>
अन्तर्वे
अन्तर्वेश
अन्तर्वेशिक</w>
अन्तर्वेश्मिक</w>
अन्तर्ह
अन्तर्हास</w>
अन्तवर्ती</w>
अन्तविदारण</w>
अन्तवे
अन्तवेला</w>
अन्तस</w>
अन्तसद</w>
अन्तस्नान</w>
अन्तह्
अन्तह्करण</w>
अन्तह्पुर</w>
अन्ताराष्ट्रीय</w>
अन्ताव
अन्ति
अन्तिक/sT</w>
अन्तिम
अन्तिम/M</w>
अन्तिमसफर</w>
अन्तोन</w>
अन्त्य
अन्त्यभ</w>
अन्त्ययोनि</w>
अन्त्यवर्ण</w>
अन्त्या
अन्त्र
अन्त्रवृद्धि</w>
अन्त्रालजी</w>
अन्द
अन्दर
अन्दर/yxM</w>
अन्दरू
अन्दरूनी</w>
अन्दा
अन्दाज
अन्दाजन/FD</w>
अन्दाजपट्टी</w>
अन्दाज़
अन्दाज़पट्टी</w>
अन्दु
अन्दुआ</w>
अन्दोह</w>
अन्ध
अन्ध-विश्वास
अन्ध-विश्वास/E</w>
अन्ध-विश्वासी/O</w>
अन्धकार
अन्धकार/E</w>
अन्धकारपन</w>
अन्धकारपूर्ण/sT</w>
अन्धकूप</w>
अन्धखोपड़ी</w>
अन्धतमस</w>
अन्धबक</w>
अन्धबाई</w>
अन्धबिन्दु</w>
अन्धाधु
अन्धाधुंध</w>
अन्धार/E</w>
अन्धिय
अन्धियारा</w>
अन्धेर
अन्धेरगर्
अन्धेरगर्दी</w>
अन्धेरियो</w>
अन्न
अन्न-
अन्न-क
अन्न-कण
अन्न-कणों</w>
अन्न-कूट</w>
अन्न-गो
अन्न-गोदा
अन्न-गोदाम</w>
अन्न-च
अन्न-चोर</w>
अन्न-जल</w>
अन्न-दा
अन्न-दाता</w>
अन्न-पानी</w>
अन्न-रस</w>
अन्न-विकार</w>
अन्न/U
अन्न/UF
अन्न/UFM</w>
अन्नकूट/M</w>
अन्नकोष्ठ</w>
अन्नग्रहण</w>
अन्नजल</w>
अन्नत्याग</w>
अन्नदान</w>
अन्नपूर्ण
अन्नपूर्णोपनिषद</w>
अन्नब्रह्म</w>
अन्नभ
अन्नभंड
अन्नभंडार/M</w>
अन्नमय
अन्नमय-कोष</w>
अन्नवाहिनी</w>
अन्नस
अन्नसं
अन्नसंस्कार</w>
अन्नसत्र/M</w>
अन्ना
अन्नाद्य</w>
अन्नाहरी</w>
अन्नाहारी</w>
अन्नि</w>
अन्नू</w>
अन्नोत्पादक</w>
अन्य
अन्यगोत्र</w>
अन्यज/sT</w>
अन्यजात</w>
अन्यतः</w>
अन्यत्व
अन्यत्वभावना</w>
अन्यत्ववाद</w>
अन्यथ
अन्यथा/IC</w>
अन्यथास
अन्यथासि
अन्यथासिद्धि</w>
अन्यद
अन्यदीय/F</w>
अन्यदेशीय</w>
अन्यधर्म</w>
अन्यपर</w>
अन्यपुरुष/M</w>
अन्यबी
अन्यबीज
अन्यभ
अन्यभृ
अन्यभृत/F</w>
अन्यर
अन्यरचित</w>
अन्यराष्ट्रीय</w>
अन्यव्रत</w>
अन्यसं
अन्यसंभोग
अन्यसंभोगदुःखिता</w>
अन्यसुर
अन्यसुरति
अन्यसुरतिदुःखिता</w>
अन्यस्त</w>
अन्या
अन्याय
अन्याय/ME</w>
अन्यायत</w>
अन्याय्य</w>
अन्यार्थ</w>
अन्याश्रित</w>
अन्येद
अन्येद्यु</w>
अन्यो
अन्योअन
अन्योअन्य</w>
अन्योद
अन्योदर्य</w>
अन्योन
अन्योन्य
अन्योन्य/sTM</w>
अन्योन्यभेद</w>
अन्योन्या
अन्योन्याश्र
अन्योन्याश्रय
अन्योन्याश्रयवाद</w>
अन्योन्याश्रित</w>
अन्व
अन्वक्ष
अन्वय
अन्वय/sTME</w>
अन्वया
अन्वयागत/sT</w>
अन्ववाय</w>
अन्वा
अन्वाच
अन्वाचय</w>
अन्वाधान</w>
अन्वाधेय</w>
अन्वालो
अन्वालोपी</w>
अन्वाह
अन्वाहार्य
अन्वाहार्य-
अन्वाहार्य-श्राद्ध</w>
अन्विच्छ
अन्विच्छा</w>
अन्वित
अन्वितार्थ/M</w>
अन्वी
अन्वीत</w>
अन्वीप</w>
अन्वे
अन्वेष
अन्वेषण
अन्वेषण-
अन्वेषण-अधिकारी</w>
अन्वेषणकर्त्ता</w>
अन्वेषणशील</w>
अन्वेषा/G</w>
अन्वेष्टा</w>
अन्ह
अन्हा/734sTv</w>
अन्हाइयो</w>
अन्य़
अन्य़</w>
अनफ़
अनफ़्र
अनफ़्राइड</w>
अप
अपं
अपंक
अपंकिल</w>
अपंख</w>
अपंग
अपंगघात</w>
अपंगत/F</w>
अपंगन</w>
अपक
अपकरु
अपकरुण</w>
अपकर्
अपकर्तन/M</w>
अपकर्ष
अपकर्षक/sT</w>
अपकर्षित</w>
अपकल
अपकलंक</w>
अपकल्म
अपकल्मष</w>
अपका
अपकाजी</w>
अपकार
अपकारक/sT</w>
अपकारपूर्ण</w>
अपकारिता</w>
अपकाष्ठ
अपकाष्ठात्मक</w>
अपकिरण</w>
अपकीर्
अपकीर्तित</w>
अपकृति</w>
अपकेंद्र
अपकेंद्रण</w>
अपकेंद्रिक</w>
अपकेंद्रितत</w>
अपक्र
अपक्रम
अपक्रामी</w>
अपक्रिया/JK</w>
अपक्ष
अपक्ष</w>
अपक्षय/ME</w>
अपक्षरणीय</w>
अपक्षिप्त</w>
अपक्षीय</w>
अपक्षेपण/M</w>
अपखंड</w>
अपखंडन</w>
अपग
अपगत/sT</w>
अपगति</w>
अपगर</w>
अपगामी</w>
अपगु
अपगुण/E</w>
अपघ
अपघट
अपघटन/ME</w>
अपघट्य</w>
अपघन</w>
अपघर
अपघरनी</w>
अपघातक</w>
अपच
अपच/ME</w>
अपचय
अपचय/EM</w>
अपचयीय</w>
अपचार
अपचारक</w>
अपच्छ
अपच्छाय
अपच्छाय/F</w>
अपजय</w>
अपट
अपटापन</w>
अपटी
अपटीक्षेप</w>
अपठ
अपठ</w>
अपठितत</w>
अपण
अपण्या
अपण्यार्थ</w>
अपत
अपत/E</w>
अपतंत्र
अपतटीय</w>
अपतानक</w>
अपताप</w>
अपतिक/sT</w>
अपत्य
अपत्य/M</w>
अपत्यपथ</w>
अपत्यवाचक</w>
अपत्र
अपत्र</w>
अपत्रय</w>
अपथ
अपथ्य/sT</w>
अपद
अपदस्थ</w>
अपदान/M</w>
अपदेखा</w>
अपदेवता</w>
अपदेश</w>
अपदोह
अपदोहन</w>
अपद्र
अपद्रवित</w>
अपद्रव्य
अपद्राव
अपध
अपधर्म
अपधर्मिता</w>
अपध्व
अपध्वंस
अपध्वंस/EM</w>
अपध्वंसज</w>
अपध्वस्त/sT</w>
अपन
अपनत्व
अपनत्व/M</w>
अपनयन/M</w>
अपना
अपनान्तिक</w>
अपनामत</w>
अपनाय
अपनालय</w>
अपनिर्
अपनीत</w>
अपने
अपने-
अपने-अपन
अपने-अपने</w>
अपने-आप</w>
अपनेपन</w>
अपन्
अपन्हुति</w>
अपपरि
अपपरिवर्तन</w>
अपपा
अपपाठ</w>
अपपात्र/M</w>
अपपात्रित</w>
अपप्र
अपप्रचार</w>
अपप्रयोग</w>
अपभ
अपभाष
अपभाषण/M</w>
अपभीति</w>
अपभ्र
अपम
अपमर्श</w>
अपमा
अपमाजिर्त</w>
अपमान
अपमान-
अपमान-जनक</w>
अपमान-सम्मान</w>
अपमानपूर्ण</w>
अपमानयोग्य</w>
अपमानात्मक</w>
अपमानित</w>
अपमान्य/sT</w>
अपमार्
अपमार्जन/M</w>
अपमिश्र
अपमिश्रक</w>
अपमूल
अपमूल्य
अपमूल्यन</w>
अपमृषित</w>
अपयश
अपयशस्क</w>
अपयोजन/M</w>
अपर
अपर-
अपर-लोक</w>
अपरंप
अपरंपरा
अपरंपरावाद</w>
अपरंपार</w>
अपरत्व</w>
अपरद
अपरद</w>
अपरदन/M</w>
अपरदिशा</w>
अपरधियों</w>
अपरब्रह्म</w>
अपरम्
अपरव/M</w>
अपरस्
अपरस्पर
अपरस्पर/FsT</w>
अपरा
अपरा-एकादशी</w>
अपराकरणीय</w>
अपराज
अपरात्र</w>
अपराद्धि</w>
अपराध
अपराध-
अपराध-कर्ता/K</w>
अपराध-क्ष
अपराध-क्षमा</w>
अपराध-वि
अपराध-विज्ञान/ME</w>
अपराधत/F</w>
अपराधपूर्ण/sT</w>
अपराधभ
अपराधभंजन</w>
अपराधभीति</w>
अपराधम
अपराधमुक्ति</w>
अपराधिता</w>
अपराधीय</w>
अपराध्
अपराध्/E</w>
अपराप
अपरापरण</w>
अपराभव
अपराभवनीय</w>
अपरार्ध</w>
अपरास्त</w>
अपरि
अपरिगण
अपरिज्ञ
अपरिज्ञात
अपरिज्ञातत</w>
अपरिण
अपरिणय</w>
अपरित्या
अपरित्याज्य</w>
अपरिधान</w>
अपरिप
अपरिपक्व
अपरिपक्व/sTM</w>
अपरिपूर्ण</w>
अपरिभाष
अपरिभाषा</w>
अपरिभाषेय</w>
अपरिम
अपरिमार्जन</w>
अपरिमेयत/F</w>
अपरिर्व
अपरिर्वतनीय</w>
अपरिसी
अपरिसीम</w>
अपरिस्कंद</w>
अपरिह
अपरु
अपरुतुक</w>
अपरूप
अपरूप/sTE</w>
अपरोधक</w>
अपर्
अपर्ध
अपर्धम</w>
अपर्य
अपर्याप्य</w>
अपर्याय
अपर्याय/M</w>
अपर्स्प
अपर्स्पश</w>
अपल
अपलक्षण/M</w>
अपलब्ध</w>
अपलाभ
अपलाभार्जन</w>
अपलाष
अपलि
अपलिंक</w>
अपलो
अपल्ल
अपव
अपवंच
अपवंचन/M</w>
अपवचन
अपवचन/ME</w>
अपवचनपूर्ण</w>
अपवरण/M</w>
अपवरीय</w>
अपवर्
अपवर्ग/ME</w>
अपवर्त
अपवर्तन/M</w>
अपवर्धन</w>
अपवल्
अपवल्कन</w>
अपवहन
अपवहन-क्षेत्र/M</w>
अपवहित</w>
अपवाच
अपवाचा/G</w>
अपवाद
अपवादत</w>
अपवादस्व
अपवादस्वरुप</w>
अपवादानु
अपवादानुदान</w>
अपवादिक</w>
अपवार
अपवारण/M</w>
अपवाह
अपवाह/E</w>
अपवाहन</w>
अपविक
अपविकास</w>
अपविक्र
अपविक्रय</w>
अपवित्र
अपवित्रित</w>
अपविद्ध</w>
अपविद्य
अपविद्या/JK</w>
अपविद्यु
अपविद्युतन</w>
अपवृ
अपवृक्त</w>
अपवो
अपवोड़ा</w>
अपवोढ़ा</w>
अपव्य
अपव्यय
अपव्यय/ME</w>
अपव्यापन</w>
अपश
अपशकु
अपशकुन
अपशकुनत</w>
अपशकुनित</w>
अपशना</w>
अपशब्
अपशब्द
अपशब्दयुक्त</w>
अपशिष्ट</w>
अपशुकन</w>
अपशोक</w>
अपश्री</w>
अपस
अपस</w>
अपसं
अपसंस्
अपसंस्कृति</w>
अपसर
अपसरण/M</w>
अपसरत</w>
अपसर्
अपसर्प
अपसर्पण/M</w>
अपसर्पित</w>
अपसव
अपसव/8ED34sTv</w>
अपसाम
अपसामान्य/sTM</w>
अपसार
अपसोस
अपसोसियो</w>
अपसौन</w>
अपस्त
अपस्नात</w>
अपस्नान</w>
अपस्फ
अपस्फीत
अपस्फीतिकारी</w>
अपस्म
अपस्मार/ME</w>
अपह
अपहरक</w>
अपहरण
अपहरण-
अपहरण-कर्ता/K</w>
अपहरणकर्त्ता</w>
अपहर्ता</w>
अपहसित</w>
अपहार्य</w>
अपहृत
अपहृत-</w>
अपहृति</w>
अपह्न
अपा
अपां
अपांग</w>
अपांत
अपांतर/sT</w>
अपांनिधि/PQ</w>
अपांपि
अपांपित्त</w>
अपांव
अपांवत्
अपांवत्स</w>
अपांश</w>
अपाइ
अपाकृत</w>
अपाट
अपाटवत</w>
अपाटॉ
अपाटॉव</w>
अपाठ</w>
अपात्र
अपात्रदायी</w>
अपात्रीकरण</w>
अपान
अपान/M</w>
अपाना
अपानाथ</w>
अपान्य</w>
अपामार्
अपामार्ग/M</w>
अपाय
अपायत</w>
अपार
अपारत/F</w>
अपारदर्
अपारदर्श
अपारदर्शक
अपारदर्शक-वस्तु</w>
अपारदर्शक</w>
अपारदर्शी
अपारदर्शी-वस्तु</w>
अपारम्पर
अपारम्परिक</w>
अपारि
अपार्
अपार्ट
अपार्टम
अपार्टमन्ट</w>
अपार्टमेन्ट</w>
अपार्टही
अपार्टहीड</w>
अपार्थ
अपार्थक</w>
अपाल
अपाव
अपावत्त
अपावत्तर्
अपावत्तर्न</w>
अपावन/sT</w>
अपावरण</w>
अपाश्रय</w>
अपास
अपासम</w>
अपासरण</w>
अपासित</w>
अपाह
अपाहरक</w>
अपि
अपि</w>
अपिक
अपिकंठ</w>
अपिच</w>
अपिजनन</w>
अपित
अपितृ
अपितृक/sT</w>
अपिपा
अपिपासु</w>
अपिर
अपिरच्छन्न</w>
अपिवान
अपिवानर-
अपिवानर-मानव</w>
अपिवृक्
अपी
अपीच</w>
अपीर
अपीरिय
अपीरियड
अपीरियडिक</w>
अपील
अपील/V
अपील/VE
अपील/VELM</w>
अपीलार्थी</w>
अपीड़
अपु
अपुच्छ</w>
अपुन
अपुनरा
अपुनरावर्तन</w>
अपुर
अपुरु
अपुरुष
अपुरुषार्थ/E</w>
अपुरूप</w>
अपुरो
अपुरोद
अपुष
अपुष्टि</w>
अपुष्य</w>
अपू
अपूज
अपूजक/sT</w>
अपूजा</w>
अपूठ
अपूठियो</w>
अपूत
अपूत/FEsT</w>
अपून</w>
अपूप्य</w>
अपूर
अपूर</w>
अपूरित/M</w>
अपूर्
अपूर्ण
अपूर्णांक</w>
अपूर्णेच्छ</w>
अपूर्व
अपूर्व/sTMF</w>
अपूर्वतया</w>
अपूर्वत्व</w>
अपूर्वानु
अपूर्वानुमे
अपूर्वानुमेय</w>
अपेंड
अपेंडिस
अपेंडिसाइ
अपेंडिसाइटि
अपेंडिसाइटिस/M</w>
अपेंडिसायटिस</w>
अपेक्ष
अपेक्षक</w>
अपेक्षया</w>
अपेक्षा
अपेक्षाएं</w>
अपेक्षाकृत
अपेक्षाकृतत/F</w>
अपेक्षाबुद्धि</w>
अपेक्षित
अपेक्षितत/F</w>
अपेत</w>
अपेन्ड
अपेन्डिस
अपेन्डिसायटिस</w>
अपेल</w>
अपै
अपॉ
अपॉइंटमेंट/M</w>
अपॉइन्
अपॉइन्टमेन्ट</w>
अपॉर
अपॉरचु
अपो
अपोजी
अपोजीशन</w>
अपोत्ते
अपोत्तेजक</w>
अपोत्तेजित</w>
अपोत्स
अपोत्साह</w>
अपोत्साहित</w>
अपोद्ध
अपोद्धरण</w>
अपोमय</w>
अपोर्च
अपोलो
अपोलोवाणी</w>
अपोह
अपोह/M</w>
अपोज़
अपोज़िट</w>
अपोज़ी
अपोज़ीशन</w>
अपौ
अप्
अप्त
अप्तो
अप्तोर्य
अप्तोर्याम</w>
अप्पू</w>
अप्य
अप्ययन</w>
अप्र
अप्रक
अप्रकट
अप्रकट/sT</w>
अप्रकटन</w>
अप्रकट्य/sT</w>
अप्रकांड</w>
अप्रको
अप्रकोपक</w>
अप्रख्यात</w>
अप्रग
अप्रगतिशील</w>
अप्रगाध</w>
अप्रगाढ़
अप्रगाढ़न</w>
अप्रच
अप्रचार</w>
अप्रज/F</w>
अप्रज्ञ</w>
अप्रत
अप्रति
अप्रति</w>
अप्रतिगृहीत</w>
अप्रतिचार</w>
अप्रतिबद्घ</w>
अप्रतिभूत</w>
अप्रतिसंह
अप्रतिसंहरणीय</w>
अप्रती
अप्रतीय
अप्रतीयमान</w>
अप्रत्य
अप्रत्यक्ष
अप्रत्यक्षतः</w>
अप्रत्यय/E</w>
अप्रत्या
अप्रत्यावर्
अप्रत्यावर्तित</w>
अप्रत्याश
अप्रथ
अप्रथम/sT</w>
अप्रद
अप्रदर्श
अप्रदर्शन</w>
अप्रदायक</w>
अप्रदूषित</w>
अप्रबंध</w>
अप्रबुद्ध</w>
अप्रभ
अप्रभान्वित</w>
अप्रभाव
अप्रभावकरत</w>
अप्रभावशील</w>
अप्रभावित</w>
अप्रभावितत</w>
अप्रभूत</w>
अप्रम
अप्रमद/F</w>
अप्रमा</w>
अप्रमाण
अप्रमाण</w>
अप्रमाणिक</w>
अप्रमे
अप्रमेयात्मा</w>
अप्रयुक्
अप्रयुक्त/sT</w>
अप्रयुक्तत्व</w>
अप्रयो
अप्रयोग
अप्रयोगित</w>
अप्रयोजक</w>
अप्रयोजन
अप्रयोजनता</w>
अप्रयोजनीय</w>
अप्रवास/E</w>
अप्रवाह
अप्रवाह/EsT</w>
अप्रविध
अप्रविधिक/M</w>
अप्रवेश</w>
अप्रश
अप्रशंस
अप्रशंसनीय</w>
अप्रशम्य/sT</w>
अप्रस
अप्रसन्न
अप्रसन्न/sT</w>
अप्रसव</w>
अप्रसाध
अप्रसाधन</w>
अप्रसिद्ध
अप्रसिद्ध/M</w>
अप्रस्
अप्रस्तु
अप्रस्तुत
अप्रस्न्न</w>
अप्रा
अप्राग
अप्रागि
अप्रागितिहास
अप्रागितिहासिकता</w>
अप्राचु
अप्राचुर्य</w>
अप्राथ
अप्राथम
अप्राथमिकता</w>
अप्राप्त
अप्राप्तयौ
अप्राप्तयौवन</w>
अप्रामा
अप्रामाण्य</w>
अप्राविधिक</w>
अप्रास
अप्रासांग
अप्रासांगिक</w>
अप्रिय
अप्रियकर</w>
अप्रीतिक
अप्रू
अप्रूवल</w>
अप्रे
अप्रेंटि
अप्रेमय</w>
अप्रेर
अप्रो
अप्रोच/M</w>
अप्रोत्साह
अप्रोत्साहन</w>
अप्रोषित</w>
अप्ल
अप्लाय
अप्लायड</w>
अप्स
अप्सर
अप्सरस्पति</w>
अप्सरा
अप्सराध
अप्सराधिपति</w>
अप्सरो
अप्सरोन्
अप्सरोन्मा
अप्सरोन्माद
अप्सरोन्मादग्रस्त</w>
अपड़
अफ
अफग
अफगान/ME</w>
अफर
अफरा
अफरा-त
अफरा-तफरी</w>
अफराव/MD</w>
अफरी
अफरीक
अफरीका
अफरीका-संबंधी</w>
अफरीकी-देश</w>
अफरीद</w>
अफल
अफल/sTMFD</w>
अफलात
अफलातून
अफलातूनवाद</w>
अफवाज</w>
अफशाँ</w>
अफसर
अफसराना</w>
अफसोस
अफसोसजनक</w>
अफार्
अफार्स</w>
अफीमची</w>
अफ्र
अफ्रीक
अफ्रीकन</w>
अफ्रीका
अफ्रीका-वासी/O</w>
अफ्रीका-संबंधी</w>
अफ्रीकियों</w>
अफ्रीकी-
अफ्रीकी-अमरीकी</w>
अफ्रीक़
अफ्रीक़ी</w>
अफग़ानिस्तान</w>
अब
अबंड</w>
अबंध
अबंधुत</w>
अबक
अबका/GC</w>
अबख
अबज
अबजद</w>
अबद
अबदुल्ला</w>
अबध
अबध</w>
अबन्ध
अबन्धु</w>
अबर
अबरख</w>
अबरी
अबरीदार</w>
अबल
अबल/sTMFD</w>
अबलग</w>
अबलत/F</w>
अबलाव
अबलावर्क</w>
अबलास
अबलासेन</w>
अबलो
अबलोन्
अबलोन्मत्त</w>
अबस</w>
अबह
अबहु
अबहुधा</w>
अबांध
अबांधवत</w>
अबाइ
अबाइया
अबाइयांग</w>
अबाक
अबाकस</w>
अबाद
अबादान/E</w>
अबाध
अबाब
अबि
अबिंध
अबिंधन</w>
अबिंध्य</w>
अबिचार</w>
अबिन्ध
अबी
अबीज/F</w>
अबीस
अबीसीन
अबीसीनिया</w>
अबु
अबुजा</w>
अबुद्धि</w>
अबुभु
अबुभुक्षा</w>
अबूझ
अबूझ/F</w>
अबे
अबेध्य</w>
अबो
अबोध
अबोधत/F</w>
अबोमास
अबोमासम</w>
अबोल
अबोल/FEDM</w>
अब्
अब्ज
अब्जन
अब्जनयन/FE</w>
अब्जब
अब्जबांधव</w>
अब्जभू</w>
अब्जवाह
अब्जवाहन/F</w>
अब्जहस्त</w>
अब्जाद</w>
अब्जिन
अब्जिनी
अब्जिनीपति</w>
अब्द
अब्द/EM</w>
अब्दप</w>
अब्ध
अब्धि
अब्धिद्वी
अब्धिद्वीपा</w>
अब्धिन
अब्धिशयन</w>
अब्ब
अब्बू</w>
अब्र
अब्रम</w>
अब्राह
अब्राह्म</w>
अब्ख़
अब्ख़ाज़
अब्ख़ाज़ियन</w>
अबज़
अबज़र
अबज़रवे
अबज़रवेटरी</w>
अबज़र्वे
अबज़र्वेटरी</w>
अबड़</w>
अभ
अभंग
अभंग/EsT</w>
अभंगुर
अभंगुरत/F</w>
अभच
अभच्यता</w>
अभणित</w>
अभय
अभय-द
अभय-पत्र/M</w>
अभयचारी</w>
अभयदान
अभयदान/M</w>
अभयदानदत्त</w>
अभयपरि
अभयपरिग्रह/M</w>
अभयप्र
अभयप्रदत्त</w>
अभर
अभव</w>
अभा
अभाग
अभाजन</w>
अभाय</w>
अभार
अभारिष्ट</w>
अभार्य</w>
अभाव
अभाव-ग्रस्त</w>
अभावना</w>
अभावात्मक</w>
अभाषण</w>
अभाषित</w>
अभि
अभिऊ</w>
अभिक
अभिकथ
अभिकथनीय</w>
अभिकथित/M</w>
अभिकर्
अभिकर्त
अभिकर्ता
अभिकर्ता-पत्र/M</w>
अभिकर्तापत्र</w>
अभिकर्त्त
अभिकर्त्ता-पत्र/M</w>
अभिकर्म/sT</w>
अभिकलन/M</w>
अभिकल्प
अभिकाम
अभिकाम</w>
अभिकामना</w>
अभिकारक</w>
अभिकेंद्र
अभिकेंद्रत</w>
अभिकेंद्रीय</w>
अभिकेन्द्र
अभिकेन्द्री</w>
अभिक्र
अभिक्रंदन</w>
अभिक्रांत
अभिक्रांत/E</w>
अभिक्रांति</w>
अभिक्राम
अभिक्रामक</w>
अभिक्रामित</w>
अभिक्रिया
अभिक्रिया-
अभिक्रिया-कारक</w>
अभिक्रिया/JK</w>
अभिक्ष
अभिक्षमता</w>
अभिखंड
अभिखंडन
अभिखंडनीयता</w>
अभिखंडित</w>
अभिख्य
अभिख्या/IC</w>
अभिगु
अभिग्रह
अभिग्रह</w>
अभिग्रहण/M</w>
अभिग्राह्य</w>
अभिघ
अभिघार</w>
अभिच
अभिचार
अभिचार/ME</w>
अभिचारक</w>
अभिचूषित</w>
अभिजय</w>
अभिजात
अभिजात-तंत्र</w>
अभिजात-भवन</w>
अभिजाततन्त्र</w>
अभिजात्य/sT</w>
अभिजि
अभिजिति</w>
अभिजीत</w>
अभिज्ञ
अभिज्ञात
अभिज्ञात/sTMF</w>
अभिज्ञान/ME</w>
अभिज्ञापक</w>
अभिज्ञापन/M</w>
अभित
अभितप्त</w>
अभिता
अभिताभ</w>
अभितृप्त</w>
अभित्य
अभित्यक्त/F</w>
अभित्या
अभित्र
अभित्रासक/M</w>
अभिद
अभिदत्त/M</w>
अभिदिश
अभिदिशा/IC</w>
अभिदेश/M</w>
अभिद्यान</w>
अभिद्र
अभिद्रुत</w>
अभिद्रोह
अभिद्रोह/M</w>
अभिध
अभिधरण</w>
अभिधर्म/M</w>
अभिधा/CI</w>
अभिधान
अभिधार
अभिधार्थ
अभिधार्थत</w>
अभिधावक</w>
अभिधावन</w>
अभिधृत</w>
अभिधृति</w>
अभिधेय
अभिधेयार्थ/M</w>
अभिन
अभिनंद
अभिनंद/E</w>
अभिनंदन
अभिनंदन-पत्र/M</w>
अभिनंदनग्रंथ
अभिनंदनग्रंथ/M</w>
अभिनंदनपूर्ण</w>
अभिनंदनीयत/F</w>
अभिनंदिका</w>
अभिनंदित/sT</w>
अभिनंदितत/F</w>
अभिनन्द
अभिनन्दन
अभिनन्दन-पत्र/M</w>
अभिनन्दनपत्र</w>
अभिनम
अभिनम्र</w>
अभिनय
अभिनय-
अभिनय-ज
अभिनयकर्ता/K</w>
अभिनयन</w>
अभिनयपूर्ण</w>
अभिनययोग्य</w>
अभिनयशाला/JK</w>
अभिनव
अभिनव/sTM</w>
अभिनवन</w>
अभिनि
अभिनियो
अभिनियोग</w>
अभिनियोजन</w>
अभिनिर्
अभिनिर्धार
अभिनिर्धारित</w>
अभिनिर्माण</w>
अभिनिविष्ट/sT</w>
अभिनिवेशित</w>
अभिनिश्
अभिनिश्चित/M</w>
अभिनिषेध</w>
अभिनिष्
अभिनिष्कम</w>
अभिनिष्क्रमण</w>
अभिनिष्पत्ति</w>
अभिनीत
अभिनीतत/F</w>
अभिनीति</w>
अभिनीय</w>
अभिनेत्र
अभिन्न
अभिन्नपु
अभिन्नपुट</w>
अभिप
अभिपत्र/M</w>
अभिपा
अभिपाचन</w>
अभिपिता</w>
अभिपीड़
अभिपु
अभिपुत्र
अभिपुत्र/E</w>
अभिपुष्टि</w>
अभिपूर्ति</w>
अभिप्र
अभिप्रणयन</w>
अभिप्रणीत</w>
अभिप्रपन्न</w>
अभिप्रमाणित</w>
अभिप्राण
अभिप्राणन/M</w>
अभिप्राय
अभिप्रायत</w>
अभिप्रायानुसार</w>
अभिप्रेत
अभिप्रेत/sTM</w>
अभिप्ल
अभिप्लव/M</w>
अभिभ
अभिभान</w>
अभिभाव
अभिभावक
अभिभावकत्व/M</w>
अभिभाविका</w>
अभिभाष
अभिभाषक/M</w>
अभिभाषण/M</w>
अभिभूत
अभिभूत/sT
अभिभूत/sTV</w>
अभिम
अभिमंचन</w>
अभिमंड
अभिमंडनीय</w>
अभिमंत्र
अभिमंत्रक/sT</w>
अभिमंत्रितत</w>
अभिमत
अभिमतहीन</w>
अभिमद्य
अभिमद्यत</w>
अभिमन्
अभिमन्त्रित</w>
अभिमर्द
अभिमर्दन/M</w>
अभिमर्दित</w>
अभिमर्श
अभिमर्षण</w>
अभिमाद</w>
अभिमान
अभिमान-न
अभिमान-नम
अभिमान-नम्र
अभिमान-नम्रता</w>
अभिमानरहित</w>
अभिमानित/F</w>
अभिमुख
अभिमुख/sTM</w>
अभिमुखत/F</w>
अभिय
अभियंत
अभियंताउ
अभियंत्र
अभियंत्रिकी</w>
अभियन्
अभिया
अभियांत्र
अभियांत्रिकीविद</w>
अभियाच
अभियाचिका</w>
अभियाचित</w>
अभियाजक</w>
अभियान
अभियान/MEV</w>
अभियो
अभियोक्ता</w>
अभियोग
अभियोग/ME</w>
अभियोगपूर्ण</w>
अभियोगमुक्त</w>
अभियोगाधीन</w>
अभियोजन
अभियोजनप्र
अभियोजनप्रो
अभियोजनप्रोस
अभियोजनप्रोसिक
अभियोजनप्रोसिक्यू
अभियोजनप्रोसिक्यूटर</w>
अभियोजनीय</w>
अभिर
अभिरंजित</w>
अभिरक्ष
अभिरक्षा/CI</w>
अभिरचना</w>
अभिरतत/F</w>
अभिरमण</w>
अभिरमणीय</w>
अभिरा
अभिरामत/F</w>
अभिरियो</w>
अभिरु
अभिरुच
अभिरुचियुक्त</w>
अभिरुदन</w>
अभिरो
अभिरोग
अभिरोग/ED</w>
अभिरोध</w>
अभिल
अभिलंघ
अभिलंघक</w>
अभिलंघन</w>
अभिलक्ष्य</w>
अभिलम्ब
अभिलम्ब</w>
अभिलम्बीय</w>
अभिला
अभिलाक्ष
अभिलाक्षणिक</w>
अभिलाख
अभिलाभ</w>
अभिलाव</w>
अभिलाष
अभिलाषिका</w>
अभिलाषीना</w>
अभिलाष्य/sT</w>
अभिलास
अभिलास/F</w>
अभिलुप्त</w>
अभिलेख
अभिलेख-
अभिलेखन/M</w>
अभिलेखपा
अभिलेखपाल/M</w>
अभिलेखाग
अभिलेखाध
अभिलेखाध्य
अभिलेखाध्यक्ष/M</w>
अभिलो
अभिलोपन/M</w>
अभिव
अभिवंद
अभिवंदन/FM</w>
अभिवंदित/sT</w>
अभिवंद्य</w>
अभिवता</w>
अभिवदन/M</w>
अभिवन्द
अभिवन्दनीय</w>
अभिवन्दित</w>
अभिवन्द्य</w>
अभिवर्ध
अभिवर्धन/M</w>
अभिवर्धी</w>
अभिवा
अभिवाचित</w>
अभिवाद
अभिवादनपूर्ण</w>
अभिवादनीय</w>
अभिवादयिता</w>
अभिवास/M</w>
अभिवासन</w>
अभिवि
अभिविझप्त</w>
अभिविन
अभिविनय</w>
अभिविनीत/sT</w>
अभिविमान</w>
अभिविश्र
अभिविश्रुत</w>
अभिवृ
अभिवृत्ति</w>
अभिवृद्ध</w>
अभिवे
अभिवेग</w>
अभिवेचक</w>
अभिवेदक</w>
अभिव्य
अभिव्यंज
अभिव्यंजक/sT</w>
अभिव्यंजन
अभिव्यंजन/F</w>
अभिव्यंजनशीलता</w>
अभिव्यक्त
अभिव्यक्ति
अभिव्यक्तियों</w>
अभिव्याप्त</w>
अभिव्यिक्त</w>
अभिश
अभिशंक
अभिशंकित</w>
अभिशक्त</w>
अभिशप्त/sT</w>
अभिशब्
अभिशब्दित</w>
अभिशाप
अभिशापन/M</w>
अभिशास
अभिशासित</w>
अभिशीर्ष</w>
अभिशून्य
अभिशून्यन</w>
अभिशोक</w>
अभिशोषित</w>
अभिष
अभिषंग
अभिषंग/F</w>
अभिषंजन/M</w>
अभिषय</w>
अभिषुक</w>
अभिषे
अभिषेचनीय</w>
अभिषेणन</w>
अभिषेध/M</w>
अभिष्
अभिस
अभिसं
अभिसंग/M</w>
अभिसंत
अभिसंधानन</w>
अभिसंधि
अभिसंधि/sT</w>
अभिसंश्रयण</w>
अभिसंस्
अभिसंस्कार</w>
अभिसन्ध
अभिसमय/M</w>
अभिसम्मत</w>
अभिसर
अभिसाध
अभिसाधक/M</w>
अभिसाधन/M</w>
अभिसार
अभिसि
अभिसिंच
अभिसिंचनीय</w>
अभिसिंच्य</w>
अभिसूचना/JK</w>
अभिस्त्र
अभिस्त्रावक</w>
अभिस्त्रावण/E</w>
अभिस्थ
अभिस्थित/sT</w>
अभिस्थिर</w>
अभिस्थैतिक</w>
अभिस्य
अभिस्यंद/E</w>
अभिस्यन्द/E</w>
अभिस्र
अभिस्राव</w>
अभिस्वी
अभिस्वीकरण</w>
अभिह
अभिहत</w>
अभिहति</w>
अभिहर</w>
अभिहस्त
अभिहस्तांतर</w>
अभिहि
अभिहितत</w>
अभिहिति</w>
अभिहूत</w>
अभी
अभीत/sT</w>
अभीप्
अभीप्स
अभीप्सा/IJK
अभीप्सा/IJKGC</w>
अभीमोद</w>
अभीष्ट
अभीष्ट/sTMF</w>
अभीष्टद</w>
अभीष्टदायक</w>
अभीष्टि</w>
अभु
अभुक्
अभुक्त
अभुक्तपूर्व</w>
अभुक्तम
अभुक्तमूल</w>
अभू
अभूत
अभूत/sT</w>
अभूतपूर्व
अभूतपूर्वत/F</w>
अभूरि</w>
अभूषित</w>
अभेद
अभेद/M</w>
अभेर
अभै
अभैदिक</w>
अभो
अभोख
अभोखण</w>
अभोग
अभोजन
अभोजनीय/sT</w>
अभौ
अभौतिक
अभौतिकवाद</w>
अभ्य
अभ्यंजन/M</w>
अभ्यंत
अभ्यंतर
अभ्यंतर/M</w>
अभ्यंतरक/M</w>
अभ्यक्त</w>
अभ्यर्च
अभ्यर्थ
अभ्यर्प
अभ्यर्पक</w>
अभ्यर्पण/M</w>
अभ्यर्पित/E</w>
अभ्यव
अभ्यवस्क
अभ्यवस्कंद</w>
अभ्यवस्कंदन</w>
अभ्यसू
अभ्यसूय/F</w>
अभ्यस्त
अभ्यस्त/sTM</w>
अभ्या
अभ्यांतर</w>
अभ्याग
अभ्यागमन</w>
अभ्याधानन</w>
अभ्याप
अभ्यापत्ति</w>
अभ्यामर्द</w>
अभ्याय/M</w>
अभ्यार
अभ्यारण्य</w>
अभ्यावेदन/M</w>
अभ्यास
अभ्यास/MEV</w>
अभ्यासन</w>
अभ्यासर
अभ्यासिक/F</w>
अभ्यासिका/JK</w>
अभ्यासित्र</w>
अभ्याहत</w>
अभ्याहरण</w>
अभ्याहार/M</w>
अभ्यु
अभ्युक्त</w>
अभ्युक्ति</w>
अभ्युच्च
अभ्युच्छ
अभ्युच्छ्र
अभ्युच्छ्रय</w>
अभ्युत
अभ्युतक्रो
अभ्युतक्रोशन
अभ्युतक्रोशनम
अभ्युतक्रोशनमंत्र</w>
अभ्युति</w>
अभ्युत्थ
अभ्युत्थेय</w>
अभ्युद
अभ्युदय/M</w>
अभ्युद्
अभ्युद्गत</w>
अभ्युद्घ
अभ्युद्घातित</w>
अभ्युद्दिष्ट</w>
अभ्युद्देश
अभ्युद्देशक</w>
अभ्युद्ध
अभ्युद्धरंग</w>
अभ्युप
अभ्युपगम/M</w>
अभ्युपपत्ति</w>
अभ्युपा
अभ्युपाय</w>
अभ्युपित</w>
अभ्युपेत</w>
अभ्युपेय</w>
अभ्यूढ़</w>
अभ्र
अभ्रं
अभ्रंलिह</w>
अभ्रक-
अभ्रक-खान
अभ्रक-खान-
अभ्रक-खान-श्र
अभ्रक-खान-श्रम-
अभ्रक-खान-श्रम-कल
अभ्रक-खान-श्रम-कल्याण
अभ्रक-खान-श्रम-कल्याण-
अभ्रक-खान-श्रम-कल्याण-निधि/PQ</w>
अभ्रना
अभ्रनामक</w>
अभ्रपि
अभ्रपिशा
अभ्रपिशाच</w>
अभ्रष्ट</w>
अभ्ष
अभ्षक्ति</w>
अम
अमंग
अमंगल
अमंगल/qM</w>
अमंड</w>
अमंत्र
अमंत्र</w>
अमंत्रणा</w>
अमका
अमका-ध
अमका-धम
अमका-धमका</w>
अमघौत</w>
अमच
अमचुर</w>
अमज
अमजद</w>
अमजोद</w>
अमत
अमत/M
अमत/MU</w>
अमत्
अमत्सर/M</w>
अमद
अमदोन्मत्त</w>
अमद्य
अमद्यप</w>
अमध
अमधुर</w>
अमन
अमन/MF</w>
अमनच
अमनचै
अमनचैन/M</w>
अमनज
अमनजोत</w>
अमनप
अमनपंस
अमनपंसद/E</w>
अमनपस
अमनपसंद/E</w>
अमनस</w>
अमनाक</w>
अमनीषी</w>
अमनुष
अमनृत</w>
अमनै
अमनैक
अमनैक/ME</w>
अमनो
अमनोज्ञ
अमनोज्ञत</w>
अमनोन
अमनोह
अमनोहर</w>
अमन्द</w>
अमपारा</w>
अमर
अमर-
अमर-ध
अमर-धाम</w>
अमर-ब
अमर-बेल</w>
अमर-बौंर</w>
अमर-व
अमर-वल्ल
अमर-वल्ली</w>
अमरई</w>
अमरक
अमरकंट
अमरकंटिका</w>
अमरकंद</w>
अमरका
अमरकाष्ठ</w>
अमरकोश/M</w>
अमरत्व/M</w>
अमरदारु</w>
अमरद्वि
अमरद्विज</w>
अमरप
अमरपुष्पिका</w>
अमरप्र
अमरप्रख्य</w>
अमरप्रभ</w>
अमरबेल/LM</w>
अमरमाला</w>
अमरर
अमररत्न</w>
अमरराज</w>
अमरलोक
अमरलोक/sTM</w>
अमरवल्ली</w>
अमरशाही</w>
अमरसर
अमरसरित/F</w>
अमरसिंह</w>
अमरस्त्र
अमरस्त्री</w>
अमरा
अमराद्रि</w>
अमराव</w>
अमरित</w>
अमरीक
अमरीकर</w>
अमरीका
अमरीका-विरोधी</w>
अमरीका-संबंधी</w>
अमरीकी
अमरीकी</w>
अमरीकीकरण</w>
अमरीश
अमरीशपुरी</w>
अमरु</w>
अमरुत</w>
अमरू</w>
अमरेश/M</w>
अमरोप
अमरोपम</w>
अमर्ष
अमर्षज</w>
अमर्षण</w>
अमल
अमल-प
अमल-पट्
अमल-पट्टी</w>
अमलको
अमलकोची</w>
अमलबे
अमलबेंत</w>
अमलाक</w>
अमलारा</w>
अमलास
अमलासा
अमलियो</w>
अमलीकरण</w>
अमह
अमहर/M</w>
अमहैरिक</w>
अमा
अमां
अमांस
अमांसल
अमांसलकाय</w>
अमाइ
अमाइताल</w>
अमाइयो</w>
अमाई
अमाईताल</w>
अमात
अमातृ
अमातृता</w>
अमात्स
अमात्सर्य</w>
अमाद
अमादक</w>
अमान
अमानत
अमानतदार/M</w>
अमानव
अमानवित</w>
अमानवो
अमानवोचित
अमानवोचितत/F</w>
अमानु
अमानुष
अमानुष/sTME</w>
अमानुषीकरण</w>
अमायिक</w>
अमार/E</w>
अमार्
अमार्मिक</w>
अमाव
अमाव/8ED34sTv</w>
अमावस
अमावस/LME</w>
अमावास
अमावास्या</w>
अमाह
अमाह/E</w>
अमि
अमि/QsTM</w>
अमिट
अमित
अमितविक्रम</w>
अमिता
अमिताभ
अमिताभजी</w>
अमित्र
अमित्रा
अमित्राक्षर/M</w>
अमित्र्य</w>
अमिय
अमिल
अमिलता
अमिलतास</w>
अमिश्र
अमिश्र/sT</w>
अमिश्रणीय</w>
अमिश्रेय</w>
अमी
अमीकला</w>
अमीकी</w>
अमीत</w>
अमीन
अमीनदी
अमीनदीवी</w>
अमीनिधि/PQ</w>
अमीब
अमीबा
अमीबाणु</w>
अमीर
अमीरउ
अमीरउमरा</w>
अमीरा
अमीरात/M</w>
अमीराना</w>
अमीरू
अमीरूल</w>
अमु
अमुंडित</w>
अमुक/sTM</w>
अमुकुल
अमुकुल</w>
अमुकुलित/sT</w>
अमुची</w>
अमुत्र</w>
अमुर</w>
अमुष
अमुष्य
अमुष्य</w>
अमुष्यकुल</w>
अमुष्यपुत्र/ME</w>
अमू
अमूत्तर</w>
अमूर</w>
अमूर्
अमूर्त
अमूर्ति</w>
अमूर्त्ति</w>
अमूलक</w>
अमृत
अमृत-
अमृत-ना
अमृत-नाद
अमृत-नादोपनिषद्</w>
अमृत-बि
अमृत-बिंदु</w>
अमृत-बिन्दु</w>
अमृत-रश्मि</w>
अमृतकामना</w>
अमृतकु
अमृतकुंभ</w>
अमृतगति</w>
अमृतगर्भ</w>
अमृतदान</w>
अमृतद्र
अमृतद्रव</w>
अमृतधार
अमृतधारा/CI</w>
अमृतधु
अमृतधुनि</w>
अमृतफल
अमृतफल/MF</w>
अमृतब
अमृतबंधु</w>
अमृतबिंदु</w>
अमृतभोजी</w>
अमृतम
अमृतमति</w>
अमृतमहल</w>
अमृतमाल
अमृतमालिनी</w>
अमृतमूरि</w>
अमृतरस
अमृतरस/MF</w>
अमृतल
अमृतलता</w>
अमृतवल्लरी</w>
अमृतवा
अमृतवाका</w>
अमृतस
अमृतसम्
अमृतसम्भवा</w>
अमृतसह
अमृतसहोदर</w>
अमृतसार/M</w>
अमृतांश
अमृतांशू
अमृतांशूद्
अमृतांशूद्भव</w>
अमृताश
अमृताहरण</w>
अमृतीश
अमृतीशु</w>
अमृतेश
अमृतेशय</w>
अमृतेष्ट
अमृतेष्टका</w>
अमे
अमेंड
अमेंडमेंट/M</w>
अमेट
अमेट</w>
अमेट्य/sT</w>
अमेठ
अमेठ/8ED34sTv</w>
अमेठियो</w>
अमेद
अमेदस्क
अमेदस्किनी</w>
अमेधा</w>
अमेध्य
अमेध्यत्व</w>
अमेर
अमेरि
अमेरिंड</w>
अमेरिक
अमेरिका
अमेरिकावास/0E</w>
अमेरिकाज़</w>
अमेरिकी-इन्डियन</w>
अमेरी-
अमेरी-इ
अमेरी-इंड
अमेरी-इंडियन</w>
अमेरीक
अमेरीका/G</w>
अमै
अमैंड़</w>
अमो
अमोघ
अमोघदंड</w>
अमोघपतन</w>
अमोन
अमोल
अमौ
अमौआ</w>
अमौवा</w>
अम्
अम्पाय
अम्पायर/M</w>
अम्ब
अम्बक</w>
अम्बरी
अम्बरीष</w>
अम्बानी</w>
अम्बार/E</w>
अम्बाह
अम्बाहलदी</w>
अम्बाहल्दी</w>
अम्बाड़ी</w>
अम्बिका/JK</w>
अम्बु
अम्बुक
अम्बुकण्टक</w>
अम्बुकेशी</w>
अम्बुचामर</w>
अम्बुद</w>
अम्बे
अम्बेर</w>
अम्म
अम्मय</w>
अम्मरस</w>
अम्मा
अम्माँ
अम्माँें</w>
अम्माजी</w>
अम्मौ
अम्मौं</w>
अम्र
अम्रातक</w>
अम्ल
अम्ल-
अम्ल-प
अम्ल-परीक्षण</w>
अम्लक
अम्लकेशर</w>
अम्लजन</w>
अम्लन</w>
अम्लनाशक</w>
अम्लपंच
अम्लपंचक/M</w>
अम्लरक्त
अम्लरक्तता</w>
अम्लवारक</w>
अम्लवे
अम्लवेत</w>
अम्लस
अम्लसह</w>
अम्लहर</w>
अम्लाध
अम्लाधिक्य</w>
अम्लाध्य
अम्लाध्युषित</w>
अम्लिका</w>
अम्लिमा/JK</w>
अम्लीकरण</w>
अम्लीय/sT</w>
अम्लोप
अम्लोपचय</w>
अम्ह
अय
अय/MD</w>
अयः
अयःपान</w>
अयःश
अयःशंकु</w>
अयःशिरा</w>
अयःशूल</w>
अयजनीय</w>
अयज्ञ
अयज्ञिप</w>
अयज्ञिय</w>
अयत
अयत/E</w>
अयतेंद्र
अयतेंद्रिय</w>
अयत्न
अयत्नकृतत</w>
अयथ
अयथा</w>
अयथापूर्
अयथापूर्वत</w>
अयथो
अयथोच
अयथोचितत</w>
अयन
अयन-काल/M</w>
अयन-सं
अयन-संक्रम</w>
अयनस
अयनसं
अयनसंक्रम</w>
अयनसंक्रां
अयनसंक्रांति</w>
अयनसन्
अयनसन्पात</w>
अयना
अयनांश/M</w>
अयश्च
अयश्चूर्ण</w>
अयस
अयसस्
अयसस्कांत
अयसस्कांतमणि</w>
अयसा
अयसाकर्षण</w>
अयसायक</w>
अयस्
अयस्</w>
अयस्क
अयस्क/M</w>
अयस्कम</w>
अयस्कांड</w>
अयस्कांत
अयस्कान्त</w>
अया
अयाचित/M</w>
अयाज्य
अयाज्यत्व</w>
अयात
अयादि</w>
अयान
अयान/FEsT</w>
अयापनीय</w>
अयाल
अयाशी</w>
अयु
अयुक्
अयुक्तत्व</w>
अयुक्ति
अयुक्तिपूर्ण/M</w>
अयुग
अयुग</w>
अयुगि
अयुगिषु</w>
अयुग्
अयुग्बाण</w>
अयुग्म
अयुग्मनयन</w>
अयुग्मवाह</w>
अयुद्ध
अयुद्ध</w>
अयुद्धक</w>
अयुध</w>
अयुध्य</w>
अयो
अयोग
अयोगव</w>
अयोच्छ
अयोच्छिष्ट</w>
अयोज
अयोजित/sTM</w>
अयोध्य
अयोध्या
अयोध्याप
अयोध्यापति</w>
अयोनि
अय्य
अय्यव
अय्यवझी</w>
अर
अर</w>
अरंग
अरंग/E</w>
अरंगे
अरंगेत्र
अरंगेत्रम</w>
अरंजित</w>
अरक
अरक/8sTvLMED</w>
अरकंटक</w>
अरकटी</w>
अरकन
अरकनाना</w>
अरकला</w>
अरका
अरकाट/E</w>
अरकासार</w>
अरको
अरकोछ
अरकोछ</w>
अरकोल</w>
अरक्त
अरक्त/sT</w>
अरक्ष
अरक्षितत/F</w>
अरग
अरग/F</w>
अरगज
अरगजा/GCI</w>
अरगत</w>
अरगलीय</w>
अरगवानी</w>
अरगो
अरगोट</w>
अरग्र
अरग्रगामी</w>
अरघ
अरज
अरट</w>
अरड
अरडी
अरडींग</w>
अरण
अरण्य
अरण्य-
अरण्य-षष्ठी</w>
अरण्यचंद्र
अरण्यचंद्रिका/JK</w>
अरण्यद
अरण्यदमन/M</w>
अरण्यनि
अरण्यनिनाद/M</w>
अरण्यमु
अरण्यमुद्‌
अरण्यमुद्‌ग</w>
अरण्यराज/M</w>
अरण्यरो
अरण्यरोदन/M</w>
अरण्यवास
अरण्यवास/EM</w>
अरण्यश्व
अरति
अरत्
अरत्नि</w>
अरथ
अरथ/FE</w>
अरथा/7G34sTv</w>
अरथी
अरथीवाहक</w>
अरद
अरदंड</w>
अरदल/E</w>
अरदा
अरदाबा</w>
अरदियो</w>
अरध</w>
अरनि</w>
अरप
अरब
अरब-इ
अरब-इज़
अरब-इज़राइ
अरब-इज़राइल</w>
अरबवाँ</w>
अरबी-
अरबी-भाषा/K</w>
अरभ
अरभक</w>
अरम</w>
अरमणीय</w>
अरमे
अरमेनिया
अरमेनियाई-
अरमेनियाई-लिपि</w>
अरमेनियाई</w>
अरम्भ
अरम्भ/834sTvED</w>
अरम्भियो</w>
अरर
अरर/8sTvFED</w>
अररा/7AGCB34sTv</w>
अरराया</w>
अरल
अरलि</w>
अरलुक</w>
अरलू</w>
अरलो
अरलोन</w>
अरलौन</w>
अरवि
अरविंद
अरविंदनाभि</w>
अरविंदबंधु</w>
अरविंदयोनि</w>
अरविन्द
अरविन्ददलप्रभ</w>
अरविन्दसद</w>
अरस
अरस-परस</w>
अरस/834sTvLMFED</w>
अरसठ</w>
अरसत/FED</w>
अरसन
अरसन-पर
अरसन-परसन</w>
अरसयान</w>
अरसात
अरसात/FED</w>
अरसियो</w>
अरसौंह
अरसौंहाँ</w>
अरसौहां</w>
अरह
अरहट</w>
अरहर/M</w>
अरा
अराग
अराग/E</w>
अरागज</w>
अराज
अराजकता
अराबा</w>
अरार
अरार/F</w>
अरारुट</w>
अराल
अराल/FM</w>
अरावक</w>
अराष्ट्र
अराष्ट्रिक</w>
अरि
अरि-
अरि-मेद</w>
अरिंद
अरिंदम</w>
अरिआक
अरित्र
अरित्रीय</w>
अरित्व</w>
अरिथ
अरिथमै
अरिथमैटिक</w>
अरिद
अरिदमन</w>
अरिपु</w>
अरिप्र
अरिप्रकृति</w>
अरिबेल
अरिबेलस/M</w>
अरिमर्द</w>
अरिय
अरियल</w>
अरिया/7B34sTv</w>
अरिल्ल
अरिल्ल/M</w>
अरिवन</w>
अरिष्ट
अरिष्टलक्षण/M</w>
अरिष्टसूदन</w>
अरिष्टिका</w>
अरिह
अरिहा/CI</w>
अरिहीन</w>
अरीकरण</w>
अरीत
अरीतिक</w>
अरीढ़</w>
अरु
अरुं
अरुंतु
अरुंतुद/M</w>
अरुंध
अरुंधती</w>
अरुंषिका</w>
अरुक्ष</w>
अरुगण</w>
अरुचि
अरुचि</w>
अरुज/M</w>
अरुझ
अरुझ/F</w>
अरुण
अरुणचू
अरुणचूड़</w>
अरुणलोचन</w>
अरुणसार</w>
अरुणा
अरुणाचल
अरुणाचल/E</w>
अरुणाश्व
अरुणाश्व/M</w>
अरुणोद
अरुन
अरुनाइयो</w>
अरुनार
अरुनार/F</w>
अरुन्तु
अरुन्तुद</w>
अरुन्ध
अरुप/sT</w>
अरुवा/CI</w>
अरुस</w>
अरू
अरूंतु
अरूंतुद</w>
अरूकन</w>
अरूग्
अरूग्ण</w>
अरूचि
अरूचि/QM</w>
अरूण
अरूण/FsT</w>
अरूणसारथी</w>
अरूणा
अरूणाचल</w>
अरूणि</w>
अरूप
अरूपलोक</w>
अरूपा
अरूपाव
अरूपावचर</w>
अरूरु</w>
अरे
अरे-प
अरे-परे</w>
अरेब
अरेबिक</w>
अरेस्ट
अरेस्ट/M</w>
अरेस्टिड</w>
अरै
अरो
अरोक</w>
अरोख</w>
अरोग
अरोच</w>
अरोष</w>
अरोह
अरोह/8ED34sTv</w>
अरौ
अरौक
अरौकान
अरौकानो</w>
अर्
अर्क
अर्क/EM</w>
अर्ककर</w>
अर्ककां
अर्ककांता</w>
अर्कच
अर्कचंदन</w>
अर्कपत्र
अर्कपत्र/FE</w>
अर्कपुष्पी</w>
अर्कप्रिया</w>
अर्कमूल</w>
अर्कसु
अर्कसूनु</w>
अर्ग
अर्गजा</w>
अर्गल
अर्गो
अर्गोमीटर</w>
अर्घ
अर्घदान</w>
अर्घीश</w>
अर्घ्य/M</w>
अर्च
अर्चा/GCI</w>
अर्चि
अर्ज
अर्ज/E</w>
अर्जक/sTM</w>
अर्जन
अर्जन/M</w>
अर्जनीय</w>
अर्जमा</w>
अर्जितत</w>
अर्जी
अर्जीनवीस/M</w>
अर्जुन
अर्जुनदेव</w>
अर्जुनरोग</w>
अर्जुनोपदेश</w>
अर्जे
अर्जेंट
अर्जेंटि
अर्जेंटिना</w>
अर्जेन्
अर्जेन्ट
अर्जेन्टाइन</w>
अर्जेन्टि
अर्जेन्टिना
अर्जेन्टिनाई</w>
अर्जेन्टीना</w>
अर्जै
अर्जैंसी</w>
अर्ण
अर्णव
अर्णवनेमि</w>
अर्णवपति</w>
अर्णवीय</w>
अर्णवोद्
अर्णवोद्भव/F</w>
अर्तन/M</w>
अर्थ
अर्थ-
अर्थ-भावना</w>
अर्थ-म
अर्थ-मंत्र
अर्थ-मंत्री</w>
अर्थ-वि
अर्थ-व्य
अर्थ-व्यवस्था</w>
अर्थ-संबंधी</w>
अर्थ-१
अर्थ-१</w>
अर्थकृ
अर्थकृछ
अर्थकृछ्र</w>
अर्थकोश</w>
अर्थच्छ
अर्थच्छट
अर्थच्छटाएँ</w>
अर्थच्छाया</w>
अर्थमिति
अर्थमितिपरक</w>
अर्थव
अर्थवान/M</w>
अर्थव्य
अर्थव्यज
अर्थव्यजंक</w>
अर्था
अर्थागम/M</w>
अर्थात
अर्थात/MFED</w>
अर्थातर</w>
अर्थातिक्र
अर्थातिक्रम/M</w>
अर्थाध
अर्थान
अर्थानर्थ
अर्थानर्थापद/M</w>
अर्थानु
अर्थाप
अर्थापकर्ष</w>
अर्थापति</w>
अर्थापत्ति</w>
अर्थाल
अर्थालं
अर्थि
अर्थिक/ME</w>
अर्थे
अर्थेतर</w>
अर्थो
अर्थों
अर्थोंपार्
अर्थोंपार्जन</w>
अर्थोत्कर्ष/M</w>
अर्थोद्घ
अर्थोद्घाट
अर्थोद्घाटन/M</w>
अर्थोप
अर्थोपक्षेप
अर्थोपक्षेपक/M</w>
अर्थोपा
अर्थ्य</w>
अर्द
अर्दन/MFD</w>
अर्दली</w>
अर्द्ध
अर्द्ध-
अर्द्ध-नार
अर्द्ध-नाराच</w>
अर्द्ध-नारीश्वर/ME</w>
अर्द्ध-पारदर्शी</w>
अर्द्ध-वृत्त</w>
अर्द्ध-स
अर्द्ध-सम</w>
अर्द्धगु
अर्द्धगुच्छ</w>
अर्द्धचंद्र
अर्द्धचंद्रिका</w>
अर्द्धचन्द्र
अर्द्धनार
अर्द्धनाराच</w>
अर्द्धनारीश</w>
अर्द्धनारीश्वर/ME</w>
अर्द्धप
अर्द्धपार
अर्द्धपारदर्शक</w>
अर्द्धपारदर्शी</w>
अर्द्धपारावत</w>
अर्द्धपोहल</w>
अर्द्धवार्षिक</w>
अर्द्धवृत्ताकार</w>
अर्द्धश
अर्द्धस
अर्द्धसम</w>
अर्द्धांग
अर्द्धिक</w>
अर्द्धीकरण</w>
अर्द्धेंदु</w>
अर्द्धेन्दु</w>
अर्ध
अर्ध-
अर्ध-कपाली</w>
अर्ध-गोलाकार</w>
अर्ध-त
अर्ध-तार
अर्ध-तारकीय</w>
अर्ध-न
अर्ध-नग्न</w>
अर्ध-नार
अर्ध-नाराच</w>
अर्ध-पारदर्शी</w>
अर्ध-म
अर्ध-मत्स
अर्ध-मत्स्य
अर्ध-मत्स्येन्द्र
अर्ध-मत्स्येन्द्रासन</w>
अर्ध-वर्ष</w>
अर्ध-विरा
अर्ध-विराम</w>
अर्ध-वृत्त</w>
अर्ध-व्यास</w>
अर्ध-श
अर्ध-स
अर्ध-साप्ताहिक</w>
अर्धउ
अर्धउष्
अर्धउष्ण/M</w>
अर्धक
अर्धकथित</w>
अर्धकु
अर्धकुसु
अर्धकुसुमित</w>
अर्धकेतु</w>
अर्धक्रो
अर्धक्रोमो
अर्धक्रोमोसोम</w>
अर्धक्षमता</w>
अर्धगोल</w>
अर्धचंद्र
अर्धचक्र</w>
अर्धचन्द्र
अर्धचन्द्र</w>
अर्धचन्द्राकार</w>
अर्धचाल
अर्धचालक/M</w>
अर्धचेतन/F</w>
अर्धजन्मा</w>
अर्धज्ञान/M</w>
अर्धज्यो
अर्धज्योतिका</w>
अर्धतर
अर्धतरल
अर्धतरलीकृत</w>
अर्धद
अर्धदेव
अर्धदेव/sTM</w>
अर्धधार</w>
अर्धन
अर्धन</w>
अर्धनग्न/sT</w>
अर्धनर
अर्धनरनार
अर्धनरनारी</w>
अर्धनार
अर्धनाराच</w>
अर्धनारी</w>
अर्धनि
अर्धनिमीलित</w>
अर्धनिशा</w>
अर्धप
अर्धपरि
अर्धपरिधानित</w>
अर्धपरिमाण</w>
अर्धपार
अर्धपारावत</w>
अर्धप्र
अर्धप्रदेश</w>
अर्धप्रस्फ
अर्धबिंदु</w>
अर्धबुद्धि</w>
अर्धभाज</w>
अर्धमंडल</w>
अर्धमात्रिक</w>
अर्धमानव</w>
अर्धमूल्य</w>
अर्धयंत्र
अर्धयंत्रीकृत</w>
अर्धरात्रि</w>
अर्धवयस्क</w>
अर्धवर्षीय</w>
अर्धवि
अर्धविधिक</w>
अर्धविस्म
अर्धविस्मृत</w>
अर्धव्या
अर्धव्यास/M</w>
अर्धव्यासीय</w>
अर्धश
अर्धशत/E</w>
अर्धशताब्दी</w>
अर्धशब्द</w>
अर्धशासकीय</w>
अर्धशिक्षितत</w>
अर्धस
अर्धसत्य</w>
अर्धसम
अर्धसम/M</w>
अर्धसमकोण</w>
अर्धसमवृत्त/M</w>
अर्धसम्मत</w>
अर्धसह
अर्धसहस
अर्धसहस्रा
अर्धसहस्राब्
अर्धसहस्राब्दीय</w>
अर्धसाप्ताहिक</w>
अर्धसूत्रण</w>
अर्धसेतु</w>
अर्धस्वर</w>
अर्धहि
अर्धहिमित</w>
अर्धा
अर्धांग
अर्धांग-प
अर्धांग-पक्ष
अर्धांग-पक्षा
अर्धांग-पक्षाघात</w>
अर्धांग/EM</w>
अर्धांगग्रस्त</w>
अर्धांध
अर्धांध/sT</w>
अर्धांश
अर्धाग
अर्धागिनी/OM</w>
अर्धातु</w>
अर्धावृत्त</w>
अर्धिद</w>
अर्धेंद
अर्धेंदु
अर्धेंदु</w>
अर्धेंदुभूष
अर्धेंदुभूषण</w>
अर्धो
अर्धोत्
अर्धोत्थित</w>
अर्धोन्
अर्धोन्मत्त</w>
अर्धोन्मीलित</w>
अर्धोशा</w>
अर्ना
अर्ना</w>
अर्नास्त
अर्नास्तत्व</w>
अर्न्त
अर्प
अर्पण
अर्पण/MF</w>
अर्पणीय</w>
अर्पयिता</w>
अर्पित
अर्पित/MF</w>
अर्ब
अर्बु
अर्बुद
अर्बुदि</w>
अर्भ
अर्म</w>
अर्मनी</w>
अर्मे
अर्मेनियन</w>
अर्मेनिया</w>
अर्य
अर्यमन</w>
अर्या
अर्याणी</w>
अर्य्य
अर्य्यमा</w>
अर्राइयो</w>
अर्ल
अर्ल/EM</w>
अर्वा
अर्वा/CI</w>
अर्वाक
अर्वाकसुत</w>
अर्वाच
अर्वाचीन
अर्वाचीनत/F</w>
अर्श
अर्शो
अर्शोज</w>
अर्ह
अर्हक/M</w>
अर्हत
अर्हता
अर्हतासंप
अर्हतासंपन्न/sT</w>
अर्हताहीन/sT</w>
अर्हन/M</w>
अर्हित/sTM</w>
अर्ह्यत</w>
अर्ज़
अर्ज़नामा</w>
अरक़</w>
अरज़
अऱ
अल
अल-
अल-का
अल-कायदा</w>
अल-मै
अल-मैग्री
अल-मैग्रीब</w>
अलं
अलंकरणीय</w>
अलंकार
अलंकार/sTM
अलंकार/sTMyx
अलंकार/sTMyxE</w>
अलंकारक</w>
अलंकारवाद/M</w>
अलंकारशास्त्र
अलंकारशास्त्र/ME</w>
अलंकारहीन/sT</w>
अलंकारहीनतः</w>
अलंकारिक/sT</w>
अलंकित</w>
अलंकृत
अलंकृत/sTM</w>
अलंकृत</w>
अलंकृतत/F</w>
अलंकृति</w>
अलंघ
अलंपट</w>
अलंब
अलक
अलकतर
अलकतरा/IC</w>
अलकन
अलकप्रभा</w>
अलकस
अलकसलो
अलकसलोरा</w>
अलकसाहट</w>
अलका
अलकाधिप</w>
अलकापति</w>
अलकायदा</w>
अलकेश्वर/ME</w>
अलकोहल/M</w>
अलक्ष
अलक्षरों
अलक्षरोंमे
अलक्षरोंमें</w>
अलक्ष्मी</w>
अलक्ष्य</w>
अलक्ष्यत</w>
अलख
अलखधारी</w>
अलखन
अलखनंद
अलखनंदा</w>
अलखनन्दा</w>
अलखित</w>
अलग
अलग-अल
अलग-अलग</w>
अलग/MF</w>
अलगकृत</w>
अलगाव
अलगाववाद/ME</w>
अलगाववादपूर्ण</w>
अलगौ
अलगौझ
अलगौझा/IC</w>
अलघ
अलघु
अलघुकरणीय</w>
अलज
अलट
अलट/FE</w>
अलप
अलपकालीन</w>
अलपबुद्धि</w>
अलप्
अलप्पुझा</w>
अलफ
अलब
अलबत्ता</w>
अलबर्
अलबर्क़</w>
अलबान
अलबाल</w>
अलबे
अलबेट</w>
अलबेत्ता</w>
अलबेनिया</w>
अलबेला/G</w>
अलब्ध
अलब्धनिद्र</w>
अलब्धाभ
अलब्धाभी
अलब्धाभीप्सित</w>
अलम
अलमबर
अलमबरदार
अलमबरदार/ME</w>
अलमर</w>
अलमास</w>
अलमु
अलमुनियम</w>
अलम्
अलरि
अलरिप्
अलरिप्पु</w>
अलर्
अलर्क
अलर्कग्रस्त</w>
अलल
अललट
अललटप</w>
अललब
अललबछ
अललबछेड़
अललाइयो</w>
अललितत</w>
अलल्ल
अलल्लाँ</w>
अलल्लां</w>
अलव
अलवा
अलवाई</w>
अलस
अलसाइयो</w>
अलस्का</w>
अलह
अलहदगी</w>
अलहरि
अलहरिल</w>
अलाइ
अलाइन
अलाइनमैंट</w>
अलाई/O</w>
अलाउ
अलाट
अलात
अलातचक्र/M</w>
अलाद
अलादीन</w>
अलान
अलानिया</w>
अलाप
अलापनीय</w>
अलाब
अलाबामा</w>
अलाभ
अलाय
अलाय-ब
अलाय-बला
अलाय-बलाय</w>
अलार
अलारम</w>
अलार्
अलार्म
अलार्मबेल/LM</w>
अलाल
अलाल</w>
अलालित्य</w>
अलाव
अलाव/FEDM</w>
अलास्य</w>
अलि
अलिंग
अलिंगजनन</w>
अलिंजर/M</w>
अलिंद
अलिंदनि
अलिंदनिल
अलिंदनिलय-
अलिंदनिलय-अवरोध</w>
अलिंदित</w>
अलिन्द</w>
अलिप
अलिपर्
अलिपर्णी</w>
अलिपि
अलिपुर</w>
अलिबाग़</w>
अलिमक</w>
अलिफ़
अलिफ़/M</w>
अली
अलीगढ़</w>
अलीबाग़</w>
अलीम</w>
अलीशान</w>
अलु
अलुझ
अलुम
अलू
अलूम
अलूमिनियम</w>
अलूमीन
अलूमीनम</w>
अले
अलेउ
अलेउत</w>
अलेक्
अलेक्ज
अलेक्जा
अलेक्जांडर</w>
अलेक्जेंड
अलेक्ज़
अलेक्ज़ा
अलेक्ज़ेन्ड
अलेक्ज़ेन्डर</w>
अलेक्ज़ेन्ड्रिया</w>
अलेग्
अलेग्र
अलेग्ज़ा
अलेग्ज़ांडर</w>
अलै
अलैकम</w>
अलैह</w>
अलो
अलोक
अलोन
अलोनापन</w>
अलोप
अलोप/FM</w>
अलोभ
अलोभ/E</w>
अलोभ्य</w>
अलोम</w>
अलोह
अलोहा/G</w>
अलौ
अलौक
अलौकिक-स
अलौकिक-सा</w>
अल्
अल्कली</w>
अल्कै
अल्कैस्त
अल्कैस्तीस</w>
अल्गो
अल्गोरि
अल्ज
अल्जी
अल्जीय
अल्जीयर्स</w>
अल्जीर
अल्जीरिआ
अल्जे
अल्जेर
अल्जेरिआ
अल्जेरिआवास/E0</w>
अल्जेरियन</w>
अल्जेरिया-वासी/O</w>
अल्जेरियाई</w>
अल्ट
अल्ट्र
अल्ट्रा
अल्ट्रामाइ
अल्ट्रामाइक्र
अल्ट्रामाइक्रो</w>
अल्ट्रावाय
अल्ट्रावायलैट</w>
अल्ट्रास
अल्ट्रासोन
अल्ट्रासोनो
अल्ट्रासोनोग्रा
अल्थि
अल्थिंग</w>
अल्ना</w>
अल्प
अल्प-
अल्प-न
अल्प-नूतन</w>
अल्प-बि
अल्प-बिंबा
अल्प-बिंबाणु</w>
अल्पकाल
अल्पकालिक
अल्पकालिकचर्चा</w>
अल्पकालीन
अल्पक्र
अल्पचाप</w>
अल्पजीविता</w>
अल्पज्ञ
अल्पज्ञात/sT</w>
अल्पज्वर</w>
अल्पत
अल्पतंत्र
अल्पतरत/F</w>
अल्पतांत्र
अल्पतांत्रिक-
अल्पतांत्रिक-अधिकारी</w>
अल्पतांत्रिक</w>
अल्पदर्शन</w>
अल्पदृष्टि</w>
अल्पन
अल्पनूतन</w>
अल्पपरि
अल्पप्र
अल्पप्रतिकर्म</w>
अल्पप्रयुक्त</w>
अल्पप्राण</w>
अल्पबुद्धि</w>
अल्पभाग्य</w>
अल्पभार
अल्पभार/sT</w>
अल्पभाष
अल्पभाषण</w>
अल्पभो
अल्पभोज
अल्पभोजिता</w>
अल्पभोजी</w>
अल्पम
अल्पमत/M</w>
अल्पमध्य
अल्पमध्यम/F</w>
अल्पमू
अल्पमूत्र
अल्पमूत्रता</w>
अल्पमूल
अल्पमूल्य/sT</w>
अल्पमे
अल्पमेधा</w>
अल्परक्त
अल्पल
अल्पवय
अल्पवि
अल्पविक
अल्पविकसित</w>
अल्पव्यय
अल्पव्ययीय</w>
अल्पश</w>
अल्पष्ठी</w>
अल्पस
अल्पसं
अल्पसंख्य
अल्पसंज्ञ
अल्पसंज्ञात/sT</w>
अल्पसादृश्य</w>
अल्पसु
अल्पसुवि
अल्पसुविधा</w>
अल्पस्थ
अल्पस्थाय
अल्पस्थायित्व</w>
अल्पस्थायी</w>
अल्पहार/E</w>
अल्पा
अल्पाकलन</w>
अल्पाकार</w>
अल्पानु
अल्पानुभूत</w>
अल्पान्तर</w>
अल्पाभिन
अल्पाभिनय</w>
अल्पाय
अल्पायुष
अल्पायुषी</w>
अल्पाव
अल्पावकाश
अल्पावकाश/M</w>
अल्पाहार
अल्पाहार-गृह</w>
अल्पि
अल्पिंजी</w>
अल्पीकरण/M</w>
अल्पेक्षा</w>
अल्पो
अल्पोक्
अल्पोक्सी
अल्पोक्सीऋ
अल्फ
अल्ब
अल्बान
अल्बानियन</w>
अल्बानियाई</w>
अल्बु
अल्बुरा
अल्बुराक़</w>
अल्बे
अल्बेनियन</w>
अल्बेनिया-वासी/O</w>
अल्म
अल्मष</w>
अल्मा
अल्माटी</w>
अल्मान
अल्मानिया</w>
अल्मास</w>
अल्यू
अल्यूट</w>
अल्ल
अल्लम
अल्लमगल्लम</w>
अल्ला/7
अल्ला/7CI34sTv</w>
अल्लाम
अल्लामह</w>
अल्लाह
अल्लाहू</w>
अल्स
अल्सेशन</w>
अल्ह
अल्हड</w>
अल्हड़पन/MF</w>
अल्क़
अल्ज़
अल्ज़मै
अल्ज़मैर्स</w>
अल्ज़ाइमर</w>
अल्ज़ेरी</w>
अल्फ़
अल्फ़ा
अल्फ़ाल
अल्फ़ाल्
अल्फ़ाल्फ़
अल्फ़ाल्फ़ा</w>
अल्फ़ाज़</w>
अल्फ़िल
अल्फ़िलार
अल्फ़िलारिया</w>
अल्फ़ज़</w>
अलक़
अलग़
अलग़र
अलग़रज़/E</w>
अलग़ो
अलग़ोज़ा</w>
अलफ़
अव
अव-
अव-</w>
अव-आकल
अव-आकलन</w>
अव/834sTv
अव/834sTvY
अव/834sTvYFED</w>
अवंत
अवंति
अवंतिका/JK</w>
अवंतिसु
अवंतिसुन्द
अवंतिसुन्दरी</w>
अवंश
अवंशागत</w>
अवऊ
अवऊर्
अवऊर्ध्व
अवऊर्ध्वहन
अवऊर्ध्वहनु
अवऊर्ध्वहनुज</w>
अवक
अवकर्
अवकर्त/M</w>
अवकर्ष
अवकर्षण/M</w>
अवकल
अवकल/8ED34sTv</w>
अवका
अवकाश
अवकाश-
अवकाश-केंद्र</w>
अवकाश-शि
अवकाश-शिविर</w>
अवकाशकालीन</w>
अवकाशग्रहण/M</w>
अवकाशपूर्ण</w>
अवकाशपूर्वक</w>
अवकाशयुक्त</w>
अवकीर्ण
अवकीर्ण/F</w>
अवकीर्णन/M</w>
अवकु
अवकुंचन</w>
अवकुत्सित</w>
अवकृ
अवकृप
अवकृपा/IC</w>
अवक्
अवक्र
अवक्रम
अवक्रम/M</w>
अवक्रमीय</w>
अवक्रय/M</w>
अवक्रांत</w>
अवक्रांति</w>
अवक्रीत</w>
अवक्रीतक</w>
अवक्वण</w>
अवक्ष
अवक्षयन/M</w>
अवक्षे
अवक्षेप
अवक्षेपन</w>
अवखंडन</w>
अवग
अवगं
अवगंण</w>
अवगण
अवगण</w>
अवगम</w>
अवगलित</w>
अवगार
अवगारियो</w>
अवगाह
अवगाह/834sTv
अवगाह/834sTvLMED</w>
अवगाहन
अवगाहनक्षम</w>
अवगाह्य</w>
अवगु
अवगुं
अवगुंठ
अवगुंठन
अवगुंठन/M</w>
अवगुंठनवती</w>
अवगुंठिका/JK</w>
अवगुंठित/sT</w>
अवगुंठ्य</w>
अवगुंफ
अवगुणित</w>
अवगुण्ठ
अवगुण्ठन
अवगुण्ठनमुद्रा</w>
अवगुण्ठिका</w>
अवगुम्
अवगुम्फ
अवगूहन</w>
अवग्राह
अवग्राह</w>
अवघ
अवघर्ष</w>
अवघर्षण/M</w>
अवघोष
अवघोषक/M</w>
अवघोषण
अवघोषणा/IC</w>
अवच
अवचय/M</w>
अवचार/M</w>
अवचाल
अवचालित</w>
अवचू
अवचूरी</w>
अवचूर्
अवचूलक</w>
अवचूष
अवचूषक</w>
अवचूषित</w>
अवचेत
अवच्छ
अवच्छे
अवच्छेद
अवच्छेप
अवच्छेपणी</w>
अवछ
अवछंग</w>
अवज
अवजनित</w>
अवजय
अवजय/LM</w>
अवजाति</w>
अवजित</w>
अवज्ञ
अवज्ञा
अवज्ञाकृत</w>
अवज्ञाध
अवज्ञाधीनता</w>
अवट
अवटियो</w>
अवटु
अवटुच
अवटुचून
अवटुज</w>
अवत
अवतंस
अवतंस/M</w>
अवतंसक</w>
अवतत</w>
अवतरण
अवतल/sT</w>
अवतापी</w>
अवतार
अवतारण
अवत्त
अवत्तीर्ण</w>
अवद
अवदंश</w>
अवदमन/M</w>
अवदलित</w>
अवदहन</w>
अवदा
अवदाब/M</w>
अवदार
अवदारण/M</w>
अवदोह</w>
अवध
अवधबि
अवधबिहारी</w>
अवधरण</w>
अवधार
अवधारक</w>
अवधारियो</w>
अवधार्य</w>
अवधाव
अवधावन/M</w>
अवधि
अवधि-
अवधि-दर्शन</w>
अवधिकाल</w>
अवधिज्ञान</w>
अवधिदर्शन</w>
अवधिवर्धित</w>
अवधिवार</w>
अवधीय</w>
अवधू
अवधू</w>
अवधूत
अवधूतवेश</w>
अवधूपित</w>
अवध्व
अवध्वंस
अवध्वंसन</w>
अवध्वंसनीय</w>
अवन
अवनत
अवनत-उ
अवनत-उन्नत</w>
अवनतम
अवनतमस्तक</w>
अवनति
अवनति</w>
अवनत्य</w>
अवनम
अवनमनीय</w>
अवना
अवनायक</w>
अवनालिका</w>
अवनासिक</w>
अवनि
अवनितल</w>
अवनिनाथ</w>
अवनिपाल</w>
अवनी
अवनीत</w>
अवनीध</w>
अवनीप
अवनीपति/QM</w>
अवनीश्वर/M</w>
अवने
अवनेजन/M</w>
अवन्
अवन्त
अवन्ति</w>
अवन्तिका</w>
अवप
अवपथन</w>
अवपर
अवपरमा
अवपरमाणु</w>
अवपा
अवपीड़
अवपूर्ण</w>
अवप्य
अवप्याप्ति</w>
अवप्र
अवप्रण
अवप्रणोदन</w>
अवप्रा
अवबा
अवबाधा</w>
अवबोध
अवबोधक
अवबोधकत्व</w>
अवबोधकीय
अवबोधकीय/LM</w>
अवभ
अवभाष
अवभाषिका</w>
अवभास
अवभास/M</w>
अवभासित</w>
अवभासिनी</w>
अवम
अवम-
अवम/M</w>
अवमंथ</w>
अवमंद
अवमंदक</w>
अवमज्जित</w>
अवमत</w>
अवमदिन</w>
अवमन्दन</w>
अवमर्श
अवमर्शसंधि</w>
अवमर्ष/M</w>
अवमान
अवमानन
अवमानना/GJK</w>
अवमि
अवमिज्ज
अवमिज्जत</w>
अवमूल
अवमूल्य
अवमो
अवमोचन/M</w>
अवय
अवयव
अवयव-तंत्र</w>
अवर
अवर-प्र
अवर-प्रवर</w>
अवर-स
अवर-सेवक</w>
अवर-सेवा</w>
अवरकालीन</w>
अवरण</w>
अवरसेव
अवरसेवक/M</w>
अवरा
अवराध
अवराधन/MF</w>
अवरित</w>
अवरुद्ध
अवरू
अवरूढ</w>
अवरूप</w>
अवरे
अवरेब
अवरेब/ME</w>
अवरेव
अवरेव/834sTvED</w>
अवरो
अवरोक्त</w>
अवरोचितता</w>
अवरोध
अवरोध</w>
अवरोधग्रस्त</w>
अवरोधनीय</w>
अवरोधहीन/sT</w>
अवरोधहीनतः</w>
अवरोधिक</w>
अवरोधित्र</w>
अवरोध्य/sT</w>
अवरोप
अवरोप/M</w>
अवरोपक</w>
अवरोपणीय</w>
अवरोह
अवरोह-आ
अवरोह-आरोह</w>
अवरोहत</w>
अवर्
अवर्जित</w>
अवर्ण
अवर्णितत</w>
अवर्त
अवर्त्त
अवर्त्तमान</w>
अवर्ष
अवर्षितत</w>
अवल
अवलंब
अवलंबक</w>
अवलंबांश</w>
अवलंबितत/F</w>
अवलग्न</w>
अवलम्ब
अवलम्बन/F</w>
अवलम्बनीय</w>
अवलम्बहीन</w>
अवलम्बित/M</w>
अवलयित</w>
अवलिप्त</w>
अवलीन</w>
अवलु
अवलुं
अवलुंचन</w>
अवलुंपन</w>
अवलुण्ठ
अवलुम्पन</w>
अवलून</w>
अवले
अवलेख
अवलेपक</w>
अवलेपित</w>
अवलेह
अवलेहक</w>
अवलो
अवलोक
अवलोकक</w>
अवलोकन/MF</w>
अवलोकनकारी</w>
अवलोकनार्थ</w>
अवलोक्यत/F</w>
अवलोचना</w>
अवलोन</w>
अवलोभ
अवलोभन</w>
अवव
अववरक</w>
अवश
अवश/sTE</w>
अवशात
अवशातन</w>
अवशिष्ट
अवशिष्ट/sTM</w>
अवशिष्टत/F</w>
अवशिष्टांशीय</w>
अवशेष
अवशेषकरण</w>
अवशेषहीन/sT</w>
अवशेषित</w>
अवशै
अवशैल</w>
अवशैष
अवशैषिकी</w>
अवशोष
अवशोषण/M</w>
अवशोषित</w>
अवश्य
अवश्यं
अवश्यत/F</w>
अवश्यम</w>
अवश्रयण</w>
अवष्ट
अवष्टंभ
अवष्टंभ/M</w>
अवष्टब्ध</w>
अवस
अवसं
अवसंड
अवसंडीन</w>
अवसंरचना</w>
अवसक्
अवसक्त</w>
अवसक्थ
अवसक्थिका</w>
अवसण्ड
अवसण्डीन</w>
अवसन्न
अवसन्न/sTF</w>
अवसन्नीकरण</w>
अवसभ</w>
अवसर
अवसर-ग्रहण</w>
अवसरानु
अवसरानुकूल
अवसरानुकूल/sT</w>
अवसरानुसारत</w>
अवसरो
अवसरोचित/sT</w>
अवसर्प
अवसर्प/ME</w>
अवसव्य</w>
अवसाद
अवसादपूर्ण/sT</w>
अवसादित/F</w>
अवसान
अवसान/M</w>
अवसानक</w>
अवसानीय</w>
अवसाय
अवसाय/E</w>
अवसे
अवसेर
अवसेरियो</w>
अवस्क
अवस्कन्दित</w>
अवस्कर
अवस्कर/ME</w>
अवस्त
अवस्तरता</w>
अवस्ताई</w>
अवस्थ
अवस्थपित</w>
अवस्थांतर/M</w>
अवस्थान/M</w>
अवस्थापित</w>
अवस्थीय</w>
अवस्फ
अवस्फीत
अवस्फीतिकारक</w>
अवस्फुरित</w>
अवस्य</w>
अवह
अवहत</w>
अवहालिका</w>
अवहास्य</w>
अवहृत</w>
अवहेल
अवहेलन
अवहेलन/F</w>
अवहेलनापूर्वक</w>
अवहेलित</w>
अवा
अवा/
अवा/KS
अवा/KSAGCB</w>
अवाँ
अवाँस
अवांग
अवांगमुख</w>
अवांतर
अवांतरभेद</w>
अवाई/O</w>
अवाक
अवाक/EsTM</w>
अवाक्
अवाक्/sT</w>
अवाक्स
अवागी</w>
अवाङ
अवाङ्न
अवाङ्नरक</w>
अवाच
अवाच्यत/F</w>
अवाड्‌
अवात
अवातो
अवातोढ़</w>
अवाप्ति</w>
अवार
अवारि
अवारिजा</w>
अवार्
अवार्ताल
अवार्तालापनीय</w>
अवार्यत/F</w>
अवाल
अवालांच</w>
अवावट</w>
अवास
अवास/8FED34sTv</w>
अवि
अविंध्य</w>
अविक
अविकार
अविकारशील</w>
अविकृत/sT</w>
अविक्र
अविक्रयण</w>
अविक्रेता</w>
अविक्ष
अविक्षु
अविक्षुब्ध</w>
अविखंड
अविखंडन</w>
अविख्यात</w>
अविग
अविगत</w>
अविघ
अविघटन</w>
अविघटित</w>
अविघ्न
अविघ्न/sT</w>
अविच
अविचयन</w>
अविचल
अविचार
अविचार/ME</w>
अविचारणीय/sT</w>
अविचारशील</w>
अविच्छि
अविच्छिन</w>
अविच्छिन्न
अविच्छेद
अविज
अविडीन</w>
अवित
अवितरित</w>
अविद
अविदितत/F</w>
अविदू
अविदूर</w>
अविदूषण</w>
अविद्
अविद्य
अविद्य/F</w>
अविद्वेष</w>
अविध
अविधवा</w>
अविधान
अविधान/sT</w>
अविधि
अविधित</w>
अविधिमान
अविध्व
अविध्वंस</w>
अविध्वस्त/sT</w>
अविन
अविनम्य</w>
अविनय
अविनय/ME</w>
अविनयत</w>
अविनयन</w>
अविना
अविना</w>
अविनाभाव</w>
अविनिय
अविनियोज
अविनियोज्य/sT</w>
अविनीश</w>
अविन्यस्त</w>
अविप
अविपर्य
अविपर्यय</w>
अविप्र
अविप्रमाणित</w>
अविमुक्त</w>
अवियुक्त</w>
अवियोग
अविर
अविरक्ति</w>
अविरत/sTM</w>
अविरह
अविरह/E</w>
अविरा
अविराम
अविराम/sT</w>
अविरामित/sT</w>
अविरू
अविरूढ़</w>
अविल
अविलंब
अविलंब्य</w>
अविलम्ब
अविलम्बत</w>
अविलम्बतः</w>
अविलम्बनीय</w>
अविलो
अविव
अविवश</w>
अविवाह
अविवाह</w>
अविवाहजनन</w>
अविवाहित
अविवाहिता/K</w>
अविवाह्य</w>
अविवे
अविवेक
अविवेकिता</w>
अविशा
अविशाल</w>
अविशोध
अविशोधनीय</w>
अविशोधित</w>
अविश्र
अविश्वास
अविश्वास/EsTM</w>
अविष
अविषम</w>
अविषा
अविसर्
अविसर्जनशील</w>
अविस्त
अविस्फोट
अविस्फोटशील</w>
अविस्म
अविस्मरण
अविस्मरण</w>
अविस्र
अविस्रणशील</w>
अविस्फ़
अविस्फ़ोटन</w>
अविहीन</w>
अविह्वल</w>
अवी
अवीक्षण</w>
अवीर
अवीर/F</w>
अवीह</w>
अवृ
अवृद्ध
अवृद्धिक/M</w>
अवे
अवेक्ष
अवेक्षाहीन/sT</w>
अवेघ
अवेघ्यता</w>
अवेचित</w>
अवेद
अवेदन</w>
अवेर
अवेर-स
अवेर-सवे
अवेर-सवेर</w>
अवेर/E</w>
अवेष्ट
अवेष्टन</w>
अवेस्त
अवेस्तन</w>
अवै
अवैकल्पिक</w>
अवैघात
अवैघात्य</w>
अवैतन
अवैतनिक/M</w>
अवैद्य</w>
अवैध
अवैध/sTM</w>
अवैधकार
अवैधकारानि
अवैधकारानिरोध</w>
अवैधनि
अवैधनिरोध</w>
अवैधलाभ</w>
अवैधस
अवैधसमू
अवैधसमूह/M</w>
अवैधसाक्ष्य/M</w>
अवैधा
अवैधाचार</w>
अवैधानु
अवैमन
अवैमनस्य</w>
अवैराग
अवैराग्य</w>
अवैव
अवैवश्य
अवैवश्यक</w>
अवॉ
अवॉर्
अवॉर्ड</w>
अवॉर्ड्स</w>
अवो
अवोक्षण</w>
अव्य
अव्यंग
अव्यक्त
अव्यक्त-ग
अव्यक्त-गणित</w>
अव्यक्तानुकरण</w>
अव्यण्ड
अव्यण्डा</w>
अव्यथ
अव्यथक</w>
अव्यथत</w>
अव्यप
अव्यय
अव्ययत/F</w>
अव्यव
अव्यव/M</w>
अव्यवधान</w>
अव्यवसायी</w>
अव्यवह
अव्यवहार्य्य</w>
अव्या
अव्याकृत
अव्याकृतधर्म</w>
अव्याप्त</w>
अव्याप्य</w>
अव्याहत</w>
अव्यु
अव्युत्
अव्युत्पन्न</w>
अव्र
अव्रण</w>
अव्व
अश
अशक्त
अशक्तत/F</w>
अशक्तत्व</w>
अशक्ति</w>
अशनि
अशफ्र
अशमन</w>
अशर
अशरण
अशरण/M</w>
अशरफ
अशरफियों</w>
अशरा
अशरी
अशरीर
अशरीरत्व</w>
अशर्
अशर्त
अशर्तत/F</w>
अशर्फ
अशर्फियों</w>
अशर्म</w>
अशर्फ़ी</w>
अशरफ़
अशल
अशस्त्र
अशा
अशां
अशांतिपूर्ण</w>
अशान्
अशान्तिपूर्ण</w>
अशाश्व
अशाश्वत/sT</w>
अशास
अशासन
अशासनवादी</w>
अशासाव
अशासावेद
अशासावेदनीय</w>
अशास्त्र
अशास्त्रीय</w>
अशि
अशित्र</w>
अशिव/M</w>
अशिशु
अशिशु/R</w>
अशिश्न</w>
अशिष्ट
अशीश</w>
अशु
अशुक्र
अशुक्रजनन</w>
अशुचि
अशुचित्व</w>
अशुद्
अशुद्घ
अशुद्घचित्त</w>
अशुद्ध
अशुद्धियां</w>
अशुद्ब</w>
अशुभ
अशुभबेला</w>
अशुल्क</w>
अशुष्क</w>
अशून्य
अशून्यश
अशून्यशयन
अशून्यशयनव्रत</w>
अशृ
अशृं
अशृंख
अशृंखलित</w>
अशै
अशैक्ष
अशैक्षिक</w>
अशैथि
अशैथिल्य</w>
अशो
अशोक
अशोक-
अशोक-चक्र</w>
अशोक/FM</w>
अशोकन
अशोकनगर</w>
अशोकवा
अशोकवाटिका</w>
अशोकस्तंभ/M</w>
अशोकस्तम्भ</w>
अशोध
अशोधनीय</w>
अशोभ
अशोभन
अशोभन/sTM</w>
अशौ
अशौच
अशौचपूर्ण</w>
अशौर्य</w>
अश्
अश्क</w>
अश्म
अश्म-
अश्म-मुद्रीय</w>
अश्मकु
अश्मकुट्ट</w>
अश्मकुट्टक</w>
अश्मकुट्‌
अश्मगर्भ</w>
अश्मन्त
अश्मन्तक</w>
अश्मविज्ञान</w>
अश्मा
अश्माज
अश्माजत
अश्माजतु</w>
अश्मी
अश्मीकृत</w>
अश्मीय</w>
अश्र
अश्रद्ध
अश्रद्धत</w>
अश्रप</w>
अश्रान्त</w>
अश्राव
अश्राव्य/sTM</w>
अश्रु
अश्रुपूर्ण/sT</w>
अश्रुपूर्णत/F</w>
अश्रुमुख</w>
अश्रुवि
अश्रुविग
अश्रुविगलित</w>
अश्रुस्राव</w>
अश्रुहीन</w>
अश्रे
अश्रोत
अश्रोतव्य</w>
अश्ल
अश्लाघ
अश्लाघनीय</w>
अश्लाघ्य</w>
अश्लील
अश्लील/sTM</w>
अश्व
अश्व-
अश्व-द
अश्वक
अश्वक/MF</w>
अश्वक्रान्
अश्वक्रान्ता</w>
अश्वख
अश्वखुर</w>
अश्वग
अश्वगंध
अश्वगंधा</w>
अश्वगरु
अश्वगरुड़</w>
अश्वघ्न</w>
अश्वजीवन</w>
अश्वतर/M</w>
अश्वत्थ
अश्वदल</w>
अश्वन
अश्वनि
अश्वनिबंध
अश्वनिबंधिक</w>
अश्वपति</w>
अश्वपत्रक</w>
अश्वपथ</w>
अश्वप्र
अश्वप्रशिक्ष
अश्वप्रशिक्षण</w>
अश्वब
अश्वबन्धन</w>
अश्वम
अश्वमक्षी</w>
अश्वमारक</w>
अश्वमीन</w>
अश्वमुख</w>
अश्वय
अश्वयु
अश्वयुज</w>
अश्वरक्ष
अश्वरक्ष</w>
अश्वरक्षक</w>
अश्वल
अश्वव
अश्ववदन</w>
अश्ववह</w>
अश्ववाहक</w>
अश्वविहीन</w>
अश्वशक्ति/PQ</w>
अश्वश्
अश्वश्थ</w>
अश्वस
अश्वसाद
अश्वसाद/E</w>
अश्वसू
अश्वसूक्त</w>
अश्वसे
अश्वहंता</w>
अश्वहृदय</w>
अश्वा
अश्वांतक</w>
अश्वायु
अश्वायुर्वे
अश्वायुर्वेद/M</w>
अश्वार
अश्वारि</w>
अश्वारोह
अश्विन
अश्विन/ME</w>
अश्विनीकुम
अश्विनीकुमार/M</w>
अश्शा
अश्शाम</w>
अष
अषा
अषाढ़
अषाढ़ीय</w>
अष्ट
अष्टक
अष्टकमल</w>
अष्टकल
अष्टकलश
अष्टकलशम</w>
अष्टकली</w>
अष्टकीय</w>
अष्टकृष्ण</w>
अष्टको
अष्टकौशल</w>
अष्टखंड</w>
अष्टग
अष्टगंध</w>
अष्टगोप
अष्टगोपी</w>
अष्टतार
अष्टतारिणी</w>
अष्टपद/E</w>
अष्टपा
अष्टपाद
अष्टपाद/M</w>
अष्टपादीय</w>
अष्टपार्श
अष्टपार्श्व
अष्टपार्श्वीय</w>
अष्टपाश्
अष्टभु
अष्टमक</w>
अष्टमिका</w>
अष्टरुप</w>
अष्टरूप</w>
अष्टलो
अष्टवंश</w>
अष्टवर्ग/M</w>
अष्टश
अष्टशा
अष्टशीर्ष</w>
अष्टश्र
अष्टश्रवण</w>
अष्टस्वन</w>
अष्टांग
अष्टाप
अष्टापद</w>
अष्टाव
अष्टावक</w>
अष्टावक्र
अष्टावक्र/sTM</w>
अष्टाश्र
अष्टाश्रि</w>
अष्टाह
अष्ठ
अष्ठ</w>
अस
असं
असंको
असंकोच/E</w>
असंक्रमित</w>
असंक्षेप</w>
असंख
असंख्य
असंख्यक/sT</w>
असंख्यत/F</w>
असंख्या
असंख्यातत</w>
असंग
असंगत/sTM</w>
असंगति</w>
असंगल
असंगलनीय</w>
असंगलित</w>
असंघ
असंघनन</w>
असंच
असंचय/E</w>
असंचल
असंचलित</w>
असंज्ञ
असंज्ञेय</w>
असंत
असंतुल
असंतुलन
असंतुलनीयम</w>
असंतोष
असंतोष्य</w>
असंद
असंप
असंपर्क
असंपर्कवाद/E</w>
असंपादन</w>
असंपादित</w>
असंपुष्ट</w>
असंपूर्
असंपूर्तत/F</w>
असंपृ
असंप्राप्य</w>
असंब
असंबं
असंबंद्ध</w>
असंबधित</w>
असंबै
असंबैधानिक</w>
असंभ
असंभव
असंभव-स
असंभव-सा</w>
असंभेद</w>
असंय
असंयमित</w>
असंरक्षित</w>
असंल
असंलक्ष
असंलक्ष्य
असंलक्ष्यक्रम
असंलक्ष्यक्रम/LM</w>
असंलाप</w>
असंलिप
असंलिपनशील</w>
असंलिप्त</w>
असंव
असंवरण</w>
असंवर्त
असंवर्तमान</w>
असंवाद</w>
असंवादित</w>
असंवि
असंविधानिक</w>
असंवेद
असंवेदनशील</w>
असंशोधन</w>
असंशोधित</w>
असंश्ल
असंश्लिष्ट</w>
असंस
असंसद
असंसदीय/sTM</w>
असंसृष्ट</w>
असंसे
असंसेचन</w>
असंस्थ
असंस्थितत/F</w>
असंस्म
असंस्मृतत</w>
असक
असकत
असकता/7G34sTv</w>
असकन्द
असकन्दरिया</w>
असको
असकोल</w>
असक्षम</w>
असग
असगन्ध
असगन्ध/F</w>
असघ
असघनन</w>
असज
असजग</w>
असत
असत/sTME</w>
असतम
असतमफ़रो
असतमफ़रोशी</w>
असताना</w>
असत्
असत्-पदार्थ</w>
असत्कार</w>
असत्कृत</w>
असत्प्रति
असत्य
असत्यं
असत्यवाद/E</w>
असत्यित</w>
असत्व</w>
असद्
असद्ध
असद्धर्म</w>
असनान</w>
असन्
असन्त
असन्तोष
असन्तोष/E</w>
असन्ना
असन्नाध</w>
असफल
असफलता/K</w>
असब
असबर
असबरग</w>
असबा
असबीयत</w>
असभ
असम
असमंज
असमंजस
असमंजसपूर्ण</w>
असमचक्र
असमचक्रता</w>
असमन
असमनयन</w>
असमनेत्र</w>
असमन्त</w>
असमबाण</w>
असमय/sTM</w>
असमयो
असमयोचित</w>
असमरस</w>
असमर्थ
असमवाण</w>
असमा
असमांगी</w>
असमाधान</w>
असमाध्य
असमाध्येय</w>
असमान
असमान/sT</w>
असमापन</w>
असमाप्त
असमाप्तांशीय</w>
असमार्
असमार्धित</w>
असमाविष्ट/sT</w>
असमिया/JK</w>
असमीप
असमीप/sT</w>
असमू
असम्
असम्पूर्ण</w>
असम्प्राप्य</w>
असम्बन्ध</w>
असम्भावी</w>
असम्भाष
असम्भाष्य</w>
असम्मान
असम्माननीय</w>
असम्मि
असम्मिलन</w>
असम्मिश्रण</w>
असम्मो
असम्मोहित</w>
असम्य</w>
असय
असयाना</w>
असर
असरंद
असरंदा
असरंदाज/E</w>
असरअंदाज़
असरअंदाज़/E</w>
असर्प
असर्पिल</w>
असल
असलतन</w>
असलह
असवा
असह
असहन</w>
असहम
असहमत/M</w>
असहाय
असहायपन</w>
असां
असांज
असांजे</w>
असांस
असांसद
असांसद</w>
असांसदिक/sT</w>
असाइ
असाइत</w>
असाइन
असाइन</w>
असाइनमेंट/M</w>
असाक्ष
असाक्षर</w>
असात्म
असात्म्य</w>
असाध
असाध्य
असाध्य/sTME</w>
असानी</w>
असाम
असामंजस
असामंजस्यपूर्ण</w>
असामन
असामनता</w>
असामप्यता</w>
असामीप
असामीप्य</w>
असाय
असायत</w>
असाल
असाव
असावधान
असाह
असाहच
असाहचर्य</w>
असाढ़
असि
असिक्
असिक्निका</w>
असिक्नी</w>
असिक्रीड़ा</w>
असिडि
असिडिटी</w>
असित
असिता
असिताचि
असिताचिर</w>
असिद्ध
असिद्धकरण</w>
असिद्धि</w>
असिध
असिधार
असिधारा/IGC</w>
असिधाव</w>
असिन्न
असिप
असिपत्र
असिपत्रक</w>
असिपत्रवन</w>
असिपाणि</w>
असिपु
असिपुच्छ</w>
असिपुच्छक</w>
असिपुत्रिका</w>
असिम्मत</w>
असिलो
असिलोमा</w>
असिस
असिसटे
असिसटेंट</w>
असिस्ट
असिस्टन्ट</w>
असिस्टेड</w>
असिहे
असिहेति</w>
असीम
असीम/sTM</w>
असीर/E</w>
असीस
असु
असुख
असुखद</w>
असुखभोग</w>
असुत्याग</w>
असुधर</w>
असुन
असुनसिओन</w>
असुनसियान</w>
असुनीत</w>
असुन्
असुप्त</w>
असुप्तत</w>
असुर
असुर-ग
असुर-गुरु</w>
असुर-व
असुर-वध</w>
असुरंजित</w>
असुरकुमार</w>
असुरके/M</w>
असुरद्र
असुरद्रुह</w>
असुरनाशन</w>
असुरम
असुरमघ</w>
असुरव
असुरवध</w>
असुरसूदन</w>
असुरसे
असुरसेन</w>
असुरा
असुराघ
असुराघिप</w>
असुविधा
असुश
असुशक्य</w>
असुशील/sT</w>
असू
असूच
असूची
असूचीबद्ध</w>
असूय
असूयक/sT</w>
असूयु</w>
असूर्य
असूल
असूल/M</w>
असृ
असृक्
असृक्प</w>
असृग
असृग्
असृग्व
असृग्वहा</w>
असृज
असृजनात्मक</w>
असृष्ट/sTF</w>
असे
असेंश
असेंशन</w>
असेम्ब
असेव
असेवन</w>
असेवनीय/sT</w>
असेवा</w>
असेस
असेसमेंट</w>
असै
असैंब
असैंबल/E</w>
असैंबल्ड</w>
असैट्
असैट्स</w>
असैन
असैन्य
असैन्यीक
असैन्यीककृत</w>
असैन्यीकरण/M</w>
असो
असोक/E</w>
असोस</w>
असोसी
असौ
असौष्ठ
असौष्ठव</w>
अस्
अस्किनी</w>
अस्त
अस्तंग
अस्तंगमन</w>
अस्तकालीन</w>
अस्तगमन</w>
अस्तगिरि</w>
अस्तब
अस्तबल-
अस्तबल-मार्ग</w>
अस्तभाग्य</w>
अस्तम
अस्तमन
अस्तमन/M</w>
अस्तमनन
अस्तमननक्षत्र</w>
अस्तमस्तक</w>
अस्तय</w>
अस्तर
अस्तरकारी</w>
अस्तरण</w>
अस्तरीय</w>
अस्तव्य
अस्तव्यस्त
अस्ता
अस्ताचल
अस्ताचल-
अस्ताचल-गामी</w>
अस्ताद्रि</w>
अस्ति
अस्तित्व
अस्तित्वक्षम</w>
अस्तित्वदत्त</w>
अस्तित्वमत्ता</w>
अस्तित्वमय/sT</w>
अस्तित्ववाद/ME</w>
अस्तित्वहीन/sT</w>
अस्तित्वीय</w>
अस्तिवाचक</w>
अस्त्र
अस्त्र-च
अस्त्र-चिकि
अस्त्र-विद्या</w>
अस्त्र-वै
अस्त्र-वैद्य</w>
अस्त्र-श
अस्त्र-शिक्ष
अस्त्र-शिक्षा</w>
अस्त्रकारक</w>
अस्त्रघ
अस्त्रघला</w>
अस्त्रजीवियों</w>
अस्त्रफला</w>
अस्त्रमार्जन</w>
अस्त्ररोध/E</w>
अस्त्रवै
अस्त्रवैद्य</w>
अस्त्रश
अस्त्रशस्त्र
अस्त्रशस्त्र</w>
अस्त्रशस्त्रजीवी</w>
अस्त्रस
अस्त्रसज्जित</w>
अस्त्राख
अस्त्राखान</w>
अस्त्राल
अस्त्राले
अस्त्रालेब</w>
अस्थ
अस्थमा/IC</w>
अस्थाणु</w>
अस्थान
अस्थानस्थ</w>
अस्थाना</w>
अस्थि
अस्थि-
अस्थि-कुंड</w>
अस्थि-तंत्र</w>
अस्थिक
अस्थिका/G</w>
अस्थिकृत</w>
अस्थिक्ष
अस्थिक्षरण</w>
अस्थिज</w>
अस्थित
अस्थितेज</w>
अस्थिध
अस्थिधन्या</w>
अस्थिधन्वा</w>
अस्थिनिर्मित</w>
अस्थिप
अस्थिबंधन</w>
अस्थिबन्ध</w>
अस्थिभ
अस्थिभ</w>
अस्थिभोजी</w>
अस्थिमंज
अस्थिमंजूष
अस्थिमंजूषा</w>
अस्थियों</w>
अस्थिर
अस्थिरंध्र</w>
अस्थिरतापूर्वक</w>
अस्थिरोग/M</w>
अस्थिव
अस्थिवक्र
अस्थिवक्रता</w>
अस्थिश
अस्थिशोष</w>
अस्थिसं
अस्थिसंचय</w>
अस्थिहार</w>
अस्थीय</w>
अस्थूल</w>
अस्थ्या
अस्थ्याभ</w>
अस्नि
अस्ने
अस्नेह/E</w>
अस्प
अस्पताल
अस्पर्शित</w>
अस्पष्ट
अस्पष्टो
अस्पष्टोक्तिपूर्ण</w>
अस्पृ
अस्पृश्य
अस्पृह
अस्पृहणीय</w>
अस्फ
अस्फु
अस्फुट
अस्फुटक</w>
अस्फूर्
अस्फूर्तत</w>
अस्म
अस्मद</w>
अस्मदीय</w>
अस्मित
अस्मित/F</w>
अस्मितापूर्ण</w>
अस्मिताहीन/sT</w>
अस्र
अस्रकंठ</w>
अस्रप
अस्रप/F</w>
अस्रफला</w>
अस्राव</w>
अस्ल
अस्व
अस्वचालित</w>
अस्वच्छ
अस्वजात</w>
अस्वतंत्र</w>
अस्वतः
अस्वतःकृतत</w>
अस्वत्व
अस्वत्व/sT</w>
अस्वद</w>
अस्वप्
अस्वप्न</w>
अस्वभाविक</w>
अस्वस्थ
अस्वस्थपना</w>
अस्वा
अस्वात
अस्वातं
अस्वातंत्र्य</w>
अस्वाद
अस्वादिष्ठ
अस्वादिष्ठत/F</w>
अस्वाभविक</w>
अस्वार्थ
अस्वार्थत</w>
अस्वास्थ
अस्वास्थकर</w>
अस्वास्थ्य
अस्वि
अस्विन/E</w>
अस्वी
अस्वीकार
अस्वीकार-
अस्वीकार-अंगीकार</w>
अस्स
अस्सी/H</w>
असफ़
असफ़ार</w>
अह
अह/MFD</w>
अहं
अहंक
अहंकार
अहंकारपूर्ण/sT</w>
अहंकाररहित/sT</w>
अहंकारहीन/sT</w>
अहंकृत
अहंकृतत</w>
अहंकृति</w>
अहंकेन्द्र
अहंत्व</w>
अहंपूर्ण</w>
अहंपूर्व
अहंपूर्विका</w>
अहंभावना/JK</w>
अहंवाद/ME</w>
अहः
अहःसं
अहःसंवर्तक</w>
अहइ</w>
अहक
अहक/8sTvED</w>
अहज</w>
अहत/M</w>
अहत्या</w>
अहद
अहद/E</w>
अहन</w>
अहम
अहम/M</w>
अहमक
अहमकाना</w>
अहमक्र
अहमक्रपना</w>
अहमद
अहमदनगर</w>
अहमन्य/sT</w>
अहमह
अहमहमिका</w>
अहम्
अहम्मन
अहम्मन्यक</w>
अहम्मन्यत/F</w>
अहमक़
अहमक़पन/F</w>
अहमक़ाना</w>
अहर/s8Tv
अहर/s8TvLMFED</w>
अहरि
अहरिमन/M</w>
अहर्
अहर्द
अहर्दलीय</w>
अहर्नि
अहर्निश</w>
अहल
अहल्या
अहल्याभूत</w>
अहल्याश्म</w>
अहवाल</w>
अहस
अहसान
अहसान-
अहसान-फ़रामोश</w>
अहसानफ
अहसानफरामो
अहसानफरामोश/E</w>
अहसानमंद</w>
अहसानफ़रामोश</w>
अहसि</w>
अहस्त
अहस्त</w>
अहस्पति</w>
अहह</w>
अहात
अहाताब
अहाताबंद/E</w>
अहार
अहारियो</w>
अहाह
अहाहा</w>
अहि
अहि-क्षेत्र/M</w>
अहि/QM</w>
अहिंस
अहिंसामय</w>
अहिक
अहिकांत</w>
अहिक्षे
अहिक्षेत्र</w>
अहिगंध</w>
अहिच्छ
अहिच्छत्र</w>
अहिच्छन्न</w>
अहिटा</w>
अहित
अहितहीन</w>
अहिद
अहिदंष्ट्र
अहिदंष्ट्रि</w>
अहिपति</w>
अहिफ
अहिफेन
अहिफेनबीज</w>
अहिम</w>
अहिमार</w>
अहिरि
अहिर्बु
अहिर्बुध्न</w>
अहिल
अहिल्या
अहिल्याबाई</w>
अहिव
अहिवति
अहिवतिन</w>
अहिवल्ली</w>
अहिवा
अहिवात/ME</w>
अहिवाति
अहिवातिन/LM</w>
अही
अहीन
अहीनगु</w>
अहीर
अहुट
अहुटा/7
अहुटा/7GCB34sTvA</w>
अहुर</w>
अहुरम
अहुरमज़्
अहुरमज़्द/M</w>
अहूजा</w>
अहृद
अहृदय/sT</w>
अहेत
अहेर
अहेरन</w>
अहो
अहो-</w>
अहोई/O</w>
अहोक/M</w>
अहोभाव/M</w>
अहोर
अहोरत्न</w>
अहोरा
अहोरा-बह
अहोरा-बहोरा</w>
अहोरात्रि</w>
अह्
अह्र
अह्रय</w>
अह्रिम
अह्रिमन</w>
अह्रीक</w>
अह्र्य</w>
अह्ल
अक़
अक़द
अक़दत</w>
अक़ल
अक़ल/f</w>
अक़ान
अक़ानीम</w>
अक़ी
अक़ीदतमन्द</w>
अक़ीम
अक़ीम/F</w>
अक़ीर</w>
अक़्
अक़्द
अक़्द/D</w>
अक़्ल
अक़्लकुल</w>
अक़्लमंद/E</w>
अक़्वाल</w>
अक़्स/F</w>
अक़्क़
अक़्क़ल
अख़
अख़ब
अख़बार/ME</w>
अख़्
अख़्त
अख़्तर
अख़्तिय
अख़्तियार
अख़्तियार/f</w>
अग़
अग़ल
अग़ल-ब
अग़ल-बग़ल</w>
अज़
अज़दहा</w>
अज़र
अज़रबे
अज़रबेजान</w>
अज़रबैजान
अज़रबैजानवास/0E</w>
अज़रबैजानी-भाषा/K</w>
अज़र्
अज़र्</w>
अज़र्दाश्त</w>
अज़हा</w>
अज़ा
अज़ाब
अज़ाब</w>
अज़ाबुल्
अज़ाख़ाना</w>
अज़ी
अज़ीक
अज़ीकल</w>
अज़ीब
अज़ीबोग़रीब</w>
अज़ीम
अज़ीमु
अज़ीमुल
अज़ीमुलजु
अज़ीमुलजुस्
अज़ीमुलजुस्स</w>
अज़ीमुश्
अज़ीमुश्शान</w>
अज़ीयत</w>
अज़ीर्
अज़ीर्</w>
अज़ीर्नामा</w>
अज़ीज़
अज़ीज़/FEM</w>
अज़ीज़ाना</w>
अज़्
अज़्म
अज़्मत</w>
अज़्रा</w>
अज़्हा</w>
अड़
अड़ँग
अड़ंग
अड़ंगा/CI</w>
अड़ंगे
अड़ंगेबाज़/ME</w>
अड़क
अड़क/FE</w>
अड़त
अड़तल
अड़तल/LM</w>
अड़ताल
अड़तालिस
अड़तालिसवीं</w>
अड़तालीस
अड़तालीस/H</w>
अड़ती
अड़तीस/H</w>
अड़द
अड़दब</w>
अड़न
अड़न/LMF
अड़न/LMFD</w>
अड़ब
अड़बल</w>
अड़वा
अड़वाड़</w>
अड़स
अड़स/ED</w>
अड़सट्टा</w>
अड़सी-पड़ोसी</w>
अड़ह
अड़ा
अड़ाइयो</w>
अड़ान
अड़ान/FEDM</w>
अड़ार/EM</w>
अड़िय
अड़ियल</w>
अड़ो
अड़ोस
अड़ोस-पड़
अड़ोस-पड़ोस</w>
अड़ोसपड़
अड़ोसपड़ोस</w>
अड़ड़प
अड़ड़पोप
अड़ड़पोपो</w>
अड़ड़ाना</w>
अढ़
अढ़ह
अढ़िया/JK</w>
अढ़ौ
अढ़ौना</w>
अफ़
अफ़ग
अफ़ज
अफ़जाही</w>
अफ़जूँ</w>
अफ़यून/E</w>
अफ़रा
अफ़रा-त
अफ़रा-तफ़री</w>
अफ़राब</w>
अफ़री
अफ़रीक़
अफ़रीक़ी-देश</w>
अफ़रो
अफ़वाज</w>
अफ़वाह
अफ़वाहन</w>
अफ़श
अफ़शान/E</w>
अफ़स
अफ़संतीन</w>
अफ़सर
अफ़सरप
अफ़सरपर्य
अफ़सरपर्यवेक्षक</w>
अफ़सरशाही</w>
अफ़सान
अफ़सानान
अफ़सानानवीस/EM</w>
अफ़सु
अफ़सू
अफ़सूँ
अफ़सूँगर</w>
अफ़सोस
अफ़सोसजनक</w>
अफ़ि
अफ़िलि
अफ़िलिए
अफ़िलिएटेड</w>
अफ़ी
अफ़ीमची</w>
अफ़्
अफ़्र
अफ़्रीक़
अफ़्रीक़ी-देश</w>
अफ़्रीक़ी</w>
अफ़्सोस/M</w>
अफ़्ज़ा</w>
अफ़ग़
अफ़ग़न</w>
अफ़ग़ान/ME</w>
अफ़ग़ानिस्त
अफ़ग़ानिस्तान/E</w>
अफ़ज़
अफ़ज़ाही</w>
आ
आ</w>
आँ
आँ</w>
आँए
आँएंगी</w>
आँक
आँकन
आँकन/FD</w>
आँकबाँ
आँकबाँक</w>
आँकर</w>
आँकियो</w>
आँकु
आँकुड़ा/G</w>
आँकड़
आँकड़ा/GCI</w>
आँख
आँख-
आँख-भौ
आँख-भौंह</w>
आँख-म
आँख-मूँ
आँख-मूँद</w>
आँख/
आँख/LMFED</w>
आँखच
आँखचुरा
आँखचुराई</w>
आँखफो
आँखफोड
आँखफोडटिड्डा</w>
आँखफोड़
आँखि</w>
आँग
आँगन
आँगनवाड़ी</w>
आँगल</w>
आँगुल/M</w>
आँघ
आँघी</w>
आँच
आँचका</w>
आँचल
आँचलिकता</w>
आँजन
आँजनेय</w>
आँजियो</w>
आँट
आँट/348sTvED</w>
आँडे
आँडेबाँ
आँडेबाँडे</w>
आँत
आँतक
आँतकट्ट
आँद
आँदू</w>
आँदोलन</w>
आँध
आँध/E</w>
आँधियों</w>
आँधी
आँधी-त
आँधी-तू
आँधी-तूफान</w>
आँधी-तूफ़ान</w>
आँधी-पानी</w>
आँधीध
आँधीधूल</w>
आँधीमय</w>
आँब
आँबाह
आँय
आँय-
आँयबाँय</w>
आँव
आँव/MFD</w>
आँवठ
आँवठ/E</w>
आँवर</w>
आँवल
आँवला
आँवला-स
आँवला-सार</w>
आँवलागट्टा</w>
आँवलाप
आँवलापत्ती</w>
आँवलास
आँवाह
आँवाहल्दी</w>
आँवड़
आँवड़ना</w>
आँसू
आँसू/R</w>
आँसूरहित</w>
आँह
आँहाँ</w>
आं
आंक
आंका/G</w>
आंकिक</w>
आंकु
आंकुश
आंकुशिक</w>
आंख
आंखो</w>
आंग
आंगक</w>
आंगदी</w>
आंगन
आंगनबाड़ी</w>
आंगार</w>
आंगिक/ME</w>
आंग्रे
आंग्रेज़
आंग्रेज़ियत
आंग्रेज़ियत-वि
आंग्रेज़ियत</w>
आंग्ल
आंग्ल-
आंग्ल-अमरीकी</w>
आंग्लीकृत</w>
आंग्लेज़</w>
आंग्विला</w>
आंचल
आंज
आंजन
आंजन/FE</w>
आंजी</w>
आंठी</w>
आंड
आंडज</w>
आंडिक</w>
आंडू</w>
आंत
आंत/LM</w>
आंतं
आंतंरिक</w>
आंतक
आंतकपूर्ण</w>
आंतर
आंतरज्ञ</w>
आंतरतम
आंतरतम्य</w>
आंतरा
आंतरायिक</w>
आंतराल
आंतराल</w>
आंतरालिक/sT</w>
आंतरिक
आंतरिक/sTM</w>
आंतरिकतम</w>
आंतरिक्ष</w>
आंतर्
आंतर्वेश
आंतर्वेशिक</w>
आंतर्शारीरिक</w>
आंतस्
आंतस्सलि
आंतस्सलिला</w>
आंती
आंतीयो
आंतीयोपी</w>
आंत्र
आंत्रव्य</w>
आंत्रांत</w>
आंद
आंदरा</w>
आंदांत
आंदांते</w>
आंदू</w>
आंदो
आंदोल
आंदोलन
आंदोलन/MV</w>
आंदोलनकारियों</w>
आंदोलनशील</w>
आंदोशीलता</w>
आंद्
आंद्वाइ
आंद्वाइल</w>
आंध
आंधर</w>
आंधस</w>
आंधसिक</w>
आंध्र
आंन
आंनद</w>
आंब
आंब</w>
आंबिकेय</w>
आंम
आंमत्रित</w>
आंय
आंय-ब
आंय-बांय</w>
आंय</w>
आंयब
आंयबांय</w>
आंर
आंरप्रदेश</w>
आंव</w>
आंवल
आंश
आंशका</w>
आंशिक/sTM</w>
आंश्य</w>
आंस/E</w>
आंसू
आंड़
आंड़ज</w>
आः</w>
आइ
आइ-शै
आइ-शैड
आइ-शैडो</w>
आइं
आइंट
आइंस्ट
आइंस्टाइन</w>
आइंस्टीन
आइक्रीम</w>
आइट
आइड
आइडिय
आइडियलि
आइडियलिज़्म</w>
आइडियो
आइडियोल
आइडे
आइडेंटिटी</w>
आइडेंटिफ़िकेशन</w>
आइडेंटी
आइडेंटीट
आइडेंटीटी
आइडेंटीटीफ़िकेशन</w>
आइडै
आइडैंटी
आइना
आइनाब
आइय
आइया/CB</w>
आइरि
आइरिश</w>
आइरिस</w>
आइल</w>
आइलै
आइलैंड</w>
आइस
आइस-
आइस-क्रीम</w>
आइस-पा
आइस-पाइस</w>
आइस/M</w>
आइसट
आइसटोप</w>
आइसब
आइसबर्ग
आइसबर्ग/LM</w>
आइसबोट</w>
आइसलै
आइसलैंड
आइसलैंड/E</w>
आइसलैंडवास/0E</w>
आइसलैंडिक</w>
आइसलैण्ड
आइसो
आइसोट
आइसोब
आइसोब्यू
आइसोब्यूटे
आइसोब्यूटेन</w>
आइसोल
आइसोलाइ
आइसोलाइसि
आइसोलाइसिन</w>
आइसोले
आइसोलेटन</w>
आइसोलेटिंग</w>
आइसोलेटित</w>
आइसोलेशन</w>
आइस्
आइज़
आइज़क</w>
आइड़
आइड़ियल</w>
आई
आई-लाइनर</w>
आई</w>
आईआ
आईए
आईएम
आईएमए
आईएमएफ़</w>
आईएस
आईएसओ</w>
आईऐ
आईऐस
आईऐसडी</w>
आईओ
आईड
आईड्र
आईना
आईनादार</w>
आईनाब
आईप
आईपा
आईपाड</w>
आईपी
आईपॉ
आईपॉड</w>
आईबी
आईमै
आईमैक्स</w>
आईलाइनर</w>
आईस
आईसाइ
आईसाइट</w>
आईसी
आईसीई</w>
आई॰
आई॰आर
आई॰आर॰
आई॰आर॰सी</w>
आउ
आउझ</w>
आउट
आउटड
आउटडे
आउटडेटिड</w>
आउटप
आउटपेश
आउटपेशैंट</w>
आउटरि
आउटरिगर</w>
आउटलाइ
आउटलाइन/M</w>
आउटसाइ
आउटसाइड</w>
आउटसाइडर</w>
आए
आएँ
आएँ</w>
आएँगी</w>
आओ
आक
आकंठ
आकंठन/F</w>
आकब
आकबत
आकबतअं
आकबतअंदेश/E</w>
आकबा
आकबाक</w>
आकर
आकर-
आकर-भाषा/K</w>
आकरण</w>
आकरभाषा</w>
आकरिक/M</w>
आकर्
आकर्ण
आकर्ण-ध
आकर्ण-धनुरासन</w>
आकर्णित</w>
आकर्ष
आकर्ष/834sTvED</w>
आकर्षण
आकर्षण-विक
आकर्षण-विकर्षण</w>
आकर्षणकारी</w>
आकर्षणपूर्ण</w>
आकर्षित/sTM</w>
आकर्षितत/F</w>
आकर्षियो</w>
आकर्षी
आकर्षीणी</w>
आकल
आकलन
आकलन/M</w>
आकलै
आकलैंड</w>
आकसि
आकसिजन</w>
आकस्म
आकस्मात</w>
आकस्मिक
आकस्मिक-
आकस्मिक-अवकाश
आकस्मिक-अवकाश</w>
आकस्मिक-छ
आकस्मिक-छु
आकस्मिक-छुट्ट
आकस्मिक-छुट्टी/NO</w>
आकस्मिकता
आकस्मिकतावाद/M</w>
आका
आकांक्ष
आकांक्षत</w>
आकांक्षाहीनतः</w>
आकांक्ष्य/sT</w>
आकाड</w>
आकाद</w>
आकाप</w>
आकाय</w>
आकार
आकार-प्र
आकार-प्रकार</w>
आकार-वि
आकार-विज्ञान/M</w>
आकार-विशेष</w>
आकारन
आकारनष्ट</w>
आकारवाले</w>
आकारहीन/sT</w>
आकारांतरण</w>
आकारिकीविद</w>
आकारीठ</w>
आकाल
आकालिक/E</w>
आकाश
आकाश-
आकाश-क
आकाश-कक्षा</w>
आकाश-च
आकाश-चोटी</w>
आकाश-ध
आकाश-ध्रुव</w>
आकाश-पा
आकाश-पाताल</w>
आकाश-यान</w>
आकाश/EM</w>
आकाशक
आकाशकक्षा</w>
आकाशकल्प</w>
आकाशगामी</w>
आकाशच
आकाशचमस</w>
आकाशचर
आकाशचर/E</w>
आकाशजननी</w>
आकाशद
आकाशदीया</w>
आकाशध
आकाशन
आकाशनीम</w>
आकाशप
आकाशपथिक</w>
आकाशफ
आकाशफल</w>
आकाशबे
आकाशबेलि</w>
आकाशम
आकाशमध्य</w>
आकाशमा
आकाशमांसी</w>
आकाशमूल
आकाशमूली</w>
आकाशवचन</w>
आकाशवर्
आकाशवर्त्म</w>
आकाशवल्ली</w>
आकाशवाण
आकाशवाणी/NO</w>
आकाशवृत</w>
आकाशशीर्ष</w>
आकाशसेना</w>
आकाशस्प
आकाशस्पर्श
आकाशस्पर्शी</w>
आकाशा
आकाशेर</w>
आकाशेश</w>
आकि
आकिल
आकिलख
आकिलखानी</w>
आकिस्म
आकिस्मक/sT</w>
आकु
आकुंचनीय</w>
आकुल
आकुल/sT</w>
आकूत
आकूत/FEM</w>
आकृ
आकृत
आकृति
आकृतिय
आकृतियां</w>
आकृतियुक्त</w>
आकृतीय</w>
आकृष्
आकृष्</w>
आक्
आक्ट
आक्टंट</w>
आक्टे
आक्टै
आक्यू
आक्यूपाई</w>
आक्र
आक्रम
आक्रमण
आक्रमणोप
आक्रमणोपयोगी</w>
आक्रम्यत/F</w>
आक्रा</w>
आक्रांत
आक्रांतरहित</w>
आक्राम
आक्रामकतापूर्ण</w>
आक्रीड़
आक्रीड़/E</w>
आक्रु
आक्रुष्टत</w>
आक्रो
आक्रोश
आक्रोशक</w>
आक्र्षण
आक्र्षण-शक्ति/PQ</w>
आक्र्षण</w>
आक्ष
आक्षकी</w>
आक्षपट
आक्षपटलिक</w>
आक्षे
आक्षेप
आक्षेपकारी</w>
आक्षेपपूर्ण</w>
आक्षेपा
आक्षेपात्मक</w>
आक्षेपार्थ</w>
आक्षेपित</w>
आक्स
आक्सी
आक्सीजन
आक्सीजन</w>
आक्सै
आक्सैलिक</w>
आक्सफ़
आख
आखविक</w>
आखा-
आखा-तीज</w>
आखान
आखानव
आखिर
आखु
आखुग</w>
आखुबि
आखुबिष
आखुबिषहा</w>
आखुभोजी</w>
आखुर
आखुरथ</w>
आखेट
आखेटन</w>
आखेटपाश</w>
आखेटबा
आखेटबाड़ा</w>
आखेटोप
आखेटोपजीवी</w>
आखेट्य</w>
आख्य
आख्यान
आख्याय
आख्यायिक/F</w>
आग
आग-
आग-ब
आग-बब
आग-बबुला</w>
आग-रो
आग-रोक</w>
आगणन</w>
आगत
आगति</w>
आगनिक</w>
आगब
आगम
आगम/348sTv
आगम/348sTvLMED</w>
आगमजानी</w>
आगमज्ञानी</w>
आगमन
आगमनवादी</w>
आगमनिर
आगमनिरप
आगमनिरपेक्ष</w>
आगमविद्या</w>
आगमवेदी</w>
आगमसोची</w>
आगमीय</w>
आगर
आगर५
आगर५</w>
आगवन</w>
आगस्ट
आगस्टा</w>
आगस्त
आगस्त्य</w>
आगा
आगा/sT
आगा/sTIGC</w>
आगाज</w>
आगात
आगाताग
आगातागा</w>
आगाध</w>
आगान</w>
आगाम
आगामि
आगामि/sT</w>
आगामिक</w>
आगार
आगारध
आगारधू
आगारधूम</w>
आगारीय</w>
आगाह
आगाह/
आगाह/j
आगाह/j</w>
आगे
आगे-
आगे-आग
आगे-आगे</w>
आगे-पीछ
आगे-पीछे</w>
आगेपीछ
आगेपीछे</w>
आगो
आगोश/M</w>
आगौन</w>
आग्न
आग्निक</w>
आग्ने
आग्नेंद्र</w>
आग्नेपु
आग्नेपुरा
आग्नेपुराण</w>
आग्नेय
आग्नेयो
आग्नेयोद्
आग्नेयोद्गार</w>
आग्र
आग्रभो
आग्रभोजन
आग्रभोजनिक</w>
आग्रमास</w>
आग्रह
आग्रहपूर्ण</w>
आग्रहाय
आग्रहायणिक</w>
आग्रीध्र</w>
आगज़
आगज़न/E</w>
आघ
आघट्टक</w>
आघाट</w>
आघात
आघातवर्ध
आघातवर्धनीय/sT</w>
आघातवर्ध्य/sT</w>
आघूर्ण</w>
आघोन</w>
आघोर</w>
आघोष
आघोषण
आघोषणाप
आघोषणापट
आघोषणापटह</w>
आघ्र
आघ्रा
आघ्रांत</w>
आघ्राण/M</w>
आच
आच/D</w>
आचक्र
आचमन
आचमनीयक</w>
आचर
आचरजित</w>
आचरण
आचरण-पुस्तिका/K</w>
आचरणमूलक</w>
आचाम</w>
आचार
आचार-वि
आचार-विचार/M</w>
आचार-व्यवहार/M</w>
आचारनीति</w>
आचारभ्र
आचारयान</w>
आचारला
आचारलाज</w>
आचारवि
आचारविचार</w>
आचारशास्त्र
आचारशास्त्र/E</w>
आचारहीनतः</w>
आचारित
आचारितद
आचारितदव्य</w>
आचार्य
आचार्यकरण</w>
आचार्यकुल</w>
आचार्यजी</w>
आचार्य्य
आचार्य्यकुल</w>
आचार्य्यत्व</w>
आचि
आचिंत</w>
आचिज्ज</w>
आचूष
आच्छ
आच्छक</w>
आच्छा
आच्छाज</w>
आच्छाजन</w>
आच्छाद
आच्छादन/M</w>
आच्छे
आच्छेत्ता</w>
आच्छेद
आच्छेदन/M</w>
आछ
आछन्न</w>
आछादित</w>
आछे
आछेप</w>
आछौ</w>
आज
आज-त
आज-तक</w>
आजकल
आजतक</w>
आजनि</w>
आजमू
आजमूदा
आजमूदाकार</w>
आजा-
आजा-ग
आजा-गुरु</w>
आजात
आजातशत्रु</w>
आजाद
आजान
आजान-द
आजान-देव</w>
आजान/F</w>
आजानु
आजानुभुज</w>
आजानुल
आजानुलंबी</w>
आजि
आजिक्रिया</w>
आजी
आजीव
आजीवनिक</w>
आजीविक
आजु
आजुर</w>
आजुर्दगी</w>
आजुल</w>
आजू
आजू</w>
आजूबाज़
आजूबाज़ू</w>
आज्ञ
आज्ञा
आज्ञा-
आज्ञा-अवज्ञ
आज्ञा-अवज्ञा</w>
आज्ञाउ
आज्ञाएँ</w>
आज्ञाकारी</w>
आज्ञाचक्र</w>
आज्ञात/F</w>
आज्ञानु
आज्ञानुकूलता</w>
आज्ञानुसार</w>
आज्ञानुसारत</w>
आज्ञाप
आज्ञापत्र/M</w>
आज्ञापाल
आज्ञापूर्ण</w>
आज्ञाप्ति</w>
आज्ञाप्र
आज्ञाप्रति
आज्ञाप्रतिघात</w>
आज्ञाफलक</w>
आज्ञाभ
आज्ञाभंग/M</w>
आज्ञाम
आज्ञायी</w>
आज्ञार्थ
आज्ञार्थक/M</w>
आज्ञाव
आज्ञावह</w>
आज्ञोल
आज्ञोल्ल
आज्ञोल्लंघन</w>
आज्य
आज्यभुक्</w>
आज्यमुक</w>
आज्यलेप</w>
आज्या
आज्यास्थाली</w>
आट
आटमो
आटमोबील</w>
आटि</w>
आटे
आटे-
आटे-दा
आटे-दाल</w>
आटेको
आटेकोइ
आटेकोइड</w>
आटो
आटोम
आटोमा
आटोमाबाइ
आटोमाबाइलो
आटोमाबाइलों</w>
आटोमेशन</w>
आटोमै
आटोमैट
आटोमैटाइ
आटोमैटाइज़्ड</w>
आटोमैटिड</w>
आटोमो
आटोर
आटोरिक्
आटोरिक्शा
आटोरिक्शा-
आटोरिक्शा-चाल
आटोरिक्शा-चालक</w>
आटोरिक्शा</w>
आटोवाहन</w>
आटोस्
आटोस्लै
आटोस्लैज</w>
आट्ट
आट्टो</w>
आट्टोप</w>
आठ
आठखंड
आठखंडा/G</w>
आठगु
आठगुना</w>
आठव
आठवां</w>
आठवी/O</w>
आठै
आठैं</w>
आठौ
आठौगाँ
आठौगाँठ</w>
आड
आड/E</w>
आडंब
आडंबर
आडमान</w>
आडम्ब
आडम्बर
आडम्बर/sTE</w>
आडवाणी</w>
आडि
आडियो
आडियोग्रा
आडियोग्राफ</w>
आडू/R</w>
आडेन
आडेन-आ
आडेन-आब
आडेन-आबियान</w>
आडै
आडैंटिफ़िकेशन</w>
आढ
आढक/E</w>
आढत</w>
आढ्य
आढ्यंभ
आढ्यंभविष्णु</w>
आढ्यवात</w>
आण
आत
आतंक
आतंकन</w>
आतंकवाद
आतंकवादियो</w>
आतंकशीलता</w>
आतंकियों</w>
आतंच
आतंचक</w>
आतक
आतकंक
आतकंकवाद</w>
आतत
आततायी</w>
आतन</w>
आतप
आतपवारण</w>
आतपस्
आतपस्नान/M</w>
आतपा
आतपाभाव</w>
आतम
आतमक</w>
आतर्द</w>
आतश
आतश/ED</w>
आतशगाह</w>
आतशदान</w>
आतशबाज़/E</w>
आतशमि
आतशख़ाना</w>
आता-
आता-जा
आता-जाता</w>
आतार</w>
आति
आतिथ
आतिथेय/M</w>
आतिथ्य/M</w>
आतिर
आतिरश्च
आतिरश्चीन</w>
आतिश
आतिशय
आतिशयिक</w>
आतिशय्य</w>
आतिशी
आतिशी-
आतिशी-शी
आतिशी-शीशा</w>
आतिशख़ाना</w>
आती-
आती-जात
आती-जाती</w>
आती-पाती</w>
आतु
आतुर
आतुरताई</w>
आतुरसं
आतुरसंन्यास</w>
आतुरा
आतुरालय</w>
आतृ
आते-
आते-आते</w>
आते</w>
आतो
आतोद
आतोद्य
आतोद्यक</w>
आत्त
आत्तगर्
आत्तगर्व</w>
आत्तदंड</w>
आत्तप्रति
आत्तप्रतिदान</w>
आत्म
आत्म-
आत्म-क
आत्म-केंद्रित</w>
आत्म-केन्द्रित</w>
आत्म-त
आत्म-तत्त्व</w>
आत्म-व
आत्म-विक
आत्म-विकास</w>
आत्म-विश्
आत्म-विश्वास</w>
आत्म-शक्ति/PQ</w>
आत्म-स
आत्म-सं
आत्म-संबंधी</w>
आत्म-संभव</w>
आत्म-सम
आत्म-समर्थन</w>
आत्म-ह
आत्म-हत्या</w>
आत्म/FDsTM</w>
आत्मंभ
आत्मंभरि</w>
आत्मक
आत्मकथ
आत्मकथन</w>
आत्मकथा/JK</w>
आत्मकथ्य/M</w>
आत्मकरु
आत्मकरुणा</w>
आत्मकृतत</w>
आत्मकेंद्र
आत्मकेन्द्रित</w>
आत्मक्रीड़ा</w>
आत्मग
आत्मगु
आत्मगौर
आत्मगौरव
आत्मगौरवपूर्ण</w>
आत्मघ
आत्मघोषित</w>
आत्मच
आत्मचतु
आत्मचतुर्थ</w>
आत्मचर
आत्मचरित्र</w>
आत्मचित्र</w>
आत्मज
आत्मजि
आत्मजिज्ञ
आत्मजिज्ञासा</w>
आत्मज्ञान/ME</w>
आत्मत
आत्मत/F</w>
आत्मतंत्र</w>
आत्मतत्त्व</w>
आत्मतु
आत्मतुष्ट/sT</w>
आत्मत्व</w>
आत्मद
आत्मदमन/M</w>
आत्मदया</w>
आत्मदर्प
आत्मदर्पी</w>
आत्मदाह/M</w>
आत्मद्र
आत्मद्रावी</w>
आत्मद्रोह/E</w>
आत्मधार
आत्मधारण
आत्मधारणभूमि</w>
आत्मनि
आत्मनिंद
आत्मनिंदात्मक</w>
आत्मनिंदापूर्ण</w>
आत्मनिग्रह/E</w>
आत्मनिय
आत्मनियंत्र
आत्मनियंत्रण
आत्मनियंत्रण/M</w>
आत्मनियंत्रणहीनता</w>
आत्मनिरीक्षण</w>
आत्मनिर्
आत्मनिर्भ
आत्मनिषेध</w>
आत्मनिष्ठ
आत्मनिष्ठ/sTMFD</w>
आत्मनिष्ठत/F</w>
आत्मनीन</w>
आत्मप
आत्मपरक</w>
आत्मपराग
आत्मपरागण</w>
आत्मपरि
आत्मपरिचय</w>
आत्मपी
आत्मपीड
आत्मपीड़
आत्मपीड़ितता</w>
आत्मपोषण/M</w>
आत्मपोषी</w>
आत्मप्र
आत्मप्रति
आत्मप्रतिष्ठा</w>
आत्मप्रशंस
आत्मब
आत्मबंधु</w>
आत्मबल
आत्मबल/M</w>
आत्मबलपूर्वक</w>
आत्मबलि</w>
आत्मभूति</w>
आत्ममान/E</w>
आत्ममु
आत्ममुग्ध</w>
आत्ममो
आत्ममोह
आत्ममोहग्रस्त</w>
आत्ममोहित</w>
आत्मम्भ
आत्मम्भरि</w>
आत्मर
आत्मरक्ष
आत्मरक्षा/GCI</w>
आत्मरक्षात्म
आत्मरक्षात्मकता</w>
आत्मरक्षावाद</w>
आत्मरत</w>
आत्मरुप</w>
आत्मरूप</w>
आत्मल
आत्मलयन</w>
आत्मलीन/sT</w>
आत्मव
आत्मवंद
आत्मवंदना</w>
आत्मवश</w>
आत्मवि
आत्मविक
आत्मविकास/M</w>
आत्मविक्र
आत्मविज्ञान</w>
आत्मविद्</w>
आत्मविद्य
आत्मविद्या/JK</w>
आत्मविरोध
आत्मविरोधपूर्ण</w>
आत्मविरोधी</w>
आत्मविश्ल
आत्मविश्लेषण/M</w>
आत्मविश्वास
आत्मविश्वास/ME</w>
आत्मविश्वासपूर्वक</w>
आत्मविष
आत्मविषायन</w>
आत्मविस्म
आत्मव्यंग
आत्मव्यंग्य/M</w>
आत्मशिक्ष
आत्मशिक्षा</w>
आत्मश्ल
आत्मश्लाघ
आत्मश्लाघा/GCI</w>
आत्मस
आत्मसं
आत्मसंज्ञा</w>
आत्मसंत
आत्मसंतु
आत्मसंतुष्टि</w>
आत्मसंतोष
आत्मसंतोष/ME</w>
आत्मसंय
आत्मसंयम
आत्मसंयम/EM</w>
आत्मसम
आत्मसमर्पण/M</w>
आत्मसमु
आत्मसमुद्
आत्मसमुद्भव/F</w>
आत्मसम्
आत्मसम्मान
आत्मसम्मानहीन</w>
आत्मसाक्ष
आत्मसापेक्ष</w>
आत्मसिद्ध</w>
आत्मसु
आत्मस्वी
आत्मस्वीकृत</w>
आत्मस्वीकृति</w>
आत्मह
आत्महंता</w>
आत्महत्य
आत्महत्या/CI</w>
आत्महत्यार
आत्महत्यारा/C</w>
आत्महित
आत्महितयुक्त</w>
आत्महितवाद</w>
आत्मा
आत्माध
आत्माधीनत/F</w>
आत्मान
आत्मानु
आत्मानुभव/M</w>
आत्मानुभू
आत्मानुभूतीय</w>
आत्मानुरूप</w>
आत्मानुशास
आत्मानुशासन/M</w>
आत्मानुशासी</w>
आत्मान्व
आत्मान्वेषण/M</w>
आत्माभि
आत्माभिमान
आत्माभिमान/ME</w>
आत्माभिव्य
आत्माभिव्यंजन/M</w>
आत्माभिव्यक्ति</w>
आत्मार
आत्माराम/M</w>
आत्माव
आत्मावलंब
आत्मावलंबिनी</w>
आत्माह
आत्मीय
आत्मीय/sTMF</w>
आत्मीयकरण</w>
आत्मीयकृत</w>
आत्मोत्
आत्मोद्
आत्मोद्भूति</w>
आत्मोन्माद</w>
आत्मोप
आत्मोपम</w>
आत्मोपलब्धि</w>
आत्मौ
आत्मौचित
आत्मौचित्य/M</w>
आत्मौपम</w>
आत्म्य</w>
आत्य
आत्यंत
आत्यंतिक/sTM</w>
आत्यन्त
आत्यन्तिक</w>
आत्र
आत्रेय
आथ
आथलि
आथलिअ
आथलिअ</w>
आथो
आथोराइ
आथोराइज</w>
आद
आदग्ध</w>
आदत
आदतन</w>
आदतहीन</w>
आदत्त
आदत्तक</w>
आदम
आदम/MED</w>
आदमपूर्व</w>
आदमी/OM</w>
आदमक़
आदमक़द</w>
आदर
आदर-
आदरयुक्त</w>
आदरयोग्य</w>
आदरस
आदरसत्
आदरसत्कार/M</w>
आदरा
आदरार्थक</w>
आदर्य</w>
आदर्श
आदर्शनीय</w>
आदर्शमंदिर</w>
आदर्शवाद
आदर्शवाद-सम्
आदर्शवाद-सम्बंधी</w>
आदर्शवाद/EM</w>
आदर्शस्वरूप</w>
आदर्शहीन/sT</w>
आदर्शहीनतः</w>
आदर्श्य/sT</w>
आदा
आदान
आदान/EM</w>
आदानपत्र</w>
आदान्य/sT</w>
आदि
आदि-
आदि-अनाद
आदि-अनादि</w>
आदिअंत
आदिअंतयुक्त/sT</w>
आदिक
आदिकर</w>
आदिकरणी</w>
आदिकर्म</w>
आदिकवि</w>
आदिकाल
आदिकालीन</w>
आदिकेश
आदिकेशव</w>
आदिक्रम</w>
आदिग्र
आदिग्रंथ</w>
आदिज</w>
आदिजिन</w>
आदिजी
आदित
आदितेय</w>
आदित्य
आदित्यक
आदित्यकेतु</w>
आदित्यदर्शन</w>
आदित्यपत्र</w>
आदित्यपर्णी</w>
आदित्यपाक</w>
आदित्यपुष्पिका</w>
आदित्यभ
आदित्यभक्त/F</w>
आदित्यव्रत</w>
आदित्यशयन</w>
आदित्व</w>
आदित्सा</w>
आदिदेय</w>
आदिदै
आदिदैत्य</w>
आदिन
आदिनाथ/M</w>
आदिनारी</w>
आदिप
आदिपर्व</w>
आदिपा
आदिपाषा
आदिपाषाण</w>
आदिम
आदिम/F
आदिम/FsT
आदिम/FsTLM</w>
आदिमकालीन/sT</w>
आदिमत/F</w>
आदिमान</w>
आदिया
आदियास</w>
आदियोग
आदियोगाच
आदियोगाचार्य</w>
आदिरूप</w>
आदिल
आदिलक्ष्मी</w>
आदिलव</w>
आदिलवक</w>
आदिवास/0E</w>
आदिविपुला</w>
आदिशक्ति/PQ</w>
आदिशरीर</w>
आदिशेष</w>
आदिष्ट
आदिस</w>
आदिसर्ग</w>
आदिसिद्ध
आदिसिद्धांतीय</w>
आदिस्थान</w>
आदिहीन/sT</w>
आदी
आदीकारी</w>
आदीचक</w>
आदूषित</w>
आदृत/sT</w>
आदृष्टि</w>
आदेव</w>
आदेवन</w>
आदेश
आदेश-पत्र/M</w>
आदेशपत्र</w>
आदेशपूर्ण</w>
आदेशपूर्वक</w>
आदेशात्म
आदेशात्मक/sTM</w>
आदेशावली</w>
आदेशिका/JK</w>
आदेशिकीविद</w>
आदेशित/E</w>
आदेशितत</w>
आदेस</w>
आद्य
आद्यंग</w>
आद्यंत
आद्यंत/sT</w>
आद्यंतहीन/sT</w>
आद्यंतहीनतः</w>
आद्यन्त</w>
आद्यश्राद्ध</w>
आद्या
आद्यांत</w>
आद्याशक्ति/PQ</w>
आद्यु
आद्यून</w>
आद्योपा
आद्योपांत
आद्र
आद्र-प्रदेश</w>
आध
आध/MFED</w>
आधर</w>
आधर्य</w>
आधर्षित</w>
आधवन/M</w>
आधा
आधा-
आधात
आधात/FM</w>
आधान
आधानवती</w>
आधानित/sT</w>
आधार
आधार-
आधार-स्त
आधार-स्तंभ</w>
आधार-स्तम्भ</w>
आधार-स्व
आधार-स्वरता</w>
आधार/U
आधार/UEM</w>
आधारणीय</w>
आधारत</w>
आधारतत्व</w>
आधारति</w>
आधारदान</w>
आधारनिलय</w>
आधारपूर्णत/F</w>
आधारभू
आधारभूतत/F</w>
आधारयुक्त/sT</w>
आधारयुक्तत/F</w>
आधारवर्ष/M</w>
आधारव्य
आधारव्यिन</w>
आधारिड</w>
आधारीय</w>
आधि
आधिक
आधिकार
आधिकारिक/sTM</w>
आधिक्य/M</w>
आधिदै
आधिदैव
आधिदैविक/sT</w>
आधिधारी</w>
आधिप
आधिपत्य
आधिपत्यशील/sT</w>
आधिपत्यीय</w>
आधिपाल</w>
आधिभौतिक/sT</w>
आधिमोचन</w>
आधिरा
आधिराज्य/M</w>
आधिवेद
आधिवेदनिक</w>
आधी
आधीन/sT</w>
आधुन
आधुनिक
आधुनिक-प्राचीन</w>
आधुनिकतावाद/E</w>
आधू
आधूपन</w>
आधूम
आधूम्र</w>
आधूम्रक</w>
आधूरा</w>
आधृत
आधृत०
आधृत०</w>
आधेय/M</w>
आधो
आधो-
आधो-आध
आधो-आध</w>
आध्
आध्मात</w>
आध्या
आध्यात्म
आन
आन-ब
आन-बान</w>
आनँद
आनंत
आनंद
आनंद-क्रीड़ा</w>
आनंद-दायक</w>
आनंदक
आनंदक</w>
आनंदकर</w>
आनंददान</w>
आनंददायी</w>
आनंदपुर</w>
आनंदपूर्वक</w>
आनंदप्र
आनंदप्रद
आनंदप्रदत/F</w>
आनंदप्राप्त</w>
आनंदब
आनंदबध
आनंदबधाई</w>
आनंदमय
आनंदमय/F</w>
आनंदमास</w>
आनंदवर्धक</w>
आनंदवाद/EM</w>
आनंदहीनतः</w>
आनंदानुभूति</w>
आनंदि</w>
आनंदितत</w>
आनंदोत्कर्ष/M</w>
आनंदोद्
आनंदोद्गार</w>
आनक
आनक-दु
आनक-दुन्दुभि</w>
आनड
आनडुह</w>
आनद्ध
आनद्धव
आनद्धवस्ति
आनद्धवस्तिता</w>
आनन्द
आनन्द-क्रीड़ा</w>
आनन्द-सम्मोहिता</w>
आनन्दगान</w>
आनन्दम
आनन्दमग्न</w>
आनन्दमत्ता</w>
आनन्दस्वरूप</w>
आनर</w>
आनर्
आनर्त
आनर्तक</w>
आनर्त्त
आनर्त्तक</w>
आनर्त्तनग
आनर्त्तनगरी</w>
आनर्स</w>
आना
आना..
आना...</w>
आना</w>
आनि
आनि</w>
आनियो</w>
आनिल/F</w>
आनिश्र
आनिश्रत
आनिश्रतवत्स
आनिश्रतवत्सल</w>
आनी
आनी-
आनी-जानी</w>
आनील</w>
आनु
आनुऊ
आनुऊस</w>
आनुकूल
आनुकूलिक</w>
आनुक्रम
आनुक्रमिक/sTM</w>
आनुगत
आनुगतिक</w>
आनुगत्य</w>
आनुग्रह
आनुग्राम
आनुग्रामिक</w>
आनुतोष
आनुतोषिक/M</w>
आनुपा
आनुप्र
आनुप्रास
आनुप्रासिक</w>
आनुभविक</w>
आनुमान</w>
आनुयूष
आनुयूषिकीय</w>
आनुरक्ति</w>
आनुवंश
आनुवंशिकी
आनुवंशिकीवि
आनुवा
आनुवांश
आनुवांशिक
आनुवांशिक/sTE</w>
आनुश्र
आनुश्रविक</w>
आनुश्राव
आनुश्राविक</w>
आनुष</w>
आनुषंग
आनुषंगिक
आनुषंगिक/sTM</w>
आनुषंगिक</w>
आनुषंगिकलब्ध
आनुषंगिकलब्धिया
आनुषंगिकलब्धियाँ</w>
आनुषंगिकलब्धियाओं</w>
आनृ
आनृशंस
आनृशंस</w>
आनृशंस्य</w>
आने
आने-
आने-जान
आनेव
आनेवला</w>
आनेवाल
आनेवाला/GC</w>
आन्
आन्त
आन्तर
आन्तरिक-सज्जाकार</w>
आन्तरिक</w>
आन्तर्
आन्तर्राष्ट्र
आन्तर्राष्ट्रीय/sT</w>
आन्त्र
आन्त्रेर</w>
आन्द
आन्दू</w>
आन्दोल
आन्दोलनकारी</w>
आन्दोलित</w>
आन्द्र
आन्द्रा</w>
आन्ध
आन्न
आन्नद</w>
आन्वय
आन्वयिक</w>
आऩ
आऩा</w>
आप
आप</w>
आपक
आपट
आपण</w>
आर
इ
इ</w>
इंट
इंटमेंट/M</w>
इन्
इया</w>
इयो</w>
इस</w>
ई
ई-
ई/O</w>
ई</w>
ईन</w>
उ
उ</w>
ऊ
ऊ</w>
ऊँ</w>
ऊपन</w>
ऋ
ए
ए</w>
एँ</w>
एं</w>
एस</w>
ऐ
ऐम</w>
ऑ
ओ
ओ</w>
ओं</w>
औ
क
क-
क/D</w>
क/E</w>
क/F</w>
क/LM</w>
क/M</w>
क/sT</w>
क/sTM</w>
क</w>
कंठ</w>
कक्ष</w>
कट
कट</w>
कता
कता</w>
कतापूर्ण</w>
कथ
कथा/JK</w>
कन
कन</w>
कम</w>
कर
कर/E</w>
कर/sT</w>
कर</w>
करण
करण/M</w>
करण</w>
करणीय/sT</w>
करणीय</w>
करत</w>
करा/G</w>
करिपु</w>
करी
करु
कर्
कर्ण
कर्ण</w>
कर्ता/K</w>
कर्ता</w>
कर्त्ता</w>
कर्म/M</w>
कर्म</w>
कर्ष
कर्ष</w>
कर्षण</w>
कल
कल</w>
कलन</w>
कलह</w>
कला/CI</w>
कला</w>
कलित</w>
कली</w>
कलुष</w>
कल्
कल्प
कल्प</w>
कल्पिक</w>
का
का/CI</w>
का/G</w>
का</w>
कां
कांक्ष
कांड</w>
कांत
कांत</w>
काट</w>
काण्ड</w>
काद
कादशी</w>
कान</w>
कान्
कापन</w>
काबाद</w>
काम</w>
कामना</w>
काय</w>
कार
कार/E</w>
कार/M</w>
कार</w>
कारक/sT</w>
कारक</w>
कारा</w>
कारियों</w>
कारी</w>
कार्य
कार्य/sT</w>
कार्य</w>
काल
काल/M</w>
काल</w>
कालिक</w>
कालीन/sT</w>
कालीन</w>
काव</w>
काश
काश</w>
कि
कि</w>
किंग</w>
किक</w>
कित</w>
किनी</w>
किरात</w>
की
की</w>
कीय</w>
कीला</w>
कु
कुंड</w>
कुटी</w>
कुमार</w>
कुल
कुल</w>
कुशल</w>
कुसु
कुसुम/M</w>
कुसुम</w>
कू
कूट/M</w>
कूट</w>
कूप</w>
कूल
कूलता</w>
कृ
कृत
कृत</w>
कृतत</w>
कृति</w>
कृमि</w>
कृष्ण</w>
के
के/M</w>
केत</w>
कै
को
कोट</w>
कोण</w>
कोप
कोश/M</w>
कोश</w>
कोष</w>
कोष्ठ</w>
कोह
कोहल/M</w>
क्
क्त
क्त/F</w>
क्त/M</w>
क्त</w>
क्तत</w>
क्तव्य</w>
क्ता</w>
क्ति
क्ति/PQ</w>
क्ति</w>
क्तिपूर्ण</w>
क्त्र</w>
क्य</w>
क्र
क्र</w>
क्रम
क्रम</w>
क्रमण</w>
क्रमा
क्रमित</w>
क्रां
क्रान्
क्रान्ति</w>
क्राम
क्रामक</w>
क्रिया/JK</w>
क्रिया</w>
क्रीम</w>
क्रीड़
क्रीड़ा/IC</w>
क्रीड़ा</w>
क्रै
क्रो
क्रोश</w>
क्व
क्व</w>
क्ष
क्ष/F</w>
क्ष/M</w>
क्ष</w>
क्षक</w>
क्षण/M</w>
क्षण</w>
क्षत्र</w>
क्षम</w>
क्षमता</w>
क्षर/M</w>
क्षर</w>
क्षा</w>
क्षार</w>
क्षाल
क्षालन</w>
क्षि
क्षिण</w>
क्षित</w>
क्षी</w>
क्षे
क्षेत्र
क्षेत्र/M</w>
क्षेत्र</w>
क्षेप
क्षेप/M</w>
क्षेप</w>
क्षेपण/M</w>
क्षेपण</w>
क्ष्म</w>
क्ष्य</w>
क्स</w>
कड़</w>
ख
ख</w>
खंड
खंड</w>
खंडन</w>
खन</w>
खा
खा/G</w>
खा</w>
खाता</w>
खाद
खान
खाना</w>
खाबाद</w>
खी</w>
खोप
खोपड़ी</w>
ख्य
ख्य</w>
ख्या
ख्यात</w>
ख्यान</w>
ग
ग/E</w>
ग/F</w>
ग/M</w>
ग/ME</w>
ग</w>
गं
गंगा</w>
गंड</w>
गंध</w>
गट्टा</w>
गण
गण</w>
गणित</w>
गत
गत/M</w>
गत/sT</w>
गत</w>
गति</w>
गन</w>
गन्ध</w>
गम
गम/M</w>
गम</w>
गमन/M</w>
गमन</w>
गम्य/sT</w>
गम्य</w>
गर/E</w>
गर</w>
गरी</w>
गर्
गर्भ
गर्भ</w>
गर्भा
गल्ल
गल्लम</w>
गा</w>
गाँ
गान</w>
गाम
गामिनी</w>
गामी</w>
गार</w>
गाह</w>
गिर
गिरि</w>
गी
गी</w>
गीत</w>
गीय</w>
गीर</w>
गु
गु</w>
गुण
गुण</w>
गुन</w>
गुड़</w>
गृ
गृह
गृह/M</w>
गृह</w>
गृहीत</w>
गै
गो
गो</w>
गोत्र</w>
गोध
गोपन</w>
गोल
गोल</w>
गोला
गोलाकार</w>
ग्
ग्ध</w>
ग्न
ग्न/sT</w>
ग्न</w>
ग्नि</w>
ग्र
ग्र</w>
ग्रं
ग्रंथ
ग्रंथि</w>
ग्रस्त
ग्रस्त/sT</w>
ग्रस्त</w>
ग्रह
ग्रह/E</w>
ग्रह/EM</w>
ग्रह/M</w>
ग्रह</w>
ग्रहण/M</w>
ग्रहण</w>
ग्रहीत</w>
ग्रहीय</w>
ग्रा
ग्राम
ग्राह
ग्राहक</w>
ग्राहिता</w>
ग्राही</w>
ग्राह्य</w>
ग्री
ग्रीव</w>
गढ़</w>
घ
घ</w>
घट</w>
घन</w>
घर</w>
घात
घात/ME</w>
घात</w>
घातक</w>
घाती</w>
घौ
घौत</w>
घ्न
घ्न</w>
ङ
च
च/E</w>
च/M</w>
च</w>
चंद्र
चक</w>
चक्र
चक्र/M</w>
चक्र</w>
चतुर्दशी</w>
चन
चन/FM</w>
चन/M</w>
चन</w>
चना/JK</w>
चना</w>
चनी</w>
चनीय</w>
चन्द्र
चय/ME</w>
चय</w>
चर
चर/M</w>
चर</w>
चरण/M</w>
चरण</w>
चर्चा</w>
चर्म
चर्म</w>
चर्य
चर्या</w>
चल
चल</w>
चा</w>
चाप</w>
चाम
चामर</w>
चार
चार/M</w>
चार</w>
चारक</w>
चारण</w>
चारित/F</w>
चारी</w>
चार्य</w>
चाल
चालन</w>
चालित</w>
चि
चि</w>
चिंत
चिंतक</w>
चिंतन</w>
चिंता</w>
चित
चित-
चित/M</w>
चित/sT</w>
चित</w>
चितता</w>
चितवन</w>
चित्त
चित्त</w>
चित्र</w>
चिर्
चिव</w>
चिह्न</w>
ची</w>
चु
चू
चेत
चेतन/F</w>
चेतन</w>
चेता</w>
चेष्ट
चेष्टा/JK</w>
चौ
च्
च्च
च्च</w>
च्चू</w>
च्छ
च्छ</w>
च्छक</w>
च्छद</w>
च्छन्न</w>
च्छा</w>
च्छि
च्छिन्न</w>
च्छेद
च्छेदन</w>
च्य
च्य</w>
च्युत</w>
छ
छद</w>
छन</w>
छाप
छाप</w>
छि
छित</w>
छिद्र
छिद्रण</w>
छेद
छेदन</w>
ज
ज/E</w>
ज/F</w>
ज/M</w>
ज/sT</w>
ज</w>
जक/M</w>
जक</w>
जत्व</w>
जन
जन/E</w>
जन/F</w>
जन/FD</w>
जन/M</w>
जन</w>
जनक</w>
जनन</w>
जननी</w>
जनशील</w>
जनित</w>
जनीय</w>
जन्
जन्म/F</w>
जन्म</w>
जन्मा</w>
जन्य</w>
जय</w>
जर</w>
जल</w>
जा
जा/G</w>
जा/IC</w>
जा</w>
जाकार</w>
जात
जात/sT</w>
जात</w>
जाति</w>
जातियों</w>
जातीय</w>
जाद</w>
जान
जान</w>
जानी</w>
जानु</w>
जामी</w>
जारा</w>
जाल</w>
जि
जित</w>
जिन</w>
जियो</w>
जिर्त</w>
जिह्व
जिह्वा</w>
जी
जी</w>
जीकृत</w>
जीत</w>
जीव
जीवका
जीवकाणु</w>
जीवन</w>
जीविता</w>
जीवियों</w>
जीवी</w>
जु
जू
जूँ</w>
जै
ज्
ज्ज
ज्ज</w>
ज्जा</w>
ज्जित</w>
ज्जु</w>
ज्ञ
ज्ञ/F</w>
ज्ञ/M</w>
ज्ञ</w>
ज्ञा</w>
ज्ञात</w>
ज्ञाता</w>
ज्ञान
ज्ञान/EM</w>
ज्ञान/M</w>
ज्ञान/ME</w>
ज्ञान</w>
ज्ञानी</w>
ज्ञानीय</w>
ज्य
ज्य/M</w>
ज्य</w>
ज्यो
ज्योति
ज्योति</w>
ज्योतिष</w>
ज्वर</w>
ज्वाल
झ
झ/FED</w>
झ</w>
झप्त</w>
झा</w>
झारा</w>
झी</w>
ञ
ट
ट/E</w>
ट/F</w>
ट/M</w>
ट/sT</w>
ट</w>
टंक</w>
टक</w>
टकन</w>
टन</w>
टमेन्ट</w>
टर</w>
टरी</w>
टा</w>
टाई</w>
टाम
टि
टि</w>
टिंग</w>
टिक
टिक</w>
टिका</w>
टिड</w>
टिड्
टिड्डा</w>
टित</w>
टी</w>
टीय</w>
टे
टेकिंग</w>
टेड</w>
टै
टैकिंग</w>
ट्
ट्ट
ट्ट/M</w>
ट्ट</w>
ट्टक</w>
ट्टा</w>
ट्‌
ट्‌य</w>
ठ
ठ/M</w>
ठ</w>
ठर</w>
ठा/G</w>
ठान
ठानबे
ठानबे</w>
ठानबेवाँ</w>
ठानवे
ठानवे</w>
ठानवेवाँ</w>
ठी</w>
ड
ड</w>
डकर
डकर</w>
डकरनगर</w>
डर</w>
डा</w>
डाई</w>
डि
डिड</w>
डित</w>
डियन</w>
डी</w>
डीन</w>
डु</w>
डे
डे</w>
डेट</w>
डेड</w>
ड्
ड्स</w>
ड्‌
ढ
ढ</w>
ढाल</w>
ढ्य</w>
ण
ण/E</w>
ण/F</w>
ण/M</w>
ण/MFD</w>
ण/sT</w>
ण</w>
णक</w>
णन</w>
णय/M</w>
णयन</w>
णशील</w>
णा</w>
णि</w>
णिक</w>
णिका</w>
णित</w>
णी</w>
णीत</w>
णीय/sT</w>
णीय</w>
णीयत/F</w>
णु</w>
ण्
ण्टक</w>
ण्ठ
ण्ठ</w>
ण्ड
ण्ड</w>
ण्ण</w>
ण्य</w>
त
त-
त/E</w>
त/F</w>
त/FED</w>
त/LM</w>
त/M</w>
त/ME</w>
त/sT</w>
त/sTF</w>
त/sTM</w>
त</w>
तंत्र/M</w>
तंत्र</w>
तः
तः</w>
तक</w>
तत/F</w>
तत</w>
तता</w>
तत्व</w>
तन
तन/M</w>
तन</w>
तनीय</w>
तन्त्र</w>
तप
तम
तम</w>
तमत/F</w>
तमस</w>
तया</w>
तर
तर/E</w>
तर/M</w>
तर</w>
तरंग</w>
तरत/F</w>
तव्य
तस</w>
ता
ता/734sTv</w>
ता/K</w>
ता</w>
ताइयो</w>
ताई</w>
ताजन्य</w>
तान</w>
तापूर्
तापूर्ण</w>
तापूर्वक</w>
ताब/F</w>
ताब्
ताब्दी</w>
ताम
ताय
तार
ताल
ताल</w>
ताव
तावश</w>
तावाद/E</w>
तावाद</w>
तावादी</w>
ति
ति/QM</w>
ति</w>
तिक
तिक/sT</w>
तिक</w>
तिकर</w>
तिकर्म</w>
तिका</w>
तित</w>
तिथि</w>
तिथ्य</w>
तिपूर्ण</w>
तिमान</w>
तिमास</w>
तिय
तिया</w>
तियां</w>
तियो</w>
तियों</w>
तिशील</w>
तिहास
ती
ती</w>
तीज</w>
तीत
तीत</w>
तीय</w>
तीर्थ
तीर्थकृत</w>
तु
तुक</w>
तुर्द
तुर्दशी</w>
ते</w>
तो
तोग
तोष
तोस</w>
त्
त्</w>
त्कार</w>
त्कि</w>
त्त
त्त/M</w>
त्त</w>
त्तम</w>
त्तर</w>
त्तल</w>
त्ता</w>
त्ति</w>
त्ती</w>
त्ते
त्त्व</w>
त्थ
त्न
त्न</w>
त्नी</w>
त्पादन</w>
त्म
त्म</w>
त्मक</w>
त्मज</w>
त्मा</w>
त्य
त्य/M</w>
त्य/sT</w>
त्य</w>
त्यंग</w>
त्या
त्या</w>
त्याग</w>
त्र
त्र/M</w>
त्र</w>
त्रण</w>
त्राण</w>
त्रि</w>
त्रिका</w>
त्रित</w>
त्री</w>
त्र्य</w>
त्व
त्व/M</w>
त्व</w>
त्वक</w>
त्वचा</w>
त्वज्ञ</w>
त्वर</w>
त्वा</w>
त्विक</w>
त्स
त्सम</w>
त्सा</w>
त्साह
त्साहित</w>
त्सित</w>
थ
थ/F</w>
थ</w>
थऊ</w>
थन</w>
था</w>
थि
थि</w>
थिक</w>
थित</w>
थी</w>
थुन
थ्य</w>
थ्या</w>
द
द/E</w>
द/F</w>
द/M</w>
द</w>
दंड</w>
दगी</w>
दत्त</w>
दन/M</w>
दन</w>
दर्
दर्श
दर्शक</w>
दर्शन/M</w>
दर्शन</w>
दर्शी</w>
दल
दल</w>
दलप्र
दलप्रभ</w>
दला/G</w>
दहा</w>
दा
दा/G</w>
दा</w>
दात्त
दान
दान/M</w>
दान</w>
दाय
दाय/M</w>
दायक</w>
दायी</w>
दार
दार/E</w>
दार/M</w>
दार</w>
दारण</w>
दारु</w>
दार्थ</w>
दाव
दाश्त</w>
दि
दिक</w>
दित</w>
दिन</w>
दिव
दिवस</w>
दिश
दिशा</w>
दिष्ट</w>
दी
दी</w>
दीप/M</w>
दीप</w>
दीप्ति</w>
दीय</w>
दु
दुः
दुःख
दुःखिता</w>
दृ
दृश</w>
दृष्टि</w>
दे
देखा</w>
देय/M</w>
देय</w>
देव</w>
देश
देश/E</w>
देश/M</w>
देश</w>
देशिक</w>
देशी</w>
देशीय</w>
दै
दोलन</w>
दोष
दोष</w>
दोह</w>
द्
द्</w>
द्घ
द्घ/sT</w>
द्घ</w>
द्घत/F</w>
द्द
द्दीन</w>
द्ध
द्ध</w>
द्धता</w>
द्धा</w>
द्धान</w>
द्धि</w>
द्म</w>
द्य
द्य</w>
द्युति</w>
द्र
द्रव्य</w>
द्रि</w>
द्व
द्व</w>
द्वं
द्वंद्व</w>
द्वार
द्वार/M</w>
द्वार</w>
द्वि
द्विट</w>
द्वी
द्वेष
द्वेष/E</w>
द्‌
द्‌म</w>
ध
ध/E</w>
ध/M</w>
ध</w>
धक</w>
धन</w>
धर/M</w>
धर</w>
धर्म
धर्म</w>
धा</w>
धान
धान/M</w>
धान</w>
धानन</w>
धानिक</w>
धानित</w>
धानी</w>
धाम</w>
धायक</w>
धार
धार</w>
धारण</w>
धारी</w>
धार्य</w>
धि
धि</w>
धिकार
धित</w>
धिप</w>
धियों</w>
धी</w>
धीन</w>
धु
धुंध</w>
धेय</w>
ध्
ध्न</w>
ध्य
ध्य</w>
ध्या
ध्यान</w>
ध्व
न
न/E</w>
न/F</w>
न/FD</w>
न/FM</w>
न/LM</w>
न/M</w>
न/ME</w>
न/MF</w>
न/MFD</w>
न/MFED</w>
न/sT</w>
न</w>
नंग
नंदन</w>
नकारी</w>
नग
नगर</w>
नगरीय</w>
नत</w>
नन</w>
नना</w>
नपूर्ण</w>
नयन</w>
नर
नर</w>
नल</w>
नवा
नवाड़ी</w>
नशील</w>
नशीलता</w>
नहीन</w>
ना
ना/G</w>
ना/JK</w>
ना</w>
नाइयो</w>
नाक</w>
नाग</w>
नात्मक</w>
नाथ
नाथ/M</w>
नाथ</w>
नाद/M</w>
नाद</w>
नान/M</w>
नान</w>
नाप</w>
नाभ
नाभ</w>
नाभि</w>
नामा</w>
नाय
नायक</w>
नायी</w>
नार
नार्थ</w>
नाल</w>
नाश
नाश</w>
नाशक</w>
नाशन</w>
नि
नि</w>
निक</w>
निका</w>
निटी</w>
नित</w>
निद्र
निद्र</w>
निद्रा</w>
निधन</w>
निधि
निधि/PQ</w>
निय
नियन</w>
नियम</w>
निया
निया-वासी/O</w>
निया</w>
नियाई</w>
नियावास/0E</w>
निर
निर्
निर्देश</w>
निर्माण</w>
निर्मित</w>
निलय</w>
निष
निषेध</w>
निष्ठ</w>
नी</w>
नीत</w>
नीति</w>
नीन</w>
नीपन</w>
नीय/sT</w>
नीय</w>
नीयत/F</w>
नीयत</w>
नु
नु</w>
नुरा
नुरासन</w>
ने
नेत्र</w>
नेमि</w>
न्
न्</w>
न्ट</w>
न्त
न्त</w>
न्तु
न्त्र</w>
न्द
न्द/E</w>
न्द</w>
न्दन</w>
न्दा</w>
न्दित</w>
न्दी</w>
न्दु</w>
न्दुभि</w>
न्द्र
न्ध
न्ध</w>
न्न
न्न/sT</w>
न्न</w>
न्नत</w>
न्नति</w>
न्ना</w>
न्य
न्य</w>
न्या
न्या</w>
न्यास/M</w>
न्यास</w>
न्वा</w>
न्स</w>
ऩ
प
प/M</w>
प/sT</w>
प</w>
पं
पंक्ति</w>
पंच
पंथ
पक</w>
पक्ष</w>
पट
पट/E</w>
पट</w>
पट्
पट्ट
पट्टी</w>
पठ
पण</w>
पत/F</w>
पतन</w>
पति</w>
पतित</w>
पत्ति</w>
पत्र
पत्र/M</w>
पत्र</w>
पत्रक</w>
पत्रित</w>
पत्रीय</w>
पथ</w>
पद/E</w>
पद/M</w>
पद</w>
पदार्थ</w>
पद्ध
पद्धति</w>
पन/F</w>
पन/M</w>
पन</w>
पना</w>
पन्न</w>
पम</w>
पर
पर</w>
परक</w>
परस्त</w>
परा
परायण</w>
परि
परिधान</w>
परिमाण</w>
पर्
पर्क</w>
पर्ण</w>
पर्णी</w>
पल
पा
पा</w>
पाई</w>
पाक</w>
पाठ
पाणि</w>
पात/M</w>
पात</w>
पाती</w>
पात्र/M</w>
पात्र</w>
पाद
पाद</w>
पादन</w>
पादित</w>
पान</w>
पाय
पार
पार</w>
पारा</w>
पार्
पाल</w>
पालक</w>
पालन</w>
पाली</w>
पाश</w>
पि
पिंड</w>
पित</w>
पी
पी</w>
पीछ
पीटी</w>
पीड़
पीड़ा</w>
पु
पु</w>
पुच्छ</w>
पुझा</w>
पुण</w>
पुत्र
पुत्र/EM</w>
पुत्र/ME</w>
पुर
पुर</w>
पुरी</w>
पुरुष
पुरुष/M</w>
पुरुष</w>
पुष्
पुष्ट</w>
पुष्प
पुष्प/M</w>
पुष्प</w>
पुष्पिका</w>
पुष्पी</w>
पू
पू</w>
पूंज
पूजा</w>
पूत
पूतना
पूतनाग्रह</w>
पूरण</w>
पूर्
पूर्ण
पूर्ण/M</w>
पूर्ण/sT</w>
पूर्ण</w>
पूर्णत/F</w>
पूर्णत</w>
पूर्ति</w>
पूर्व
पूर्व/sT</w>
पूर्व</w>
पूर्वक/M</w>
पूर्वक</w>
पे
पेजी</w>
प्
प्त
प्त/F</w>
प्त/sT</w>
प्त</w>
प्तत</w>
प्ति</w>
प्य</w>
प्यता</w>
प्र
प्रचार</w>
प्रति
प्रद
प्रद</w>
प्रदायक</w>
प्रदेश</w>
प्रभा</w>
प्रमाण</w>
प्रवाह</w>
प्राप्त</w>
प्राप्य</w>
प्रिय/sT</w>
प्रिय</w>
प्रिया</w>
प्सित</w>
पड़
फ
फ</w>
फर</w>
फरी</w>
फल
फलक</w>
फला</w>
फा</w>
फान</w>
फिशाँ</w>
फो
फोन</w>
फोड़
फ्र
ब
ब/F</w>
ब/M</w>
ब</w>
बंध
बंध/M</w>
बंध</w>
बंधन</w>
बंधी</w>
बंधु</w>
बक</w>
बग
बच
बद्घ</w>
बद्ध
बद्ध</w>
बद्धन</w>
बन</w>
बन्ध
बन्ध</w>
बन्धन</w>
बन्धु</w>
बर
बर</w>
बल</w>
बला</w>
बा
बा</w>
बाँ
बाँय</w>
बाइ
बाई</w>
बाज
बाज/E</w>
बाज</w>
बाजी</w>
बाण</w>
बाद</w>
बान</w>
बाब</w>
बार</w>
बाल</w>
बाह
बाहु</w>
बाह्य</w>
बाग़</w>
बाज़
बाज़/E</w>
बाज़/ME</w>
बाड़ी</w>
बि
बिंदु</w>
बिन्दु</w>
बिल</w>
बिस</w>
बी
बी</w>
बीज</w>
बील</w>
बु
बुद्ध
बुद्ध</w>
बुद्धि</w>
बृ
बे
बे</w>
बेल
बेल/LM</w>
बेल</w>
बेला</w>
बोध
बोध/M</w>
बोध</w>
ब्
ब्द</w>
ब्ध
ब्ध</w>
ब्र
ब्र</w>
ब्रह्म</w>
भ
भ</w>
भक्ष</w>
भक्षी</w>
भर</w>
भव
भव/F</w>
भव/M</w>
भव</w>
भवन</w>
भवा</w>
भविक</w>
भविष्य</w>
भा
भा</w>
भाक</w>
भाग
भाग/M</w>
भाग</w>
भागी</w>
भागीय/M</w>
भागीय</w>
भाग्य</w>
भाज</w>
भाजन</w>
भार
भार/M</w>
भाव
भाव/M</w>
भाव</w>
भावना/JK</w>
भावना</w>
भाविक</w>
भावित</w>
भावी</w>
भाव्य</w>
भाष
भाषण</w>
भाषा/K</w>
भाषा</w>
भाषिक</w>
भाषी</w>
भास</w>
भास्कर</w>
भि
भि</w>
भिन
भिमुख
भिमुखता</w>
भिमुखी</w>
भी</w>
भु
भुक</w>
भुक्
भुक्</w>
भुज</w>
भू
भू</w>
भूका</w>
भूत
भूत</w>
भूति</w>
भूमि</w>
भूष
भूषित</w>
भृत</w>
भेद
भेद</w>
भेदी</w>
भो
भोग
भोग/E</w>
भोग</w>
भोजन</w>
भोजी</w>
भोर</w>
भौ
भौ</w>
भौतिक/sT</w>
भौम</w>
भौरी</w>
भ्य</w>
भ्र
भ्रम</w>
म
म-
म/E</w>
म/F</w>
म/M</w>
म/sT</w>
म</w>
मंग
मंगल</w>
मंज
मंजरी</w>
मंड
मंडप</w>
मंडल</w>
मंडित</w>
मंद/E</w>
मंद</w>
मंदिर</w>
मक</w>
मण
मण/M</w>
मण</w>
मणि</w>
मणीय</w>
मण्ड
मण्डल</w>
मत/F</w>
मत</w>
मता</w>
मती</w>
मत्त</w>
मत्ता</w>
मथन</w>
मन
मन/M</w>
मन</w>
मनस्क/sT</w>
मनस्क</w>
मना</w>
मनी</w>
मन्द</w>
मन्य/sT</w>
मन्यु</w>
मय
मय/M</w>
मय/sT</w>
मय</w>
मर</w>
मरा</w>
मर्
मर्द</w>
मर्दन</w>
मर्श</w>
मल</w>
मस</w>
मह
महल</w>
महा
महि
मा
मा/IC</w>
मा/JK</w>
मा</w>
माइ
माइश</w>
माई</w>
माग
मागधी</w>
माण
माण</w>
माणन</w>
माणित</w>
मात
मात</w>
माता</w>
मात्र
मात्र</w>
मात्रिक</w>
माद</w>
मान
मान/E</w>
मान/M</w>
मान/sT</w>
मान</w>
मानतीय</w>
मानव</w>
मानस</w>
मानु
मायण</w>
माया</w>
मार</w>
मार्
मार्ग
मार्ग</w>
मार्ज
मार्जन</w>
माल
माला</w>
मास
मास/M</w>
मास</w>
मि
मि</w>
मिक</w>
मिका</w>
मिचौ
मिचौनी</w>
मिचौली</w>
मित</w>
मिति
मिति</w>
मिनियम</w>
मिश्र
मिश्रण</w>
मी
मी</w>
मीटर</w>
मीय</w>
मील
मीलित</w>
मीढ़</w>
मु
मु</w>
मुँ
मुँदा
मुँदाई</w>
मुक</w>
मुक्त</w>
मुख
मुख/E</w>
मुख/M</w>
मुख</w>
मुखी</w>
मुद्र
मुद्रण</w>
मुद्रा/JK</w>
मुद्रा</w>
मुद्रीय</w>
मुनि</w>
मुल</w>
मू
मूर्
मूर्ति</w>
मूल
मूल</w>
मूलक</w>
मूल्य</w>
मृत</w>
मे
मेंट/M</w>
मेंट</w>
मेत्थ
मेत्थम</w>
मेद</w>
मेन्ट</w>
मेय
मेयत/F</w>
मेव</w>
मै
मैंट</w>
मो
मोचन</w>
मोद
मोद</w>
मोला</w>
मोह
मोहिता</w>
म्
म्पन</w>
म्पर
म्परा</w>
म्ब
म्ब</w>
म्बन्ध
म्बन्ध</w>
म्बन्धी</w>
म्भ
म्भ</w>
म्मत</w>
म्य/sT</w>
म्य</w>
य
य-
य/E</w>
य/F</w>
य/M</w>
य/ME</w>
य/sT</w>
य/sTM</w>
य</w>
यंत्र
यंत्र</w>
यक</w>
यक्त
यक्तिक</w>
यग्रस्त
यग्रस्तता</w>
यण</w>
यदा</w>
यन
यन/FE</w>
यन/M</w>
यन</w>
यश
या
या/C</w>
या</w>
याँ</w>
याई</w>
यात्मक</w>
यात्मा</w>
यात्र
यात्रा</w>
यान/M</w>
यान</w>
याय
यायाव
यायावर</w>
यायिक</w>
यायिता</w>
यायी</w>
यास
यिक</w>
यित</w>
यिता</w>
यु
यु</w>
युक्
युक्त
युक्त/M</w>
युक्त/sT</w>
युक्त</w>
युक्तत/F</w>
युक्ततता</w>
युक्तता</w>
युग</w>
यून/E</w>
यूष
यो
यो</w>
यों</w>
योग
योग/M</w>
योग</w>
योगी</w>
योग्य</w>
योज
योजक/M</w>
योजन/M</w>
योजन</w>
योजित</w>
योज्य/M</w>
योन</w>
योनि
योनि</w>
योनित्व</w>
यौ
यौवना</w>
र
र-
र/8EDsTv</w>
र/E</w>
र/EM</w>
र/FE</w>
र/M</w>
र/ME</w>
र/s8Tv
र/s8TvFED</w>
र/sT</w>
र</w>
रंग</w>
रक</w>
रक्त
रक्ष
रक्षा</w>
रक्षित</w>
रक्षी</w>
रचना</w>
रज</w>
रण
रण/E</w>
रण/M</w>
रण</w>
रणी</w>
रणीय</w>
रत</w>
रता</w>
रथ</w>
रब
रबै
रबैजान
रश्
रश्मि</w>
रस
रस</w>
रह
रहित/sT</w>
रहित</w>
रा
रा/G</w>
रा</w>
राइ
राइयो</w>
राइज़्ड</w>
राई</w>
राकार</w>
राग
राज/M</w>
राज</w>
राज्य
रात
रात</w>
रात्रि</w>
राम/M</w>
रामो
राया</w>
राश
राशि</w>
राष्ट्र
राष्ट्रीय
राष्ट्रीय</w>
रास</w>
रि
रि</w>
रिंग</w>
रिआ
रिआ</w>
रिक/sT</w>
रिक</w>
रित</w>
रिन/LM</w>
रिया</w>
रियो</w>
री
री</w>
रीकरण</w>
रीक्ष
रीक्षक</w>
रीक्षण</w>
रीट</w>
रीप</w>
रीब</w>
रीय</w>
रु
रु</w>
रुचि</w>
रुदन</w>
रुद्ध
रुद्ध</w>
रुधि
रुधिर
रुप</w>
रुष
रुष</w>
रुह</w>
रू
रूप
रूप/M</w>
रूप</w>
रूपण</w>
रूष</w>
रे
रे</w>
रेक</w>
रेख
रो
रों
रों</w>
रोग/M</w>
रोग</w>
रोट/M</w>
रोध
रोध/E</w>
रोध</w>
रोधक</w>
रोधन</w>
रोधित</w>
रोधी</w>
रोप
रोपण</w>
रोस</w>
रोह</w>
रौटी</w>
र्
र्</w>
र्क
र्क</w>
र्ग
र्ग/M</w>
र्ग</w>
र्गत</w>
र्च
र्चा</w>
र्ज</w>
र्जन/M</w>
र्ड</w>
र्त
र्त</w>
र्ता</w>
र्ती
र्त्त
र्थ
र्थ</w>
र्थक</w>
र्थन</w>
र्थी</w>
र्द
र्द</w>
र्दगी</w>
र्दन/M</w>
र्ध
र्ध</w>
र्प
र्पण/M</w>
र्पण</w>
र्पिणी</w>
र्बु
र्बुद</w>
र्म
र्म/M</w>
र्म/sT</w>
र्म</w>
र्य
र्य/M</w>
र्य</w>
र्यता</w>
र्व
र्व</w>
र्वे
र्श
र्शार
र्शारीर
र्शारीरिक</w>
र्शित</w>
र्ष
र्ष/M</w>
र्ष</w>
र्षक</w>
र्षण
र्षण/M</w>
र्षण</w>
र्षित</w>
र्स</w>
र्हित</w>
ऱ
ल
ल-
ल/E</w>
ल/F</w>
ल/M</w>
ल/sT</w>
ल</w>
लंघन</w>
लंब
लंब</w>
लंबन</w>
लक</w>
लक्ष
लक्षण/M</w>
लक्ष्मी</w>
लग</w>
लघ
लघु</w>
लत/F</w>
लदी</w>
लन/M</w>
लन</w>
लपन</w>
लब्
लब्ध
लब्ध</w>
लब्धि</w>
लम्ब
लम्ब</w>
लय</w>
लर</w>
ला
ला/G</w>
ला/IC</w>
ला</w>
लांत
लाइ
लाइनर</w>
लाइयो</w>
लाई</w>
लाक</w>
लाबद्ध</w>
लाभ
लाभ</w>
लाष
लि
लि</w>
लिंग
लिंग</w>
लिक</w>
लिका</w>
लिख
लिखित</w>
लित</w>
लिप
लिपि</w>
लिप्
लिप्सा</w>
लिया</w>
लिह</w>
ली</w>
लीन</w>
लीय</w>
लु
ले
ले</w>
लेख
लेख/M</w>
लेखन</w>
लेखा</w>
लेट</w>
लेप</w>
लेपन</w>
लै
लैट</w>
लो
लोक
लोक/M</w>
लोक</w>
लोकन</w>
लोचन</w>
लोप</w>
ल्
ल्क</w>
ल्ड</w>
ल्दी</w>
ल्प
ल्प</w>
ल्भ
ल्य</w>
ल्ल
व
व/M</w>
व/MD</w>
व/sT</w>
व</w>
वंश
वंश</w>
वक</w>
वक्ता</w>
वक्त्र</w>
वचन</w>
वट/M</w>
वण
वण</w>
वणित</w>
वणीय</w>
वत
वत</w>
वती</w>
वत्स
वत्सर</w>
वध
वधिक</w>
वन/M</w>
वन</w>
वना</w>
वपु</w>
वय
वय</w>
वयव/M</w>
वयस्क</w>
वर</w>
वर्
वर्ग/M</w>
वर्ग</w>
वर्ण</w>
वर्त
वर्त</w>
वर्तक</w>
वर्तन
वर्तन</w>
वर्ति
वर्तित/F</w>
वर्ती</w>
वर्ध
वर्धक</w>
वर्धन</w>
वर्धित</w>
वर्ष
वर्ष/M</w>
वर्ष</w>
वर्षण</w>
वर्षा</w>
वर्षीय</w>
वल
वल</w>
वली</w>
वल्ल
वल्लरी</w>
वल्ली</w>
वश</w>
वस
वसाय
वसायी</w>
वस्त्र</w>
वस्था</w>
वहन</w>
वा
वा/
वा/7
वा/734sTv</w>
वा/CI</w>
वा/IC</w>
वा</w>
वाँ
वाँ</w>
वां</w>
वांत</w>
वाइ
वाइयो</w>
वाक
वाक्य/M</w>
वाच
वाचक</w>
वाचन</w>
वाचित</w>
वाची</w>
वाज</w>
वाण
वाण</w>
वाणि
वाणिज्य</w>
वाणी</w>
वात</w>
वात्मक</w>
वाद
वाद/E</w>
वाद/EM</w>
वाद/M</w>
वाद/ME</w>
वाद</w>
वादक</w>
वादपूर्ण</w>
वादर</w>
वादित</w>
वादिता</w>
वादियों</w>
वादी</w>
वाद्य</w>
वान
वान</w>
वानी</w>
वान्
वाय
वाय</w>
वायु</w>
वार
वार</w>
वारक</w>
वारण</w>
वारित</w>
वारी</w>
वार्य
वार्ष
वार्षिक</w>
वाल
वाल</w>
वाला/IGC</w>
वाला</w>
वाली</w>
वाले</w>
वाष्प</w>
वास
वास/0
वास/0E</w>
वास/E
वास/E0
वास/E0</w>
वास/E</w>
वास/M</w>
वास</w>
वासन</w>
वासी/O</w>
वासी</w>
वाह
वाह/M</w>
वाह</w>
वाहक</w>
वाहन</w>
वाहित</w>
वाहिनी</w>
वि
वि</w>
विक
विक</w>
विकार</w>
विक्रम</w>
विक्षिप्त</w>
विच्छ
विच्छंभ
विच्छंभु</w>
विजय</w>
विज्ञान
विज्ञान</w>
विट</w>
वित</w>
वित्र
वित्रा</w>
विद</w>
विदारण</w>
विद्ध</w>
विद्य
विद्या/JK</w>
विद्या</w>
विध
विधा
विधिक</w>
विन
विप
विपुला</w>
विभोर</w>
वियो</w>
विर</w>
विश्
विश्वास
विश्वास</w>
विष</w>
विष्ट/sT</w>
विष्ट</w>
विष्णु</w>
विष्य</w>
विहीन</w>
वी
वी</w>
वीं</w>
वीकरण</w>
वीथी</w>
वीर्य</w>
वीस/EM</w>
वृ
वृक्
वृत</w>
वृत्त
वृत्त/M</w>
वृत्त</w>
वृत्ताकार</w>
वृत्ति</w>
वृत्तिक</w>
वृद्ध</w>
वृद्धि</w>
वृष्टि</w>
वे
वेक्षक</w>
वेतन</w>
वेद
वेद</w>
वेदक</w>
वेदन/M</w>
वेदन</w>
वेदित</w>
वेदी</w>
वेश
वेश</w>
वेशक</w>
वेशन</w>
वेशित</w>
वेष
वेष</w>
वेष्ट
वै
व्य
व्य/sT</w>
व्य</w>
व्यंग
व्यय
व्ययी</w>
व्या
व्रत</w>
श
श/E</w>
श/M</w>
श</w>
शंक
शंकु</w>
शंस
शंस</w>
शः</w>
शक्ति/PQ</w>
शत्र
शत्रु</w>
शन
शन/M</w>
शन</w>
शय
शय</w>
शयन</w>
शयी</w>
शयो
शयोक्ति</w>
शय्या</w>
शर</w>
शरी
शरीर</w>
शल</w>
शा
शा/CI</w>
शा</w>
शाँ</w>
शाक</w>
शान</w>
शाय
शायिनी</w>
शायी</w>
शाल
शाला/JK</w>
शाला</w>
शाली</w>
शास
शासकीय</w>
शास्त्र
शास्त्र</w>
शाही</w>
शि
शिक्ष
शिक्षा/IC</w>
शिक्षालयी</w>
शिक्षित</w>
शिक्षितत</w>
शिखा</w>
शिरा</w>
शिष्ट
शी
शी</w>
शीत
शीर्ष
शीर्ष/F</w>
शीर्ष</w>
शील
शील/sT</w>
शील/sTM</w>
शील</w>
शीलत/F</w>
शीलता</w>
शु
शुद्धि</w>
शून
शून्य/sT</w>
शून्य</w>
शेर
शेष</w>
शोध
शोधन</w>
शोधित</w>
श्
श्च
श्चेत
श्चेतना</w>
श्त</w>
श्न</w>
श्म</w>
श्य
श्य</w>
श्र
श्रय</w>
श्रयण</w>
श्रा
श्राद्ध</w>
श्रित</w>
श्री</w>
श्रु</w>
श्र्य</w>
श्ल
श्व
श्व</w>
श्वर
श्वर/M</w>
श्वर/ME</w>
श्वास
श्वेत</w>
ष
ष/EM</w>
ष/M</w>
ष</w>
षंग
षक</w>
षण</w>
षष्ठी</w>
षा
षिका</w>
षित</w>
षी</w>
षु</w>
ष्
ष्क</w>
ष्कार्य
ष्ट
ष्ट/M</w>
ष्ट/sT</w>
ष्ट/sTF</w>
ष्ट</w>
ष्टत</w>
ष्टा</w>
ष्टि</w>
ष्ट्र
ष्ट्र</w>
ष्ट्रीय</w>
ष्ठ
ष्ठ/F</w>
ष्ठ</w>
ष्ठा</w>
ष्ठित</w>
ष्ठी</w>
ष्ण
ष्ण/sT</w>
ष्ण</w>
ष्णु</w>
ष्प
ष्प</w>
ष्मान</w>
ष्य
ष्य</w>
स
स-
स/E</w>
स/EM</w>
स/F</w>
स/H</w>
स/M</w>
स</w>
सं
संग
संगत</w>
संधि</w>
संप
संभवा</w>
संह
सक</w>
सक्ति</w>
सखा</w>
सत</w>
सद</w>
सन/E</w>
सन</w>
सना</w>
सन्ध
सफर</w>
सम
समय</w>
सम्
सम्मोहिता</w>
सर
सर/M</w>
सर</w>
सरकारी</w>
सरण/M</w>
सरण</w>
सरियत</w>
सरीयत</w>
सर्
सर्ग</w>
सर्वे
सर्वेक्षण</w>
सल</w>
सलि
सलिल
सलिल/F</w>
सलिला/JK</w>
सव</w>
सवाँ</w>
सा
सा/G</w>
सा</w>
साइ
साक्ष
साक्ष्य/M</w>
साज/E</w>
साद</w>
साध
सान
सार
सार/M</w>
सार</w>
सारत</w>
सारथि</w>
सारथी</w>
सारवान</w>
सि
सिंग</w>
सिंह</w>
सिओ
सिओन</w>
सिक</w>
सित</w>
सिद्ध
सिद्ध</w>
सिद्धि</w>
सिया</w>
सियान</w>
सी
सी-पड़
सी-पड़ोसी</w>
सी</w>
सीय</w>
सु
सु</w>
सुक</w>
सुख</w>
सुत</w>
सुता</w>
सुर
सुर</w>
सू
सू</w>
सूच
सूचना/JK</w>
सूची/NO</w>
सूत्रण</w>
सूत्री</w>
सूदन</w>
सून</w>
सूनु</w>
से
सेना</w>
सेव
सै
सो
सो</w>
सोची</w>
सोम</w>
सोस
सोस/M</w>
स्
स्</w>
स्क
स्क/sT</w>
स्क</w>
स्कंद</w>
स्कर
स्कर</w>
स्का</w>
स्कार</w>
स्कृत
स्ट
स्ट</w>
स्टिड</w>
स्त
स्त/M</w>
स्त/sT</w>
स्त</w>
स्तंभ
स्तंभ/M</w>
स्तक</w>
स्तम्भ</w>
स्तर</w>
स्तरीय</w>
स्ति
स्ति</w>
स्तित</w>
स्तु
स्तु</w>
स्त्र
स्त्र/M</w>
स्त्र</w>
स्थ
स्थ/sT</w>
स्थ</w>
स्थपन</w>
स्थल</w>
स्था</w>
स्थान</w>
स्थाप
स्थापन/F</w>
स्थापन</w>
स्थापित</w>
स्थायी</w>
स्थाली</w>
स्थि
स्थि</w>
स्थित/sT</w>
स्थित</w>
स्थिति</w>
स्थिर</w>
स्ना
स्नात</w>
स्नान</w>
स्प
स्पति</w>
स्पष्ट</w>
स्फ
स्फोट
स्फोट</w>
स्म
स्मरण</w>
स्मात</w>
स्य</w>
स्र
स्र</w>
स्राव
स्राव</w>
स्व
स्वन
स्वन</w>
स्वनगामी</w>
स्वर</w>
स्वरक</w>
स्वरूप</w>
स्वस्त
स्वस्तिक</w>
स्वा
स्वागत</w>
स्वी
स्वीकरण</w>
स्वेद</w>
स्फ़
ह
ह/E</w>
ह/M</w>
ह</w>
हंता</w>
हक</w>
हच
हट</w>
हत</w>
हद</w>
हन
हन</w>
हर</w>
हरण</w>
हरी</w>
हस्त</w>
हा/G</w>
हा</w>
हानी</w>
हार
हार/E</w>
हार/M</w>
हार</w>
हारी</w>
हास
हि
हिका</w>
हिणी</w>
हित</w>
ही
ही</w>
हीन
हीन/sT</w>
हीन</w>
हीनतः</w>
हीनता</w>
हुति</w>
हृत</w>
हृद
हृदय</w>
हे
हॉ
ह्
ह्न</w>
ह्म</w>
ह्य</w>
ह्व
ह्व</w>
ह्वल</w>
़
ऽ
ा
ा-
ा-प
ा-पत्र/M</w>
ा/
ा/7
ा/734sTv
ा/734sTv</w>
ा/734sTvAI
ा/734sTvAIGCB</w>
ा/734sTvG</w>
ा/7AGCB34sTv</w>
ा/7AI
ा/7AIGCB34sTv</w>
ा/7B
ा/7B34sTv</w>
ा/7G34sTv</w>
ा/7JK
ा/7JK34sTv</w>
ा/A
ा/AGC</w>
ा/B</w>
ा/C</w>
ा/CB</w>
ा/CI
ा/CI</w>
ा/G
ा/G</w>
ा/GB</w>
ा/GC</w>
ा/GCI
ा/GCI</w>
ा/GCIJK</w>
ा/GJK</w>
ा/I
ा/IC
ा/IC</w>
ा/ICJK</w>
ा/IGC</w>
ा/IGCB</w>
ा/IJK
ा/J
ा/JK
ा/JK</w>
ा/JKG</w>
ा/JKIGC</w>
ा/K</w>
ा/M
ा</w>
ाँ
ाँ</w>
ाँग</w>
ां
ां</w>
ांक/M</w>
ांक</w>
ांक्ष
ांग
ांग</w>
ांच</w>
ांचल</w>
ांत
ांत/F</w>
ांत</w>
ांतर
ांतर/M</w>
ांतर</w>
ांतरण</w>
ांति</w>
ांतीय</w>
ांत्र
ांध
ांधव</w>
ांब
ांय</w>
ांश
ांश</w>
ांशिक</w>
ांशीय</w>
ांसो</w>
ांस्कृत
ांस्कृतिक</w>
ाइ
ाइड</w>
ाइन</w>
ाइमर</w>
ाइयो</w>
ाइयों</w>
ाई
ाई/O</w>
ाई</w>
ाउ
ाउंड</w>
ाउट</w>
ाएँ</w>
ाक
ाक</w>
ाकर
ाकरि</w>
ाकार
ाकार/sT</w>
ाकार</w>
ाकारी</w>
ाक्ष
ाख
ाग
ागत</w>
ाघ
ाच
ाच</w>
ाछाप</w>
ाट
ाट</w>
ाण
ाण</w>
ाणु</w>
ात
ात/M</w>
ात/sT</w>
ात</w>
ातक</w>
ातव्य</w>
ाता/G</w>
ाता/K</w>
ाता</w>
ाति
ातित</w>
ाती</w>
ातीत
ातु</w>
ात्म
ात्मक/M</w>
ात्मक/sT</w>
ात्मक</w>
ात्मा</w>
ात्री</w>
ाद
ाद</w>
ादन</w>
ादा/GC</w>
ादि</w>
ादित</w>
ादी</w>
ादृश्य</w>
ादेशिक</w>
ाध
ाध</w>
ाधिकार
ाधिकार/E</w>
ाधीन</w>
ाधु
ान
ान/E</w>
ान/F</w>
ान/FD</w>
ान/M</w>
ान/ME</w>
ान</w>
ानक</w>
ानन</w>
ानर</w>
ाना</w>
ानि
ानि</w>
ानिक</w>
ानिस्त
ानिस्तान</w>
ानी</w>
ानु
ानुकरण</w>
ानुप्र
ानुप्रास</w>
ानुभूति</w>
ानुसार
ानुसार</w>
ानुसारत</w>
ाने
ाने_वाला</w>
ान्
ान्त
ान्त</w>
ान्तर</w>
ान्तिक</w>
ान्य/sTM</w>
ान्य</w>
ान्व
ान्वित</w>
ाप
ाप/M</w>
ाप</w>
ापक/M</w>
ापक</w>
ापत्र</w>
ापद/M</w>
ापन/M</w>
ापन</w>
ापनीय</w>
ापार</w>
ापि</w>
ापित</w>
ापी</w>
ापीय</w>
ापूर्
ापूर्ण</w>
ापूर्वक</w>
ापेक्ष</w>
ाप्
ाप्त
ाप्त</w>
ाप्तत</w>
ाप्ताहिक</w>
ाप्ति</w>
ाप्य</w>
ाप्यत/F</w>
ाप्र
ाब
ाब</w>
ाभ
ाभि
ाम
ाम/M</w>
ाम</w>
ामक</w>
ामय</w>
ामा</w>
ामी</w>
ाम्य</w>
ाय
ाय</w>
ायक/M</w>
ायक</w>
ायटि
ायटिस</w>
ायदा</w>
ायन</w>
ायब
ाया</w>
ायाद</w>
ायापन</w>
ायिक</w>
ायी</w>
ायु</w>
ार
ार/E</w>
ार/EM</w>
ार/M</w>
ार/ME</w>
ार</w>
ारंभ
ारंभ</w>
ारक</w>
ारण</w>
ारन
ारह
ारहित</w>
ारा
ारा</w>
ाराष्ट्रीय</w>
ारि</w>
ारिक</w>
ारित</w>
ारी</w>
ारीय</w>
ारों</w>
ार्
ार्कट
ार्कटिक/F</w>
ार्जक</w>
ार्जन</w>
ार्जित</w>
ार्थ
ार्थ/E</w>
ार्थ/M</w>
ार्थ</w>
ार्थी</w>
ार्य
ार्य</w>
ार्यत/F</w>
ार्य्य</w>
ाल
ाल</w>
ालजी</w>
ालय
ालय</w>
ालयी</w>
ाला</w>
ालिका</w>
ाली</w>
ालु</w>
ाव
ाव/D</w>
ाव</w>
ावक</w>
ावट</w>
ावण/E</w>
ावत</w>
ावन</w>
ावली</w>
ावस्था</w>
ावाद</w>
ावी</w>
ावृ
ावृत्त</w>
ावृत्ति</w>
ावे
ाश
ाशन/M</w>
ाशन</w>
ाशी</w>
ाश्र
ास
ास/LM</w>
ास/M</w>
ास/ME</w>
ास</w>
ासक/M</w>
ासन/M</w>
ासन</w>
ासा</w>
ासी
ासी</w>
ासु</w>
ासुत</w>
ासुर</w>
ास्थि</w>
ास्य</w>
ाह
ाह/M</w>
ाह</w>
ाहट</w>
ाहर</w>
ाहरण</w>
ाहा/GC</w>
ाहिक</w>
ाही</w>
ाहीन
ाहीन/sT</w>
ाहीनतः</w>
ाख़
ाज़
ाड़
ाढ़
ि
ि</w>
िक
िक-
िक-स
िक-सज्
िक-सज्जाकार</w>
िक/E</w>
िक/EM</w>
िक/F</w>
िक/FE</w>
िक/M</w>
िक/ME</w>
िक/MF</w>
िक/sT</w>
िक/sTM</w>
िक</w>
िकता</w>
िकरण/M</w>
िकरण</w>
िका
िका/G</w>
िका/JK</w>
िका/K</w>
िका</w>
िकाऊ</w>
िकाय</w>
िकार
िकार/M</w>
िकारक</w>
िकारी</w>
िकाल</w>
िकि
िकी
िकी</w>
िकीय</w>
िकीविद</w>
िकेय</w>
िकेशन</w>
िक्
िक्त</w>
िक्य</w>
िक्र
िक्रम</w>
िक्रिया</w>
िक्रीड़ा</w>
िक्ष
िक्ष</w>
िक्षिप्त</w>
िक्षे
िक्षेप</w>
िक्स</w>
िख
िट</w>
िड</w>
िणी</w>
ित
ित/E</w>
ित/F</w>
ित/M</w>
ित/sT</w>
ित/sTF</w>
ित/sTM</w>
ित/sTMF</w>
ित</w>
ितक/M</w>
ितक</w>
ितत/F</w>
ितत</w>
ितता</w>
ितल</w>
िता
िता</w>
ितापूर्ण</w>
ित्य
ित्य</w>
ित्या
ित्र
ित्र/M</w>
ित्र</w>
ित्व</w>
िद</w>
िद्र
िन
िन</w>
िनियम</w>
िनी/OM</w>
िनी</w>
िन्न</w>
िप
िप</w>
िपति</w>
िपु</w>
िप्त</w>
िम
िम/F</w>
िमा/JK</w>
िय
िय/M</w>
िय/sT</w>
िय</w>
ियत
ियत/LM</w>
ियत</w>
ियता</w>
ियन</w>
ियम</w>
ियल</w>
ियवाद</w>
िया
िया-वासी/O</w>
िया/734sTv</w>
िया/B</w>
िया/JK</w>
िया</w>
ियाँ</w>
ियां</w>
ियाई</w>
ियात्म
ियान</w>
ियाना</w>
ियाम
ियार
ियावास/0E</w>
ियावास/E0</w>
ियुक्त</w>
ियो
ियो</w>
ियों</w>
ियोग
ियोज
िर
िर</w>
िरण</w>
िरस</w>
िरा</w>
िल
िल</w>
िला/G</w>
िशाँ</w>
िष्ट
िष्ट</w>
िष्ठ
िस
ी
ी-
ी-इन्
ी-इन्डियन</w>
ी-ग
ी-त
ी-देश</w>
ी-न
ी-भाषा/K</w>
ी/
ी/5
ी/54sTv</w>
ी/H</w>
ी/N
ी/NO</w>
ी/O
ी/O</w>
ी/OM</w>
ी</w>
ींद्र</w>
ीक
ीक/sT</w>
ीक</w>
ीकर</w>
ीकरण/M</w>
ीकरण</w>
ीका
ीकी</w>
ीकु
ीकुम
ीकृत/M</w>
ीकृत</w>
ीक्ष
ीठ
ीठ</w>
ीण</w>
ीत
ीत/FE</w>
ीत/M</w>
ीत/sT</w>
ीत</w>
ीतक</w>
ीतल</w>
ीता/G</w>
ीति</w>
ीतिक
ीद
ीदत</w>
ीदतम
ीदतमंद</w>
ीदतमन्द</w>
ीदा
ीध
ीधर</w>
ीध्र</w>
ीन
ीन/sT</w>
ीन</w>
ीनत/F</w>
ीनता</w>
ीनवी
ीनवीस/M</w>
ीना</w>
ीनी</w>
ीप
ीप</w>
ीपन</w>
ीब
ीम
ीम/EM</w>
ीम</w>
ीमची</w>
ीय
ीय/F</w>
ीय/M</w>
ीय/sT</w>
ीय/sTM</w>
ीय</w>
ीयक</w>
ीयत/F</w>
ीयत</w>
ीयता</w>
ीयन</w>
ीयम</w>
ीया</w>
ीयान</w>
ीयुक्त</w>
ीर
ीर/E</w>
ीर</w>
ीर्
ीर्घ
ीर्घ</w>
ीर्ण
ीर्ण</w>
ील
ील/LM</w>
ील</w>
ीलक</w>
ीश
ीश</w>
ीश्वर
ीश्वर/EM</w>
ीश्वर/ME</w>
ीषी</w>
ीस
ीस</w>
ीहीन</w>
ीक़
ीज़</w>
ीड़
ीड़ा</w>
ीढ़</w>
ु
ु/sT</w>
ु</w>
ुंग</w>
ुंड</w>
ुआ
ुआ</w>
ुई</w>
ुक
ुक/M</w>
ुक</w>
ुकन</w>
ुक्
ुक्त/sT</w>
ुक्त</w>
ुक्तत</w>
ुक्ति</w>
ुक्ल</w>
ुट
ुट</w>
ुत</w>
ुति</w>
ुध</w>
ुन
ुनिटी</w>
ुप्त</w>
ुभि</w>
ुम
ुम</w>
ुमौ
ुमौलि</w>
ुर
ुर/M</w>
ुर</w>
ुरक्त</w>
ुरक्ति</w>
ुरम
ुरा
ुरा</w>
ुरित</w>
ुरिया</w>
ुरी</w>
ुरु
ुरु</w>
ुरू
ुरूप</w>
ुर्
ुल
ुल/M</w>
ुल/sT</w>
ुल</w>
ुला</w>
ुली</w>
ुल्
ुल्क</w>
ुल्ल
ुल्ला</w>
ुल्लाह</w>
ुष
ुष</w>
ुषित</w>
ुह</w>
ू
ू/R</w>
ू</w>
ूँ
ूक</w>
ूजा</w>
ूझ
ूट
ूट</w>
ूठ
ूठा</w>
ूत
ूत</w>
ूतन</w>
ूतनीय</w>
ूति</w>
ूद
ून
ून/E</w>
ून</w>
ून्य
ूम
ूर
ूरा</w>
ूरि</w>
ूर्
ूर्ण</w>
ूर्त्त</w>
ूर्य
ूल
ूल</w>
ूलक</w>
ूला</w>
ूष
ूष</w>
ूषण</w>
ूषित</w>
ूस
ूह</w>
ूहन</w>
ूढ़
ूढ़</w>
ृ
ृ</w>
ृत
ृत/M</w>
ृत/sT</w>
ृत/sTM</w>
ृत</w>
ृतत</w>
ृति</w>
ृत्य</w>
ृत्यु</w>
ृथ
ृद
ृप्त</w>
ृश्य</w>
ृष
ृषित</w>
ृष्ट</w>
ृष्टि</w>
ृष्ठ
ृष्य</w>
ॅ
े
े-
े</w>
ें</w>
ेंट
ेंट/M</w>
ेंट</w>
ेंड
ेंद
ेंदु</w>
ेंद्र
ेंद्र</w>
ेंद्रित</w>
ेंस</w>
ेक</w>
ेक्ष
ेक्ष</w>
ेक्षण</w>
ेक्षा</w>
ेख
ेखर</w>
ेचन</w>
ेच्छ</w>
ेज
ेज</w>
ेजना</w>
ेट
ेट</w>
ेड</w>
ेत
ेत/M</w>
ेत</w>
ेतक</w>
ेतन</w>
ेतर</w>
ेता</w>
ेतु</w>
ेत्र
ेत्र</w>
ेद
ेद</w>
ेदार</w>
ेध</w>
ेन
ेन</w>
ेन्
ेन्ट</w>
ेन्ड
ेन्दु</w>
ेन्द्र
ेन्द्रित</w>
ेपन</w>
ेबाज़
ेय
ेय/M</w>
ेय/sT</w>
ेय/sTM</w>
ेय</w>
ेयत/F</w>
ेयस</w>
ेर
ेर</w>
ेरण
ेरणा/JK</w>
ेरा
ेरा</w>
ेरित</w>
ेरी
ेरी</w>
ेल
ेल</w>
ेव
ेव</w>
ेवक</w>
ेवता</w>
ेवन</w>
ेवर</w>
ेवा</w>
ेश
ेश/M</w>
ेश</w>
ेशन</w>
ेशर</w>
ेशी</w>
ेश्व
ेश्वर/EM</w>
ेश्वर/ME</w>
ेष
ेष/M</w>
ेष</w>
ेषण/M</w>
ेष्ट
ेष्टि
ेष्टि</w>
ेस</w>
ेह
ेह</w>
ेज़
ेज़</w>
ेड़
ै
ै</w>
ैंट</w>
ैच
ैचुर
ैताल</w>
ैतिक</w>
ैन</w>
ैनिक</w>
ैबी</w>
ैया</w>
ैर
ैरिक</w>
ैरी</w>
ैल</w>
ॉ
ॉ</w>
ॉन</w>
ॉर्
ो
ो</w>
ों
ों</w>
ोक</w>
ोक्ति</w>
ोग
ोगरीब</w>
ोच्छेदन</w>
ोज
ोज/M</w>
ोट
ोट/M</w>
ोट</w>
ोटन</w>
ोटी</w>
ोत
ोत</w>
ोत्
ोत्कर्ष
ोत्कर्ष/M</w>
ोत्पाद
ोत्पादक</w>
ोत्स
ोत्सर्ग</w>
ोद
ोद</w>
ोदन</w>
ोदय/M</w>
ोदर</w>
ोद्
ोद्ध
ोद्धार/M</w>
ोध
ोध</w>
ोन
ोन</w>
ोन्
ोन्मत्त</w>
ोन्माद</w>
ोन्मुख</w>
ोप
ोप/M</w>
ोप</w>
ोपण</w>
ोपदेश</w>
ोपनिष
ोपनिषद</w>
ोपनिषद्</w>
ोपल</w>
ोपा
ोम</w>
ोर
ोर/E</w>
ोर/F</w>
ोर/M</w>
ोर</w>
ोरना</w>
ोरा</w>
ोरी</w>
ोल
ोल</w>
ोलन</w>
ोश</w>
ोष
ोष</w>
ोषण/M</w>
ोषण</w>
ोषित</w>
ोषी</w>
ोस</w>
ोसी</w>
ोह
ोह/E</w>
ोह</w>
ोहल</w>
ोही</w>
ोग़रीब</w>
ोड़ा</w>
ौ
ौ</w>
ौं
ौंर</w>
ौंह
ौटा</w>
ौटी</w>
ौन</w>
ौर
ौर</w>
ौरी</w>
ौर्
ौशल</w>
ौह
ौहां</w>
ौड़ी</w>
्
्</w>
्त
्त</w>
्न
्न</w>
्प
्म
्म</w>
्मा</w>
्मिक</w>
्मी</w>
्य
्य/M</w>
्य/sT</w>
्य/sTM</w>
्य</w>
्यंदन</w>
्यक</w>
्यकारी</w>
्यत/F</w>
्यत</w>
्यता</w>
्यपूर्ण</w>
्यस्त</w>
्या
्या</w>
्यांकन</w>
्याण
्यान</w>
्याय
्याय</w>
्यार</w>
्यास</w>
्यु
्यु</w>
्यू
्र
्र/sT</w>
्र</w>
्रक</w>
्रत</w>
्रप्रदेश</w>
्रा
्रा</w>
्राण</w>
्राव</w>
्रि
्रि</w>
्रिप</w>
्रिया</w>
्रु
्रुव</w>
्रे
्र्य</w>
्ल
्लुत</w>
्व
्वि
्विला</w>
्ष
्‌
॒
क़
क़</w>
ख़
ख़ान
ख़ाना/IC</w>
ख़ाना</w>
ग़
ग़</w>
ग़रीब</w>
ग़ल</w>
ग़ानिस्तान</w>
ज़
ज़/E</w>
ज़</w>
ज़न</w>
ज़ा
ज़ा</w>
ज़ाद
ज़ी</w>
ज़्
ज़्ड</w>
ज़्म</w>
ड़
ड़/F</w>
ड़/M</w>
ड़/sTM</w>
ड़</w>
ड़ँग</w>
ड़प
ड़पन/MF</w>
ड़म</w>
ड़ा/C</w>
ड़ा/G</w>
ड़ा</w>
ड़ाना</w>
ड़ी</w>
ढ़
ढ़</w>
ढ़ा</w>
फ़
फ़</w>
फ़रामो
फ़रामोश</w>
फ़री</w>
फ़रो
फ़ात</w>
फ़ान</w>
फ़िकेशन</w>
फ़ी</w>
फ़ों</w>
य़
०
१
२
५
॰
॰</w>
‌
